/**
  ******************************************************************************
  * @file    weights/conv1d.cc
  * @author  Pierre-Emmanuel Novac <penovac@unice.fr>, LEAT, CNRS, Université Côte d'Azur, France
  * @version 1.0.0
  * @date    24 march 2020
  * @brief   Template generating plain C code for the implementation of Convolutional Neural Networks on MCU
  */

#include <stdint.h>

#define INPUT_CHANNELS    8
#define CONV_FILTERS      16
#define CONV_KERNEL_SIZE  8
#define CONV_GROUPS       1


const float  conv1d_29_bias[CONV_FILTERS] = {0x1.3cd2960000000p-5, 0x1.262b9e0000000p-4, -0x1.46e39a0000000p-9, 0x1.051c440000000p-5, 0x1.b062bc0000000p-5, 0x1.7a76720000000p-6, -0x1.3ccb400000000p-4, 0x1.3795f00000000p-5, -0x1.b690280000000p-5, 0x1.86e3ee0000000p-7, -0x1.02689a0000000p-4, -0x1.ef89fe0000000p-7, 0x1.0c225e0000000p-8, -0x1.12e60c0000000p-8, 0x1.df31dc0000000p-6, -0x1.1aab200000000p-6}
;

const float  conv1d_29_kernel[CONV_FILTERS][CONV_KERNEL_SIZE][INPUT_CHANNELS / CONV_GROUPS] = {{{-0x1.8c94340000000p-4, 0x1.c233d60000000p-4, 0x1.fc19400000000p-8, 0x1.e29e7a0000000p-4, 0x1.7b05c40000000p-4, 0x1.0c11220000000p-2, 0x1.3198800000000p-3, 0x1.5ce6fc0000000p-3}
, {-0x1.8c10100000000p-5, -0x1.714fd00000000p-4, 0x1.931f2c0000000p-3, 0x1.8a78e00000000p-3, -0x1.dc65d80000000p-5, -0x1.2faf8e0000000p-3, -0x1.24967c0000000p-4, 0x1.2cb1140000000p-5}
, {-0x1.bda1180000000p-6, -0x1.5066340000000p-7, 0x1.71ebca0000000p-4, -0x1.bed3ba0000000p-3, 0x1.f4e5500000000p-5, 0x1.671d260000000p-6, 0x1.fb49ce0000000p-7, 0x1.1c2e460000000p-5}
, {-0x1.a209500000000p-5, -0x1.4b1e300000000p-2, 0x1.41ad680000000p-4, -0x1.18191e0000000p-2, 0x1.57350e0000000p-3, -0x1.7248ac0000000p-4, 0x1.14459e0000000p-3, -0x1.7e11fc0000000p-4}
, {-0x1.93070c0000000p-5, -0x1.77687a0000000p-4, 0x1.745e2a0000000p-4, -0x1.5c445e0000000p-2, 0x1.1e66be0000000p-4, -0x1.1ea0e60000000p-3, -0x1.d6f0d80000000p-3, -0x1.1e7dc00000000p-3}
, {-0x1.6980200000000p-4, 0x1.8e15b20000000p-4, -0x1.86cefe0000000p-3, -0x1.48cd300000000p-4, -0x1.d8aed00000000p-6, 0x1.2e097e0000000p-6, 0x1.24ded80000000p-7, 0x1.4e91660000000p-6}
, {0x1.32dd400000000p-4, -0x1.43a0160000000p-4, -0x1.26212c0000000p-4, -0x1.6f99020000000p-4, 0x1.9da9b00000000p-5, -0x1.2e5bf40000000p-3, 0x1.faa92e0000000p-4, -0x1.e2df3a0000000p-5}
, {-0x1.9bb4d80000000p-3, 0x1.2132400000000p-4, -0x1.74fbb80000000p-3, 0x1.60900c0000000p-5, -0x1.49dee40000000p-3, 0x1.3d36d40000000p-3, 0x1.2b183c0000000p-8, 0x1.6bcda60000000p-4}
}
, {{0x1.5559180000000p-4, 0x1.0a5b7a0000000p-3, 0x1.b8350c0000000p-3, 0x1.94a24e0000000p-5, 0x1.a363380000000p-3, -0x1.9f6f9e0000000p-5, -0x1.ead5300000000p-4, 0x1.31f13c0000000p-4}
, {-0x1.13a5720000000p-3, -0x1.e055e80000000p-7, 0x1.b164000000000p-4, 0x1.c18aee0000000p-7, -0x1.1a31220000000p-3, -0x1.8b8a620000000p-7, -0x1.35b54c0000000p-4, 0x1.2bd29c0000000p-4}
, {-0x1.7a7ef60000000p-3, 0x1.62ba700000000p-3, -0x1.3eb1d20000000p-2, -0x1.69b5a40000000p-4, -0x1.5add660000000p-4, -0x1.ad1eb40000000p-5, 0x1.6f08180000000p-6, -0x1.7387b60000000p-4}
, {0x1.9b85bc0000000p-6, 0x1.03efd20000000p-4, -0x1.36abda0000000p-2, 0x1.3982f60000000p-5, -0x1.20d9840000000p-3, -0x1.cd38aa0000000p-4, -0x1.03ba540000000p-6, -0x1.123aea0000000p-4}
, {0x1.720b3c0000000p-4, 0x1.6313ee0000000p-4, 0x1.2be2b20000000p-3, 0x1.8f59e20000000p-4, -0x1.38f7b80000000p-3, 0x1.4c04ce0000000p-4, 0x1.1d09a00000000p-6, -0x1.1ae9620000000p-6}
, {0x1.a23eaa0000000p-3, -0x1.7f33880000000p-6, -0x1.4957220000000p-3, 0x1.dd81ae0000000p-4, -0x1.b341b60000000p-5, -0x1.6fca7a0000000p-7, 0x1.63200e0000000p-5, -0x1.534eec0000000p-3}
, {0x1.33364a0000000p-3, 0x1.bd36320000000p-5, -0x1.1bb4920000000p-2, 0x1.c5c4180000000p-3, -0x1.6878700000000p-3, 0x1.88cd640000000p-4, 0x1.19b27e0000000p-3, 0x1.fdcdd00000000p-7}
, {0x1.82aa400000000p-4, 0x1.78edb40000000p-4, -0x1.8291980000000p-2, -0x1.d85d0c0000000p-8, -0x1.a290ee0000000p-3, 0x1.6656ea0000000p-4, -0x1.b20d280000000p-4, -0x1.0b3c120000000p-3}
}
, {{0x1.0beee20000000p-6, -0x1.cd69b20000000p-3, -0x1.afd2220000000p-3, -0x1.e833dc0000000p-4, 0x1.ebc50c0000000p-3, 0x1.dcb4b20000000p-6, 0x1.4124200000000p-4, 0x1.8cbfb80000000p-2}
, {0x1.004aba0000000p-2, 0x1.519e920000000p-4, -0x1.9f17520000000p-5, 0x1.a37c460000000p-5, -0x1.fafcde0000000p-10, -0x1.57196e0000000p-4, 0x1.b81bb60000000p-4, 0x1.28b1520000000p-2}
, {0x1.c9c9800000000p-3, 0x1.be6f280000000p-4, -0x1.a757ac0000000p-5, 0x1.9c191c0000000p-6, 0x1.5161860000000p-5, 0x1.419bf60000000p-2, 0x1.52e1b20000000p-3, 0x1.6979e60000000p-3}
, {0x1.1d050e0000000p-9, -0x1.503d240000000p-4, -0x1.45a2120000000p-6, 0x1.a193820000000p-4, 0x1.3762c00000000p-3, 0x1.4782ba0000000p-6, 0x1.e42f920000000p-8, 0x1.3d402a0000000p-2}
, {-0x1.021c820000000p-4, 0x1.3159280000000p-3, -0x1.019d540000000p-2, -0x1.4b8e640000000p-7, 0x1.87c54c0000000p-4, 0x1.953ee00000000p-4, 0x1.01e44a0000000p-2, -0x1.cd85ce0000000p-13}
, {0x1.bec5080000000p-3, 0x1.8e05a40000000p-6, -0x1.f444ec0000000p-3, -0x1.44d0e60000000p-4, -0x1.72f8cc0000000p-4, 0x1.1d50620000000p-2, -0x1.591ba20000000p-3, 0x1.b4f3c20000000p-6}
, {-0x1.4483400000000p-3, -0x1.45c8ae0000000p-3, -0x1.3b04340000000p-2, 0x1.ecfbd00000000p-4, 0x1.ec15500000000p-8, 0x1.91b1a80000000p-4, -0x1.6263ac0000000p-9, 0x1.9965d20000000p-3}
, {-0x1.f7c8080000000p-4, 0x1.3ff2e40000000p-8, 0x1.f815640000000p-10, 0x1.f323660000000p-12, 0x1.52b7ec0000000p-4, 0x1.3f4b360000000p-10, 0x1.aa5d7e0000000p-5, 0x1.6c666c0000000p-2}
}
, {{-0x1.9939040000000p-4, 0x1.03e6180000000p-3, -0x1.28a97e0000000p-3, 0x1.ffbc740000000p-8, 0x1.8f6b700000000p-5, 0x1.435e9c0000000p-2, 0x1.191fc60000000p-2, 0x1.78d4ec0000000p-3}
, {-0x1.da7f7e0000000p-4, 0x1.03f88c0000000p-3, -0x1.1b9f340000000p-4, 0x1.272f3a0000000p-4, -0x1.042be40000000p-6, 0x1.2156340000000p-4, 0x1.d228e40000000p-3, -0x1.c7b1ee0000000p-4}
, {-0x1.7913600000000p-4, 0x1.f168720000000p-4, -0x1.290a0c0000000p-4, -0x1.9b315c0000000p-3, -0x1.1985860000000p-3, 0x1.a5de380000000p-4, 0x1.5708760000000p-2, -0x1.40dafa0000000p-3}
, {0x1.71e6de0000000p-3, 0x1.23b7be0000000p-5, 0x1.a1aede0000000p-6, -0x1.264cfc0000000p-5, 0x1.d327320000000p-4, 0x1.2c1dc40000000p-3, 0x1.f3dd800000000p-6, 0x1.d596da0000000p-3}
, {-0x1.e33f080000000p-4, 0x1.67ee500000000p-3, 0x1.5dfd960000000p-4, -0x1.b723020000000p-5, 0x1.75367a0000000p-5, 0x1.8698520000000p-5, 0x1.16d21c0000000p-2, -0x1.26dfb20000000p-4}
, {-0x1.79cfec0000000p-3, -0x1.50dad40000000p-5, -0x1.05d0ec0000000p-3, 0x1.4980020000000p-3, -0x1.6c03680000000p-3, 0x1.3d4e940000000p-5, 0x1.aa15460000000p-3, -0x1.f979800000000p-5}
, {-0x1.89e0cc0000000p-4, -0x1.3940340000000p-3, 0x1.4502140000000p-3, -0x1.d87e340000000p-3, 0x1.0d92de0000000p-3, -0x1.f53b400000000p-5, -0x1.c38e2e0000000p-5, -0x1.8b690c0000000p-3}
, {-0x1.65fd0c0000000p-7, -0x1.454ef80000000p-4, 0x1.37ee280000000p-4, -0x1.1a21520000000p-3, 0x1.1a58380000000p-2, -0x1.d85e7a0000000p-6, 0x1.0a5ff60000000p-3, 0x1.2742b60000000p-5}
}
, {{-0x1.9fa81a0000000p-4, 0x1.4131b40000000p-4, 0x1.55bf660000000p-4, 0x1.cd0bd00000000p-4, 0x1.a923aa0000000p-5, -0x1.03922c0000000p-3, -0x1.43a3880000000p-3, -0x1.2253900000000p-3}
, {-0x1.28044e0000000p-2, -0x1.0458fc0000000p-8, 0x1.0fded80000000p-4, 0x1.1be7fc0000000p-3, -0x1.0208ac0000000p-3, -0x1.4511b60000000p-4, -0x1.3a5a680000000p-4, 0x1.9bbc5c0000000p-3}
, {-0x1.6665240000000p-3, -0x1.1bd83c0000000p-3, -0x1.837c540000000p-4, 0x1.4b31be0000000p-3, -0x1.5c718c0000000p-3, -0x1.414b180000000p-3, 0x1.5be40c0000000p-5, -0x1.f382580000000p-8}
, {-0x1.b6dd6e0000000p-3, 0x1.30f3000000000p-3, 0x1.3531ae0000000p-3, 0x1.e1f3900000000p-4, 0x1.23e16e0000000p-3, 0x1.3f59500000000p-4, -0x1.8f9b2c0000000p-5, 0x1.32b20c0000000p-3}
, {-0x1.6aca2e0000000p-3, 0x1.ef2e120000000p-3, 0x1.0d91440000000p-3, 0x1.a4679c0000000p-4, 0x1.3b32480000000p-3, 0x1.0c4c340000000p-3, 0x1.0f4dfc0000000p-2, -0x1.2ecb880000000p-3}
, {0x1.183e160000000p-5, 0x1.653e020000000p-8, -0x1.0e3de40000000p-2, -0x1.0e39540000000p-3, -0x1.0c7d8c0000000p-6, -0x1.e503f60000000p-4, 0x1.4c92640000000p-5, -0x1.097d6a0000000p-4}
, {-0x1.e706c00000000p-3, 0x1.059bfe0000000p-3, -0x1.089a7a0000000p-4, 0x1.84dc3a0000000p-3, -0x1.846fc60000000p-3, 0x1.30de940000000p-3, -0x1.862c2c0000000p-5, 0x1.e072f20000000p-5}
, {-0x1.89cbb80000000p-5, 0x1.ac9af60000000p-5, 0x1.2a06720000000p-2, -0x1.23c3720000000p-4, -0x1.61977a0000000p-4, 0x1.b7d48a0000000p-4, -0x1.5e1ce60000000p-7, -0x1.271af00000000p-4}
}
, {{-0x1.05b0c80000000p-2, -0x1.ad0e860000000p-3, -0x1.b12e740000000p-4, -0x1.c434140000000p-5, 0x1.1063f40000000p-3, 0x1.cac6c40000000p-7, -0x1.1c2b640000000p-5, 0x1.c834aa0000000p-9}
, {0x1.cadc180000000p-5, 0x1.b7dc920000000p-5, 0x1.1cdc140000000p-4, 0x1.67a7c40000000p-6, -0x1.4bd91c0000000p-3, 0x1.a0500c0000000p-3, 0x1.a443a00000000p-4, -0x1.1c8d860000000p-2}
, {0x1.4bb9660000000p-6, -0x1.0fbe9c0000000p-3, -0x1.0238780000000p-2, -0x1.71a7dc0000000p-3, 0x1.274a040000000p-4, -0x1.48ecc80000000p-5, 0x1.2906100000000p-3, -0x1.a6276e0000000p-5}
, {0x1.6378c00000000p-3, -0x1.bcfe740000000p-4, 0x1.9452020000000p-5, 0x1.3330b40000000p-3, 0x1.27df540000000p-4, 0x1.f7ec0a0000000p-4, 0x1.15234c0000000p-3, -0x1.517c800000000p-2}
, {0x1.8b9ff80000000p-3, 0x1.2e87620000000p-4, -0x1.7c4b940000000p-4, 0x1.ff35080000000p-5, -0x1.ef4e7a0000000p-4, 0x1.0475ec0000000p-4, -0x1.87f5de0000000p-4, -0x1.6c0d220000000p-4}
, {0x1.1697440000000p-3, 0x1.f04d240000000p-3, 0x1.1dbc5e0000000p-2, -0x1.3388b40000000p-5, 0x1.f09bd60000000p-4, 0x1.b14d2a0000000p-4, 0x1.17dc9a0000000p-2, -0x1.b23b260000000p-3}
, {0x1.0941cc0000000p-6, 0x1.8493800000000p-4, -0x1.08485a0000000p-2, -0x1.d3b24c0000000p-6, -0x1.55380c0000000p-4, -0x1.613c260000000p-5, 0x1.16bab60000000p-2, 0x1.4cdbc60000000p-4}
, {-0x1.ac156a0000000p-5, -0x1.72f02c0000000p-3, 0x1.e4eda60000000p-5, -0x1.041a460000000p-2, -0x1.002b880000000p-3, -0x1.4840a60000000p-3, 0x1.bdf27a0000000p-4, -0x1.73f9b40000000p-3}
}
, {{-0x1.9d34c60000000p-3, -0x1.1e28ae0000000p-5, -0x1.263e200000000p-8, 0x1.e136340000000p-6, -0x1.0b2dfe0000000p-3, -0x1.e4abf40000000p-4, -0x1.5dd9240000000p-3, -0x1.3fb95c0000000p-7}
, {-0x1.cada340000000p-4, -0x1.e782fe0000000p-3, 0x1.5e73840000000p-4, -0x1.1857600000000p-3, -0x1.7bf9d40000000p-4, 0x1.24e1820000000p-3, 0x1.9421e00000000p-5, -0x1.f8bba60000000p-7}
, {0x1.6eff400000000p-7, -0x1.b409b00000000p-4, 0x1.3f723e0000000p-3, -0x1.06698e0000000p-5, 0x1.65f0b60000000p-7, -0x1.1529640000000p-4, -0x1.d8086e0000000p-5, -0x1.6b9c960000000p-6}
, {-0x1.6e96bc0000000p-3, -0x1.6d68840000000p-3, 0x1.0cf7c40000000p-4, -0x1.3240ea0000000p-2, -0x1.42866e0000000p-5, -0x1.ae4b560000000p-4, 0x1.dbd3000000000p-10, 0x1.4e85700000000p-8}
, {0x1.42caca0000000p-8, -0x1.bf980e0000000p-3, 0x1.2307aa0000000p-3, -0x1.e31bfc0000000p-6, 0x1.8eb67e0000000p-4, -0x1.bf48da0000000p-6, -0x1.690c4e0000000p-3, -0x1.07c7a00000000p-4}
, {0x1.05c6620000000p-3, -0x1.3ca0100000000p-5, 0x1.af4c680000000p-5, 0x1.6c79080000000p-3, -0x1.253fea0000000p-4, 0x1.9e3d400000000p-5, -0x1.1d046c0000000p-3, -0x1.eace3c0000000p-7}
, {0x1.e2dc2c0000000p-7, 0x1.3ab5ec0000000p-4, 0x1.4ad75c0000000p-3, 0x1.1c70540000000p-3, 0x1.0850b60000000p-4, 0x1.b1ce2c0000000p-5, 0x1.601aec0000000p-3, 0x1.1fdb4c0000000p-2}
, {0x1.b1ea2e0000000p-3, 0x1.12ca220000000p-2, 0x1.71d0480000000p-6, 0x1.1167fc0000000p-3, -0x1.a5bdce0000000p-4, 0x1.3e39da0000000p-3, 0x1.1bfcd60000000p-2, 0x1.16a03c0000000p-5}
}
, {{0x1.5d90c60000000p-3, -0x1.3d5fca0000000p-3, 0x1.ba81880000000p-6, -0x1.db2a3a0000000p-6, 0x1.4ca79e0000000p-3, 0x1.9fdd680000000p-5, -0x1.c868c20000000p-7, -0x1.27eb380000000p-4}
, {0x1.e049cc0000000p-5, 0x1.603fa60000000p-3, 0x1.60eb820000000p-5, 0x1.4d30e60000000p-3, 0x1.1434f60000000p-3, -0x1.0565980000000p-5, 0x1.ceb9a60000000p-4, -0x1.cd38520000000p-3}
, {-0x1.65f8e60000000p-4, 0x1.411c180000000p-3, -0x1.0f63c20000000p-2, 0x1.818f180000000p-4, 0x1.fc88ca0000000p-3, -0x1.74d80c0000000p-6, 0x1.6345620000000p-3, 0x1.e6c3160000000p-8}
, {-0x1.2bd3ec0000000p-4, 0x1.b312fe0000000p-3, -0x1.110f720000000p-2, 0x1.96c1be0000000p-10, 0x1.9ef1440000000p-3, -0x1.538b1c0000000p-4, -0x1.17fe320000000p-3, -0x1.58eb920000000p-4}
, {0x1.bf95ca0000000p-5, 0x1.0ba3d00000000p-2, -0x1.c7a4420000000p-3, 0x1.2e7b000000000p-3, -0x1.9a9cc00000000p-5, 0x1.31e8140000000p-2, -0x1.9164960000000p-3, -0x1.c62cce0000000p-4}
, {-0x1.89a7280000000p-3, 0x1.0097580000000p-11, 0x1.964d880000000p-6, 0x1.95074e0000000p-3, 0x1.fae0be0000000p-3, 0x1.d390a40000000p-3, -0x1.77fd900000000p-3, 0x1.8941c00000000p-3}
, {-0x1.722b940000000p-3, -0x1.06a9900000000p-3, 0x1.52eb320000000p-5, 0x1.82824c0000000p-6, -0x1.7b50ec0000000p-6, 0x1.e15ba00000000p-4, -0x1.017f000000000p-4, -0x1.6742360000000p-3}
, {-0x1.a923440000000p-6, 0x1.8433a80000000p-3, -0x1.d1586e0000000p-5, -0x1.0cb58a0000000p-4, -0x1.4ba3220000000p-4, 0x1.3fc3a00000000p-3, 0x1.11d7220000000p-3, -0x1.235f560000000p-4}
}
, {{0x1.aac5ce0000000p-5, 0x1.9138060000000p-4, -0x1.14ff5e0000000p-2, -0x1.4cb63a0000000p-4, -0x1.b30b020000000p-4, 0x1.b7adc20000000p-4, 0x1.8f21180000000p-3, 0x1.5fe1600000000p-4}
, {0x1.7375600000000p-6, -0x1.ab74cc0000000p-4, -0x1.fed5120000000p-4, -0x1.10735c0000000p-3, -0x1.b084060000000p-11, 0x1.4a6eba0000000p-4, 0x1.cee32c0000000p-4, -0x1.2417620000000p-5}
, {0x1.5619a00000000p-7, -0x1.93c70a0000000p-6, -0x1.d5d9020000000p-3, -0x1.2e206a0000000p-8, -0x1.749ae40000000p-6, 0x1.22d0260000000p-5, 0x1.592a3a0000000p-4, -0x1.5c7edc0000000p-3}
, {-0x1.2db9fe0000000p-3, -0x1.85973c0000000p-6, -0x1.e08e4c0000000p-5, -0x1.7cd8880000000p-3, 0x1.36f9080000000p-3, 0x1.4773be0000000p-4, 0x1.24a5060000000p-4, 0x1.0e04120000000p-6}
, {0x1.482c500000000p-6, 0x1.52fbe80000000p-5, -0x1.04d1ac0000000p-2, 0x1.f3315a0000000p-3, -0x1.8a37ba0000000p-6, 0x1.4a858a0000000p-2, -0x1.e622420000000p-5, 0x1.7cafb00000000p-7}
, {0x1.97284a0000000p-3, 0x1.8bf4320000000p-6, 0x1.3850620000000p-3, 0x1.110a1e0000000p-3, 0x1.13a3a00000000p-2, 0x1.1c75440000000p-3, -0x1.64bfde0000000p-3, -0x1.d293040000000p-4}
, {0x1.69bce60000000p-3, 0x1.1c8c500000000p-2, -0x1.acac240000000p-3, 0x1.1088360000000p-5, -0x1.480ef80000000p-4, 0x1.ac54cc0000000p-3, 0x1.993d860000000p-3, 0x1.b976960000000p-4}
, {0x1.a073720000000p-4, 0x1.8c42600000000p-4, 0x1.f4347c0000000p-4, -0x1.f145280000000p-4, 0x1.0f7e840000000p-2, -0x1.a6fd5e0000000p-5, 0x1.76f7be0000000p-5, 0x1.3b8bf00000000p-3}
}
, {{-0x1.b26d3c0000000p-4, -0x1.0cf0d00000000p-7, 0x1.48b0ba0000000p-3, 0x1.6249e20000000p-4, -0x1.0f8c980000000p-4, 0x1.f599fa0000000p-5, 0x1.d81dd20000000p-3, -0x1.052f8a0000000p-5}
, {0x1.60f1c40000000p-4, 0x1.724c5c0000000p-8, 0x1.b7b9000000000p-4, 0x1.8249f60000000p-3, 0x1.942d9e0000000p-5, 0x1.cf55440000000p-9, -0x1.db87600000000p-4, 0x1.94d21a0000000p-3}
, {0x1.c907e20000000p-5, 0x1.24a17e0000000p-6, 0x1.e8679c0000000p-4, -0x1.05200e0000000p-3, 0x1.5727a60000000p-3, -0x1.f7feba0000000p-5, 0x1.ffc8bc0000000p-3, 0x1.8a507c0000000p-3}
, {-0x1.6962120000000p-6, 0x1.02587c0000000p-3, 0x1.481c120000000p-3, 0x1.3a4bbc0000000p-5, 0x1.a5d46c0000000p-3, 0x1.8e4ef60000000p-3, -0x1.2908a80000000p-4, -0x1.fe9b020000000p-4}
, {-0x1.ebe2a40000000p-7, 0x1.aa55640000000p-6, -0x1.ff1b460000000p-5, 0x1.c6cab20000000p-3, 0x1.4db7800000000p-4, 0x1.720a0c0000000p-5, 0x1.eba8d60000000p-4, 0x1.359d6c0000000p-3}
, {-0x1.9614880000000p-3, 0x1.7d3a6c0000000p-5, 0x1.15160e0000000p-3, 0x1.d010600000000p-3, -0x1.656e5c0000000p-4, 0x1.3a4a560000000p-3, 0x1.f975b80000000p-4, -0x1.7e3bda0000000p-7}
, {0x1.0d3d940000000p-4, -0x1.5598e00000000p-6, -0x1.308efc0000000p-4, 0x1.c360980000000p-4, 0x1.d728440000000p-5, -0x1.b762540000000p-5, -0x1.ca848e0000000p-5, 0x1.3afe080000000p-3}
, {0x1.41f3600000000p-4, -0x1.1fc5aa0000000p-3, 0x1.61dcd40000000p-4, -0x1.a5bce20000000p-4, 0x1.3a8f960000000p-3, -0x1.face960000000p-3, 0x1.a7cd820000000p-4, -0x1.c7a3fe0000000p-7}
}
, {{-0x1.edcb1c0000000p-5, 0x1.7b80d60000000p-3, -0x1.86902a0000000p-3, 0x1.ae1bec0000000p-3, 0x1.ece8020000000p-5, 0x1.d166500000000p-3, -0x1.e0f58e0000000p-5, -0x1.4257320000000p-4}
, {0x1.2bbd020000000p-3, 0x1.f7d75a0000000p-3, 0x1.4a005a0000000p-3, 0x1.bd9fd40000000p-4, 0x1.286dbc0000000p-3, 0x1.c59e520000000p-4, -0x1.bd46a80000000p-5, -0x1.0e53480000000p-2}
, {-0x1.1703ea0000000p-3, -0x1.26e78c0000000p-3, 0x1.93d26e0000000p-3, 0x1.62e3b00000000p-5, 0x1.5fe0e80000000p-2, 0x1.1082ae0000000p-2, -0x1.a2bd700000000p-4, 0x1.1de13a0000000p-3}
, {0x1.2086cc0000000p-8, 0x1.63272c0000000p-3, -0x1.ba61440000000p-4, 0x1.38f31c0000000p-4, 0x1.120ea80000000p-2, -0x1.7a0a540000000p-6, 0x1.ff06480000000p-3, 0x1.83d35c0000000p-5}
, {0x1.19e9300000000p-3, 0x1.70d44e0000000p-3, -0x1.6b1e060000000p-3, 0x1.46cc680000000p-3, 0x1.ab3f660000000p-4, 0x1.18942e0000000p-2, 0x1.f1841e0000000p-3, -0x1.97334a0000000p-3}
, {-0x1.532b780000000p-3, 0x1.46aa700000000p-3, -0x1.f032a20000000p-3, 0x1.ed974a0000000p-5, 0x1.e3f1e00000000p-3, 0x1.780d3a0000000p-7, 0x1.5897ca0000000p-4, -0x1.aa8c140000000p-5}
, {0x1.115cb20000000p-3, -0x1.bda5200000000p-6, -0x1.1469c20000000p-4, -0x1.06c3ae0000000p-5, -0x1.d9e2a00000000p-4, -0x1.3c85000000000p-4, 0x1.dd144c0000000p-5, 0x1.c8134c0000000p-4}
, {-0x1.b3ba920000000p-5, 0x1.e306320000000p-3, -0x1.9c3f720000000p-3, 0x1.5e97960000000p-3, -0x1.3afd3e0000000p-4, -0x1.0cef620000000p-5, -0x1.5ef1ca0000000p-3, -0x1.80090e0000000p-3}
}
, {{0x1.7c73860000000p-3, 0x1.17fba40000000p-3, -0x1.ebeebe0000000p-3, -0x1.9ebea20000000p-4, -0x1.a2103c0000000p-4, 0x1.26c55a0000000p-3, -0x1.e634620000000p-7, -0x1.56dfea0000000p-6}
, {0x1.230e5c0000000p-6, 0x1.8ff1cc0000000p-6, -0x1.3cceca0000000p-3, 0x1.b286a00000000p-3, -0x1.96958c0000000p-6, -0x1.332ad20000000p-5, 0x1.af63ac0000000p-5, 0x1.733b3e0000000p-3}
, {0x1.039d800000000p-3, 0x1.14199a0000000p-3, -0x1.fe6e780000000p-4, -0x1.db9c7c0000000p-4, 0x1.c2e16e0000000p-4, -0x1.29eaba0000000p-5, 0x1.523dd60000000p-7, 0x1.4573ec0000000p-4}
, {0x1.5385440000000p-3, 0x1.d875240000000p-3, -0x1.556be80000000p-2, -0x1.74454a0000000p-6, -0x1.59b21e0000000p-3, 0x1.4fb01c0000000p-5, 0x1.9e99780000000p-6, 0x1.2e11d60000000p-4}
, {0x1.d76f8e0000000p-4, -0x1.54944e0000000p-6, -0x1.e3428a0000000p-4, 0x1.c83d100000000p-5, 0x1.152e340000000p-4, -0x1.efa2260000000p-5, -0x1.f916160000000p-4, 0x1.814a280000000p-3}
, {0x1.a6b66c0000000p-3, 0x1.3dfcf20000000p-3, -0x1.4e431c0000000p-3, 0x1.c867f60000000p-3, -0x1.ffda900000000p-4, 0x1.33220c0000000p-5, -0x1.aab7680000000p-3, -0x1.e2257e0000000p-5}
, {-0x1.691fd80000000p-4, 0x1.e181bc0000000p-4, -0x1.0ab9b80000000p-2, 0x1.4636ec0000000p-3, 0x1.3ecff40000000p-3, 0x1.409a000000000p-3, 0x1.9a58560000000p-4, -0x1.3917a40000000p-8}
, {-0x1.01a95a0000000p-3, -0x1.b7d21a0000000p-4, -0x1.b420ee0000000p-3, 0x1.7fcb500000000p-4, 0x1.05da980000000p-3, 0x1.14f8500000000p-3, -0x1.d6f5300000000p-4, 0x1.87a8ea0000000p-3}
}
, {{0x1.e153560000000p-4, -0x1.10b8b00000000p-3, -0x1.b57d120000000p-4, -0x1.b1fe8a0000000p-4, -0x1.ed54cc0000000p-6, 0x1.4468260000000p-5, -0x1.587ee60000000p-6, -0x1.fe3f040000000p-4}
, {-0x1.47883c0000000p-4, 0x1.055b3e0000000p-3, -0x1.8156220000000p-6, 0x1.f8167a0000000p-3, -0x1.5ac8840000000p-3, 0x1.86a88c0000000p-5, -0x1.4a10bc0000000p-3, 0x1.2acada0000000p-3}
, {0x1.5e51440000000p-5, 0x1.6eb6a60000000p-3, 0x1.2f62560000000p-5, -0x1.23ea2c0000000p-9, -0x1.2a9db00000000p-6, 0x1.0f40020000000p-7, -0x1.7399a60000000p-4, -0x1.2d248e0000000p-5}
, {0x1.9e5e140000000p-5, -0x1.9e50000000000p-3, 0x1.0bc0040000000p-3, -0x1.6f7ce80000000p-3, 0x1.302ea60000000p-4, -0x1.f6a4ec0000000p-3, 0x1.899a240000000p-4, 0x1.1ab8560000000p-5}
, {0x1.c28f7c0000000p-5, -0x1.dcb0f40000000p-4, -0x1.d318c80000000p-4, 0x1.73ebee0000000p-3, 0x1.edd5940000000p-4, -0x1.fb074e0000000p-5, -0x1.ad6e0c0000000p-3, 0x1.9a42ee0000000p-6}
, {-0x1.0213ea0000000p-4, -0x1.4cdc400000000p-6, 0x1.ca1fae0000000p-6, 0x1.3634880000000p-12, -0x1.6f084e0000000p-4, 0x1.1237ec0000000p-4, 0x1.5502820000000p-3, 0x1.1a02240000000p-5}
, {0x1.7a71aa0000000p-5, 0x1.09d46c0000000p-3, 0x1.054a800000000p-3, 0x1.f1632e0000000p-5, 0x1.85c67c0000000p-3, 0x1.fca9c40000000p-4, 0x1.8efe9e0000000p-4, -0x1.4927300000000p-5}
, {-0x1.22c94c0000000p-3, -0x1.7bef620000000p-5, 0x1.a035fe0000000p-3, -0x1.b0ae6e0000000p-3, 0x1.48e5040000000p-6, -0x1.8042060000000p-4, -0x1.b737ba0000000p-4, -0x1.b0868e0000000p-3}
}
, {{-0x1.6c5d780000000p-6, 0x1.1055f60000000p-3, 0x1.b03ece0000000p-5, -0x1.050f0e0000000p-3, 0x1.654d6e0000000p-9, 0x1.c089040000000p-3, 0x1.4fd5e20000000p-4, 0x1.c14e580000000p-11}
, {0x1.32543a0000000p-6, 0x1.30eaa00000000p-4, -0x1.9ef81a0000000p-4, 0x1.80a77a0000000p-3, -0x1.8416200000000p-6, 0x1.0274560000000p-2, 0x1.5e26140000000p-3, 0x1.132eee0000000p-3}
, {-0x1.b50fbe0000000p-4, 0x1.4cc0d40000000p-3, -0x1.7e213a0000000p-4, 0x1.168ffc0000000p-7, -0x1.3580a60000000p-3, -0x1.838c820000000p-5, 0x1.61e78c0000000p-3, 0x1.4119860000000p-2}
, {-0x1.7e30ba0000000p-4, 0x1.6b32de0000000p-12, 0x1.256d8c0000000p-4, 0x1.0b841a0000000p-3, -0x1.2f8d080000000p-4, 0x1.789a3a0000000p-3, 0x1.6f38080000000p-3, 0x1.171ad40000000p-4}
, {0x1.7c1a7a0000000p-4, -0x1.0abe480000000p-3, 0x1.64a12a0000000p-5, -0x1.5fc5dc0000000p-3, 0x1.d329e00000000p-3, -0x1.42fc460000000p-5, -0x1.e051700000000p-5, 0x1.657fec0000000p-2}
, {0x1.b5deae0000000p-3, 0x1.89e4580000000p-3, 0x1.03ed980000000p-5, -0x1.bdd91a0000000p-6, 0x1.2362020000000p-3, -0x1.8b8dc00000000p-8, -0x1.1d8e3e0000000p-3, 0x1.5edd340000000p-2}
, {0x1.38c0620000000p-4, -0x1.1c89c60000000p-3, 0x1.31af300000000p-4, 0x1.75c7020000000p-3, -0x1.a58b0c0000000p-3, 0x1.16e3bc0000000p-2, 0x1.2e9cc00000000p-5, 0x1.ad05e80000000p-3}
, {0x1.4698a20000000p-3, 0x1.acd1ae0000000p-3, -0x1.9bd76c0000000p-4, -0x1.0aceca0000000p-3, 0x1.7bc3e00000000p-4, 0x1.f7369c0000000p-6, -0x1.4ca80a0000000p-5, 0x1.2edaf80000000p-2}
}
, {{0x1.d47fb20000000p-3, 0x1.0d4a8e0000000p-2, 0x1.e5d2940000000p-5, -0x1.05bcdc0000000p-3, -0x1.d986340000000p-5, 0x1.1de6fc0000000p-3, 0x1.e43abe0000000p-3, 0x1.6daa6c0000000p-5}
, {0x1.202f3e0000000p-3, -0x1.7a90860000000p-4, 0x1.03510c0000000p-5, -0x1.50f0760000000p-4, 0x1.e76daa0000000p-3, -0x1.43e7840000000p-3, 0x1.8f66e80000000p-3, 0x1.94315a0000000p-3}
, {0x1.06a8d60000000p-7, -0x1.e07ec20000000p-6, -0x1.ad5a900000000p-4, 0x1.308f680000000p-4, 0x1.53082a0000000p-3, -0x1.122bd20000000p-3, 0x1.02bc0c0000000p-7, 0x1.1d9a880000000p-7}
, {-0x1.886b0c0000000p-4, 0x1.86ab3a0000000p-6, -0x1.ff4e6e0000000p-4, 0x1.67fa1e0000000p-4, 0x1.8807d00000000p-3, 0x1.759f180000000p-3, -0x1.bcae400000000p-4, 0x1.cced540000000p-4}
, {0x1.0d415e0000000p-4, -0x1.1ff0c20000000p-5, 0x1.5eb0400000000p-3, -0x1.e97c500000000p-6, 0x1.51bd7c0000000p-3, -0x1.56544c0000000p-4, -0x1.4289600000000p-3, -0x1.4c330c0000000p-5}
, {-0x1.3dfb3e0000000p-3, 0x1.875fb60000000p-3, 0x1.5f12d40000000p-7, -0x1.f5a49a0000000p-7, 0x1.365fc80000000p-5, 0x1.9f0aac0000000p-3, 0x1.4bba400000000p-4, 0x1.c6e89c0000000p-3}
, {-0x1.20b8140000000p-3, 0x1.c6bdf00000000p-3, 0x1.3861ae0000000p-4, 0x1.95b68e0000000p-3, -0x1.e481540000000p-8, -0x1.ee055c0000000p-4, 0x1.dfa8720000000p-6, 0x1.b904b20000000p-5}
, {0x1.8f74400000000p-4, -0x1.4799d20000000p-4, 0x1.03b41e0000000p-3, 0x1.3a9d140000000p-6, 0x1.8a5a8a0000000p-4, 0x1.3760340000000p-4, -0x1.140f900000000p-4, -0x1.0e6e2c0000000p-5}
}
, {{-0x1.1670560000000p-5, -0x1.02089a0000000p-4, -0x1.90563c0000000p-5, -0x1.d9b9620000000p-5, -0x1.9cf32c0000000p-4, 0x1.b8a2b20000000p-5, -0x1.5aa27a0000000p-3, -0x1.f4f5e80000000p-4}
, {-0x1.fbaf620000000p-3, 0x1.b502e80000000p-4, -0x1.d507960000000p-3, -0x1.0fa9f80000000p-7, 0x1.569d1e0000000p-6, 0x1.35a5780000000p-5, 0x1.57a1c60000000p-4, 0x1.04e8040000000p-2}
, {-0x1.ca653c0000000p-4, 0x1.fbdf0a0000000p-3, -0x1.5b1b480000000p-2, 0x1.ea9bf40000000p-3, -0x1.1e39300000000p-1, 0x1.39f92a0000000p-5, 0x1.325efa0000000p-3, -0x1.9292a00000000p-6}
, {0x1.451adc0000000p-4, 0x1.2c12100000000p-3, -0x1.0149f20000000p-3, 0x1.a788d40000000p-3, -0x1.120fc00000000p-4, 0x1.4d72120000000p-3, 0x1.b80ba80000000p-3, -0x1.0f73da0000000p-3}
, {0x1.fb03540000000p-3, -0x1.f087920000000p-4, 0x1.6625080000000p-3, 0x1.3e6cec0000000p-5, -0x1.2331e40000000p-6, 0x1.3c6ed40000000p-3, -0x1.2c36ac0000000p-5, -0x1.7df8440000000p-8}
, {0x1.b30b060000000p-5, -0x1.d3a9e00000000p-4, 0x1.b746660000000p-3, -0x1.608f920000000p-2, 0x1.3c52aa0000000p-3, -0x1.21a56a0000000p-3, 0x1.123cb80000000p-4, -0x1.9232160000000p-5}
, {0x1.89385c0000000p-4, -0x1.d790f60000000p-8, -0x1.cd4faa0000000p-5, 0x1.f7bcf80000000p-6, 0x1.4425760000000p-6, 0x1.2578260000000p-4, -0x1.3080b40000000p-3, 0x1.11107c0000000p-3}
, {0x1.943f5c0000000p-4, -0x1.e051d60000000p-3, 0x1.e4918a0000000p-3, -0x1.a8b69a0000000p-5, 0x1.bb88f20000000p-4, -0x1.5b25ae0000000p-6, -0x1.f16f9c0000000p-6, -0x1.7f81d40000000p-8}
}
}
;

#undef INPUT_CHANNELS
#undef CONV_FILTERS
#undef CONV_KERNEL_SIZE
#undef CONV_GROUPS