/**
  ******************************************************************************
  * @file    weights/conv1d.cc
  * @author  Pierre-Emmanuel Novac <penovac@unice.fr>, LEAT, CNRS, Université Côte d'Azur, France
  * @version 1.0.0
  * @date    24 march 2020
  * @brief   Template generating plain C code for the implementation of Convolutional Neural Networks on MCU
  */

#include <stdint.h>

#define INPUT_CHANNELS    16
#define CONV_FILTERS      32
#define CONV_KERNEL_SIZE  4
#define CONV_GROUPS       1


const float  conv1d_30_bias[CONV_FILTERS] = {0x1.aa5c8e0000000p-5, 0x1.d1f0900000000p-5, 0x1.5ce6ca0000000p-4, -0x1.0612ae0000000p-4, -0x1.53bade0000000p-5, -0x1.42e4b20000000p-5, 0x1.4673200000000p-4, 0x1.b723ce0000000p-5, 0x1.3c350e0000000p-5, 0x1.dfc4e40000000p-5, 0x1.0377c60000000p-4, 0x1.03d46c0000000p-6, 0x1.7922300000000p-6, 0x1.22af1c0000000p-4, 0x1.d987c40000000p-5, 0x1.4f675e0000000p-6, 0x1.3bf5ca0000000p-5, -0x1.9ebb800000000p-4, -0x1.3263380000000p-2, -0x1.04b0960000000p-2, 0x1.42ab920000000p-5, -0x1.1203880000000p-12, 0x1.4c29ea0000000p-4, 0x1.c474b00000000p-5, 0x1.eb1bb20000000p-5, 0x1.98ec0c0000000p-5, 0x1.10ae240000000p-5, 0x1.4a17080000000p-5, 0x1.3f703e0000000p-6, 0x1.5819580000000p-4, 0x1.e202c00000000p-5, 0x1.0be8c80000000p-7}
;

const float  conv1d_30_kernel[CONV_FILTERS][CONV_KERNEL_SIZE][INPUT_CHANNELS / CONV_GROUPS] = {{{-0x1.8de7000000000p-3, -0x1.61266c0000000p-3, 0x1.32e0580000000p-3, -0x1.9b05a60000000p-4, -0x1.029e2e0000000p-4, 0x1.17b76e0000000p-5, 0x1.c499c80000000p-8, -0x1.d867b00000000p-4, -0x1.d32be20000000p-4, -0x1.75448e0000000p-4, 0x1.7254d60000000p-3, -0x1.d2bd440000000p-6, 0x1.13599e0000000p-6, -0x1.3ec4720000000p-3, 0x1.ef59ec0000000p-4, -0x1.dbdc200000000p-4}
, {-0x1.462d3a0000000p-5, 0x1.3f7c1a0000000p-5, 0x1.19b1bc0000000p-4, -0x1.4d62380000000p-3, 0x1.a9fe660000000p-3, -0x1.5d0b220000000p-3, -0x1.c065560000000p-3, 0x1.c403880000000p-4, 0x1.69f1880000000p-3, -0x1.bea8d20000000p-4, -0x1.bee2980000000p-3, 0x1.4e8e180000000p-3, 0x1.e97dd80000000p-3, 0x1.195cb80000000p-3, 0x1.cfb2f60000000p-4, 0x1.868ff80000000p-4}
, {0x1.eb868e0000000p-4, 0x1.c7b7d80000000p-3, -0x1.eb2e540000000p-4, 0x1.51a3ba0000000p-3, 0x1.0efa280000000p-3, 0x1.3616ec0000000p-2, 0x1.fcba9c0000000p-6, -0x1.ccd9e60000000p-5, -0x1.476f980000000p-3, 0x1.d52ae80000000p-4, -0x1.aaf7e60000000p-3, 0x1.c285fa0000000p-4, 0x1.04ca500000000p-2, -0x1.b0d3240000000p-12, -0x1.f5bff60000000p-7, 0x1.a354620000000p-3}
, {-0x1.8e52300000000p-15, -0x1.8ed2d80000000p-6, -0x1.26a2740000000p-4, 0x1.656f9c0000000p-5, -0x1.2306ea0000000p-4, -0x1.7994aa0000000p-2, -0x1.27e5fc0000000p-5, 0x1.18a7000000000p-3, -0x1.6467ae0000000p-6, 0x1.7500540000000p-3, -0x1.cc336c0000000p-4, 0x1.5954880000000p-6, 0x1.0171c80000000p-3, -0x1.9b12220000000p-4, 0x1.11648a0000000p-3, 0x1.01505c0000000p-4}
}
, {{0x1.1be3520000000p-7, 0x1.0407700000000p-3, 0x1.3bb2000000000p-6, 0x1.1941940000000p-4, -0x1.37722a0000000p-3, -0x1.4d074c0000000p-4, -0x1.ab88020000000p-4, -0x1.342daa0000000p-3, -0x1.7963460000000p-3, 0x1.85c6a80000000p-3, -0x1.664c380000000p-3, 0x1.306c120000000p-3, 0x1.44e0f00000000p-3, 0x1.17d1820000000p-3, -0x1.defb6e0000000p-4, 0x1.b70bb20000000p-3}
, {0x1.c2a5ac0000000p-5, -0x1.f41b7c0000000p-6, 0x1.0b63e60000000p-4, 0x1.5d737c0000000p-3, 0x1.5ec74a0000000p-5, -0x1.41b4940000000p-2, 0x1.87286c0000000p-3, -0x1.bafe9c0000000p-3, -0x1.23357e0000000p-4, -0x1.f353bc0000000p-4, 0x1.189c400000000p-3, 0x1.16ed580000000p-3, 0x1.d42b420000000p-4, 0x1.2e134a0000000p-4, 0x1.663fc20000000p-3, -0x1.345b2c0000000p-4}
, {0x1.66cfbe0000000p-5, -0x1.92e39e0000000p-3, -0x1.aaf9cc0000000p-7, 0x1.accaca0000000p-5, -0x1.4b541e0000000p-5, 0x1.696dbe0000000p-3, -0x1.6c15920000000p-6, -0x1.7f1a9e0000000p-4, -0x1.1e585a0000000p-4, 0x1.3133c00000000p-3, -0x1.d4fea40000000p-3, -0x1.c128780000000p-3, 0x1.061ec00000000p-4, 0x1.2344420000000p-3, -0x1.46d6a80000000p-3, 0x1.5d795e0000000p-3}
, {-0x1.2e9cbe0000000p-5, 0x1.811e0c0000000p-4, 0x1.5d8a0e0000000p-3, 0x1.f6e8080000000p-4, 0x1.d21c480000000p-4, -0x1.593a2c0000000p-6, -0x1.206b7e0000000p-3, 0x1.a4e16e0000000p-6, 0x1.d731aa0000000p-4, 0x1.ddbca00000000p-4, -0x1.a17de20000000p-4, -0x1.074ebc0000000p-3, 0x1.488cba0000000p-6, 0x1.2abb060000000p-4, -0x1.067d580000000p-3, 0x1.9e5aaa0000000p-6}
}
, {{-0x1.f1cfd00000000p-4, 0x1.1203ec0000000p-4, -0x1.0fb47a0000000p-4, 0x1.31949a0000000p-5, 0x1.2532de0000000p-3, 0x1.512b7a0000000p-4, -0x1.8eeefa0000000p-2, 0x1.d7a52a0000000p-4, -0x1.c2284e0000000p-3, -0x1.36e6620000000p-4, -0x1.5a1cf60000000p-4, 0x1.bdc3be0000000p-4, -0x1.8bbae40000000p-3, 0x1.7ca5b40000000p-4, -0x1.b74b120000000p-4, -0x1.3077460000000p-3}
, {0x1.f0bd900000000p-8, 0x1.522e500000000p-5, -0x1.b1ec340000000p-3, -0x1.589ab40000000p-3, 0x1.762d000000000p-3, 0x1.0258a40000000p-2, 0x1.789a780000000p-4, 0x1.0f58e20000000p-4, -0x1.83910e0000000p-3, -0x1.5a336c0000000p-4, -0x1.7b0f8c0000000p-4, -0x1.1877bc0000000p-2, 0x1.f682520000000p-5, -0x1.f7cb7c0000000p-3, -0x1.be88d00000000p-6, -0x1.41965c0000000p-5}
, {-0x1.11ab980000000p-2, 0x1.1166fc0000000p-5, 0x1.967d220000000p-3, 0x1.3287380000000p-3, 0x1.7d4c560000000p-3, 0x1.bbfa080000000p-3, 0x1.4db6000000000p-6, 0x1.1017160000000p-3, 0x1.25831c0000000p-4, 0x1.c17c120000000p-6, 0x1.ea24d20000000p-6, 0x1.1826460000000p-3, 0x1.591d040000000p-6, -0x1.cbcbd80000000p-4, 0x1.0ed94c0000000p-4, 0x1.1621060000000p-3}
, {0x1.a76c8e0000000p-3, -0x1.68b6ac0000000p-3, -0x1.82ddcc0000000p-4, 0x1.0909d60000000p-2, 0x1.5b7d2c0000000p-3, 0x1.1b0bd60000000p-3, 0x1.0bb0ee0000000p-6, 0x1.df5d880000000p-4, -0x1.915d2c0000000p-5, 0x1.0b34f20000000p-3, -0x1.1ab0fa0000000p-7, 0x1.bce7b80000000p-5, 0x1.2ba3b20000000p-3, 0x1.e33eb20000000p-5, 0x1.b4053c0000000p-4, 0x1.641b0e0000000p-6}
}
, {{0x1.ed2aa40000000p-4, -0x1.e1cbf40000000p-7, 0x1.7ca2260000000p-4, 0x1.3e6d620000000p-4, 0x1.272e560000000p-4, 0x1.8ba3080000000p-3, -0x1.e99d0c0000000p-5, 0x1.493bb20000000p-4, -0x1.d2fb620000000p-6, -0x1.b705080000000p-4, 0x1.39d85e0000000p-3, 0x1.6615380000000p-3, -0x1.2398ac0000000p-5, -0x1.a83d4c0000000p-5, -0x1.1ebf380000000p-3, -0x1.e9f5b80000000p-3}
, {0x1.2f6a0c0000000p-5, 0x1.434ae80000000p-4, -0x1.9620bc0000000p-7, -0x1.f6b18a0000000p-4, 0x1.c9f3d40000000p-4, 0x1.24175c0000000p-2, 0x1.7f987c0000000p-5, -0x1.4be1de0000000p-5, 0x1.d7047e0000000p-6, 0x1.a97e360000000p-4, -0x1.6ed6a80000000p-3, 0x1.67d7480000000p-3, -0x1.f789b80000000p-4, 0x1.1ebc000000000p-5, -0x1.f6d9920000000p-8, 0x1.47c0c60000000p-4}
, {-0x1.113a7a0000000p-4, -0x1.2ee53c0000000p-5, -0x1.6486540000000p-4, -0x1.1599560000000p-3, -0x1.48813c0000000p-4, 0x1.5ec3140000000p-2, 0x1.aedc840000000p-6, 0x1.8e89040000000p-6, 0x1.be9db00000000p-3, -0x1.2e124c0000000p-4, -0x1.c5c9620000000p-4, 0x1.587cc20000000p-3, -0x1.dd5aa60000000p-4, -0x1.2eaaa40000000p-4, 0x1.e6beac0000000p-4, -0x1.1c39be0000000p-3}
, {0x1.28dc980000000p-4, 0x1.755db00000000p-5, 0x1.d784a80000000p-3, -0x1.66aa8c0000000p-5, -0x1.284ff80000000p-3, 0x1.64e6480000000p-2, 0x1.cb7f340000000p-3, -0x1.8477680000000p-7, 0x1.8f4daa0000000p-3, 0x1.575ec80000000p-4, 0x1.675ade0000000p-3, 0x1.00619a0000000p-2, -0x1.5a3d840000000p-3, 0x1.6127ca0000000p-3, 0x1.a0a8380000000p-4, 0x1.4aab700000000p-3}
}
, {{0x1.8f40780000000p-2, -0x1.4ae7420000000p-4, -0x1.681a7e0000000p-3, 0x1.b0e8be0000000p-4, -0x1.2b6b2c0000000p-6, -0x1.a31b8e0000000p-3, 0x1.1f990c0000000p-3, -0x1.0c5a2c0000000p-5, 0x1.0997a00000000p-3, -0x1.4ae3e60000000p-7, -0x1.590de40000000p-4, -0x1.a0740c0000000p-5, -0x1.2a10400000000p-10, 0x1.7e13900000000p-5, 0x1.75b4d80000000p-5, -0x1.d668640000000p-3}
, {-0x1.22d0a00000000p-3, 0x1.48cb4c0000000p-7, -0x1.4ea4fa0000000p-4, -0x1.f238740000000p-3, -0x1.201ba40000000p-3, 0x1.ebfac40000000p-3, -0x1.95b13e0000000p-4, 0x1.796e4e0000000p-4, 0x1.b400ce0000000p-3, -0x1.9a208e0000000p-5, -0x1.b5ea760000000p-3, -0x1.5968160000000p-4, -0x1.c3b0640000000p-3, 0x1.4c7ee60000000p-3, -0x1.6a89a00000000p-3, -0x1.7e7db00000000p-5}
, {-0x1.c4f64a0000000p-3, 0x1.b3037a0000000p-4, 0x1.5db9fe0000000p-3, 0x1.4c20e40000000p-3, 0x1.0d07540000000p-3, 0x1.6a0e120000000p-2, 0x1.0637380000000p-3, 0x1.83c0c40000000p-3, 0x1.a98a600000000p-3, 0x1.4710000000000p-3, 0x1.3057cc0000000p-3, -0x1.b540a60000000p-5, -0x1.05b4020000000p-6, 0x1.01893a0000000p-2, -0x1.c45c6e0000000p-5, 0x1.aecf7a0000000p-6}
, {0x1.34f3cc0000000p-2, 0x1.87bcc20000000p-6, 0x1.d991320000000p-3, 0x1.c4bfc00000000p-6, 0x1.60e1540000000p-4, -0x1.51fd580000000p-5, -0x1.6d52d60000000p-5, -0x1.70d8300000000p-4, -0x1.2299520000000p-4, 0x1.16c57a0000000p-4, -0x1.dc7b380000000p-5, 0x1.67ae3a0000000p-3, -0x1.18704c0000000p-3, -0x1.759b000000000p-4, 0x1.7596b80000000p-5, -0x1.03b3e00000000p-2}
}
, {{0x1.1a2ae40000000p-4, 0x1.cbe5ea0000000p-4, -0x1.c25a9e0000000p-5, -0x1.9027860000000p-3, 0x1.58bc960000000p-4, 0x1.3137c60000000p-3, 0x1.8e53f20000000p-5, -0x1.0745480000000p-3, 0x1.3bd6ea0000000p-3, -0x1.baf9800000000p-3, 0x1.1d510a0000000p-3, -0x1.5df4400000000p-4, 0x1.a55b1c0000000p-4, 0x1.4998b80000000p-6, -0x1.c882240000000p-4, 0x1.465dba0000000p-3}
, {-0x1.2f6a4c0000000p-3, -0x1.4a61c00000000p-4, 0x1.58b8220000000p-3, 0x1.56b1460000000p-3, 0x1.1e16d40000000p-4, 0x1.102f480000000p-2, 0x1.d27eda0000000p-3, 0x1.ae1fb20000000p-3, 0x1.a7cb460000000p-4, 0x1.a4d1fe0000000p-3, 0x1.9552720000000p-3, 0x1.b823a80000000p-3, -0x1.10b57e0000000p-4, 0x1.6618aa0000000p-4, -0x1.bd389a0000000p-4, 0x1.6b9c140000000p-3}
, {0x1.bdb0720000000p-5, 0x1.5a37980000000p-3, -0x1.ac9be20000000p-6, -0x1.f22e360000000p-4, 0x1.2f291c0000000p-3, 0x1.98c5840000000p-4, -0x1.4493c00000000p-4, 0x1.dae21a0000000p-8, -0x1.de8bd20000000p-5, 0x1.b08b740000000p-4, -0x1.94ebce0000000p-5, -0x1.67fd4e0000000p-4, -0x1.071f6e0000000p-2, -0x1.8a2c0e0000000p-3, -0x1.7cebc80000000p-3, 0x1.d6f20c0000000p-6}
, {0x1.b245640000000p-3, 0x1.ac08d20000000p-7, 0x1.6fe2e60000000p-7, -0x1.6b6b440000000p-3, -0x1.74fc4a0000000p-4, 0x1.8ff43c0000000p-4, -0x1.b5d8d60000000p-5, 0x1.92874e0000000p-3, 0x1.1f559e0000000p-5, -0x1.ed27260000000p-5, 0x1.3d6e620000000p-3, 0x1.ad5a120000000p-3, 0x1.e386820000000p-5, -0x1.606f380000000p-7, -0x1.d9c8420000000p-7, 0x1.d680840000000p-3}
}
, {{0x1.9eea1c0000000p-6, -0x1.14dc120000000p-5, -0x1.3f9cd00000000p-4, 0x1.c54bd60000000p-5, 0x1.c4074c0000000p-4, 0x1.2f61240000000p-5, 0x1.1634e60000000p-6, -0x1.8cc17e0000000p-3, -0x1.1153c20000000p-3, 0x1.b72fc20000000p-7, -0x1.e7d80c0000000p-4, -0x1.f8afdc0000000p-3, 0x1.ff4cba0000000p-5, -0x1.9ff90c0000000p-3, -0x1.5dc86e0000000p-3, -0x1.2de0420000000p-4}
, {0x1.45600e0000000p-3, 0x1.14edb80000000p-4, 0x1.05bac20000000p-9, 0x1.2e25560000000p-3, 0x1.2e25f40000000p-3, 0x1.48adb60000000p-2, 0x1.1557d80000000p-2, 0x1.2b57d00000000p-5, 0x1.0d691c0000000p-2, 0x1.87a5ac0000000p-4, 0x1.6eb7f20000000p-3, 0x1.a5077e0000000p-3, -0x1.5673d00000000p-3, 0x1.f8ca920000000p-5, 0x1.e8045e0000000p-4, 0x1.3ef5f80000000p-5}
, {0x1.2efaae0000000p-4, 0x1.61c4560000000p-5, 0x1.4c4e060000000p-6, 0x1.0c59960000000p-3, -0x1.1ba89e0000000p-6, 0x1.e5e9840000000p-3, -0x1.775e0c0000000p-4, -0x1.2099360000000p-3, -0x1.89cddc0000000p-5, -0x1.d5200a0000000p-5, 0x1.72bc320000000p-3, 0x1.f4de680000000p-7, 0x1.abe9dc0000000p-4, 0x1.fc74220000000p-8, -0x1.ac1aca0000000p-6, 0x1.36189a0000000p-5}
, {0x1.37d9820000000p-4, 0x1.b3f9c20000000p-4, -0x1.87efb20000000p-4, 0x1.adaea80000000p-5, 0x1.9606a00000000p-4, 0x1.90ec3c0000000p-3, 0x1.0715500000000p-5, -0x1.f0e6b80000000p-4, -0x1.2065260000000p-4, -0x1.72391e0000000p-3, -0x1.aeed280000000p-3, -0x1.258eac0000000p-5, -0x1.27c3760000000p-5, 0x1.fef0940000000p-6, -0x1.ccc1c00000000p-5, -0x1.8439840000000p-3}
}
, {{0x1.359da80000000p-7, -0x1.24a9a80000000p-2, -0x1.770e960000000p-3, -0x1.577c6e0000000p-3, -0x1.fc16300000000p-5, -0x1.3f31480000000p-3, 0x1.653de80000000p-5, -0x1.ccd8380000000p-6, -0x1.2459220000000p-3, -0x1.c3d0a20000000p-4, -0x1.139d360000000p-4, 0x1.bb4f160000000p-5, 0x1.9089760000000p-3, 0x1.21d24a0000000p-3, 0x1.47057a0000000p-3, 0x1.63148a0000000p-3}
, {0x1.86732c0000000p-5, -0x1.3118f60000000p-4, -0x1.6c5ae80000000p-6, -0x1.15843a0000000p-2, -0x1.8e207c0000000p-4, -0x1.3760900000000p-2, 0x1.5ddd720000000p-4, 0x1.389fc80000000p-5, -0x1.31142e0000000p-6, 0x1.b9b6500000000p-4, -0x1.47af100000000p-4, 0x1.8548520000000p-7, 0x1.1e492a0000000p-4, -0x1.760e580000000p-4, 0x1.60a8aa0000000p-6, 0x1.ea6f820000000p-4}
, {-0x1.057aa60000000p-3, -0x1.d605100000000p-4, 0x1.fb9a760000000p-7, -0x1.dfc5ce0000000p-8, -0x1.d8acec0000000p-3, -0x1.82a5cc0000000p-3, -0x1.3da6f20000000p-2, 0x1.0044b20000000p-3, 0x1.a84ef40000000p-4, 0x1.5b647c0000000p-4, 0x1.51be000000000p-3, 0x1.2b61800000000p-3, 0x1.52dfa60000000p-3, 0x1.a937900000000p-3, -0x1.25e4ec0000000p-4, 0x1.2c85360000000p-5}
, {-0x1.8639640000000p-3, -0x1.d359620000000p-3, -0x1.4d8bf00000000p-3, -0x1.c0bf9e0000000p-6, -0x1.232db60000000p-3, -0x1.1130dc0000000p-3, -0x1.ae538e0000000p-3, -0x1.53bece0000000p-4, 0x1.69e91a0000000p-4, -0x1.6ff7f40000000p-7, 0x1.d7273a0000000p-4, -0x1.29c5ce0000000p-3, 0x1.2678f40000000p-3, 0x1.6948520000000p-6, 0x1.03b5c00000000p-3, 0x1.0485040000000p-3}
}
, {{0x1.31b72c0000000p-5, -0x1.11f3b20000000p-5, -0x1.1842980000000p-3, -0x1.682a5a0000000p-6, 0x1.6c98840000000p-8, -0x1.4832500000000p-2, -0x1.c55fac0000000p-6, 0x1.c8e8ea0000000p-3, -0x1.207e8a0000000p-4, 0x1.fb30580000000p-4, -0x1.12a2400000000p-5, 0x1.8bd5180000000p-3, -0x1.8c45420000000p-4, -0x1.cae9380000000p-4, -0x1.f464680000000p-5, 0x1.d91c900000000p-4}
, {-0x1.0c19fc0000000p-3, -0x1.1615700000000p-5, 0x1.cf31040000000p-5, 0x1.4c14560000000p-3, -0x1.3261260000000p-2, 0x1.3797380000000p-3, 0x1.8f00960000000p-8, 0x1.8ef74c0000000p-5, 0x1.b5e5de0000000p-4, 0x1.5947200000000p-3, -0x1.dfa0960000000p-5, -0x1.8065680000000p-3, 0x1.2bc59c0000000p-3, -0x1.8048ca0000000p-3, 0x1.9452de0000000p-4, -0x1.079c080000000p-5}
, {0x1.29f5480000000p-3, -0x1.7c962a0000000p-3, -0x1.6dde520000000p-4, 0x1.1821360000000p-2, -0x1.1e1d900000000p-4, 0x1.156dd00000000p-3, -0x1.38f0680000000p-5, 0x1.3b08580000000p-3, 0x1.82b2e40000000p-4, 0x1.da87840000000p-3, 0x1.9f3fca0000000p-9, 0x1.9b1e420000000p-4, 0x1.6dd7660000000p-3, -0x1.b3b39a0000000p-4, -0x1.1dde9c0000000p-4, 0x1.85d60e0000000p-5}
, {0x1.c3ea4a0000000p-3, -0x1.a04fca0000000p-6, -0x1.2aea860000000p-3, 0x1.51bd480000000p-3, -0x1.d6aa1e0000000p-4, -0x1.3be06e0000000p-2, -0x1.1417c80000000p-2, -0x1.b5ae620000000p-4, 0x1.958a620000000p-4, -0x1.1fb0b80000000p-3, -0x1.71108e0000000p-4, 0x1.7e968e0000000p-9, 0x1.06083c0000000p-3, 0x1.05e97c0000000p-5, -0x1.70d0120000000p-5, 0x1.4128d60000000p-3}
}
, {{-0x1.0d1d420000000p-2, -0x1.c0b9aa0000000p-3, 0x1.5de6100000000p-4, -0x1.155dcc0000000p-3, -0x1.60d9900000000p-3, -0x1.c4bc3a0000000p-3, -0x1.6fc8e20000000p-3, 0x1.0d7f760000000p-4, 0x1.d276460000000p-4, -0x1.1d87460000000p-4, -0x1.48e8040000000p-3, -0x1.9c479e0000000p-6, -0x1.7b3ba00000000p-5, 0x1.426b5c0000000p-9, 0x1.83d1360000000p-3, -0x1.47ab8c0000000p-7}
, {0x1.fc73500000000p-4, -0x1.d68c160000000p-3, 0x1.217fb20000000p-3, -0x1.29311e0000000p-3, 0x1.1030920000000p-9, -0x1.278aa80000000p-3, 0x1.f1561c0000000p-3, -0x1.1adcb20000000p-3, 0x1.5006ec0000000p-4, 0x1.a6a8640000000p-3, -0x1.7c57ee0000000p-3, 0x1.c8a04a0000000p-3, -0x1.3e1f0c0000000p-4, 0x1.1404da0000000p-2, 0x1.b32aba0000000p-3, -0x1.2326800000000p-3}
, {-0x1.c64b720000000p-4, -0x1.22b0d60000000p-2, 0x1.e62e580000000p-3, -0x1.187fc80000000p-4, -0x1.2933020000000p-2, -0x1.aea1b80000000p-3, -0x1.12a39c0000000p-3, 0x1.d457d80000000p-4, 0x1.6fa9f00000000p-4, -0x1.50c6820000000p-5, 0x1.4d1dae0000000p-3, 0x1.6378560000000p-3, -0x1.23e5ae0000000p-3, 0x1.389d020000000p-4, 0x1.b417420000000p-3, -0x1.1c47b60000000p-2}
, {-0x1.8a20e80000000p-5, -0x1.0475da0000000p-6, -0x1.82e2760000000p-3, -0x1.0b46b20000000p-2, -0x1.8417ce0000000p-5, -0x1.145fa60000000p-2, -0x1.0d3da60000000p-6, -0x1.854e4a0000000p-3, -0x1.c6fdda0000000p-3, 0x1.7bcbe20000000p-7, -0x1.ef52ce0000000p-4, -0x1.24a1080000000p-3, 0x1.eef4780000000p-4, -0x1.44b4360000000p-4, 0x1.7fcc800000000p-4, -0x1.23db680000000p-3}
}
, {{-0x1.199bf60000000p-3, 0x1.973b560000000p-3, 0x1.2729fa0000000p-5, -0x1.6afe260000000p-3, -0x1.9595da0000000p-4, -0x1.ab7bc00000000p-4, -0x1.6791060000000p-4, -0x1.489c000000000p-4, 0x1.7c75ac0000000p-4, -0x1.ec0fcc0000000p-4, -0x1.391e120000000p-3, 0x1.4bc1ba0000000p-6, -0x1.4f71b20000000p-3, 0x1.036b560000000p-3, 0x1.106a2e0000000p-4, -0x1.0d8e620000000p-4}
, {0x1.a89f360000000p-3, 0x1.84cb980000000p-5, 0x1.4acedc0000000p-3, -0x1.a1b4060000000p-3, 0x1.8b7fae0000000p-4, -0x1.8bc9ea0000000p-3, 0x1.3be2cc0000000p-3, -0x1.75a8fa0000000p-7, 0x1.3798860000000p-7, 0x1.34eab00000000p-4, 0x1.a7622e0000000p-3, 0x1.ea28680000000p-3, -0x1.a8f34e0000000p-3, -0x1.bfce8c0000000p-7, 0x1.6114500000000p-4, 0x1.388d0e0000000p-3}
, {0x1.74b6a40000000p-5, 0x1.27e3280000000p-4, 0x1.6b0e280000000p-4, -0x1.b6a2ec0000000p-3, 0x1.172a880000000p-5, 0x1.6a23d40000000p-7, 0x1.2a15c60000000p-5, 0x1.971c2c0000000p-4, 0x1.640a940000000p-3, -0x1.7be99e0000000p-5, 0x1.b5917a0000000p-4, -0x1.e8f8d40000000p-7, -0x1.57d0660000000p-7, -0x1.046c140000000p-3, 0x1.47012c0000000p-5, 0x1.8a69160000000p-4}
, {-0x1.1331ba0000000p-3, 0x1.593c3a0000000p-4, 0x1.c090200000000p-5, 0x1.b806100000000p-6, 0x1.27be000000000p-4, -0x1.e4b3620000000p-3, -0x1.10bef60000000p-3, 0x1.b42db80000000p-3, -0x1.4ae6860000000p-6, -0x1.8ea5ea0000000p-7, -0x1.0ead660000000p-3, 0x1.4e34400000000p-4, -0x1.609d440000000p-3, 0x1.7dcede0000000p-3, 0x1.70be180000000p-3, -0x1.691af40000000p-3}
}
, {{-0x1.3dd2f20000000p-7, -0x1.299b9c0000000p-3, 0x1.8f33440000000p-4, 0x1.eeec6a0000000p-4, 0x1.02276c0000000p-3, 0x1.744b720000000p-4, 0x1.b5cf9a0000000p-6, -0x1.67c5100000000p-5, 0x1.a5ad220000000p-3, -0x1.d8a2e80000000p-4, -0x1.5609220000000p-4, -0x1.0ce4820000000p-4, 0x1.539b500000000p-5, -0x1.2125900000000p-6, 0x1.b030f40000000p-3, 0x1.07526c0000000p-3}
, {0x1.99438a0000000p-4, -0x1.4107960000000p-8, -0x1.6f6cde0000000p-4, -0x1.ad0a700000000p-4, -0x1.d5a9240000000p-4, -0x1.00df960000000p-2, -0x1.acb7560000000p-3, -0x1.99ee3e0000000p-5, 0x1.6114a80000000p-3, 0x1.4249a60000000p-3, 0x1.4eb0880000000p-4, -0x1.301bee0000000p-5, 0x1.252ee60000000p-3, -0x1.5fde4a0000000p-4, 0x1.f221420000000p-6, -0x1.53dc2c0000000p-3}
, {-0x1.5eabd60000000p-5, -0x1.550fba0000000p-4, -0x1.be71260000000p-7, -0x1.1b4c4e0000000p-4, 0x1.8868ea0000000p-2, 0x1.23cd3a0000000p-2, 0x1.44abf80000000p-4, -0x1.0780160000000p-6, -0x1.1e46760000000p-3, -0x1.d2e79a0000000p-4, 0x1.9c57220000000p-4, -0x1.66ca360000000p-3, 0x1.15f2b00000000p-4, 0x1.afc29e0000000p-3, 0x1.57370e0000000p-3, 0x1.903f200000000p-5}
, {0x1.5f64260000000p-3, -0x1.5241fe0000000p-7, 0x1.1da5060000000p-4, 0x1.f44fb40000000p-4, 0x1.f72a040000000p-3, -0x1.28d8240000000p-2, -0x1.ad63300000000p-4, -0x1.96105a0000000p-3, -0x1.094afa0000000p-4, 0x1.f15af60000000p-4, -0x1.372fe60000000p-3, -0x1.321a720000000p-4, 0x1.f0148c0000000p-4, 0x1.fd56d00000000p-7, -0x1.7193260000000p-4, 0x1.52ff4e0000000p-3}
}
, {{-0x1.1ed06a0000000p-2, -0x1.24e59e0000000p-2, -0x1.0d52320000000p-3, 0x1.3a1cb40000000p-3, -0x1.0186320000000p-4, -0x1.a832e00000000p-10, 0x1.5b8aa00000000p-6, -0x1.716cce0000000p-4, 0x1.3859300000000p-3, 0x1.6f963a0000000p-9, 0x1.ee671a0000000p-4, -0x1.76bfa40000000p-4, 0x1.8bc7c80000000p-5, -0x1.fef0c40000000p-5, 0x1.8a94ae0000000p-3, -0x1.1e04ea0000000p-3}
, {-0x1.463f960000000p-3, 0x1.3a8c1a0000000p-6, -0x1.61da900000000p-3, -0x1.1de26e0000000p-3, 0x1.cc0d7e0000000p-6, -0x1.60c3900000000p-7, -0x1.0b26ee0000000p-6, 0x1.f2849c0000000p-5, -0x1.8019dc0000000p-4, -0x1.20f4600000000p-3, -0x1.038d1a0000000p-3, 0x1.8dc3cc0000000p-4, 0x1.cd3c440000000p-6, 0x1.38b0040000000p-3, 0x1.ecbd960000000p-3, -0x1.f138e80000000p-4}
, {0x1.0b5b880000000p-8, -0x1.463a220000000p-3, 0x1.a008720000000p-4, 0x1.f976a20000000p-3, 0x1.8636240000000p-4, -0x1.c49ed20000000p-4, -0x1.e793fa0000000p-3, -0x1.159a260000000p-5, -0x1.dc387a0000000p-4, 0x1.a4a3160000000p-4, 0x1.897c360000000p-4, -0x1.18c8000000000p-6, 0x1.8662d20000000p-3, -0x1.3ee1be0000000p-11, 0x1.5c2c7e0000000p-3, 0x1.394f200000000p-3}
, {-0x1.00f1da0000000p-5, 0x1.03091a0000000p-3, -0x1.af60200000000p-4, -0x1.d471620000000p-5, 0x1.98ae4e0000000p-3, -0x1.92819a0000000p-3, -0x1.9194220000000p-3, -0x1.adafb40000000p-6, -0x1.c0d1080000000p-3, 0x1.5b9ea00000000p-3, -0x1.dba1100000000p-4, -0x1.0d254c0000000p-2, -0x1.212b420000000p-3, 0x1.e6bf160000000p-5, 0x1.7bc5300000000p-3, 0x1.4451de0000000p-4}
}
, {{0x1.65f6780000000p-3, -0x1.43cfe80000000p-4, 0x1.ec2d960000000p-3, 0x1.f4b1320000000p-4, -0x1.80423c0000000p-3, 0x1.926cf20000000p-5, 0x1.4963680000000p-4, 0x1.cfa5a60000000p-3, 0x1.56c67c0000000p-3, -0x1.0a67ee0000000p-3, 0x1.3c92360000000p-4, 0x1.16a62a0000000p-4, -0x1.2a55760000000p-3, 0x1.b9a1180000000p-6, 0x1.c3eaa60000000p-6, -0x1.92fed60000000p-4}
, {-0x1.9599700000000p-4, 0x1.24dd0e0000000p-4, 0x1.8478560000000p-3, 0x1.5504140000000p-3, -0x1.8b45800000000p-4, 0x1.1fdd180000000p-2, -0x1.9c807a0000000p-4, 0x1.6b198e0000000p-4, -0x1.e886ac0000000p-6, 0x1.32189a0000000p-9, 0x1.73393e0000000p-5, 0x1.d690220000000p-4, 0x1.4800280000000p-4, -0x1.0021420000000p-11, 0x1.f86bc00000000p-4, 0x1.a378fa0000000p-5}
, {0x1.00e5a60000000p-2, 0x1.8453980000000p-4, -0x1.8dcac80000000p-3, 0x1.d91ea00000000p-6, 0x1.ec2a200000000p-4, -0x1.9302c60000000p-4, -0x1.37e6b60000000p-3, -0x1.c801ee0000000p-6, -0x1.1c4b9c0000000p-2, -0x1.77b4100000000p-5, -0x1.d1cf0e0000000p-5, 0x1.3b1ac00000000p-4, -0x1.f72ffa0000000p-5, -0x1.0a43340000000p-3, 0x1.07f62a0000000p-3, -0x1.3e205c0000000p-3}
, {0x1.3497d20000000p-4, -0x1.5e37800000000p-4, -0x1.4659be0000000p-2, -0x1.171f120000000p-2, -0x1.65ce9e0000000p-4, -0x1.f61c4e0000000p-2, 0x1.da8e340000000p-5, -0x1.8051d00000000p-3, -0x1.9764000000000p-2, -0x1.1777540000000p-5, -0x1.42f4fe0000000p-2, -0x1.86fcb00000000p-4, 0x1.e4507e0000000p-4, -0x1.94cec40000000p-3, 0x1.cf3dd20000000p-8, -0x1.880a620000000p-3}
}
, {{0x1.704fae0000000p-4, -0x1.12b8ba0000000p-8, 0x1.9971d80000000p-4, -0x1.c68d340000000p-3, 0x1.9e2c6c0000000p-7, 0x1.fc94500000000p-4, 0x1.52ad780000000p-7, -0x1.3ed1c40000000p-3, -0x1.9695500000000p-4, 0x1.abde5a0000000p-4, -0x1.0b1ff20000000p-3, 0x1.214bf80000000p-5, -0x1.6185120000000p-3, 0x1.dc04b80000000p-4, -0x1.3fcce60000000p-6, -0x1.22160c0000000p-5}
, {-0x1.6f4d4a0000000p-4, -0x1.63683e0000000p-9, -0x1.6d4cc00000000p-4, 0x1.ad8ac60000000p-3, -0x1.ac45d60000000p-4, -0x1.1622d80000000p-5, -0x1.2476380000000p-3, -0x1.e6322e0000000p-5, -0x1.45c6a20000000p-4, 0x1.4fcfe00000000p-3, -0x1.4c58d00000000p-6, -0x1.3af6360000000p-4, -0x1.ad75720000000p-6, 0x1.a6d5b60000000p-4, -0x1.8ed5300000000p-6, -0x1.e3251c0000000p-6}
, {0x1.ff1d480000000p-4, -0x1.1d9ed00000000p-5, -0x1.737e020000000p-4, -0x1.44e17a0000000p-4, 0x1.02e1b40000000p-3, 0x1.5f6f600000000p-4, -0x1.44962c0000000p-4, 0x1.5760720000000p-10, 0x1.7a16840000000p-5, -0x1.2fc5480000000p-12, 0x1.dc3bc20000000p-3, -0x1.d9db7e0000000p-5, 0x1.3d2ae60000000p-4, 0x1.6797840000000p-7, 0x1.ad3dd80000000p-3, -0x1.3a799a0000000p-4}
, {-0x1.5e530a0000000p-2, -0x1.ac486a0000000p-3, 0x1.5f7d500000000p-3, 0x1.cb638a0000000p-3, 0x1.551ec20000000p-3, -0x1.db642e0000000p-6, -0x1.1ddebe0000000p-3, -0x1.831c6e0000000p-4, 0x1.98d7fa0000000p-3, 0x1.bb8c120000000p-3, -0x1.c99b980000000p-3, -0x1.9845b00000000p-3, 0x1.0b5a700000000p-3, -0x1.563e560000000p-5, 0x1.2203140000000p-3, -0x1.fbf3700000000p-4}
}
, {{0x1.7c4a320000000p-5, -0x1.cd507e0000000p-3, -0x1.c2aeba0000000p-3, 0x1.3ea9140000000p-3, 0x1.6868040000000p-4, 0x1.13d2b00000000p-4, -0x1.4ac3ce0000000p-4, -0x1.429cee0000000p-3, 0x1.b5a79c0000000p-4, -0x1.152c440000000p-4, -0x1.4ebaca0000000p-3, 0x1.6a43540000000p-7, 0x1.ddae4e0000000p-3, -0x1.af0d0e0000000p-5, 0x1.0425220000000p-3, 0x1.07ea080000000p-3}
, {0x1.20c1f60000000p-5, 0x1.03dfac0000000p-4, -0x1.cbdafa0000000p-3, -0x1.e7f49a0000000p-3, -0x1.07556a0000000p-2, 0x1.a835980000000p-5, 0x1.a5ad3a0000000p-3, -0x1.d8e2c40000000p-4, 0x1.008ba80000000p-7, 0x1.7b38140000000p-3, 0x1.ccdfb60000000p-6, -0x1.473d120000000p-4, 0x1.8cb9ea0000000p-3, -0x1.bac61a0000000p-4, 0x1.1f5c160000000p-4, -0x1.c738180000000p-4}
, {0x1.129cdc0000000p-2, -0x1.8fcb240000000p-3, -0x1.6f08140000000p-4, -0x1.92e5880000000p-4, -0x1.84f86a0000000p-3, 0x1.78e1980000000p-3, 0x1.e4cca80000000p-4, -0x1.47a41c0000000p-4, -0x1.16fe700000000p-3, 0x1.34377c0000000p-3, -0x1.6896580000000p-3, 0x1.0743260000000p-3, 0x1.ec3e6a0000000p-4, -0x1.26ad060000000p-3, 0x1.3f5c8c0000000p-3, -0x1.662cf60000000p-6}
, {0x1.63ca480000000p-4, 0x1.0c5d580000000p-3, -0x1.4f87a40000000p-4, 0x1.83b9da0000000p-6, 0x1.f0975e0000000p-3, -0x1.eefa360000000p-3, 0x1.6b1e4a0000000p-4, 0x1.2a68000000000p-3, 0x1.bb97560000000p-3, 0x1.cf43e00000000p-4, 0x1.965f580000000p-4, 0x1.d3e18e0000000p-3, -0x1.a5931c0000000p-3, 0x1.93512e0000000p-4, -0x1.e180020000000p-4, 0x1.27cbb00000000p-4}
}
, {{-0x1.24c5980000000p-4, 0x1.3455820000000p-3, 0x1.871e560000000p-4, 0x1.d6b27c0000000p-4, -0x1.6f87360000000p-3, 0x1.eab1fc0000000p-6, 0x1.982cf00000000p-4, 0x1.5c1c920000000p-4, -0x1.42fc8a0000000p-3, 0x1.24d3040000000p-3, -0x1.27f35c0000000p-3, -0x1.57f0180000000p-4, 0x1.21be2a0000000p-6, 0x1.45608e0000000p-5, -0x1.f368a40000000p-4, -0x1.11bac80000000p-7}
, {0x1.b132020000000p-4, 0x1.29757c0000000p-3, -0x1.d47eb40000000p-3, -0x1.7c202c0000000p-5, -0x1.94eeaa0000000p-4, 0x1.b467ec0000000p-3, 0x1.14803e0000000p-2, 0x1.cbbb7e0000000p-4, -0x1.17f5a40000000p-3, 0x1.6505560000000p-3, -0x1.885cce0000000p-5, -0x1.da0c120000000p-6, -0x1.9eb31e0000000p-5, -0x1.82dad80000000p-5, 0x1.4a6bc60000000p-4, 0x1.3fc46c0000000p-2}
, {0x1.cd1aac0000000p-6, 0x1.4a829c0000000p-3, -0x1.cded2c0000000p-4, 0x1.bd35f60000000p-7, 0x1.b5f0380000000p-5, -0x1.62fc680000000p-3, -0x1.5e96aa0000000p-4, -0x1.7cb82a0000000p-6, -0x1.8ead960000000p-6, -0x1.eddf0a0000000p-4, -0x1.516cfc0000000p-8, 0x1.1a435c0000000p-3, -0x1.2514ce0000000p-3, 0x1.6bbf5a0000000p-3, -0x1.0aa4a80000000p-3, 0x1.0108b60000000p-3}
, {0x1.6de7a60000000p-3, 0x1.90fe900000000p-3, 0x1.b8cbfe0000000p-3, -0x1.57b8aa0000000p-4, -0x1.d9b50c0000000p-3, 0x1.2921100000000p-3, -0x1.23e2040000000p-4, -0x1.b1fd520000000p-5, 0x1.9d63320000000p-3, 0x1.22d2d40000000p-4, -0x1.54fe4c0000000p-3, 0x1.f65ab00000000p-5, -0x1.1234b60000000p-3, 0x1.f94bba0000000p-5, -0x1.17cc6c0000000p-4, 0x1.2bca740000000p-2}
}
, {{-0x1.210c460000000p-2, 0x1.8ec6940000000p-4, 0x1.5c29620000000p-3, 0x1.a184b20000000p-5, -0x1.f085600000000p-5, -0x1.9795a20000000p-3, 0x1.0aa12e0000000p-3, 0x1.4f43440000000p-4, -0x1.f45cd40000000p-4, -0x1.5d21e60000000p-6, 0x1.7e84200000000p-6, 0x1.ce459a0000000p-4, 0x1.2d47fc0000000p-3, 0x1.ec90b40000000p-3, 0x1.95931c0000000p-3, 0x1.d695b20000000p-5}
, {0x1.f25b560000000p-3, 0x1.3987f60000000p-4, 0x1.203a2a0000000p-3, -0x1.21cb6e0000000p-4, -0x1.b29a9c0000000p-3, -0x1.56f10c0000000p-2, -0x1.f43d400000000p-6, 0x1.bd12940000000p-4, -0x1.88a7f40000000p-3, 0x1.4ef04a0000000p-4, -0x1.5623c00000000p-4, -0x1.f5a3200000000p-4, 0x1.da87aa0000000p-5, 0x1.9865d00000000p-7, 0x1.a88f040000000p-4, -0x1.754d2c0000000p-3}
, {-0x1.0f282a0000000p-4, 0x1.4aa2940000000p-3, -0x1.01d5ca0000000p-3, 0x1.b0a56a0000000p-12, -0x1.18a4c80000000p-4, 0x1.bdc7d60000000p-5, -0x1.d587720000000p-3, 0x1.9784480000000p-4, -0x1.2806500000000p-4, 0x1.beef5e0000000p-4, 0x1.97f8460000000p-3, -0x1.18439a0000000p-5, -0x1.638ee40000000p-4, 0x1.9702b40000000p-4, -0x1.6890c60000000p-3, 0x1.bf37fa0000000p-4}
, {-0x1.e7845c0000000p-5, -0x1.9368460000000p-6, -0x1.4637580000000p-8, -0x1.ac44d00000000p-5, -0x1.71fdb80000000p-5, -0x1.d656000000000p-5, 0x1.df08700000000p-4, -0x1.03f5a00000000p-2, -0x1.afa4fe0000000p-5, 0x1.5495a80000000p-4, 0x1.f283fc0000000p-5, 0x1.2836320000000p-5, 0x1.da25ec0000000p-6, -0x1.78d3940000000p-3, -0x1.3402660000000p-4, 0x1.4163400000000p-5}
}
, {{0x1.31c3f40000000p-2, 0x1.d1ac740000000p-5, -0x1.8c9cc40000000p-4, 0x1.46e80c0000000p-2, -0x1.8007320000000p-5, 0x1.d7028e0000000p-6, 0x1.480afc0000000p-3, 0x1.4143320000000p-3, 0x1.c3fbee0000000p-3, 0x1.53a6b20000000p-4, 0x1.0da88e0000000p-3, 0x1.17ff300000000p-7, 0x1.b34e1a0000000p-3, 0x1.b98cd00000000p-4, 0x1.1ea2000000000p-3, 0x1.a6042a0000000p-6}
, {0x1.bc44a20000000p-11, 0x1.9fe8660000000p-5, 0x1.83775a0000000p-3, 0x1.aeb6e00000000p-14, 0x1.ddd7fc0000000p-5, -0x1.37cadc0000000p-3, 0x1.28aefc0000000p-3, 0x1.15ebac0000000p-4, 0x1.e542660000000p-3, -0x1.e508140000000p-4, -0x1.3c0b180000000p-3, -0x1.5386d20000000p-3, -0x1.d11cf20000000p-3, 0x1.43c55c0000000p-7, -0x1.5024980000000p-3, -0x1.55c5d20000000p-5}
, {-0x1.a222300000000p-8, -0x1.b78d060000000p-3, 0x1.57dc920000000p-7, -0x1.473fda0000000p-10, 0x1.9da5a00000000p-3, 0x1.0d697a0000000p-3, -0x1.189dde0000000p-4, -0x1.41d8f00000000p-3, 0x1.e4cc5a0000000p-3, 0x1.385bf20000000p-3, -0x1.2123d60000000p-4, -0x1.4da7f40000000p-6, 0x1.320d160000000p-3, -0x1.05bb280000000p-4, 0x1.84216e0000000p-4, 0x1.b1601c0000000p-3}
, {0x1.c8e8b40000000p-6, -0x1.0dc3f20000000p-3, -0x1.f1dde80000000p-4, 0x1.88baa60000000p-5, 0x1.cc24f60000000p-3, -0x1.582de40000000p-3, -0x1.5422b20000000p-3, -0x1.7ae4220000000p-4, -0x1.57f08c0000000p-3, -0x1.5a79b80000000p-4, 0x1.9851c00000000p-4, -0x1.7d36ce0000000p-4, -0x1.47f8ca0000000p-4, -0x1.f416560000000p-4, -0x1.8976ae0000000p-5, 0x1.bbbc220000000p-7}
}
, {{0x1.66933a0000000p-4, -0x1.7c42640000000p-4, 0x1.d1b5f20000000p-3, -0x1.cf03ee0000000p-6, 0x1.671cbc0000000p-3, -0x1.0beee60000000p-2, 0x1.831b000000000p-3, 0x1.b9a1c20000000p-6, -0x1.9f036c0000000p-4, 0x1.9ae1240000000p-5, 0x1.05ffe80000000p-3, 0x1.743e200000000p-3, 0x1.cdf5ac0000000p-5, 0x1.3c00320000000p-8, -0x1.8bd1580000000p-3, -0x1.9c9efa0000000p-3}
, {-0x1.3053580000000p-2, -0x1.1a42020000000p-3, -0x1.75c4c80000000p-4, 0x1.4d52320000000p-3, 0x1.7a244e0000000p-4, -0x1.3187d80000000p-3, 0x1.9b20dc0000000p-4, -0x1.72b3e20000000p-3, 0x1.77ecba0000000p-3, 0x1.9022dc0000000p-6, -0x1.b78c6c0000000p-4, 0x1.5000c80000000p-5, -0x1.8c3a940000000p-6, -0x1.63b69a0000000p-3, 0x1.20fc740000000p-3, -0x1.4388e00000000p-3}
, {0x1.0d8b260000000p-2, -0x1.0268f00000000p-2, 0x1.4c62aa0000000p-3, 0x1.b0043e0000000p-3, -0x1.dfbb660000000p-6, -0x1.66b17c0000000p-2, -0x1.0bd4b80000000p-3, -0x1.9bc7180000000p-4, 0x1.32800e0000000p-5, -0x1.9a3d540000000p-8, 0x1.2ae3260000000p-3, 0x1.71573a0000000p-4, 0x1.c24b6c0000000p-4, -0x1.6580920000000p-4, 0x1.24b50a0000000p-3, 0x1.3ed4b60000000p-3}
, {0x1.4124aa0000000p-5, -0x1.01bc8e0000000p-4, -0x1.4cd4e20000000p-3, 0x1.ef2d3a0000000p-3, -0x1.ac9cd00000000p-4, -0x1.3d4a9c0000000p-3, 0x1.8d83e80000000p-4, 0x1.ccfe040000000p-5, 0x1.4921e60000000p-4, 0x1.0740fe0000000p-4, -0x1.485d1e0000000p-4, 0x1.09afaa0000000p-5, 0x1.d4d3180000000p-5, 0x1.790e6c0000000p-3, -0x1.2925100000000p-6, 0x1.2d81940000000p-3}
}
, {{0x1.90b43e0000000p-4, -0x1.de9be60000000p-4, 0x1.fd19560000000p-4, 0x1.6d3d2a0000000p-3, -0x1.088ef40000000p-2, 0x1.5bc4a40000000p-3, -0x1.1d58140000000p-3, 0x1.a978e00000000p-3, -0x1.18f9b60000000p-4, 0x1.8afe280000000p-4, 0x1.343aac0000000p-3, 0x1.03c9f40000000p-13, -0x1.b1f1880000000p-8, -0x1.d732ea0000000p-4, 0x1.a5f5580000000p-4, -0x1.36164c0000000p-4}
, {-0x1.64856e0000000p-3, 0x1.f063ac0000000p-4, -0x1.c18ca40000000p-3, -0x1.a8a9580000000p-6, 0x1.389e100000000p-5, 0x1.0a124c0000000p-7, -0x1.bc5f9c0000000p-3, -0x1.b9b70e0000000p-6, -0x1.f29fe00000000p-5, 0x1.bcbf940000000p-4, 0x1.8a23120000000p-3, -0x1.08922a0000000p-3, 0x1.149ef20000000p-3, -0x1.1f5b120000000p-10, -0x1.2b5ce40000000p-3, -0x1.3dc00a0000000p-3}
, {-0x1.e7ea180000000p-9, 0x1.b67f860000000p-5, -0x1.b6b9240000000p-4, -0x1.b8455a0000000p-4, -0x1.42e6f00000000p-4, 0x1.59b9120000000p-4, 0x1.3f96480000000p-4, 0x1.3171500000000p-4, 0x1.9a6fb60000000p-4, -0x1.66523a0000000p-4, -0x1.76e8720000000p-6, -0x1.8dee740000000p-3, 0x1.eb5c4c0000000p-5, -0x1.7734300000000p-3, -0x1.a02d760000000p-4, 0x1.87f76c0000000p-3}
, {0x1.effee00000000p-5, -0x1.1ed4c80000000p-3, 0x1.40ff6e0000000p-3, 0x1.ab6d020000000p-3, -0x1.9b14b60000000p-4, 0x1.ec6edc0000000p-5, 0x1.4654ee0000000p-3, 0x1.0d7ef40000000p-3, 0x1.4776480000000p-3, 0x1.5b57e20000000p-7, 0x1.b277860000000p-3, -0x1.87202c0000000p-3, 0x1.0a9e4a0000000p-3, -0x1.5cf46c0000000p-6, -0x1.47824e0000000p-5, 0x1.3b636e0000000p-3}
}
, {{-0x1.bc709e0000000p-6, -0x1.25e0120000000p-2, 0x1.2e3cd40000000p-10, -0x1.7f82120000000p-4, -0x1.bbc2960000000p-3, -0x1.b8670c0000000p-5, -0x1.4a9a7a0000000p-4, -0x1.53d3da0000000p-4, -0x1.dd48ec0000000p-5, -0x1.0481fa0000000p-4, 0x1.8aecbc0000000p-5, 0x1.4c25820000000p-6, 0x1.26d2740000000p-3, 0x1.144a020000000p-3, -0x1.60f72c0000000p-3, 0x1.1c3c980000000p-3}
, {0x1.fd7b0e0000000p-6, -0x1.ead9ac0000000p-8, -0x1.00a54a0000000p-3, 0x1.d4b0fa0000000p-3, -0x1.0532840000000p-2, -0x1.1a873c0000000p-2, -0x1.e486c00000000p-5, 0x1.b471c40000000p-6, -0x1.1ceb640000000p-4, 0x1.3f7b160000000p-3, 0x1.1297a20000000p-3, -0x1.93caf20000000p-5, 0x1.d3ca9e0000000p-4, -0x1.96f3e60000000p-5, -0x1.2790ce0000000p-3, -0x1.a772920000000p-5}
, {0x1.b3f3d00000000p-7, -0x1.d1b9480000000p-3, 0x1.0791e80000000p-3, -0x1.5477020000000p-4, 0x1.0b97aa0000000p-5, -0x1.a860880000000p-4, -0x1.1045ec0000000p-2, 0x1.13189a0000000p-7, 0x1.4e6fda0000000p-3, 0x1.3681ea0000000p-6, 0x1.61edb20000000p-3, -0x1.54da820000000p-3, 0x1.0addb60000000p-2, -0x1.b6ed5e0000000p-4, 0x1.c40f380000000p-4, 0x1.caf61a0000000p-5}
, {-0x1.dcb59e0000000p-3, 0x1.67919c0000000p-3, -0x1.5cd8c60000000p-4, 0x1.64c9a00000000p-3, 0x1.4279ca0000000p-3, 0x1.3771e00000000p-3, 0x1.a7f00e0000000p-6, -0x1.ba146e0000000p-7, 0x1.bc5f520000000p-3, 0x1.35b23e0000000p-6, -0x1.01ac4c0000000p-3, 0x1.22a7940000000p-5, 0x1.4c49f40000000p-3, -0x1.0174c20000000p-5, 0x1.1f201e0000000p-5, 0x1.6c6e260000000p-3}
}
, {{0x1.d880cc0000000p-5, 0x1.996e9c0000000p-3, 0x1.1dad580000000p-3, -0x1.80fbcc0000000p-7, -0x1.9b75180000000p-4, 0x1.3140160000000p-1, -0x1.3c4a900000000p-3, -0x1.29a90a0000000p-4, 0x1.8232d20000000p-3, 0x1.1601980000000p-3, 0x1.29bc520000000p-3, 0x1.b48b6e0000000p-3, -0x1.731a7c0000000p-6, 0x1.50cede0000000p-4, 0x1.6797f40000000p-5, -0x1.e407740000000p-5}
, {-0x1.9a0b560000000p-4, -0x1.fa5ff00000000p-6, 0x1.31ca040000000p-3, 0x1.f3319c0000000p-3, 0x1.cc4a1e0000000p-4, 0x1.fb4cf40000000p-5, -0x1.867b0a0000000p-3, 0x1.a8a0da0000000p-6, 0x1.f5b2980000000p-8, 0x1.a7c2840000000p-6, -0x1.0d6b360000000p-5, -0x1.dc0dc60000000p-5, 0x1.bcdb080000000p-4, -0x1.3feaa20000000p-6, 0x1.166f6c0000000p-3, -0x1.0ee5a60000000p-7}
, {0x1.1332ac0000000p-2, 0x1.595ed20000000p-4, -0x1.83504c0000000p-4, 0x1.351aa00000000p-3, -0x1.cd6f960000000p-4, 0x1.9885280000000p-5, 0x1.21727e0000000p-4, -0x1.ab3d880000000p-5, -0x1.56ac980000000p-3, -0x1.0168800000000p-4, -0x1.c4d1e60000000p-4, -0x1.01ef380000000p-2, 0x1.d2460e0000000p-4, -0x1.6df1c60000000p-5, 0x1.9772f20000000p-7, -0x1.e167ba0000000p-4}
, {-0x1.6083e80000000p-3, -0x1.a6a9c00000000p-8, -0x1.8f2fc80000000p-4, -0x1.072b7c0000000p-2, 0x1.ac05820000000p-4, 0x1.0763460000000p-4, -0x1.010c3e0000000p-3, 0x1.402eba0000000p-3, 0x1.4e97d40000000p-8, 0x1.30ba640000000p-3, -0x1.bc543e0000000p-4, -0x1.81e5680000000p-4, -0x1.1bed8c0000000p-2, -0x1.b949d80000000p-5, -0x1.ec0f860000000p-3, 0x1.c7f9500000000p-4}
}
, {{0x1.d095ce0000000p-3, -0x1.5c23180000000p-4, -0x1.24a6fc0000000p-6, 0x1.1165a00000000p-4, -0x1.871dbc0000000p-4, 0x1.fdefde0000000p-3, -0x1.42f2a40000000p-5, 0x1.26ae260000000p-3, 0x1.2c7f460000000p-3, 0x1.d310820000000p-3, -0x1.1346700000000p-4, -0x1.2aab7e0000000p-3, -0x1.ef53a60000000p-5, 0x1.2260820000000p-3, 0x1.86058a0000000p-3, 0x1.7cd4c20000000p-7}
, {-0x1.194b3c0000000p-3, -0x1.2cfb920000000p-4, -0x1.3cf5360000000p-4, -0x1.c8d30e0000000p-9, -0x1.40c26a0000000p-3, 0x1.15e7fa0000000p-3, 0x1.3fc5fa0000000p-3, 0x1.5d05ee0000000p-4, 0x1.07d9d20000000p-3, -0x1.56c83c0000000p-5, -0x1.92dd720000000p-4, -0x1.e327380000000p-3, -0x1.0c95e00000000p-4, 0x1.38a5b60000000p-4, -0x1.b5b0920000000p-5, 0x1.6d30b80000000p-2}
, {0x1.dbef580000000p-4, -0x1.37ccea0000000p-5, -0x1.e5daca0000000p-3, 0x1.96cb480000000p-4, -0x1.899c720000000p-3, -0x1.30a8e40000000p-3, -0x1.538b000000000p-4, -0x1.c7562e0000000p-4, -0x1.6483a40000000p-3, 0x1.9372c20000000p-4, 0x1.3a8cbe0000000p-3, -0x1.38f78a0000000p-4, -0x1.a402040000000p-7, -0x1.bc765c0000000p-4, 0x1.f2b8b20000000p-4, -0x1.dd043e0000000p-5}
, {0x1.6eac920000000p-4, 0x1.316eb40000000p-4, -0x1.b8f9fe0000000p-3, -0x1.6c7a6a0000000p-4, -0x1.6ffc1e0000000p-7, 0x1.0a579c0000000p-2, 0x1.0e0fee0000000p-4, -0x1.8262c20000000p-3, 0x1.e1da960000000p-5, 0x1.d8c1520000000p-4, -0x1.cc2caa0000000p-3, -0x1.3fdeda0000000p-2, -0x1.2184ac0000000p-6, -0x1.5f37760000000p-3, -0x1.5eb4920000000p-4, -0x1.71fbec0000000p-4}
}
, {{-0x1.1873d60000000p-3, -0x1.d84d640000000p-3, -0x1.537ec00000000p-3, 0x1.7ef61e0000000p-3, -0x1.5855ae0000000p-6, 0x1.6fcdfa0000000p-7, -0x1.c146ee0000000p-4, 0x1.a72ec80000000p-3, -0x1.4303ce0000000p-3, 0x1.9707020000000p-3, 0x1.056ec40000000p-2, 0x1.40f0220000000p-4, 0x1.1bfb1a0000000p-4, -0x1.31a7140000000p-3, 0x1.7b8ff20000000p-4, -0x1.3419480000000p-3}
, {-0x1.8463ea0000000p-3, -0x1.63221c0000000p-7, -0x1.a12c400000000p-4, 0x1.76b3640000000p-9, 0x1.38d1ce0000000p-3, -0x1.06cb0a0000000p-5, -0x1.217ade0000000p-2, -0x1.7d13da0000000p-4, 0x1.16acb80000000p-5, 0x1.11c1680000000p-3, 0x1.5e325c0000000p-4, 0x1.e33a200000000p-10, -0x1.8596200000000p-3, 0x1.26db500000000p-3, 0x1.be13f60000000p-4, -0x1.008de80000000p-3}
, {0x1.bb36220000000p-6, -0x1.b53adc0000000p-3, -0x1.a1855e0000000p-9, 0x1.a4d87e0000000p-3, -0x1.4a28180000000p-3, 0x1.8c001e0000000p-2, -0x1.495ab60000000p-3, 0x1.5932cc0000000p-4, 0x1.97bf300000000p-7, -0x1.5363440000000p-14, -0x1.03ea2e0000000p-5, -0x1.7eb82a0000000p-3, -0x1.1d16d40000000p-6, -0x1.e803d40000000p-7, 0x1.03796c0000000p-4, -0x1.4db3f00000000p-4}
, {-0x1.fa4e500000000p-3, -0x1.4006fe0000000p-3, -0x1.b989540000000p-4, 0x1.7831660000000p-3, 0x1.72fde20000000p-6, 0x1.5aaad00000000p-5, -0x1.06504c0000000p-3, 0x1.2379e80000000p-3, 0x1.0b49740000000p-2, -0x1.84fe280000000p-6, 0x1.eabacc0000000p-4, -0x1.b481320000000p-3, -0x1.8b55020000000p-4, -0x1.ee557c0000000p-4, -0x1.e7c6f80000000p-4, -0x1.f500f80000000p-4}
}
, {{-0x1.3ffe760000000p-3, 0x1.9fb2fe0000000p-5, -0x1.0747040000000p-3, -0x1.bb4bba0000000p-6, -0x1.01ef440000000p-9, -0x1.1dae160000000p-2, 0x1.9415260000000p-3, 0x1.7a57f40000000p-6, -0x1.be53200000000p-3, 0x1.0aba240000000p-3, -0x1.440e260000000p-4, 0x1.c86bd60000000p-6, 0x1.4495880000000p-3, -0x1.0aebea0000000p-3, 0x1.94960a0000000p-7, -0x1.02d7aa0000000p-5}
, {-0x1.d5e2860000000p-4, -0x1.f495460000000p-9, -0x1.3ae11a0000000p-5, 0x1.1c07ae0000000p-3, -0x1.dcb47e0000000p-9, -0x1.b8d4180000000p-2, 0x1.ed9f520000000p-5, -0x1.33c07a0000000p-7, -0x1.0e137a0000000p-6, 0x1.2abfb60000000p-3, 0x1.4b7f0e0000000p-4, 0x1.57c8760000000p-5, 0x1.d73a880000000p-3, 0x1.2a9c000000000p-4, 0x1.79b98a0000000p-5, -0x1.2afbbc0000000p-3}
, {-0x1.fab5300000000p-3, 0x1.812fa80000000p-3, 0x1.f0ab860000000p-4, -0x1.2d30e60000000p-3, 0x1.86c7900000000p-5, -0x1.6ddf4e0000000p-2, -0x1.1359640000000p-3, -0x1.584d980000000p-3, -0x1.1b350c0000000p-4, 0x1.5a271c0000000p-3, -0x1.7cfdda0000000p-3, 0x1.7743b80000000p-4, 0x1.de86da0000000p-4, -0x1.179f4c0000000p-3, -0x1.e752080000000p-6, 0x1.2624b80000000p-3}
, {-0x1.dd2a200000000p-4, 0x1.d8df480000000p-4, 0x1.8b5e9a0000000p-6, -0x1.8f8eec0000000p-4, -0x1.27a0820000000p-6, -0x1.75a7160000000p-2, 0x1.2031c80000000p-3, -0x1.10e3b60000000p-3, -0x1.ecdb800000000p-7, -0x1.408d340000000p-5, -0x1.4966d80000000p-4, -0x1.66a0a40000000p-4, 0x1.12b1f60000000p-3, 0x1.ca30fe0000000p-4, 0x1.3a59360000000p-5, 0x1.a2d5680000000p-3}
}
, {{-0x1.9b3d140000000p-4, -0x1.0d3ab00000000p-7, -0x1.b801220000000p-3, 0x1.552ba00000000p-3, -0x1.3b1b160000000p-3, -0x1.2f08420000000p-3, 0x1.9908a20000000p-3, -0x1.5f2c980000000p-8, 0x1.dc08440000000p-4, 0x1.d133a60000000p-4, 0x1.5c0ca80000000p-4, -0x1.ed2b280000000p-5, 0x1.03c7780000000p-3, 0x1.28f9620000000p-3, -0x1.04453a0000000p-3, 0x1.a131ae0000000p-3}
, {-0x1.dd66580000000p-4, -0x1.486b720000000p-6, 0x1.1a217a0000000p-3, -0x1.ef5d0e0000000p-5, -0x1.7a06540000000p-4, 0x1.1ae25a0000000p-2, -0x1.48e0100000000p-3, 0x1.29c9dc0000000p-5, 0x1.65737c0000000p-4, -0x1.2f68e40000000p-5, 0x1.eef4e20000000p-6, -0x1.3b63480000000p-3, -0x1.6d4e660000000p-4, -0x1.a3fd540000000p-5, 0x1.206ddc0000000p-4, -0x1.1dbb1c0000000p-5}
, {-0x1.1f8ec40000000p-7, 0x1.fe0b4a0000000p-4, -0x1.3fd36a0000000p-2, -0x1.563aa80000000p-7, 0x1.3b4bde0000000p-5, 0x1.7036860000000p-2, 0x1.469c960000000p-3, -0x1.58e12e0000000p-3, 0x1.9034220000000p-5, -0x1.d525aa0000000p-4, -0x1.ef9dca0000000p-4, -0x1.b8f2800000000p-6, 0x1.6db7f00000000p-6, -0x1.dda3c20000000p-5, -0x1.6696bc0000000p-3, 0x1.95f3280000000p-3}
, {0x1.70d6800000000p-3, 0x1.1537940000000p-3, 0x1.a1c4140000000p-3, 0x1.1db8c60000000p-6, 0x1.8ced6a0000000p-3, -0x1.a31e940000000p-10, -0x1.2c81740000000p-4, 0x1.0bbdd00000000p-3, 0x1.b5444a0000000p-3, 0x1.9f16f40000000p-3, -0x1.0c57400000000p-3, 0x1.a2c05e0000000p-4, -0x1.3e748a0000000p-4, -0x1.06095e0000000p-3, -0x1.19d17a0000000p-3, -0x1.10ca340000000p-3}
}
, {{-0x1.4afa2e0000000p-4, -0x1.a728580000000p-14, -0x1.c61de20000000p-4, 0x1.0b76660000000p-3, 0x1.9f9c6a0000000p-3, -0x1.650e160000000p-3, -0x1.c9a2f00000000p-3, 0x1.03fb9a0000000p-2, 0x1.ecab6e0000000p-4, 0x1.17e1cc0000000p-4, 0x1.b67d880000000p-3, 0x1.fbbbca0000000p-3, -0x1.626eb20000000p-3, 0x1.29388a0000000p-4, 0x1.64572a0000000p-3, 0x1.dd41f40000000p-4}
, {0x1.20e0240000000p-2, -0x1.09b5aa0000000p-6, -0x1.1fded60000000p-3, -0x1.2a00700000000p-6, 0x1.5bfc9e0000000p-5, 0x1.127e0a0000000p-7, 0x1.7f24c60000000p-3, -0x1.4b907c0000000p-4, 0x1.430ade0000000p-3, -0x1.344bee0000000p-3, 0x1.78b2180000000p-3, -0x1.2901000000000p-4, 0x1.0177340000000p-3, -0x1.69c9b80000000p-3, -0x1.cba6360000000p-6, -0x1.5e097c0000000p-3}
, {0x1.e7ccb00000000p-3, -0x1.2289780000000p-5, 0x1.26ef240000000p-3, 0x1.39fc7e0000000p-3, -0x1.4f6e500000000p-3, 0x1.f3d9c40000000p-3, -0x1.25ad0a0000000p-4, 0x1.8af7400000000p-3, 0x1.fd19dc0000000p-4, -0x1.fac6680000000p-4, 0x1.3c401a0000000p-3, 0x1.e9ffbc0000000p-4, -0x1.3edd6a0000000p-2, -0x1.44be420000000p-3, -0x1.7a423a0000000p-3, -0x1.3c8fbe0000000p-3}
, {0x1.9967a80000000p-4, -0x1.afb89e0000000p-3, -0x1.649d1e0000000p-6, -0x1.9b333c0000000p-5, -0x1.95a0400000000p-5, 0x1.122cfe0000000p-2, -0x1.fa24a20000000p-6, 0x1.f7ee8e0000000p-6, 0x1.7e52460000000p-4, -0x1.0a54e60000000p-4, -0x1.5581e40000000p-3, -0x1.1d65340000000p-6, -0x1.98f3f60000000p-3, 0x1.570d080000000p-5, -0x1.616ed80000000p-4, -0x1.0ccb540000000p-3}
}
, {{-0x1.7f08840000000p-2, 0x1.788f6a0000000p-3, 0x1.3b0d9c0000000p-5, 0x1.39d35e0000000p-3, -0x1.6cd7b40000000p-10, 0x1.979d000000000p-3, -0x1.6956ec0000000p-4, 0x1.a56dd80000000p-4, 0x1.f9cf4e0000000p-5, 0x1.0f89f00000000p-8, 0x1.3def920000000p-3, 0x1.3710a40000000p-4, -0x1.d8b6ae0000000p-3, -0x1.00349c0000000p-4, 0x1.e2fa960000000p-4, 0x1.91c5200000000p-4}
, {0x1.0cb1420000000p-2, 0x1.cec25c0000000p-5, 0x1.4389f80000000p-8, -0x1.2b6a780000000p-3, -0x1.07b0d60000000p-4, -0x1.bdc58c0000000p-9, 0x1.3e44380000000p-4, 0x1.beb48a0000000p-3, 0x1.f434b60000000p-4, 0x1.2743e00000000p-3, 0x1.558c9a0000000p-4, 0x1.92d6580000000p-5, 0x1.600a4e0000000p-5, 0x1.8981700000000p-4, 0x1.b8e7620000000p-4, -0x1.bdb3f00000000p-5}
, {0x1.ba778a0000000p-4, -0x1.27d22a0000000p-4, 0x1.0865980000000p-7, 0x1.001dca0000000p-3, 0x1.9488f80000000p-3, -0x1.e194da0000000p-8, -0x1.4b018c0000000p-3, 0x1.74a2c20000000p-4, 0x1.64a5c60000000p-5, 0x1.d4fe200000000p-4, 0x1.529a360000000p-4, 0x1.4cd4fc0000000p-4, 0x1.2a7e000000000p-5, 0x1.937c040000000p-7, 0x1.ef439e0000000p-4, 0x1.c646c80000000p-3}
, {0x1.6268f40000000p-4, 0x1.8336e80000000p-4, -0x1.287a6a0000000p-5, 0x1.122a840000000p-3, 0x1.d9538a0000000p-4, 0x1.78a2180000000p-3, -0x1.eb2fa60000000p-6, 0x1.80be2e0000000p-3, -0x1.2cc8c20000000p-4, 0x1.317c2c0000000p-4, 0x1.bc34280000000p-5, -0x1.3cb8200000000p-3, 0x1.15e2480000000p-4, 0x1.9343440000000p-4, 0x1.54e0ac0000000p-4, -0x1.f7cfd20000000p-7}
}
, {{-0x1.01ff020000000p-3, 0x1.cfc6000000000p-6, -0x1.3c6a420000000p-3, 0x1.933ce00000000p-4, 0x1.1199740000000p-3, -0x1.d2718e0000000p-3, -0x1.ac28a00000000p-3, 0x1.424c920000000p-3, 0x1.6a71320000000p-4, -0x1.e67a7a0000000p-5, 0x1.982a940000000p-4, -0x1.4cda1c0000000p-3, -0x1.675cb60000000p-3, 0x1.b644420000000p-3, 0x1.15de6e0000000p-4, 0x1.46e4ac0000000p-4}
, {-0x1.4c21280000000p-3, 0x1.209a060000000p-5, 0x1.9f52260000000p-3, 0x1.95a1f80000000p-3, 0x1.4cacf00000000p-4, -0x1.6d5d540000000p-2, -0x1.a6f0080000000p-3, 0x1.80f0ce0000000p-3, -0x1.536f060000000p-3, -0x1.dc90460000000p-4, -0x1.f19d3a0000000p-4, -0x1.b7e9220000000p-5, -0x1.d47c940000000p-3, 0x1.5a90880000000p-3, 0x1.332b640000000p-3, -0x1.b1e34e0000000p-3}
, {-0x1.d433c60000000p-4, -0x1.eb102c0000000p-6, -0x1.1912460000000p-5, 0x1.61c5b20000000p-5, -0x1.3f93620000000p-3, -0x1.8306540000000p-4, -0x1.4a05320000000p-2, 0x1.d4520e0000000p-4, -0x1.0654900000000p-3, 0x1.e4e1600000000p-6, 0x1.9978680000000p-5, 0x1.feb3760000000p-5, -0x1.130d2e0000000p-3, 0x1.62b0a40000000p-3, -0x1.21b4be0000000p-5, -0x1.e3dd280000000p-4}
, {0x1.3523bc0000000p-3, -0x1.8756be0000000p-6, -0x1.20896e0000000p-6, -0x1.7ff32c0000000p-3, 0x1.c8d2e00000000p-3, -0x1.7daaa00000000p-2, 0x1.3a038c0000000p-3, 0x1.430dae0000000p-3, -0x1.37dedc0000000p-3, -0x1.190f420000000p-4, -0x1.609dd60000000p-5, -0x1.691a2a0000000p-3, 0x1.a119380000000p-3, 0x1.ddc78a0000000p-7, 0x1.52ee9a0000000p-4, -0x1.e6558e0000000p-4}
}
, {{-0x1.02582a0000000p-3, 0x1.2072140000000p-3, 0x1.f145be0000000p-6, 0x1.a8f3760000000p-4, 0x1.7db2e60000000p-4, 0x1.215ee00000000p-3, -0x1.89dc060000000p-3, -0x1.0863a60000000p-3, 0x1.a2d0360000000p-4, -0x1.8d91aa0000000p-4, -0x1.0ff2660000000p-7, 0x1.1d502e0000000p-3, -0x1.9e0e860000000p-6, 0x1.de2e680000000p-4, -0x1.e393d60000000p-7, 0x1.0f77000000000p-2}
, {0x1.4a66580000000p-3, 0x1.b03f260000000p-4, 0x1.ed0cb00000000p-6, 0x1.9ab7300000000p-4, -0x1.8b25340000000p-4, 0x1.b928f80000000p-2, 0x1.7f7b540000000p-5, -0x1.d0630e0000000p-3, -0x1.1b26360000000p-6, -0x1.dad9d20000000p-3, 0x1.8e61d80000000p-4, 0x1.2a1fcc0000000p-3, 0x1.9d0e460000000p-4, -0x1.a41d5e0000000p-3, 0x1.bee8080000000p-5, 0x1.eeba840000000p-5}
, {-0x1.3730b60000000p-3, 0x1.cd94ba0000000p-4, -0x1.6e72c00000000p-3, -0x1.1631220000000p-4, 0x1.9f42640000000p-5, 0x1.6d77e80000000p-3, 0x1.e21f040000000p-7, 0x1.5580260000000p-3, -0x1.66fb100000000p-5, 0x1.f7f9180000000p-5, 0x1.aa40e20000000p-4, 0x1.23ff5c0000000p-3, 0x1.d36f480000000p-6, -0x1.e64abc0000000p-4, -0x1.119f3e0000000p-4, 0x1.2297460000000p-5}
, {0x1.be30d60000000p-3, -0x1.8e78f00000000p-3, 0x1.b5e4d20000000p-4, 0x1.a2e2800000000p-4, 0x1.5e31da0000000p-4, 0x1.42c2500000000p-2, -0x1.0c04da0000000p-4, -0x1.3291540000000p-3, 0x1.ef7ba60000000p-3, -0x1.d6a4d40000000p-3, -0x1.1254000000000p-3, 0x1.5261960000000p-3, -0x1.28beea0000000p-2, 0x1.1bc8040000000p-3, 0x1.a013e40000000p-5, -0x1.f048ac0000000p-4}
}
, {{0x1.c90bb40000000p-8, 0x1.83984c0000000p-3, 0x1.b64c2a0000000p-4, 0x1.daa7ca0000000p-5, 0x1.ba43c80000000p-4, -0x1.08c6940000000p-2, -0x1.d87cfc0000000p-4, 0x1.151b180000000p-3, -0x1.b3d21e0000000p-4, -0x1.3c46fc0000000p-7, 0x1.4a20340000000p-5, -0x1.bcdc740000000p-4, 0x1.684ad20000000p-4, -0x1.3443760000000p-3, 0x1.b486700000000p-4, -0x1.4dfa560000000p-3}
, {-0x1.7c5d440000000p-7, -0x1.2a393c0000000p-5, 0x1.538b3e0000000p-4, -0x1.119d680000000p-3, -0x1.2b50fa0000000p-3, -0x1.98d3c00000000p-5, 0x1.70da2e0000000p-4, -0x1.4498b00000000p-3, -0x1.7767c20000000p-3, -0x1.2b8cd40000000p-3, -0x1.132ad80000000p-3, -0x1.93daea0000000p-4, -0x1.748de80000000p-3, -0x1.8694820000000p-4, -0x1.89f6aa0000000p-3, -0x1.799e560000000p-6}
, {-0x1.53b3ec0000000p-5, 0x1.5da04a0000000p-4, 0x1.426bc20000000p-3, -0x1.653df60000000p-4, -0x1.1e59e60000000p-3, -0x1.9144a40000000p-2, 0x1.665fd40000000p-4, -0x1.5068220000000p-3, -0x1.3f86a60000000p-5, 0x1.90d2080000000p-4, 0x1.34d5ea0000000p-3, 0x1.be5f740000000p-3, 0x1.d5c5a00000000p-4, 0x1.7219ea0000000p-4, 0x1.3315b80000000p-3, -0x1.8e32e20000000p-4}
, {-0x1.15e92c0000000p-7, 0x1.3df92a0000000p-3, 0x1.afcbf40000000p-3, -0x1.a923340000000p-3, 0x1.1006000000000p-3, 0x1.058a620000000p-3, -0x1.bb886e0000000p-4, -0x1.25fdce0000000p-6, 0x1.1af8740000000p-3, -0x1.334c160000000p-3, 0x1.c25c2a0000000p-3, 0x1.3782860000000p-4, 0x1.c2cd520000000p-8, -0x1.fec5900000000p-7, -0x1.a54d120000000p-4, 0x1.b211e00000000p-6}
}
}
;

#undef INPUT_CHANNELS
#undef CONV_FILTERS
#undef CONV_KERNEL_SIZE
#undef CONV_GROUPS