/**
  ******************************************************************************
  * @file    weights/conv1d.cc
  * @author  Pierre-Emmanuel Novac <penovac@unice.fr>, LEAT, CNRS, Université Côte d'Azur, France
  * @version 1.0.0
  * @date    24 march 2020
  * @brief   Template generating plain C code for the implementation of Convolutional Neural Networks on MCU
  */

#include <stdint.h>

#define INPUT_CHANNELS    1
#define CONV_FILTERS      8
#define CONV_KERNEL_SIZE  20
#define CONV_GROUPS       1


const float  conv1d_45_bias[CONV_FILTERS] = {0x1.6664c60000000p-8, -0x1.03ab300000000p-6, -0x1.2b6c020000000p-4, -0x1.741afe0000000p-7, -0x1.94517a0000000p-7, -0x1.2b08d60000000p-6, 0x1.9756880000000p-8, -0x1.f43df80000000p-6}
;

const float  conv1d_45_kernel[CONV_FILTERS][CONV_KERNEL_SIZE][INPUT_CHANNELS / CONV_GROUPS] = {{{0x1.c6defa0000000p-4}
, {-0x1.fcf5ca0000000p-4}
, {0x1.91b4500000000p-4}
, {0x1.86abd40000000p-5}
, {-0x1.c0ae120000000p-3}
, {-0x1.b3eb5a0000000p-4}
, {0x1.5477c40000000p-4}
, {-0x1.171a180000000p-3}
, {0x1.3119900000000p-4}
, {0x1.54a6b80000000p-2}
, {-0x1.78ada20000000p-4}
, {0x1.08d3b20000000p-3}
, {-0x1.f01b7a0000000p-3}
, {-0x1.2301480000000p-2}
, {-0x1.3bfc6e0000000p-5}
, {-0x1.75c45e0000000p-4}
, {0x1.976da40000000p-4}
, {0x1.73d3c40000000p-3}
, {0x1.12621e0000000p-3}
, {0x1.c9eaa80000000p-5}
}
, {{-0x1.098a200000000p-3}
, {-0x1.14c7e20000000p-8}
, {-0x1.1873100000000p-4}
, {0x1.44f8ec0000000p-4}
, {-0x1.c48e000000000p-3}
, {0x1.94712a0000000p-7}
, {-0x1.b657080000000p-5}
, {0x1.40bd1e0000000p-3}
, {0x1.a79f500000000p-4}
, {-0x1.647d660000000p-4}
, {0x1.8829e00000000p-5}
, {0x1.ddec080000000p-4}
, {0x1.f5a9960000000p-3}
, {-0x1.02c9fe0000000p-2}
, {-0x1.8cc4100000000p-3}
, {0x1.aab5fa0000000p-4}
, {0x1.bf808a0000000p-3}
, {-0x1.13e0580000000p-2}
, {-0x1.03cdfe0000000p-4}
, {0x1.c7d5820000000p-3}
}
, {{0x1.73b6e40000000p-5}
, {-0x1.86f3f60000000p-3}
, {-0x1.bab8900000000p-3}
, {-0x1.6a35a80000000p-3}
, {-0x1.5f71d40000000p-3}
, {0x1.9ceab00000000p-4}
, {0x1.6e24140000000p-7}
, {0x1.df94580000000p-5}
, {0x1.0b91620000000p-2}
, {0x1.f14a520000000p-3}
, {-0x1.066bc00000000p-3}
, {0x1.4fc4880000000p-3}
, {0x1.1e18760000000p-7}
, {0x1.4fc0320000000p-9}
, {-0x1.a201be0000000p-4}
, {-0x1.75aac80000000p-4}
, {-0x1.0f27140000000p-3}
, {-0x1.aed00e0000000p-4}
, {-0x1.0c7e300000000p-3}
, {-0x1.7e1a9c0000000p-3}
}
, {{0x1.f2e9e80000000p-5}
, {-0x1.42679a0000000p-4}
, {-0x1.6a18700000000p-3}
, {0x1.3f4e140000000p-3}
, {-0x1.826cb20000000p-4}
, {0x1.fa2f180000000p-4}
, {0x1.7734ac0000000p-3}
, {0x1.df11280000000p-8}
, {-0x1.ba90740000000p-3}
, {0x1.69db2e0000000p-4}
, {-0x1.ac32fa0000000p-5}
, {0x1.3f3abe0000000p-4}
, {-0x1.97edd00000000p-4}
, {0x1.fe87c20000000p-3}
, {-0x1.2105a60000000p-7}
, {-0x1.08c4920000000p-2}
, {0x1.826ae60000000p-3}
, {-0x1.44579e0000000p-3}
, {-0x1.4b432c0000000p-3}
, {0x1.d7de600000000p-4}
}
, {{-0x1.10c1020000000p-5}
, {0x1.2357e60000000p-3}
, {0x1.8585300000000p-3}
, {-0x1.04951c0000000p-3}
, {0x1.26f9160000000p-4}
, {0x1.c442360000000p-6}
, {0x1.f7df840000000p-6}
, {-0x1.8e3a740000000p-3}
, {0x1.1fdfb60000000p-3}
, {-0x1.fda48e0000000p-3}
, {-0x1.7bab560000000p-6}
, {0x1.0d5fbc0000000p-2}
, {0x1.41a49c0000000p-3}
, {-0x1.d3d7e00000000p-5}
, {0x1.20b7360000000p-4}
, {-0x1.1e85420000000p-6}
, {0x1.a6422e0000000p-3}
, {-0x1.167b300000000p-5}
, {-0x1.8113800000000p-3}
, {-0x1.b4f4640000000p-3}
}
, {{0x1.bf2f8e0000000p-3}
, {0x1.81335c0000000p-3}
, {-0x1.f95b260000000p-4}
, {-0x1.b17e600000000p-3}
, {0x1.417c980000000p-4}
, {0x1.f036340000000p-3}
, {0x1.f1b4ce0000000p-3}
, {0x1.bf3f1c0000000p-7}
, {-0x1.0733f20000000p-2}
, {-0x1.cead940000000p-3}
, {0x1.ba85600000000p-6}
, {0x1.c4ce7a0000000p-3}
, {-0x1.4ef4420000000p-4}
, {0x1.df7cc00000000p-4}
, {-0x1.b1fa560000000p-3}
, {-0x1.22d8f00000000p-5}
, {-0x1.76bb660000000p-4}
, {0x1.c6d8b80000000p-4}
, {-0x1.4d73f20000000p-7}
, {0x1.fe5e4e0000000p-5}
}
, {{-0x1.13df8a0000000p-5}
, {-0x1.3c856e0000000p-4}
, {-0x1.2d6ee00000000p-4}
, {0x1.a6999a0000000p-5}
, {-0x1.bec9ce0000000p-4}
, {-0x1.e5b9ce0000000p-4}
, {-0x1.33b6dc0000000p-4}
, {0x1.0316360000000p-4}
, {0x1.3f514a0000000p-3}
, {0x1.3d69900000000p-7}
, {0x1.40252a0000000p-3}
, {0x1.f619420000000p-4}
, {0x1.f9ded40000000p-3}
, {-0x1.aa0cee0000000p-3}
, {-0x1.1b82720000000p-2}
, {-0x1.a8e6ae0000000p-3}
, {0x1.7a546c0000000p-5}
, {0x1.943ae80000000p-3}
, {-0x1.00e5200000000p-6}
, {0x1.c49eca0000000p-4}
}
, {{-0x1.8912a20000000p-3}
, {0x1.835f8a0000000p-3}
, {0x1.edd9fc0000000p-6}
, {-0x1.71c39e0000000p-4}
, {-0x1.da04780000000p-6}
, {-0x1.1e4da00000000p-3}
, {-0x1.bf2fe60000000p-6}
, {-0x1.19cdf60000000p-6}
, {-0x1.a28aee0000000p-5}
, {-0x1.614fce0000000p-5}
, {0x1.85893e0000000p-7}
, {-0x1.8cb2880000000p-4}
, {-0x1.33dabc0000000p-4}
, {0x1.e836400000000p-4}
, {0x1.c7d9660000000p-4}
, {0x1.c086600000000p-7}
, {-0x1.2d93080000000p-6}
, {-0x1.c4691a0000000p-6}
, {0x1.7c91ce0000000p-4}
, {0x1.a00a6a0000000p-3}
}
}
;

#undef INPUT_CHANNELS
#undef CONV_FILTERS
#undef CONV_KERNEL_SIZE
#undef CONV_GROUPS