/**
  ******************************************************************************
  * @file    weights/conv1d.cc
  * @author  Pierre-Emmanuel Novac <penovac@unice.fr>, LEAT, CNRS, Université Côte d'Azur, France
  * @version 1.0.0
  * @date    24 march 2020
  * @brief   Template generating plain C code for the implementation of Convolutional Neural Networks on MCU
  */

#include <stdint.h>

#define INPUT_CHANNELS    32
#define CONV_FILTERS      64
#define CONV_KERNEL_SIZE  2
#define CONV_GROUPS       1


const float  conv1d_48_bias[CONV_FILTERS] = {0x1.1d84ee0000000p-3, -0x1.b242aa0000000p-5, 0x1.d5a2160000000p-7, 0x1.70e3ec0000000p-4, 0x1.50623c0000000p-4, 0x1.d49f0c0000000p-5, 0x1.93d3a80000000p-5, -0x1.de58180000000p-5, -0x1.1e1a960000000p-3, 0x1.37b49e0000000p-3, 0x1.ef2b800000000p-6, 0x1.47cfe00000000p-3, 0x1.2058ce0000000p-5, -0x1.58a2e20000000p-6, 0x1.6a1cce0000000p-5, 0x1.f6751c0000000p-4, -0x1.9ab0220000000p-7, 0x1.22182e0000000p-3, 0x1.b59cb40000000p-4, 0x1.a89f800000000p-5, 0x1.51a5960000000p-5, 0x1.d2e9a20000000p-5, 0x1.b84aea0000000p-4, -0x1.0f6d1c0000000p-6, 0x1.c82b0e0000000p-4, 0x1.fd47340000000p-5, -0x1.dbe5880000000p-10, 0x1.220a5c0000000p-6, -0x1.7353980000000p-4, 0x1.b5bbf20000000p-4, 0x1.0fad340000000p-3, 0x1.fb04500000000p-5, 0x1.14d2340000000p-3, 0x1.0852500000000p-3, 0x1.c9075a0000000p-4, -0x1.7378dc0000000p-4, -0x1.d09e300000000p-6, -0x1.6b8a520000000p-5, -0x1.14ae120000000p-4, 0x1.49a5780000000p-4, 0x1.f95d8e0000000p-4, 0x1.5696740000000p-3, 0x1.be25640000000p-5, -0x1.2266360000000p-4, 0x1.1c935a0000000p-3, 0x1.9752960000000p-5, 0x1.29143a0000000p-4, 0x1.cf22700000000p-3, -0x1.0c15960000000p-5, 0x1.aa63380000000p-4, 0x1.1d32840000000p-4, 0x1.46f8f80000000p-2, 0x1.fc3f3e0000000p-4, -0x1.8d09320000000p-7, -0x1.e5fdda0000000p-7, 0x1.45fd420000000p-5, -0x1.beb49c0000000p-6, 0x1.e3b6800000000p-6, 0x1.531d140000000p-5, -0x1.6141fc0000000p-8, 0x1.913c860000000p-4, 0x1.fced400000000p-5, 0x1.8f9ac20000000p-6, -0x1.dfda340000000p-5}
;

const float  conv1d_48_kernel[CONV_FILTERS][CONV_KERNEL_SIZE][INPUT_CHANNELS / CONV_GROUPS] = {{{0x1.7b8e020000000p-4, 0x1.6961120000000p-3, -0x1.05f1d80000000p-2, -0x1.ca9ba40000000p-3, -0x1.546b0c0000000p-10, -0x1.cc21260000000p-7, -0x1.65e00a0000000p-3, 0x1.8ab8040000000p-3, -0x1.4638aa0000000p-5, 0x1.7a9b840000000p-4, -0x1.db07000000000p-5, -0x1.aa4d6e0000000p-4, 0x1.9310ea0000000p-2, 0x1.24c7e40000000p-3, 0x1.0ec7c00000000p-3, -0x1.0ee4ca0000000p-3, -0x1.35ae240000000p-3, -0x1.de86120000000p-6, -0x1.fe8ba00000000p-4, 0x1.69b9480000000p-3, 0x1.7795ee0000000p-5, 0x1.6fad560000000p-4, 0x1.e3db4a0000000p-6, -0x1.5a60de0000000p-3, -0x1.9c0ef40000000p-5, 0x1.6438b00000000p-3, 0x1.7579a40000000p-11, 0x1.2a105e0000000p-3, -0x1.80ec260000000p-8, 0x1.8a5f2c0000000p-4, -0x1.5517b00000000p-4, -0x1.56f0d00000000p-4}
, {0x1.5f8f6c0000000p-3, -0x1.2f1a2a0000000p-5, 0x1.7b8f6c0000000p-4, -0x1.ac1ae20000000p-3, -0x1.3e55140000000p-5, -0x1.f6536a0000000p-4, 0x1.9440c60000000p-4, -0x1.e50a3e0000000p-5, -0x1.5e24d00000000p-4, -0x1.45ca660000000p-3, 0x1.1661f20000000p-7, -0x1.3cf2b00000000p-3, 0x1.ee2e8c0000000p-6, 0x1.25ae780000000p-4, 0x1.cd97e00000000p-3, 0x1.d504f40000000p-6, -0x1.798e580000000p-9, -0x1.0e47d20000000p-4, -0x1.564a8e0000000p-4, -0x1.fe220e0000000p-4, -0x1.210ba40000000p-2, -0x1.3692de0000000p-4, -0x1.a76b8c0000000p-4, 0x1.349e300000000p-3, -0x1.d6a1ce0000000p-5, 0x1.32cecc0000000p-3, 0x1.8a6d440000000p-9, -0x1.b8cdf80000000p-5, 0x1.a346ca0000000p-3, -0x1.41bd900000000p-5, -0x1.b2b2000000000p-3, -0x1.27ce2e0000000p-3}
}
, {{0x1.74361a0000000p-3, 0x1.68d7460000000p-4, 0x1.2ad6900000000p-9, 0x1.7b1e640000000p-5, -0x1.631e6a0000000p-6, -0x1.509c5a0000000p-3, 0x1.552fe20000000p-3, 0x1.88d1000000000p-7, -0x1.a25d140000000p-3, 0x1.4cd49c0000000p-3, 0x1.75a7280000000p-3, 0x1.e6cc200000000p-4, 0x1.f2c5400000000p-6, -0x1.8899600000000p-6, 0x1.3a3b820000000p-4, -0x1.40482e0000000p-4, -0x1.389b600000000p-3, -0x1.0176840000000p-4, 0x1.e1e63c0000000p-4, -0x1.d00c7a0000000p-7, -0x1.4cae220000000p-4, -0x1.4ec44a0000000p-3, 0x1.138c740000000p-3, 0x1.1d7bf20000000p-3, -0x1.ec47be0000000p-4, -0x1.889de40000000p-3, 0x1.06ec500000000p-4, -0x1.38a1720000000p-5, 0x1.1bb2ec0000000p-4, -0x1.35f6060000000p-3, 0x1.43ff720000000p-4, -0x1.47f4e20000000p-2}
, {0x1.a429b40000000p-3, -0x1.520c0c0000000p-5, 0x1.09e1c40000000p-4, 0x1.7216820000000p-8, -0x1.f580f40000000p-5, -0x1.057c940000000p-2, 0x1.dc1f080000000p-7, -0x1.3adcc20000000p-4, -0x1.ac55be0000000p-4, -0x1.430ca00000000p-6, 0x1.1b08520000000p-4, -0x1.9a0dec0000000p-6, 0x1.209ffa0000000p-4, 0x1.64a2fc0000000p-3, -0x1.ee63f00000000p-4, 0x1.d3abb00000000p-4, -0x1.46c8880000000p-3, 0x1.bf81040000000p-4, 0x1.1f0a060000000p-6, 0x1.c4297e0000000p-5, 0x1.ac0fba0000000p-5, 0x1.ad354c0000000p-3, -0x1.360bcc0000000p-5, 0x1.3670040000000p-6, 0x1.218a880000000p-4, -0x1.a8a9ea0000000p-5, 0x1.2907ee0000000p-3, -0x1.686c1a0000000p-4, 0x1.fd13880000000p-8, 0x1.1cfa460000000p-4, 0x1.d0aa480000000p-4, -0x1.5f69080000000p-2}
}
, {{-0x1.ed33b40000000p-3, 0x1.a8588a0000000p-5, 0x1.a6a77c0000000p-3, 0x1.930aa20000000p-4, -0x1.8f681e0000000p-4, 0x1.4dd02e0000000p-11, -0x1.93d1fc0000000p-3, 0x1.a2ed940000000p-3, -0x1.c07b4a0000000p-4, -0x1.f4605e0000000p-4, 0x1.10aadc0000000p-3, 0x1.4caec00000000p-4, 0x1.57370a0000000p-3, 0x1.b03c7e0000000p-4, -0x1.823b960000000p-6, 0x1.1798de0000000p-3, 0x1.e982bc0000000p-4, -0x1.0ae44e0000000p-4, 0x1.6b8abc0000000p-3, 0x1.e386e80000000p-4, 0x1.999b420000000p-6, -0x1.0386f00000000p-2, 0x1.ea7c7c0000000p-4, 0x1.f1d2f00000000p-4, -0x1.f6f7880000000p-3, -0x1.a0fdd20000000p-5, 0x1.22db900000000p-3, -0x1.b155940000000p-6, 0x1.7ed5b20000000p-7, 0x1.80503a0000000p-3, -0x1.7819300000000p-4, -0x1.a30ed20000000p-7}
, {-0x1.c99a860000000p-5, -0x1.18ff360000000p-3, 0x1.5affba0000000p-7, -0x1.0b1d360000000p-4, -0x1.4ce1ca0000000p-4, -0x1.7005fe0000000p-3, 0x1.eddec80000000p-4, 0x1.247e5e0000000p-4, -0x1.e533ae0000000p-5, 0x1.5ee1f60000000p-5, -0x1.800a780000000p-5, -0x1.82e1b60000000p-4, 0x1.a7e3300000000p-3, 0x1.f0fe1c0000000p-4, -0x1.9391ba0000000p-4, 0x1.3e3eb40000000p-4, 0x1.5542020000000p-4, -0x1.6f34800000000p-3, 0x1.5576bc0000000p-3, -0x1.aa2c7a0000000p-3, -0x1.81f5000000000p-4, -0x1.e15eec0000000p-3, -0x1.7f4fc00000000p-6, 0x1.47e62c0000000p-3, -0x1.a22a080000000p-4, 0x1.5361f20000000p-3, 0x1.92c0d80000000p-4, 0x1.49511e0000000p-6, -0x1.0ddee60000000p-4, 0x1.84db7a0000000p-5, 0x1.7d7d140000000p-3, -0x1.e435f60000000p-6}
}
, {{-0x1.bbd6500000000p-4, -0x1.c08ba00000000p-4, 0x1.3e1d640000000p-5, -0x1.de1d440000000p-5, -0x1.969ff20000000p-4, 0x1.bb02760000000p-5, -0x1.8c52840000000p-5, -0x1.c9dd860000000p-5, 0x1.3365ba0000000p-6, -0x1.63a00a0000000p-12, -0x1.dd5ef60000000p-9, 0x1.8333460000000p-3, 0x1.5f06fa0000000p-3, -0x1.7ddd3c0000000p-6, 0x1.a4de1a0000000p-3, 0x1.7584fa0000000p-4, -0x1.a0a4700000000p-3, 0x1.6eb1640000000p-3, -0x1.83b98e0000000p-4, 0x1.0a38300000000p-3, 0x1.a413500000000p-3, 0x1.12cdce0000000p-3, 0x1.314bfc0000000p-4, 0x1.f0d2a20000000p-4, -0x1.4ad79c0000000p-3, 0x1.5b26120000000p-5, 0x1.0e50f60000000p-8, 0x1.aa12b00000000p-4, -0x1.d8252e0000000p-6, -0x1.3ccf480000000p-9, -0x1.2766ee0000000p-2, -0x1.7957640000000p-4}
, {-0x1.f37c500000000p-5, 0x1.efaab00000000p-5, 0x1.0eab6c0000000p-4, -0x1.3da77c0000000p-3, -0x1.5fe0520000000p-3, -0x1.d0469c0000000p-4, 0x1.40dd040000000p-5, -0x1.185cec0000000p-4, 0x1.9dde4c0000000p-5, 0x1.c7a3d40000000p-4, -0x1.20de8a0000000p-3, -0x1.aeeb700000000p-6, -0x1.d765600000000p-4, -0x1.03761a0000000p-7, -0x1.5af15a0000000p-4, 0x1.806e8c0000000p-3, 0x1.5275c60000000p-5, 0x1.362d840000000p-3, 0x1.b0173c0000000p-4, -0x1.bdd7020000000p-4, 0x1.837f1e0000000p-3, 0x1.66e07e0000000p-4, -0x1.2fd9a20000000p-6, -0x1.1c11480000000p-3, -0x1.9ed5dc0000000p-3, 0x1.c4bfd80000000p-5, -0x1.9bb5d00000000p-4, -0x1.45f4d60000000p-5, 0x1.99db960000000p-4, -0x1.bb29cc0000000p-8, 0x1.86b87c0000000p-4, 0x1.75e5ae0000000p-4}
}
, {{0x1.39609a0000000p-5, -0x1.925da00000000p-4, -0x1.f9938a0000000p-5, -0x1.0182b00000000p-2, 0x1.04040a0000000p-3, -0x1.158a980000000p-4, -0x1.9226d80000000p-4, 0x1.98769c0000000p-3, -0x1.3c64d80000000p-4, 0x1.f2c61e0000000p-4, 0x1.ba8d160000000p-6, -0x1.f0294a0000000p-5, -0x1.4cdf5a0000000p-5, -0x1.7d52680000000p-4, 0x1.7bc60a0000000p-3, -0x1.ec39c00000000p-4, 0x1.864bd40000000p-5, -0x1.426d580000000p-5, 0x1.69c8e20000000p-4, 0x1.a301e00000000p-6, -0x1.81ae360000000p-5, -0x1.21d5520000000p-3, 0x1.633eae0000000p-4, 0x1.bbf8ee0000000p-7, -0x1.adab820000000p-7, -0x1.000df80000000p-5, 0x1.0ba3360000000p-3, -0x1.3c895a0000000p-3, -0x1.f5d1800000000p-7, 0x1.8cfcfc0000000p-3, 0x1.f46bf80000000p-4, 0x1.bc6b420000000p-5}
, {-0x1.f40e740000000p-4, -0x1.ac5d960000000p-5, 0x1.6e0ac40000000p-4, -0x1.af35ca0000000p-3, 0x1.794d7a0000000p-3, 0x1.8b3a240000000p-4, -0x1.3f4f260000000p-5, 0x1.d156340000000p-4, 0x1.af35140000000p-5, 0x1.6366f40000000p-3, -0x1.1731b20000000p-5, 0x1.5045660000000p-4, -0x1.c7c2140000000p-3, 0x1.5122f20000000p-4, -0x1.c630cc0000000p-5, -0x1.1b1b380000000p-4, -0x1.2060340000000p-4, -0x1.1cc79e0000000p-3, 0x1.05cb880000000p-4, -0x1.bb2d760000000p-4, -0x1.e354440000000p-5, -0x1.5f87ac0000000p-3, 0x1.81d84e0000000p-3, -0x1.1d370a0000000p-3, -0x1.65cab40000000p-3, 0x1.ed9f120000000p-5, 0x1.cae8dc0000000p-6, -0x1.c60b000000000p-6, -0x1.deea4c0000000p-3, 0x1.7c42dc0000000p-3, 0x1.546e280000000p-3, -0x1.6552160000000p-2}
}
, {{0x1.fdc04c0000000p-5, 0x1.de67740000000p-6, -0x1.8772940000000p-3, 0x1.f4b8a00000000p-6, -0x1.0455c80000000p-3, 0x1.0eae100000000p-3, -0x1.5fde600000000p-3, 0x1.8541b60000000p-3, 0x1.0974320000000p-4, 0x1.bb01cc0000000p-4, 0x1.afd8b00000000p-6, -0x1.1c963e0000000p-2, 0x1.a8d4240000000p-5, -0x1.f0f9820000000p-4, -0x1.43ed960000000p-3, 0x1.43391c0000000p-4, -0x1.43f70a0000000p-3, 0x1.cfae560000000p-4, -0x1.0149580000000p-3, 0x1.e1b0ba0000000p-3, -0x1.6067020000000p-4, 0x1.5f418a0000000p-4, 0x1.c945a00000000p-8, -0x1.d393720000000p-4, -0x1.589d2a0000000p-8, -0x1.2a78f20000000p-3, 0x1.c562700000000p-3, 0x1.4b74420000000p-6, -0x1.52a9d00000000p-3, -0x1.00e33a0000000p-4, -0x1.6438a20000000p-4, -0x1.2550520000000p-6}
, {0x1.8126960000000p-3, 0x1.2796ca0000000p-4, 0x1.4302680000000p-4, 0x1.30ec100000000p-4, -0x1.1665f00000000p-2, -0x1.e45b3e0000000p-3, -0x1.e31b760000000p-4, 0x1.0b1bec0000000p-3, 0x1.5d27900000000p-3, 0x1.06cdf00000000p-3, 0x1.5273620000000p-5, 0x1.10543a0000000p-8, 0x1.1b7d4e0000000p-2, 0x1.8696180000000p-9, 0x1.7ffc680000000p-3, -0x1.d1700c0000000p-9, -0x1.3ae1d20000000p-3, -0x1.2a1cb60000000p-6, 0x1.3444de0000000p-9, 0x1.b7b8f20000000p-6, -0x1.1576c60000000p-6, -0x1.15892a0000000p-4, -0x1.b55bf20000000p-5, 0x1.866e860000000p-7, -0x1.576ca40000000p-3, 0x1.7bad020000000p-3, 0x1.b8f0f00000000p-3, -0x1.229f080000000p-6, -0x1.3b947e0000000p-3, -0x1.92ebd40000000p-5, -0x1.f501dc0000000p-6, 0x1.4adade0000000p-3}
}
, {{-0x1.5bdf100000000p-4, 0x1.6b6a8a0000000p-3, -0x1.690a2c0000000p-3, -0x1.d19b740000000p-5, 0x1.a789300000000p-6, -0x1.5af4220000000p-5, -0x1.321fe60000000p-5, -0x1.26ca7e0000000p-4, -0x1.a570040000000p-6, -0x1.07520e0000000p-4, 0x1.6f4d500000000p-4, 0x1.7742ea0000000p-4, -0x1.c72c6a0000000p-4, 0x1.aaba520000000p-4, 0x1.47239c0000000p-4, -0x1.0322fa0000000p-3, 0x1.2467b80000000p-3, 0x1.0de9e40000000p-4, 0x1.16d6740000000p-5, 0x1.20fa120000000p-3, -0x1.f0f7fa0000000p-5, 0x1.e218440000000p-3, 0x1.021b2c0000000p-3, 0x1.e7fa6c0000000p-4, -0x1.6beea40000000p-4, 0x1.748b880000000p-3, 0x1.cc0c5a0000000p-5, 0x1.f6eae00000000p-7, -0x1.4d0f4a0000000p-4, 0x1.c591f00000000p-6, 0x1.144f4e0000000p-3, -0x1.9fcc9a0000000p-4}
, {-0x1.2b53b80000000p-6, 0x1.3048ec0000000p-4, 0x1.751b0c0000000p-5, 0x1.3afca20000000p-3, -0x1.0405ee0000000p-5, 0x1.1297080000000p-3, 0x1.4326420000000p-3, 0x1.e9a8c20000000p-4, -0x1.cb0ba20000000p-4, -0x1.2591d40000000p-5, -0x1.4891840000000p-4, -0x1.934af00000000p-5, -0x1.755fdc0000000p-4, -0x1.4b078e0000000p-4, 0x1.6bbb700000000p-4, -0x1.503a7c0000000p-3, -0x1.88d3ee0000000p-5, 0x1.4f8f9c0000000p-5, -0x1.622ca60000000p-4, 0x1.12c10c0000000p-4, 0x1.58ecb20000000p-3, 0x1.07c54e0000000p-3, 0x1.4a788a0000000p-3, 0x1.8ad17c0000000p-4, -0x1.2351a60000000p-4, -0x1.a42aa00000000p-6, -0x1.28816e0000000p-4, -0x1.b82fd40000000p-4, -0x1.1562b00000000p-2, 0x1.a7a7440000000p-5, 0x1.e49c1e0000000p-5, -0x1.a70adc0000000p-3}
}
, {{0x1.8647a60000000p-4, 0x1.92815e0000000p-4, -0x1.64cc7c0000000p-5, -0x1.6b04020000000p-6, 0x1.27eb3a0000000p-3, 0x1.b9a2be0000000p-5, -0x1.4bf2e40000000p-3, 0x1.4691fa0000000p-4, -0x1.7d8c1a0000000p-3, 0x1.3a261c0000000p-5, -0x1.3115ec0000000p-4, -0x1.d8328a0000000p-5, 0x1.6a089e0000000p-3, 0x1.cf126e0000000p-6, -0x1.6e795a0000000p-3, -0x1.733d460000000p-5, -0x1.c1c3ec0000000p-4, -0x1.13db320000000p-3, -0x1.50b06a0000000p-4, -0x1.8b507a0000000p-4, -0x1.304c180000000p-5, 0x1.6b07bc0000000p-3, -0x1.6617560000000p-3, 0x1.50a80a0000000p-4, 0x1.1022300000000p-3, -0x1.e491880000000p-4, -0x1.2b25f00000000p-6, -0x1.2e349e0000000p-3, 0x1.028a0a0000000p-4, 0x1.92c8b80000000p-3, -0x1.bbe3c80000000p-7, 0x1.62a5e20000000p-2}
, {-0x1.9710640000000p-5, 0x1.2e57100000000p-5, 0x1.943b480000000p-4, -0x1.238c3c0000000p-4, 0x1.555f380000000p-4, 0x1.23bbaa0000000p-5, 0x1.77f13c0000000p-3, 0x1.ec22ee0000000p-9, 0x1.f75b5a0000000p-3, -0x1.18a9280000000p-5, 0x1.8b437c0000000p-4, -0x1.7239b00000000p-4, 0x1.10199c0000000p-4, 0x1.15bc7c0000000p-3, -0x1.731f940000000p-6, 0x1.ddef560000000p-4, -0x1.85e5f00000000p-5, -0x1.9de22e0000000p-4, -0x1.b28f920000000p-6, -0x1.a58a900000000p-4, 0x1.b9015c0000000p-4, 0x1.c0cb9c0000000p-3, -0x1.649d9a0000000p-7, 0x1.a836e20000000p-5, -0x1.72b2920000000p-4, 0x1.8d82500000000p-5, 0x1.8aeed20000000p-5, 0x1.dcb0b40000000p-5, -0x1.ad3d1e0000000p-4, 0x1.0ec9220000000p-3, -0x1.fa4af60000000p-4, 0x1.7c0d280000000p-5}
}
, {{0x1.98ed860000000p-6, -0x1.1d6a040000000p-5, 0x1.0297200000000p-6, -0x1.3cd0380000000p-5, -0x1.6e0d720000000p-4, -0x1.cc9ca40000000p-3, -0x1.9073e80000000p-7, 0x1.0bdcf40000000p-6, -0x1.820e080000000p-4, 0x1.0ae5e00000000p-3, -0x1.cc13740000000p-4, -0x1.c1bebe0000000p-3, -0x1.3ab6620000000p-3, 0x1.afd1960000000p-5, -0x1.c01f6e0000000p-5, 0x1.9ca2680000000p-6, 0x1.0cda020000000p-3, -0x1.ed251e0000000p-5, 0x1.8e84740000000p-6, 0x1.bba9960000000p-6, 0x1.8238ca0000000p-3, 0x1.b871f60000000p-4, -0x1.7d8dce0000000p-6, 0x1.c748800000000p-4, 0x1.7e00200000000p-4, 0x1.e781ae0000000p-7, 0x1.6a7d280000000p-7, -0x1.1715e40000000p-3, -0x1.0dcc600000000p-3, 0x1.17fd640000000p-3, 0x1.686bd40000000p-3, 0x1.3007520000000p-3}
, {0x1.75dae60000000p-3, 0x1.e5fdac0000000p-6, -0x1.742f2c0000000p-3, 0x1.db5bde0000000p-5, -0x1.e6a2a80000000p-5, -0x1.b2cd7e0000000p-4, -0x1.9bbe200000000p-8, 0x1.0a56ea0000000p-4, -0x1.1408bc0000000p-3, 0x1.8080dc0000000p-3, -0x1.1a9d400000000p-3, 0x1.22357e0000000p-6, -0x1.4b48600000000p-6, 0x1.0808b60000000p-3, -0x1.978d380000000p-4, -0x1.d610580000000p-5, 0x1.6cca760000000p-3, 0x1.2b07dc0000000p-3, -0x1.1222d60000000p-8, 0x1.f498860000000p-5, 0x1.2804500000000p-6, 0x1.a0139e0000000p-6, 0x1.219bdc0000000p-3, -0x1.f563500000000p-4, -0x1.46de940000000p-3, 0x1.7119480000000p-5, 0x1.dff1240000000p-4, 0x1.ac6bc80000000p-3, -0x1.b78e9a0000000p-3, -0x1.4555420000000p-7, 0x1.f882520000000p-5, -0x1.c73ce60000000p-7}
}
, {{0x1.02b6680000000p-4, 0x1.6079300000000p-3, 0x1.b707740000000p-5, -0x1.dd7c900000000p-4, -0x1.609db40000000p-4, -0x1.036e3a0000000p-3, 0x1.0038d60000000p-4, 0x1.622ac20000000p-3, -0x1.a2bd580000000p-3, 0x1.e8e2f20000000p-5, 0x1.dbe10e0000000p-6, 0x1.835c800000000p-3, -0x1.7003180000000p-4, 0x1.bab4940000000p-5, 0x1.6a3b960000000p-3, 0x1.39b5760000000p-4, 0x1.61bdcc0000000p-6, 0x1.7a15640000000p-5, -0x1.2498060000000p-6, 0x1.14c35e0000000p-4, 0x1.5f9d120000000p-3, -0x1.db91f80000000p-4, 0x1.cfcece0000000p-4, 0x1.1876000000000p-5, 0x1.d8007e0000000p-5, -0x1.282aa40000000p-5, -0x1.01927e0000000p-4, 0x1.2df4e80000000p-5, -0x1.6beaae0000000p-3, -0x1.3673d40000000p-5, -0x1.7f88300000000p-3, -0x1.f173e80000000p-5}
, {0x1.a8a91c0000000p-4, -0x1.830b0e0000000p-3, 0x1.5061740000000p-3, 0x1.07b4fc0000000p-4, -0x1.d753f20000000p-6, -0x1.1f9cee0000000p-3, 0x1.73dcee0000000p-4, 0x1.f0fd900000000p-4, -0x1.db44420000000p-4, -0x1.eb586c0000000p-10, 0x1.2191920000000p-3, -0x1.9dc9380000000p-4, -0x1.199f460000000p-5, 0x1.4784a80000000p-4, -0x1.5f96320000000p-5, 0x1.8a3dd80000000p-9, -0x1.7c1fb40000000p-3, -0x1.b4852a0000000p-5, -0x1.bac23e0000000p-3, -0x1.4704540000000p-8, -0x1.8ce7ca0000000p-3, 0x1.ae4bd00000000p-4, 0x1.fac91e0000000p-4, -0x1.3d92820000000p-3, -0x1.0bb9a20000000p-3, 0x1.5cb5aa0000000p-9, -0x1.ac2c780000000p-3, -0x1.7230ce0000000p-3, -0x1.7b096e0000000p-4, -0x1.ed9c1a0000000p-4, 0x1.a1af0e0000000p-6, 0x1.134eae0000000p-3}
}
, {{0x1.fbb7a00000000p-5, -0x1.ca65080000000p-8, 0x1.78fd5e0000000p-3, -0x1.3f10a20000000p-3, 0x1.96a7500000000p-9, -0x1.74ec200000000p-5, 0x1.46f3da0000000p-4, -0x1.dde40c0000000p-9, 0x1.b7f45c0000000p-5, -0x1.77404a0000000p-6, 0x1.34c2620000000p-3, 0x1.f2eaee0000000p-4, 0x1.d648a40000000p-7, -0x1.31c47e0000000p-5, -0x1.3563480000000p-5, -0x1.a918200000000p-4, 0x1.0d1c940000000p-5, -0x1.e3a9c60000000p-7, 0x1.6454a60000000p-3, 0x1.65f14e0000000p-6, -0x1.f85a340000000p-4, 0x1.b77c0e0000000p-4, -0x1.7cee920000000p-4, 0x1.1f49d20000000p-3, -0x1.15dc5e0000000p-3, 0x1.482d660000000p-3, 0x1.fe22a20000000p-5, 0x1.0ceeba0000000p-4, -0x1.9129580000000p-3, -0x1.8a1c8e0000000p-5, 0x1.ac8ae80000000p-3, -0x1.b14a180000000p-7}
, {-0x1.51c03a0000000p-4, -0x1.4c7d480000000p-5, 0x1.4d41ea0000000p-3, -0x1.55138e0000000p-3, -0x1.79ca4c0000000p-4, -0x1.c1d3680000000p-3, 0x1.90bf060000000p-3, 0x1.56c7800000000p-3, 0x1.43726c0000000p-4, 0x1.39c1280000000p-3, -0x1.ed799e0000000p-9, 0x1.5928a60000000p-8, -0x1.ff83e00000000p-6, -0x1.9c61400000000p-4, 0x1.1899880000000p-3, -0x1.cefac60000000p-5, -0x1.08ad100000000p-3, -0x1.621d400000000p-4, 0x1.c4c5a40000000p-4, -0x1.8c224e0000000p-5, -0x1.f03ca40000000p-5, 0x1.1da6680000000p-3, -0x1.8930c80000000p-4, 0x1.75530c0000000p-3, 0x1.038eda0000000p-3, 0x1.e346680000000p-3, 0x1.2f34aa0000000p-3, -0x1.a2d9200000000p-5, -0x1.122e880000000p-2, 0x1.be7a100000000p-6, 0x1.0c3e5c0000000p-8, -0x1.ab0c960000000p-8}
}
, {{-0x1.9d86e80000000p-4, 0x1.4d5b6e0000000p-4, -0x1.ff10ee0000000p-5, -0x1.0703060000000p-3, 0x1.1413c80000000p-2, -0x1.d581960000000p-3, 0x1.c5a9680000000p-5, -0x1.21a26e0000000p-3, -0x1.3fa4980000000p-3, -0x1.aacfae0000000p-4, -0x1.2887b80000000p-3, 0x1.0ef96c0000000p-6, 0x1.2207300000000p-3, 0x1.27103a0000000p-5, -0x1.5f338a0000000p-3, -0x1.fc96ea0000000p-10, -0x1.82b8fe0000000p-5, -0x1.abca2a0000000p-5, -0x1.4ea2420000000p-6, -0x1.8ad3400000000p-7, -0x1.e0796a0000000p-4, -0x1.bf64860000000p-5, -0x1.5f2c6a0000000p-8, 0x1.7e1d7e0000000p-4, -0x1.01d1bc0000000p-3, 0x1.0202aa0000000p-5, 0x1.f7a1720000000p-4, 0x1.a00ba00000000p-4, -0x1.c3dc540000000p-6, 0x1.d106580000000p-5, -0x1.3f4baa0000000p-3, -0x1.f4a4a00000000p-3}
, {-0x1.8fc4780000000p-8, 0x1.b349800000000p-5, -0x1.9bcbfc0000000p-4, -0x1.5ef0420000000p-3, 0x1.721d6e0000000p-3, -0x1.fa7f4e0000000p-3, 0x1.0818f00000000p-6, -0x1.66422a0000000p-3, 0x1.5edb140000000p-7, 0x1.14b0a20000000p-3, 0x1.c86e240000000p-8, 0x1.80924a0000000p-4, 0x1.42775c0000000p-4, -0x1.68f5a00000000p-5, 0x1.1b872c0000000p-4, 0x1.be48880000000p-4, 0x1.6853980000000p-8, -0x1.413d5e0000000p-4, -0x1.c3a45c0000000p-4, 0x1.6410700000000p-4, 0x1.5d40360000000p-5, 0x1.0ea1a80000000p-3, 0x1.71e0da0000000p-4, 0x1.e2fd920000000p-6, 0x1.e280c40000000p-6, 0x1.d7cece0000000p-3, -0x1.5676380000000p-5, 0x1.91b8380000000p-3, -0x1.69efe80000000p-3, -0x1.30c2880000000p-5, 0x1.52610e0000000p-4, -0x1.798d460000000p-3}
}
, {{0x1.9b26a60000000p-4, 0x1.d625ea0000000p-4, -0x1.1a66380000000p-3, 0x1.3ef2520000000p-9, -0x1.fff5980000000p-8, 0x1.854c180000000p-4, 0x1.e8c2640000000p-4, -0x1.3a9dc60000000p-4, -0x1.60edb00000000p-3, -0x1.3e99160000000p-4, 0x1.1fc71e0000000p-3, -0x1.1bd21e0000000p-2, 0x1.519ad00000000p-4, -0x1.ec5c9a0000000p-4, -0x1.2b43fe0000000p-3, -0x1.37bdba0000000p-3, -0x1.eb46140000000p-4, -0x1.e3ede80000000p-4, 0x1.3f18c20000000p-6, -0x1.3e18cc0000000p-3, 0x1.f081b00000000p-4, 0x1.88aef80000000p-4, -0x1.8b2c0a0000000p-4, -0x1.1982900000000p-5, 0x1.ab57420000000p-3, 0x1.7d45480000000p-3, 0x1.4abdae0000000p-6, -0x1.7d6f260000000p-6, 0x1.75fd2e0000000p-5, -0x1.88b0120000000p-4, 0x1.23b2d80000000p-4, 0x1.631b0c0000000p-5}
, {0x1.46539c0000000p-3, -0x1.53b9c00000000p-3, -0x1.54eee40000000p-4, -0x1.4c63780000000p-4, -0x1.6ad6880000000p-4, -0x1.7f29d00000000p-5, 0x1.ca7ffc0000000p-5, 0x1.b1670a0000000p-5, -0x1.101de00000000p-3, -0x1.8d41200000000p-4, -0x1.719a380000000p-4, 0x1.f80cd20000000p-5, 0x1.90c5060000000p-5, 0x1.d40b220000000p-5, -0x1.a4b1e60000000p-4, 0x1.330ec40000000p-3, -0x1.71bea60000000p-4, 0x1.216f040000000p-5, 0x1.365c860000000p-3, -0x1.2f3e1a0000000p-6, -0x1.fe568a0000000p-4, 0x1.0e21a00000000p-3, -0x1.ff6aa40000000p-5, -0x1.1902d20000000p-7, 0x1.352a2a0000000p-5, -0x1.f15c700000000p-3, 0x1.0c37120000000p-3, 0x1.27cb7e0000000p-6, -0x1.eb50060000000p-4, -0x1.58e0ec0000000p-4, 0x1.fdf8c20000000p-4, -0x1.eb0e720000000p-3}
}
, {{0x1.1be1000000000p-3, 0x1.1e5c7a0000000p-4, -0x1.0890d00000000p-5, -0x1.6b54d80000000p-3, -0x1.73ee8c0000000p-3, -0x1.3e91c00000000p-7, 0x1.9177380000000p-4, 0x1.197e800000000p-3, -0x1.3274e60000000p-5, -0x1.0539840000000p-3, -0x1.82a4a40000000p-5, 0x1.a589c20000000p-3, 0x1.861a980000000p-3, -0x1.84162c0000000p-5, 0x1.f562840000000p-5, -0x1.e9020e0000000p-6, -0x1.2c73660000000p-4, 0x1.6f83b00000000p-4, -0x1.1958e80000000p-5, 0x1.6f98420000000p-4, -0x1.e8b9500000000p-5, 0x1.5dfe640000000p-5, 0x1.09ba000000000p-5, -0x1.0c742a0000000p-3, 0x1.38baf60000000p-3, 0x1.5ba0e40000000p-5, 0x1.a7249a0000000p-8, -0x1.9e11520000000p-4, -0x1.f845920000000p-5, 0x1.1ea4b40000000p-3, 0x1.41b53a0000000p-3, -0x1.061a280000000p-3}
, {-0x1.5c75d60000000p-3, 0x1.0a41740000000p-4, -0x1.6b36c60000000p-5, 0x1.6212de0000000p-5, -0x1.38f5a40000000p-6, -0x1.1977020000000p-2, -0x1.49bf440000000p-5, 0x1.ad6a540000000p-3, 0x1.2ee72c0000000p-5, 0x1.ae604e0000000p-4, -0x1.b4f1840000000p-4, 0x1.9f47640000000p-3, 0x1.503cce0000000p-3, 0x1.a00d9c0000000p-5, 0x1.49aa3a0000000p-6, -0x1.d6ce140000000p-4, 0x1.3dfe460000000p-5, 0x1.7305680000000p-3, -0x1.8df5020000000p-4, 0x1.f964680000000p-6, 0x1.18e2ac0000000p-4, 0x1.4381aa0000000p-4, -0x1.fde2d60000000p-4, -0x1.f2242e0000000p-7, 0x1.1a6b760000000p-3, -0x1.3303140000000p-4, 0x1.6b6eea0000000p-4, -0x1.2295200000000p-3, -0x1.3f2be40000000p-9, -0x1.c0ceea0000000p-8, 0x1.7097000000000p-4, -0x1.430a240000000p-4}
}
, {{0x1.014b120000000p-3, 0x1.bacb5a0000000p-5, 0x1.49dfa60000000p-4, -0x1.211f140000000p-3, -0x1.5514de0000000p-3, 0x1.eee72c0000000p-4, -0x1.fb6b060000000p-8, 0x1.b042d20000000p-3, 0x1.3440f00000000p-4, -0x1.ce976c0000000p-4, 0x1.3e77220000000p-3, -0x1.c2d2e80000000p-10, -0x1.e2c8cc0000000p-4, -0x1.05fd4a0000000p-3, 0x1.857c460000000p-3, 0x1.492f220000000p-6, -0x1.0125140000000p-4, 0x1.624a2e0000000p-3, 0x1.4220ea0000000p-4, -0x1.569f460000000p-4, -0x1.bccd840000000p-6, -0x1.6fb7da0000000p-3, 0x1.29c1b00000000p-4, -0x1.1e18b20000000p-6, 0x1.f2e6fe0000000p-5, 0x1.17f2580000000p-3, -0x1.c909580000000p-6, 0x1.6159100000000p-3, -0x1.27c7cc0000000p-4, 0x1.0444ba0000000p-5, -0x1.1da4c80000000p-4, 0x1.3f7abe0000000p-5}
, {-0x1.db4b500000000p-7, -0x1.58f5860000000p-3, 0x1.2c1f6e0000000p-4, -0x1.ab9eec0000000p-3, -0x1.31dd380000000p-4, 0x1.260a280000000p-3, -0x1.54adc40000000p-3, -0x1.123cee0000000p-5, -0x1.8215cc0000000p-4, -0x1.beae320000000p-4, 0x1.cc1ec00000000p-4, -0x1.fc276c0000000p-5, -0x1.b487ac0000000p-3, 0x1.b2f1dc0000000p-5, -0x1.3479540000000p-4, 0x1.3ac4040000000p-4, -0x1.09a5880000000p-6, -0x1.01b3d40000000p-3, -0x1.2e19f00000000p-4, -0x1.0473360000000p-3, 0x1.4226de0000000p-5, -0x1.9f16a80000000p-3, 0x1.3a07ea0000000p-4, -0x1.e066ee0000000p-6, 0x1.68b81e0000000p-4, 0x1.a7a3c20000000p-9, 0x1.a56aa20000000p-6, -0x1.0119820000000p-5, -0x1.65a57e0000000p-6, -0x1.dffdde0000000p-5, -0x1.1b596a0000000p-2, 0x1.18965a0000000p-3}
}
, {{0x1.54a4a40000000p-3, -0x1.b682160000000p-6, 0x1.5be3ce0000000p-3, -0x1.8646ec0000000p-3, 0x1.e6ffd60000000p-3, 0x1.16e1cc0000000p-4, 0x1.9036040000000p-7, 0x1.029cd00000000p-3, 0x1.2378700000000p-4, -0x1.6764880000000p-3, -0x1.77d4fc0000000p-3, -0x1.1478960000000p-3, 0x1.d603400000000p-4, -0x1.d232fe0000000p-3, 0x1.5f10340000000p-3, 0x1.2ce2180000000p-3, -0x1.fe84580000000p-11, -0x1.1e16140000000p-11, 0x1.0125ea0000000p-4, 0x1.4446a80000000p-3, 0x1.d94cd00000000p-4, 0x1.70a0b60000000p-3, 0x1.077aba0000000p-4, -0x1.0628580000000p-2, 0x1.f813140000000p-5, -0x1.ae66920000000p-8, -0x1.81f87a0000000p-5, 0x1.0bf47a0000000p-4, 0x1.fad5300000000p-7, -0x1.0e714a0000000p-2, -0x1.dce7540000000p-6, -0x1.af13fc0000000p-5}
, {0x1.bd56d20000000p-4, -0x1.ee598c0000000p-3, -0x1.e08fa60000000p-6, 0x1.9cdfda0000000p-6, 0x1.b3f99e0000000p-3, -0x1.4c8fcc0000000p-4, 0x1.46e17e0000000p-5, 0x1.ca27f40000000p-6, -0x1.5cc6700000000p-5, -0x1.cb68e60000000p-4, 0x1.ea98020000000p-5, -0x1.d7ae7e0000000p-5, 0x1.eb9bec0000000p-3, 0x1.20497c0000000p-6, 0x1.0311c80000000p-3, 0x1.5011040000000p-4, -0x1.fea40e0000000p-3, -0x1.4040180000000p-3, 0x1.0611d00000000p-4, 0x1.d9ad1c0000000p-3, 0x1.9f9f060000000p-5, -0x1.7cc3da0000000p-3, 0x1.534f8e0000000p-7, -0x1.fdc0ae0000000p-6, -0x1.4a9c680000000p-5, -0x1.8b315e0000000p-3, -0x1.2380080000000p-3, -0x1.e7d6cc0000000p-5, 0x1.cc59960000000p-3, 0x1.f726260000000p-4, 0x1.b4704c0000000p-3, -0x1.2cde2c0000000p-3}
}
, {{0x1.9c9c5e0000000p-3, -0x1.61ac9c0000000p-6, 0x1.d1d31e0000000p-4, -0x1.798d540000000p-4, 0x1.6a78140000000p-4, 0x1.b3940c0000000p-6, 0x1.0264880000000p-5, 0x1.2420ea0000000p-3, 0x1.b0b7640000000p-4, 0x1.4c81400000000p-3, 0x1.7122380000000p-4, 0x1.948c060000000p-3, -0x1.d85f2c0000000p-4, 0x1.729d5e0000000p-3, 0x1.c66e720000000p-4, 0x1.653c460000000p-3, -0x1.0342da0000000p-3, -0x1.abea0e0000000p-5, -0x1.1a23640000000p-3, 0x1.f0a1680000000p-4, 0x1.b66e6a0000000p-3, 0x1.038b9c0000000p-3, -0x1.3b87f20000000p-3, 0x1.6979ac0000000p-3, 0x1.0ca38c0000000p-5, -0x1.ec0b420000000p-5, -0x1.ed2cfc0000000p-5, 0x1.e4641e0000000p-6, 0x1.12d9ec0000000p-4, -0x1.7c53880000000p-5, 0x1.14364e0000000p-4, -0x1.fdd2720000000p-3}
, {0x1.03b0240000000p-3, -0x1.3cf47e0000000p-3, 0x1.2351cc0000000p-6, -0x1.fe13840000000p-3, 0x1.9b64720000000p-4, -0x1.14f6fa0000000p-2, 0x1.9158f80000000p-3, 0x1.4364840000000p-5, -0x1.c3bf9c0000000p-5, -0x1.3ccb080000000p-4, -0x1.1ea7ba0000000p-4, 0x1.3e2bbc0000000p-8, 0x1.12f9380000000p-5, 0x1.6068940000000p-4, 0x1.8ad4980000000p-5, 0x1.0611400000000p-3, 0x1.65c8620000000p-4, 0x1.3bbf140000000p-6, -0x1.76c3480000000p-4, -0x1.a5b5de0000000p-3, 0x1.4c89ca0000000p-9, 0x1.1e943e0000000p-4, 0x1.1e0f7e0000000p-4, 0x1.de40d80000000p-5, 0x1.132ba80000000p-4, 0x1.cf34140000000p-4, 0x1.412ce40000000p-3, -0x1.88e17a0000000p-6, 0x1.3bc63c0000000p-4, 0x1.11b9de0000000p-5, 0x1.05693e0000000p-3, -0x1.2275d40000000p-4}
}
, {{-0x1.5b2c260000000p-5, -0x1.c57c460000000p-4, 0x1.8e606e0000000p-4, -0x1.406a860000000p-6, -0x1.d85e760000000p-4, -0x1.3748780000000p-3, 0x1.0ed0c00000000p-4, 0x1.ee3a760000000p-3, -0x1.2612000000000p-9, -0x1.bf89440000000p-4, -0x1.9c8f4a0000000p-3, 0x1.eb91d20000000p-4, 0x1.c3b8d00000000p-4, 0x1.9b082a0000000p-4, 0x1.0b85ba0000000p-5, -0x1.12428e0000000p-4, 0x1.50d7c40000000p-3, 0x1.cd70580000000p-8, -0x1.221d540000000p-3, -0x1.c107680000000p-3, -0x1.bae9f40000000p-3, -0x1.6625060000000p-3, 0x1.8fb0ca0000000p-3, 0x1.f1f6e40000000p-4, 0x1.f50b1e0000000p-4, -0x1.d2269c0000000p-6, 0x1.43afb40000000p-4, -0x1.e314620000000p-6, -0x1.1409c20000000p-5, 0x1.8b51300000000p-4, 0x1.9833c20000000p-4, 0x1.8b34da0000000p-4}
, {-0x1.09392e0000000p-4, 0x1.4229080000000p-6, -0x1.7cfb9c0000000p-4, -0x1.410bb20000000p-3, 0x1.9f754e0000000p-3, 0x1.36d0600000000p-4, 0x1.b78b1c0000000p-3, -0x1.3ee6320000000p-5, -0x1.766db40000000p-3, -0x1.84fe720000000p-3, -0x1.a6b4ec0000000p-3, 0x1.6adbb00000000p-4, -0x1.248f5e0000000p-5, -0x1.8d648e0000000p-3, 0x1.6314340000000p-3, 0x1.83b8a20000000p-4, -0x1.2284080000000p-4, -0x1.0a7b700000000p-3, -0x1.4569600000000p-4, 0x1.ae9ba80000000p-4, 0x1.0f6e060000000p-4, -0x1.2681d60000000p-3, 0x1.0360b80000000p-6, -0x1.4da6900000000p-4, 0x1.39b0840000000p-3, 0x1.0c56ae0000000p-3, -0x1.4763a80000000p-3, 0x1.385f9c0000000p-3, 0x1.8421500000000p-8, -0x1.fff3440000000p-4, 0x1.fc72440000000p-7, -0x1.e025a40000000p-7}
}
, {{-0x1.155e700000000p-9, 0x1.7783e80000000p-6, -0x1.35a9b20000000p-3, 0x1.54309e0000000p-4, 0x1.acdf840000000p-6, -0x1.48e8100000000p-4, -0x1.868c8a0000000p-3, 0x1.ab5d1c0000000p-6, -0x1.86a0f40000000p-4, -0x1.2c3ca40000000p-3, -0x1.130c240000000p-2, 0x1.202e5e0000000p-3, 0x1.5695080000000p-4, 0x1.13ffde0000000p-4, 0x1.e53c500000000p-4, -0x1.e343220000000p-3, 0x1.13a10c0000000p-4, 0x1.522eee0000000p-3, -0x1.1430a80000000p-3, -0x1.36db840000000p-5, -0x1.57c2ea0000000p-3, -0x1.7638400000000p-4, -0x1.2bc1660000000p-8, -0x1.8ca29a0000000p-6, -0x1.d121660000000p-4, 0x1.eaf1540000000p-8, 0x1.d3020a0000000p-3, -0x1.0f023e0000000p-7, 0x1.6b1f7a0000000p-5, 0x1.ae2aa60000000p-5, 0x1.4224980000000p-3, 0x1.5eed0e0000000p-3}
, {-0x1.3fd44c0000000p-4, 0x1.270a0a0000000p-3, -0x1.d8ab1a0000000p-4, -0x1.c7dc540000000p-6, 0x1.ed3aae0000000p-3, 0x1.c5e7e20000000p-7, -0x1.966d640000000p-3, 0x1.7c1b480000000p-8, -0x1.9ad5e00000000p-4, 0x1.e712620000000p-5, -0x1.1a935a0000000p-3, 0x1.5e78a80000000p-3, 0x1.4df4d60000000p-3, -0x1.947fc40000000p-4, -0x1.16307c0000000p-4, -0x1.9457a40000000p-4, 0x1.b495d00000000p-5, 0x1.6a9b000000000p-4, -0x1.c26e7c0000000p-3, 0x1.9b39580000000p-4, -0x1.3fe35a0000000p-3, -0x1.387d580000000p-5, -0x1.61400e0000000p-4, 0x1.eb07860000000p-6, 0x1.8523e20000000p-4, 0x1.4f00620000000p-7, 0x1.72a1e00000000p-3, -0x1.ab70920000000p-4, -0x1.58543e0000000p-3, 0x1.b074340000000p-4, -0x1.492d540000000p-3, 0x1.5f57260000000p-5}
}
, {{-0x1.2de05a0000000p-3, 0x1.043cb40000000p-3, -0x1.8d63780000000p-4, -0x1.8540e80000000p-3, -0x1.1509800000000p-3, 0x1.78c8380000000p-6, -0x1.38f7b60000000p-3, -0x1.9c9bba0000000p-3, 0x1.0ab25c0000000p-3, 0x1.687b1e0000000p-3, 0x1.a11f720000000p-4, 0x1.1947e20000000p-6, -0x1.41a7560000000p-3, -0x1.cfd0ce0000000p-4, 0x1.84bbec0000000p-4, 0x1.d857ea0000000p-6, 0x1.7c7a140000000p-4, -0x1.49d8300000000p-12, -0x1.e0768e0000000p-7, 0x1.5cafe60000000p-5, -0x1.0ad1620000000p-5, 0x1.a062d80000000p-4, -0x1.5770200000000p-3, -0x1.845f4a0000000p-5, -0x1.d426660000000p-4, 0x1.2d24440000000p-4, 0x1.6e05a60000000p-5, 0x1.4e06020000000p-3, 0x1.1a96700000000p-5, 0x1.0b683a0000000p-7, -0x1.da63700000000p-6, 0x1.9bdd0e0000000p-4}
, {0x1.ed27ce0000000p-4, 0x1.578b0e0000000p-5, -0x1.38b14e0000000p-4, -0x1.16b5900000000p-2, -0x1.1fd9ba0000000p-5, 0x1.0c174e0000000p-4, 0x1.4224940000000p-3, -0x1.966b780000000p-5, -0x1.9b57d00000000p-9, 0x1.3b6e960000000p-3, 0x1.2a0fbe0000000p-3, 0x1.1df1b00000000p-3, -0x1.f377520000000p-3, -0x1.500d140000000p-3, -0x1.99a7100000000p-7, -0x1.28bec20000000p-7, -0x1.88f3460000000p-3, 0x1.6d4baa0000000p-3, -0x1.5c01c20000000p-3, 0x1.3915620000000p-4, 0x1.d3c2e00000000p-6, -0x1.5dd5480000000p-3, 0x1.f97ebc0000000p-4, -0x1.e3e2ea0000000p-4, 0x1.6c9cdc0000000p-5, 0x1.d0b6560000000p-4, 0x1.49b5ac0000000p-5, 0x1.83ba1c0000000p-5, -0x1.e033280000000p-8, -0x1.cf94340000000p-6, -0x1.bc74720000000p-4, 0x1.1a1e680000000p-3}
}
, {{0x1.0dcf680000000p-5, -0x1.0a9eea0000000p-3, 0x1.e5fa5a0000000p-4, -0x1.4259000000000p-3, -0x1.460dac0000000p-4, -0x1.d882f80000000p-5, 0x1.e5112e0000000p-5, -0x1.9dd6b20000000p-4, 0x1.6f86f80000000p-3, -0x1.6e91540000000p-6, 0x1.838e420000000p-3, -0x1.9b883c0000000p-8, 0x1.28791a0000000p-5, 0x1.85ce460000000p-6, 0x1.addb8a0000000p-5, -0x1.092b620000000p-4, -0x1.8d2bc00000000p-4, 0x1.c8351e0000000p-4, -0x1.48da8c0000000p-6, 0x1.7171e40000000p-4, 0x1.2c1d180000000p-3, -0x1.b973500000000p-5, 0x1.60de860000000p-3, -0x1.f485c40000000p-5, -0x1.0394b20000000p-3, -0x1.17e7d20000000p-4, 0x1.0c506e0000000p-4, 0x1.52c0ba0000000p-3, -0x1.459e780000000p-2, 0x1.a62e760000000p-5, 0x1.460ec40000000p-8, -0x1.63b4e00000000p-3}
, {0x1.63ba580000000p-3, -0x1.02c1600000000p-6, 0x1.d8d7900000000p-4, -0x1.87275a0000000p-8, -0x1.eee2920000000p-6, -0x1.ac01fe0000000p-3, 0x1.a824ec0000000p-4, 0x1.917cf00000000p-4, 0x1.caa68a0000000p-4, -0x1.2514300000000p-3, -0x1.ba39cc0000000p-7, 0x1.bd98f40000000p-3, -0x1.afe23e0000000p-3, 0x1.5eb6980000000p-3, -0x1.99df660000000p-6, 0x1.1b49760000000p-5, -0x1.0e26700000000p-3, -0x1.5534720000000p-3, -0x1.5625f00000000p-4, -0x1.0045b40000000p-3, 0x1.600e780000000p-3, 0x1.56f4300000000p-3, -0x1.26a55e0000000p-3, 0x1.30804e0000000p-3, -0x1.8cf5680000000p-3, 0x1.8a5a180000000p-3, -0x1.90531c0000000p-4, 0x1.de5d720000000p-4, -0x1.8b65d40000000p-3, 0x1.0f7fd80000000p-3, 0x1.e221040000000p-5, -0x1.f9046c0000000p-4}
}
, {{-0x1.12af700000000p-3, -0x1.cb48940000000p-4, 0x1.2d9b560000000p-3, -0x1.d60d080000000p-4, 0x1.0f7a380000000p-3, -0x1.f06f4c0000000p-5, 0x1.6bffd80000000p-3, 0x1.3429500000000p-3, -0x1.027c400000000p-3, -0x1.63ff380000000p-4, 0x1.02fd0a0000000p-4, -0x1.5eea700000000p-4, 0x1.7791ce0000000p-3, -0x1.4a32d40000000p-3, 0x1.965bfa0000000p-4, 0x1.960fd80000000p-3, -0x1.0d4d7e0000000p-3, -0x1.df82120000000p-4, -0x1.7c36f60000000p-4, 0x1.b131b40000000p-3, -0x1.39b2100000000p-5, 0x1.fc549c0000000p-5, -0x1.1301a00000000p-5, 0x1.23f4100000000p-7, -0x1.e471b60000000p-3, 0x1.e2e37e0000000p-4, -0x1.b3a6640000000p-7, -0x1.6a42040000000p-4, 0x1.eaa3880000000p-4, -0x1.d9dcb20000000p-4, -0x1.127fe00000000p-3, -0x1.75a1640000000p-3}
, {-0x1.0747d40000000p-9, -0x1.2a85d40000000p-4, 0x1.3e380e0000000p-7, 0x1.0ec5ac0000000p-3, 0x1.10f56c0000000p-3, 0x1.3445740000000p-4, 0x1.c432680000000p-5, 0x1.9ed4240000000p-3, -0x1.b2ab780000000p-4, 0x1.54f46e0000000p-3, 0x1.de2d180000000p-4, 0x1.1bd4fa0000000p-5, 0x1.79de1a0000000p-4, 0x1.aa1b840000000p-5, 0x1.e4cc960000000p-4, -0x1.29d52e0000000p-5, -0x1.8c7c180000000p-6, -0x1.37ea520000000p-5, -0x1.665c9e0000000p-4, 0x1.9b73720000000p-3, 0x1.44ed560000000p-4, -0x1.13b5d60000000p-4, 0x1.d261fe0000000p-4, 0x1.97ec360000000p-3, -0x1.4840720000000p-7, 0x1.5643840000000p-7, 0x1.3591de0000000p-3, 0x1.d3c0c00000000p-4, 0x1.3b21200000000p-4, 0x1.a0b4c20000000p-5, 0x1.4e3a040000000p-5, -0x1.5e25d20000000p-5}
}
, {{-0x1.250b700000000p-3, 0x1.5cc39e0000000p-7, -0x1.4954de0000000p-5, -0x1.582d200000000p-3, 0x1.2b2ede0000000p-3, -0x1.f301360000000p-3, 0x1.a82bcc0000000p-3, 0x1.598c720000000p-4, -0x1.23349e0000000p-3, -0x1.944eda0000000p-4, 0x1.8557d80000000p-3, 0x1.0d7c160000000p-2, -0x1.80caa40000000p-3, 0x1.9d9e700000000p-6, -0x1.c4cd020000000p-4, 0x1.1004880000000p-3, 0x1.8f34c40000000p-3, 0x1.dbed840000000p-4, 0x1.3165660000000p-2, 0x1.96c5860000000p-4, 0x1.6f35c40000000p-3, -0x1.0008060000000p-3, -0x1.3b5ac80000000p-8, 0x1.3b76460000000p-6, 0x1.1a73dc0000000p-6, 0x1.5151480000000p-5, 0x1.cc062a0000000p-4, 0x1.6543200000000p-3, -0x1.edb3180000000p-6, -0x1.b59e360000000p-4, 0x1.49eb000000000p-5, -0x1.27a6160000000p-2}
, {-0x1.05ef2c0000000p-3, 0x1.6f3aa60000000p-6, -0x1.03a7260000000p-5, -0x1.6a0ef40000000p-4, 0x1.20ff6c0000000p-2, 0x1.1644cc0000000p-4, -0x1.7994c00000000p-4, -0x1.598bba0000000p-4, -0x1.19a3660000000p-3, -0x1.711a880000000p-7, -0x1.2fc5ec0000000p-4, 0x1.26666a0000000p-4, -0x1.3267da0000000p-3, 0x1.8dd9260000000p-3, 0x1.0d52e20000000p-3, -0x1.b662fc0000000p-3, 0x1.9d08de0000000p-3, -0x1.6fed6e0000000p-4, -0x1.a71faa0000000p-4, -0x1.6cb0d60000000p-4, -0x1.0a06c60000000p-4, 0x1.00fbc00000000p-3, -0x1.a8092c0000000p-6, -0x1.9f9eb20000000p-5, -0x1.2bbd620000000p-3, -0x1.3f8cf40000000p-3, -0x1.190a7e0000000p-3, -0x1.7f2a320000000p-6, -0x1.2a2ed60000000p-2, -0x1.12c51c0000000p-5, 0x1.a2b99e0000000p-4, 0x1.1a59000000000p-15}
}
, {{-0x1.dcaf240000000p-5, 0x1.b03fba0000000p-6, -0x1.8ba7d40000000p-5, 0x1.4f48ca0000000p-3, -0x1.a2c5920000000p-4, -0x1.3574840000000p-2, -0x1.653b7e0000000p-5, 0x1.e67db00000000p-4, -0x1.00bbf20000000p-2, 0x1.5778800000000p-4, -0x1.3ed93a0000000p-4, -0x1.cf99580000000p-6, -0x1.ba6ef80000000p-4, -0x1.2d8d460000000p-3, -0x1.41f0f60000000p-3, 0x1.71ba420000000p-3, -0x1.4650180000000p-5, 0x1.21e74a0000000p-4, 0x1.c6fe520000000p-3, -0x1.7967340000000p-3, -0x1.525c960000000p-6, 0x1.306d8a0000000p-3, -0x1.41d4d40000000p-4, -0x1.3a34c60000000p-3, -0x1.1ba8b80000000p-14, -0x1.154f340000000p-3, 0x1.20fe4a0000000p-3, 0x1.1146060000000p-4, -0x1.bae45a0000000p-4, 0x1.0078e60000000p-4, -0x1.5e176e0000000p-4, -0x1.f7aa9c0000000p-4}
, {0x1.b50dd40000000p-4, 0x1.cabb980000000p-7, 0x1.3c17c20000000p-3, 0x1.3ce3a00000000p-2, 0x1.75e47c0000000p-8, 0x1.09eaa40000000p-5, 0x1.0779860000000p-4, 0x1.1dcbb20000000p-5, -0x1.bcf6120000000p-3, -0x1.3a4a520000000p-6, -0x1.f92df60000000p-4, 0x1.73e9360000000p-3, -0x1.ccf18e0000000p-4, -0x1.59c8480000000p-4, 0x1.13b0c20000000p-3, 0x1.70775c0000000p-3, -0x1.05d9200000000p-4, 0x1.3574b60000000p-4, -0x1.be9e240000000p-4, 0x1.688d480000000p-4, -0x1.ab92ca0000000p-3, -0x1.c7e0e80000000p-5, -0x1.4650780000000p-3, -0x1.09d0de0000000p-3, -0x1.59c7500000000p-9, 0x1.ff60e20000000p-3, -0x1.6fd4600000000p-4, 0x1.386b520000000p-3, 0x1.42b99a0000000p-3, 0x1.16b42c0000000p-4, 0x1.194fce0000000p-3, -0x1.b28bb20000000p-3}
}
, {{-0x1.d60d580000000p-5, -0x1.0ede960000000p-2, 0x1.09962c0000000p-3, -0x1.1db2540000000p-3, 0x1.7bf1ce0000000p-4, -0x1.97b28c0000000p-4, 0x1.ac07560000000p-6, 0x1.c654be0000000p-4, 0x1.104d7a0000000p-3, -0x1.0747ce0000000p-4, 0x1.595d140000000p-5, 0x1.5f79160000000p-5, 0x1.c15df20000000p-3, -0x1.7f879e0000000p-3, 0x1.a6e3c40000000p-8, 0x1.d64b240000000p-4, 0x1.373a5e0000000p-3, -0x1.31311e0000000p-3, -0x1.35d6bc0000000p-3, 0x1.44499e0000000p-3, -0x1.078ff20000000p-3, -0x1.972f860000000p-3, 0x1.67afc80000000p-6, -0x1.c34d1c0000000p-6, -0x1.53cd640000000p-2, -0x1.abdce60000000p-3, -0x1.718c860000000p-3, -0x1.e144c60000000p-4, 0x1.20a4bc0000000p-6, 0x1.f6a77a0000000p-7, -0x1.7db18a0000000p-7, -0x1.58c4a00000000p-4}
, {0x1.307d260000000p-3, -0x1.cd7fcc0000000p-5, 0x1.8bb27c0000000p-3, 0x1.622be40000000p-3, 0x1.49a18a0000000p-3, 0x1.5d2f480000000p-3, -0x1.ffff660000000p-5, 0x1.15ae0c0000000p-4, 0x1.5ebc220000000p-4, 0x1.15be120000000p-3, 0x1.3035840000000p-3, 0x1.4b04380000000p-4, 0x1.3cc69e0000000p-4, -0x1.de612a0000000p-4, -0x1.0aa3b00000000p-5, 0x1.5be0900000000p-7, 0x1.3934b80000000p-3, -0x1.ca101a0000000p-5, 0x1.4aecb00000000p-4, 0x1.a7a2460000000p-3, 0x1.f56ddc0000000p-5, -0x1.8538940000000p-3, 0x1.39b24c0000000p-3, -0x1.7f8f380000000p-4, 0x1.9ebede0000000p-8, 0x1.b34fae0000000p-10, -0x1.9041a80000000p-3, 0x1.5791be0000000p-4, -0x1.785f380000000p-5, 0x1.47215c0000000p-4, -0x1.ba518a0000000p-7, -0x1.599f720000000p-3}
}
, {{0x1.fbe6100000000p-6, 0x1.213ca60000000p-3, -0x1.10cc5e0000000p-3, 0x1.a3d0fa0000000p-3, 0x1.7239c00000000p-4, -0x1.0b18cc0000000p-4, 0x1.9a9f300000000p-5, 0x1.0a17920000000p-7, -0x1.0ee6bc0000000p-5, -0x1.afe4780000000p-3, -0x1.c372be0000000p-6, 0x1.4996f20000000p-3, -0x1.9123b60000000p-3, -0x1.7e239c0000000p-4, 0x1.60592a0000000p-4, -0x1.16d2240000000p-2, 0x1.8ebab20000000p-5, 0x1.4089ee0000000p-4, -0x1.c046320000000p-3, -0x1.b9772e0000000p-4, -0x1.8c26b00000000p-3, 0x1.af6a8e0000000p-4, 0x1.2db55e0000000p-4, 0x1.c346f40000000p-4, 0x1.89ab080000000p-5, -0x1.9396ac0000000p-5, -0x1.e31eea0000000p-4, -0x1.2423640000000p-3, 0x1.09ce6a0000000p-4, 0x1.da5b8c0000000p-4, -0x1.53ea240000000p-5, 0x1.f56d5e0000000p-5}
, {-0x1.1cbf1a0000000p-9, 0x1.2669000000000p-4, -0x1.7c9a880000000p-4, 0x1.f501200000000p-3, 0x1.a1cbbe0000000p-5, 0x1.a01dc00000000p-8, -0x1.dccc7e0000000p-4, -0x1.b1dc4a0000000p-4, 0x1.cbfb3e0000000p-5, -0x1.2b069e0000000p-4, -0x1.49271c0000000p-3, -0x1.de6ce00000000p-5, -0x1.d96a4c0000000p-3, -0x1.80311c0000000p-4, 0x1.31190a0000000p-8, 0x1.1d41760000000p-9, -0x1.115fdc0000000p-3, -0x1.cd87600000000p-4, -0x1.c94acc0000000p-4, 0x1.44314c0000000p-3, -0x1.e783280000000p-3, 0x1.d94fd20000000p-4, -0x1.4ae8e80000000p-5, 0x1.577a660000000p-3, -0x1.0fdf520000000p-4, 0x1.107cac0000000p-3, -0x1.33d4fa0000000p-6, -0x1.05e71a0000000p-6, -0x1.9cfaa40000000p-3, -0x1.4b89b40000000p-10, 0x1.09363c0000000p-8, 0x1.896e020000000p-3}
}
, {{-0x1.1710ee0000000p-5, -0x1.6f7d820000000p-4, -0x1.20685a0000000p-5, -0x1.4e5b9c0000000p-3, -0x1.5b30f20000000p-4, 0x1.a577320000000p-6, 0x1.3881f40000000p-3, 0x1.32e78e0000000p-6, -0x1.28415a0000000p-4, -0x1.098fc00000000p-4, 0x1.85f4c60000000p-3, 0x1.3ca63e0000000p-4, 0x1.42fc1a0000000p-2, 0x1.9155e20000000p-5, 0x1.f90c780000000p-5, 0x1.1564380000000p-3, -0x1.48ee780000000p-3, -0x1.8c0c000000000p-7, 0x1.d6eec40000000p-4, 0x1.bcf33a0000000p-3, 0x1.9222400000000p-5, -0x1.1cedb20000000p-4, -0x1.3ddf7a0000000p-5, -0x1.f480380000000p-5, 0x1.ae22720000000p-4, -0x1.cfc1ea0000000p-7, 0x1.6298460000000p-6, -0x1.0df4100000000p-10, -0x1.aec1a20000000p-3, -0x1.bcedd80000000p-5, 0x1.c1c0de0000000p-7, -0x1.18b87a0000000p-6}
, {-0x1.72a4ac0000000p-4, 0x1.b3e8460000000p-6, 0x1.e5e0640000000p-5, 0x1.2e920c0000000p-3, -0x1.2a881a0000000p-10, -0x1.050a6c0000000p-4, -0x1.17dd000000000p-5, 0x1.6484f20000000p-3, 0x1.0903d80000000p-5, 0x1.10a0a00000000p-3, 0x1.e47bd00000000p-5, 0x1.9e85820000000p-3, 0x1.eaa8260000000p-4, -0x1.12aeb40000000p-4, -0x1.4571b00000000p-3, 0x1.176a140000000p-7, -0x1.7a81560000000p-4, 0x1.31ae0c0000000p-3, -0x1.840db00000000p-5, -0x1.9ebc500000000p-6, 0x1.5d4b360000000p-4, 0x1.344db20000000p-10, 0x1.8a6ef80000000p-3, 0x1.b621e00000000p-5, -0x1.3d87280000000p-3, 0x1.3e59b60000000p-3, 0x1.c51ff60000000p-5, -0x1.946c800000000p-4, -0x1.f062080000000p-4, -0x1.9670720000000p-6, 0x1.fca61c0000000p-3, -0x1.c8e8700000000p-3}
}
, {{0x1.192c040000000p-3, 0x1.7c29260000000p-4, -0x1.9ff62c0000000p-3, 0x1.cc8e2e0000000p-5, -0x1.f81d680000000p-3, 0x1.26c0660000000p-5, 0x1.26df560000000p-3, 0x1.9131540000000p-3, 0x1.84812a0000000p-5, 0x1.5512da0000000p-5, -0x1.f028a20000000p-7, 0x1.39eb760000000p-6, 0x1.3275a20000000p-3, 0x1.a432140000000p-5, -0x1.cc1bf00000000p-4, -0x1.c18ad60000000p-5, -0x1.1a3ed80000000p-3, -0x1.6694c40000000p-5, -0x1.9e31820000000p-3, 0x1.47aaae0000000p-7, 0x1.b88fca0000000p-3, -0x1.b69d240000000p-4, -0x1.8496b40000000p-5, 0x1.ba4ebc0000000p-3, -0x1.0f13e20000000p-6, 0x1.35e6fe0000000p-3, -0x1.b4d7ae0000000p-4, -0x1.9a44b00000000p-4, -0x1.ee27660000000p-4, 0x1.7bbe9a0000000p-4, -0x1.058fba0000000p-3, -0x1.7daac20000000p-3}
, {-0x1.0bd3f00000000p-7, -0x1.f31f620000000p-5, 0x1.2168980000000p-5, -0x1.e6fcfa0000000p-3, -0x1.30cbcc0000000p-3, -0x1.5812120000000p-4, 0x1.de87d20000000p-4, 0x1.1ad0020000000p-3, -0x1.058b100000000p-3, 0x1.7b6f840000000p-4, -0x1.7952180000000p-4, -0x1.01f25c0000000p-4, -0x1.13262c0000000p-2, 0x1.c2401e0000000p-5, 0x1.d306c80000000p-4, 0x1.22673a0000000p-7, 0x1.2cd56a0000000p-4, 0x1.a6281c0000000p-5, -0x1.1206720000000p-6, 0x1.7a229e0000000p-3, 0x1.e6995a0000000p-3, 0x1.c5e2e60000000p-7, -0x1.1b4be00000000p-4, 0x1.a3d2ac0000000p-8, 0x1.1d31380000000p-5, -0x1.419e480000000p-4, 0x1.b6259c0000000p-7, 0x1.1f70a00000000p-4, -0x1.7375760000000p-3, 0x1.1d6e660000000p-4, -0x1.904ebc0000000p-3, 0x1.69b8720000000p-6}
}
, {{-0x1.5557f40000000p-6, 0x1.98ce6c0000000p-4, 0x1.55d6c00000000p-3, -0x1.703fec0000000p-8, 0x1.441f4c0000000p-3, -0x1.3a7fac0000000p-4, -0x1.2a5ddc0000000p-3, -0x1.638ec40000000p-5, -0x1.7f44c80000000p-6, 0x1.af8e7a0000000p-4, 0x1.88b0740000000p-4, 0x1.524e120000000p-4, -0x1.00fb8e0000000p-2, -0x1.0a055a0000000p-3, 0x1.d5062c0000000p-6, 0x1.7920fa0000000p-4, 0x1.279f9a0000000p-3, 0x1.bdca6a0000000p-5, 0x1.ec8c020000000p-4, 0x1.1a85980000000p-3, -0x1.bc7eac0000000p-5, -0x1.61f5160000000p-5, 0x1.731a140000000p-4, 0x1.164a840000000p-4, -0x1.11d0680000000p-3, -0x1.7ed5d80000000p-4, 0x1.85d3b40000000p-10, 0x1.3e14f20000000p-3, -0x1.88bf920000000p-3, -0x1.0c3db40000000p-5, -0x1.1ae84e0000000p-3, 0x1.01b92c0000000p-6}
, {-0x1.2d749a0000000p-3, 0x1.febda20000000p-4, 0x1.b3929e0000000p-4, 0x1.04c8da0000000p-3, 0x1.f3a8c80000000p-4, 0x1.e646240000000p-6, 0x1.27d5f20000000p-3, 0x1.9324fa0000000p-4, -0x1.c9438a0000000p-6, -0x1.a566040000000p-6, -0x1.3b8f2a0000000p-5, 0x1.a2ec460000000p-6, -0x1.69a64c0000000p-2, 0x1.7423260000000p-3, 0x1.3090bc0000000p-3, -0x1.b876de0000000p-4, 0x1.dfaf660000000p-10, 0x1.4838740000000p-5, -0x1.e96a6e0000000p-5, 0x1.93dfee0000000p-3, -0x1.1e59b20000000p-4, -0x1.70ad720000000p-5, 0x1.4342a60000000p-3, 0x1.67978c0000000p-4, -0x1.52acc00000000p-4, 0x1.98d1100000000p-3, 0x1.18f5040000000p-3, -0x1.d9cf460000000p-5, 0x1.13642c0000000p-3, -0x1.7a723e0000000p-8, -0x1.b021000000000p-3, 0x1.4103cc0000000p-3}
}
, {{-0x1.6c6f9a0000000p-3, 0x1.34dd260000000p-3, -0x1.a925440000000p-4, 0x1.b80ed40000000p-3, 0x1.03b00c0000000p-4, -0x1.4332f80000000p-3, 0x1.6e4dd00000000p-7, -0x1.ab52d80000000p-5, -0x1.31f1a60000000p-5, -0x1.5b65600000000p-5, -0x1.13c47a0000000p-3, -0x1.88d0960000000p-3, 0x1.27b3040000000p-3, 0x1.7686040000000p-5, -0x1.8dbac20000000p-3, 0x1.055bf40000000p-5, 0x1.cb585a0000000p-7, -0x1.13926a0000000p-3, -0x1.7163cc0000000p-3, 0x1.2339fa0000000p-5, -0x1.135b480000000p-3, -0x1.97e4580000000p-13, 0x1.dc3db80000000p-5, 0x1.756c420000000p-4, -0x1.780e580000000p-5, -0x1.0282560000000p-4, 0x1.a7ba520000000p-6, 0x1.88c9ac0000000p-3, 0x1.092b1e0000000p-4, 0x1.4fc8de0000000p-3, 0x1.7df3a60000000p-6, 0x1.7427b40000000p-3}
, {-0x1.78f0b40000000p-3, 0x1.99d1240000000p-3, -0x1.0b96b60000000p-8, 0x1.4d1b020000000p-3, 0x1.26f12a0000000p-5, -0x1.3055760000000p-3, 0x1.81b7660000000p-5, -0x1.f3fcb40000000p-4, -0x1.5e5eea0000000p-6, -0x1.cbfb0a0000000p-5, -0x1.5966ac0000000p-4, 0x1.158e560000000p-7, 0x1.e8aeba0000000p-4, -0x1.1831e00000000p-7, -0x1.7bf9f80000000p-5, -0x1.4be3640000000p-3, 0x1.afcd5e0000000p-4, 0x1.1fdb2a0000000p-5, -0x1.28776a0000000p-11, -0x1.9d23720000000p-3, 0x1.2e3d380000000p-5, 0x1.6b917a0000000p-5, -0x1.233f1a0000000p-8, -0x1.03a84c0000000p-3, 0x1.ca29720000000p-3, -0x1.e858cc0000000p-6, -0x1.ae9ace0000000p-4, 0x1.cfcfc20000000p-7, 0x1.58c5e80000000p-5, -0x1.02266a0000000p-3, 0x1.1d8f620000000p-4, 0x1.26dedc0000000p-3}
}
, {{0x1.3e16460000000p-3, -0x1.7e74a00000000p-3, 0x1.7c677a0000000p-4, -0x1.4126020000000p-4, 0x1.ce37a80000000p-3, 0x1.f61b760000000p-4, -0x1.5b52100000000p-4, -0x1.ec9df00000000p-4, 0x1.6a04040000000p-3, 0x1.4b34b80000000p-4, 0x1.7aa4120000000p-4, -0x1.8ce6420000000p-3, 0x1.10d3860000000p-6, -0x1.b284820000000p-5, -0x1.12ee460000000p-5, -0x1.4da1020000000p-4, 0x1.f2ce260000000p-5, -0x1.159c1c0000000p-3, 0x1.af388a0000000p-4, 0x1.62a2a00000000p-3, 0x1.cfcf7a0000000p-4, -0x1.9211ae0000000p-3, -0x1.3610d20000000p-3, -0x1.6a1dac0000000p-3, -0x1.16224c0000000p-4, -0x1.b323000000000p-3, -0x1.af23940000000p-3, 0x1.a0f51c0000000p-4, 0x1.c1b0f00000000p-5, -0x1.73244e0000000p-3, -0x1.537fba0000000p-4, 0x1.337dc20000000p-6}
, {0x1.6b129e0000000p-3, 0x1.772cb20000000p-3, 0x1.7afb500000000p-5, 0x1.49876a0000000p-3, 0x1.8268ca0000000p-5, -0x1.393b260000000p-3, 0x1.47ed820000000p-6, 0x1.e2d2020000000p-5, 0x1.d5fc160000000p-5, 0x1.6c1a0c0000000p-3, 0x1.3cc47a0000000p-5, -0x1.0e397c0000000p-6, -0x1.650e6e0000000p-5, 0x1.4303940000000p-7, -0x1.ddf6560000000p-4, 0x1.613c960000000p-4, -0x1.16b5900000000p-4, 0x1.f429f00000000p-7, -0x1.72fc560000000p-5, 0x1.4f484a0000000p-4, -0x1.5e76e40000000p-3, 0x1.df80a00000000p-5, -0x1.7c018c0000000p-3, -0x1.581aa20000000p-3, -0x1.2e8c660000000p-5, 0x1.1b3bc00000000p-5, -0x1.1a0dbc0000000p-3, 0x1.d3ef3a0000000p-5, 0x1.8f52dc0000000p-5, -0x1.da53380000000p-5, 0x1.8c56480000000p-5, 0x1.08f1840000000p-2}
}
, {{0x1.1d73be0000000p-3, -0x1.6c675c0000000p-3, 0x1.8472760000000p-5, 0x1.2dec360000000p-3, -0x1.87dd6a0000000p-5, -0x1.8413e40000000p-3, -0x1.3fd24a0000000p-4, 0x1.6f6b680000000p-5, -0x1.9ba5260000000p-5, -0x1.c419f40000000p-6, 0x1.88184a0000000p-3, -0x1.d21f400000000p-3, -0x1.a2c85a0000000p-3, -0x1.8fa18c0000000p-3, -0x1.ce817a0000000p-4, 0x1.3b31ec0000000p-3, 0x1.4c94d80000000p-6, -0x1.b3d22a0000000p-6, -0x1.97afc20000000p-3, -0x1.8c6f7c0000000p-5, -0x1.87dff40000000p-4, -0x1.0f92280000000p-3, 0x1.9dcfea0000000p-3, 0x1.8e3fc20000000p-4, -0x1.3565d60000000p-3, -0x1.fe87fe0000000p-3, -0x1.0dc8ac0000000p-4, 0x1.4fd5920000000p-4, 0x1.397e5a0000000p-4, 0x1.8908b60000000p-5, -0x1.87a5860000000p-3, -0x1.08fcd60000000p-4}
, {0x1.80cd400000000p-4, -0x1.889eba0000000p-4, -0x1.c4e4da0000000p-5, -0x1.d937300000000p-5, -0x1.3906740000000p-5, 0x1.d811a20000000p-7, 0x1.9c43b40000000p-4, 0x1.26d8a80000000p-4, 0x1.bd71f40000000p-4, 0x1.4fdc120000000p-3, 0x1.b6c4280000000p-5, -0x1.671b900000000p-3, -0x1.337b700000000p-7, -0x1.416b5c0000000p-4, 0x1.f9e4060000000p-4, 0x1.c684fc0000000p-6, 0x1.f800640000000p-9, -0x1.67ce8c0000000p-7, -0x1.af03980000000p-7, 0x1.dd35ec0000000p-5, -0x1.39d2de0000000p-2, 0x1.1c51900000000p-8, 0x1.3b013c0000000p-4, 0x1.a322fe0000000p-3, -0x1.fa46ae0000000p-3, -0x1.509e7a0000000p-4, -0x1.658dc20000000p-4, 0x1.6e99f20000000p-7, 0x1.dbf60e0000000p-11, 0x1.40b6500000000p-5, -0x1.077d2a0000000p-2, -0x1.13893c0000000p-4}
}
, {{-0x1.020bc80000000p-4, -0x1.2a630c0000000p-2, 0x1.4a6f9e0000000p-3, -0x1.ed01be0000000p-4, 0x1.45e50a0000000p-4, 0x1.31b4720000000p-2, 0x1.38c6f40000000p-5, 0x1.767d980000000p-4, 0x1.63870e0000000p-3, 0x1.0e8b080000000p-3, 0x1.95d05c0000000p-4, -0x1.9f6a120000000p-4, 0x1.8037120000000p-5, 0x1.86d5ca0000000p-10, -0x1.d77bf00000000p-5, 0x1.0212dc0000000p-3, -0x1.19344c0000000p-2, -0x1.8c04b40000000p-4, 0x1.258d300000000p-3, 0x1.097ef20000000p-3, 0x1.323f040000000p-4, 0x1.f6ecdc0000000p-4, -0x1.267d160000000p-3, -0x1.38ef4e0000000p-4, 0x1.13115e0000000p-7, -0x1.ab87b80000000p-3, -0x1.ac00f40000000p-5, 0x1.0afdd60000000p-5, -0x1.7121ec0000000p-5, -0x1.ba48220000000p-4, -0x1.ce03320000000p-7, -0x1.32f4040000000p-2}
, {-0x1.4b53880000000p-5, -0x1.df1bb00000000p-3, 0x1.e1bad20000000p-4, -0x1.da29160000000p-3, 0x1.b3dd040000000p-9, 0x1.b2d30a0000000p-3, -0x1.2ea4580000000p-3, 0x1.bd410e0000000p-4, -0x1.f577c20000000p-4, 0x1.3869120000000p-4, 0x1.248d0e0000000p-3, 0x1.09c6000000000p-4, 0x1.6893640000000p-3, -0x1.39f9140000000p-3, 0x1.ac96200000000p-4, -0x1.1c42920000000p-5, -0x1.5869560000000p-4, -0x1.7733680000000p-3, 0x1.630f3c0000000p-4, 0x1.c600640000000p-3, -0x1.760c2a0000000p-4, -0x1.e04a080000000p-5, -0x1.91da300000000p-3, -0x1.5067340000000p-3, 0x1.feec540000000p-7, 0x1.cf56940000000p-4, 0x1.e1bace0000000p-5, 0x1.cc8e8a0000000p-6, 0x1.8b01380000000p-4, -0x1.d96c7e0000000p-3, -0x1.8205420000000p-3, -0x1.83dc5e0000000p-5}
}
, {{-0x1.b88c8a0000000p-4, 0x1.4f6f980000000p-6, -0x1.ca94980000000p-3, -0x1.74b1760000000p-6, -0x1.0dcf020000000p-5, -0x1.87d0780000000p-3, -0x1.1898820000000p-4, -0x1.0f01160000000p-3, -0x1.26bb4c0000000p-3, -0x1.8c07ee0000000p-5, 0x1.d4e0480000000p-9, 0x1.a56df80000000p-4, -0x1.03e2300000000p-3, 0x1.5d3be60000000p-6, -0x1.9c53840000000p-6, 0x1.4e8df60000000p-5, -0x1.611b7a0000000p-3, -0x1.10dc360000000p-3, -0x1.7f9f5a0000000p-4, -0x1.ff9ba80000000p-4, -0x1.af78680000000p-3, -0x1.0201c40000000p-3, -0x1.e8d01c0000000p-7, 0x1.173afe0000000p-4, -0x1.1f9d8e0000000p-3, -0x1.a4e86a0000000p-4, -0x1.2e6a3e0000000p-4, -0x1.925b2c0000000p-4, -0x1.c510080000000p-4, -0x1.4a866e0000000p-3, -0x1.4853460000000p-3, -0x1.3509000000000p-3}
, {0x1.5e31200000000p-3, 0x1.4850d80000000p-3, 0x1.3c4b320000000p-8, -0x1.463d420000000p-3, -0x1.5a6ee80000000p-3, 0x1.0a87460000000p-3, -0x1.3182b20000000p-3, 0x1.68fea00000000p-6, -0x1.28b6d20000000p-5, 0x1.65b5280000000p-3, 0x1.2bd25e0000000p-3, -0x1.6b73060000000p-4, 0x1.87eac80000000p-4, 0x1.c85f020000000p-4, 0x1.ec37780000000p-5, 0x1.5a70f60000000p-4, -0x1.0d985e0000000p-3, -0x1.f0f11a0000000p-4, -0x1.0695d40000000p-5, 0x1.14e9000000000p-4, 0x1.4434b40000000p-4, 0x1.33f2be0000000p-3, 0x1.7f501a0000000p-9, 0x1.a0ff220000000p-3, 0x1.172cc40000000p-3, 0x1.4614de0000000p-6, 0x1.aa0d200000000p-3, -0x1.0831700000000p-7, -0x1.cae7800000000p-4, -0x1.79ff960000000p-6, 0x1.89615a0000000p-3, -0x1.566df00000000p-5}
}
, {{-0x1.c4bf040000000p-4, 0x1.8fcc060000000p-5, -0x1.dbf9ea0000000p-4, -0x1.8fc39c0000000p-4, -0x1.13dadc0000000p-3, -0x1.f66f120000000p-3, 0x1.6a5e7c0000000p-7, 0x1.028d660000000p-3, 0x1.4061940000000p-4, -0x1.044a1c0000000p-4, 0x1.294aa60000000p-3, 0x1.63cddc0000000p-3, 0x1.3bcaca0000000p-3, 0x1.7efa060000000p-3, -0x1.c1645e0000000p-4, -0x1.1dc15c0000000p-3, -0x1.4a1daa0000000p-3, 0x1.7c4c180000000p-4, 0x1.88c81a0000000p-3, -0x1.b46f7a0000000p-7, 0x1.1a01180000000p-4, 0x1.719c8a0000000p-3, 0x1.fef3ae0000000p-4, 0x1.f92a940000000p-4, 0x1.adc3980000000p-4, 0x1.4ed41c0000000p-4, -0x1.87ac0e0000000p-5, 0x1.12f2520000000p-3, -0x1.3667800000000p-3, -0x1.a0c4f80000000p-6, 0x1.85757a0000000p-4, -0x1.1f5e420000000p-6}
, {0x1.2868cc0000000p-4, -0x1.e1dca20000000p-4, -0x1.ae489e0000000p-4, 0x1.7d00820000000p-3, 0x1.b57c7c0000000p-9, -0x1.adfdb00000000p-4, 0x1.53f6b20000000p-3, 0x1.009d1c0000000p-4, -0x1.45d98c0000000p-3, -0x1.3341660000000p-3, 0x1.8e81240000000p-3, 0x1.97a0ce0000000p-4, 0x1.7d190a0000000p-4, -0x1.20fd520000000p-3, 0x1.a89aa60000000p-4, -0x1.444f780000000p-3, 0x1.37ad060000000p-4, -0x1.2ecd8c0000000p-6, -0x1.c046480000000p-4, -0x1.c17ed40000000p-5, 0x1.36ae300000000p-3, 0x1.22cd440000000p-3, -0x1.dbabb20000000p-4, -0x1.9ac2a80000000p-4, 0x1.c3ec360000000p-4, -0x1.93740e0000000p-5, -0x1.aa368a0000000p-5, -0x1.17adbe0000000p-4, 0x1.090ed40000000p-3, -0x1.2c6cbe0000000p-7, 0x1.68b2ee0000000p-4, -0x1.f47da20000000p-3}
}
, {{0x1.b44d700000000p-4, -0x1.ed72080000000p-7, 0x1.71c4ee0000000p-3, 0x1.ae3ec20000000p-3, 0x1.57f0360000000p-5, -0x1.4d65180000000p-2, -0x1.431d260000000p-3, -0x1.7df9080000000p-4, -0x1.eddf380000000p-3, 0x1.6783a20000000p-4, 0x1.e599640000000p-5, 0x1.cc1c200000000p-3, 0x1.d8f1080000000p-5, 0x1.757b5a0000000p-4, 0x1.4324a00000000p-4, 0x1.6ff6a20000000p-3, -0x1.1770800000000p-3, 0x1.1619de0000000p-3, -0x1.bf28380000000p-5, -0x1.820ee80000000p-5, 0x1.65e7b40000000p-4, 0x1.459cf40000000p-3, 0x1.ee86b40000000p-7, 0x1.e3adbc0000000p-6, -0x1.ad4a900000000p-4, 0x1.d01e860000000p-4, -0x1.0b1eba0000000p-3, 0x1.11e5720000000p-5, 0x1.3cedac0000000p-3, 0x1.1e27080000000p-7, 0x1.9a32960000000p-4, 0x1.2cbe5e0000000p-3}
, {-0x1.40e19c0000000p-5, -0x1.52a28a0000000p-4, 0x1.615dda0000000p-3, -0x1.993d3c0000000p-4, -0x1.4427480000000p-3, -0x1.0577f00000000p-5, 0x1.2f7fea0000000p-3, 0x1.45893a0000000p-3, -0x1.6708c60000000p-3, -0x1.836dfc0000000p-3, -0x1.c2fdcc0000000p-4, 0x1.ff87460000000p-6, 0x1.cb626e0000000p-4, 0x1.5009fc0000000p-3, -0x1.3e25960000000p-4, 0x1.279f3a0000000p-3, -0x1.cbfcba0000000p-6, 0x1.85c3de0000000p-3, 0x1.8cc01a0000000p-3, 0x1.f1bf840000000p-3, 0x1.26938e0000000p-3, 0x1.fc3c620000000p-5, 0x1.47eb5c0000000p-5, -0x1.186e2c0000000p-3, -0x1.4b34260000000p-4, -0x1.b7ec440000000p-7, -0x1.c4e9ea0000000p-5, -0x1.d6475e0000000p-4, -0x1.605ec80000000p-3, -0x1.b1d5c20000000p-3, 0x1.74e07e0000000p-5, 0x1.9e5f660000000p-5}
}
, {{-0x1.1fb1800000000p-4, -0x1.74794a0000000p-3, 0x1.52ddbe0000000p-3, -0x1.09b3580000000p-5, -0x1.2ecf0a0000000p-3, -0x1.fa182a0000000p-4, 0x1.fe23500000000p-5, -0x1.93d9c00000000p-5, -0x1.39c96a0000000p-3, -0x1.3284ba0000000p-3, 0x1.8567bc0000000p-10, 0x1.64228a0000000p-5, -0x1.84ecde0000000p-6, 0x1.c1db760000000p-4, 0x1.7a58aa0000000p-4, -0x1.9053700000000p-5, 0x1.01af480000000p-3, -0x1.93b9200000000p-3, -0x1.89ff0a0000000p-3, -0x1.2235560000000p-4, -0x1.a0ccfa0000000p-5, 0x1.6dc4dc0000000p-6, 0x1.5bfd6e0000000p-5, 0x1.b8ab040000000p-4, 0x1.a27ac20000000p-4, -0x1.cb32060000000p-5, -0x1.80043c0000000p-13, 0x1.1e3e680000000p-3, 0x1.01f3540000000p-4, -0x1.66e18a0000000p-5, -0x1.55fcc20000000p-2, 0x1.7c42ea0000000p-5}
, {-0x1.4ab0f00000000p-3, -0x1.ff81460000000p-5, -0x1.cca36a0000000p-10, 0x1.6c66dc0000000p-3, -0x1.8a2d7c0000000p-4, -0x1.e740aa0000000p-4, 0x1.fd4ad00000000p-6, -0x1.770c160000000p-4, 0x1.afe1260000000p-3, -0x1.6357820000000p-4, 0x1.7b867e0000000p-7, 0x1.63ea040000000p-4, 0x1.e9a0540000000p-3, 0x1.4d6c180000000p-4, 0x1.4c14f00000000p-3, 0x1.3d3f740000000p-4, -0x1.15116a0000000p-3, 0x1.91ca320000000p-4, -0x1.3114d60000000p-4, 0x1.664f2a0000000p-7, 0x1.343fc80000000p-4, -0x1.2691bc0000000p-4, 0x1.4d60f80000000p-4, 0x1.82d7c00000000p-3, 0x1.738f900000000p-3, 0x1.d909f40000000p-3, -0x1.9938b60000000p-4, 0x1.0228e80000000p-3, -0x1.f5d3620000000p-4, 0x1.419a920000000p-3, 0x1.8e06640000000p-5, 0x1.3add980000000p-2}
}
, {{0x1.86fce00000000p-6, 0x1.50b55e0000000p-4, 0x1.1310940000000p-5, 0x1.f7ef560000000p-4, 0x1.23e3da0000000p-5, -0x1.de41080000000p-4, -0x1.59b5240000000p-4, 0x1.02026c0000000p-3, 0x1.5046280000000p-14, 0x1.f1bb040000000p-8, -0x1.3ccbc00000000p-4, -0x1.3f71d80000000p-5, 0x1.8aa33e0000000p-2, -0x1.39eb000000000p-3, 0x1.4dc7240000000p-3, -0x1.6101e00000000p-3, 0x1.21595a0000000p-5, 0x1.0c637e0000000p-4, -0x1.cda1d80000000p-4, 0x1.53a0980000000p-4, -0x1.d5ed1e0000000p-4, 0x1.d6f3940000000p-3, 0x1.8024940000000p-4, -0x1.2eea7e0000000p-4, -0x1.7da2100000000p-3, 0x1.9e6f300000000p-6, 0x1.cc15280000000p-4, -0x1.d6ff980000000p-4, -0x1.524e4e0000000p-3, 0x1.a97bd60000000p-4, 0x1.a80fc00000000p-3, 0x1.5d7fdc0000000p-4}
, {-0x1.d281960000000p-3, 0x1.0f95540000000p-3, -0x1.0658b80000000p-3, 0x1.afaedc0000000p-3, 0x1.4be3240000000p-4, 0x1.13176e0000000p-3, 0x1.3592520000000p-6, 0x1.fb674c0000000p-5, 0x1.07a7720000000p-4, -0x1.0e2cf80000000p-3, 0x1.16f7200000000p-3, 0x1.0a206c0000000p-3, 0x1.0c34580000000p-8, 0x1.53ab300000000p-4, 0x1.0605d80000000p-3, -0x1.01e1820000000p-2, -0x1.4adeb60000000p-4, -0x1.7201620000000p-6, 0x1.65a58e0000000p-5, -0x1.a447520000000p-4, -0x1.b2d34a0000000p-3, 0x1.3fd9860000000p-5, 0x1.2a05e20000000p-3, 0x1.0f164c0000000p-6, -0x1.6735c00000000p-5, 0x1.f1877c0000000p-3, -0x1.4720020000000p-4, -0x1.4a359a0000000p-3, -0x1.dbe5220000000p-5, -0x1.79d0440000000p-4, 0x1.8390760000000p-3, 0x1.0d35160000000p-4}
}
, {{0x1.8485260000000p-4, 0x1.2b5df00000000p-3, -0x1.4060380000000p-5, 0x1.6410600000000p-4, 0x1.c3b41e0000000p-6, -0x1.e25f4e0000000p-6, 0x1.0297820000000p-3, -0x1.8fc7b40000000p-4, 0x1.03510a0000000p-3, 0x1.1ffcc40000000p-6, 0x1.2468e40000000p-3, -0x1.0b231e0000000p-3, 0x1.54b0820000000p-3, -0x1.34988c0000000p-3, 0x1.b7cf8a0000000p-9, -0x1.d64ac40000000p-4, 0x1.d6f2de0000000p-4, 0x1.73e9e40000000p-4, -0x1.3c6fda0000000p-4, 0x1.cd10380000000p-4, 0x1.cb50420000000p-3, -0x1.7d21140000000p-4, -0x1.9a60100000000p-4, 0x1.0943400000000p-3, 0x1.8bce400000000p-3, -0x1.4b092e0000000p-4, -0x1.d2d83a0000000p-5, -0x1.ec4c340000000p-4, 0x1.44ecde0000000p-3, 0x1.49175e0000000p-4, -0x1.7c4a1c0000000p-3, 0x1.e66bae0000000p-3}
, {-0x1.a758020000000p-4, -0x1.304fb80000000p-4, -0x1.ad1b300000000p-8, -0x1.b178140000000p-4, 0x1.9069260000000p-3, 0x1.292b6c0000000p-3, 0x1.b8b71a0000000p-5, 0x1.1754e80000000p-5, 0x1.6251060000000p-4, -0x1.6d23a60000000p-7, 0x1.70c7be0000000p-3, -0x1.4a148a0000000p-9, 0x1.24d9ee0000000p-4, 0x1.3faf560000000p-7, -0x1.7e64780000000p-5, -0x1.fa4a900000000p-6, -0x1.167e400000000p-3, -0x1.7854180000000p-12, 0x1.02978a0000000p-2, 0x1.e7d9aa0000000p-5, 0x1.2adcb40000000p-4, 0x1.e00ba80000000p-4, -0x1.45d5e20000000p-5, -0x1.7a78b80000000p-6, 0x1.3a72460000000p-8, 0x1.7e84b60000000p-3, 0x1.b095760000000p-6, -0x1.283ede0000000p-3, -0x1.06a7500000000p-6, 0x1.0b9f700000000p-5, -0x1.b8bc4e0000000p-5, 0x1.6b04b80000000p-4}
}
, {{0x1.5eb4100000000p-4, 0x1.7090980000000p-3, 0x1.e2a9ac0000000p-6, 0x1.79ae1e0000000p-4, -0x1.a7807e0000000p-4, -0x1.051fb60000000p-4, -0x1.3e2b920000000p-3, -0x1.943cb40000000p-4, -0x1.1f6a2c0000000p-6, 0x1.8ca5780000000p-4, 0x1.d0ad140000000p-9, 0x1.0014ca0000000p-4, -0x1.a77a180000000p-4, 0x1.e593020000000p-6, 0x1.4ef5f20000000p-3, 0x1.a11e3c0000000p-4, 0x1.efa0fa0000000p-5, -0x1.a63ef20000000p-8, -0x1.e8f05e0000000p-5, -0x1.ef1d340000000p-5, -0x1.0f0c340000000p-4, -0x1.4829c40000000p-4, -0x1.cd5d300000000p-4, 0x1.8bba6a0000000p-3, 0x1.6f2ccc0000000p-4, 0x1.9cd8d60000000p-5, -0x1.30963c0000000p-3, 0x1.8be9aa0000000p-5, -0x1.d25a820000000p-4, 0x1.24feda0000000p-3, -0x1.12fbe20000000p-2, 0x1.b679040000000p-3}
, {0x1.fda7760000000p-6, -0x1.a1ac780000000p-7, -0x1.605c740000000p-6, 0x1.3275c40000000p-5, -0x1.4990ca0000000p-3, -0x1.0466080000000p-4, 0x1.2b817a0000000p-5, -0x1.df33000000000p-4, 0x1.6289200000000p-4, -0x1.70324c0000000p-4, -0x1.e9b4e80000000p-8, 0x1.ebcc600000000p-4, -0x1.67c3120000000p-3, 0x1.21b26a0000000p-8, 0x1.2f578e0000000p-7, 0x1.12fc020000000p-4, -0x1.1093000000000p-4, 0x1.7393ac0000000p-6, 0x1.12420e0000000p-5, 0x1.bf788e0000000p-6, 0x1.dd57180000000p-5, 0x1.8193de0000000p-4, -0x1.77559c0000000p-3, 0x1.0326ca0000000p-5, -0x1.0fb2d40000000p-5, 0x1.e5d4ee0000000p-4, 0x1.10fd8a0000000p-3, 0x1.5b00dc0000000p-4, -0x1.73e1f20000000p-4, 0x1.3b1fcc0000000p-5, -0x1.e452fc0000000p-3, -0x1.3caea40000000p-6}
}
, {{-0x1.71ed0a0000000p-4, 0x1.c695be0000000p-3, 0x1.7458900000000p-3, -0x1.500e240000000p-4, 0x1.809e3c0000000p-3, 0x1.2240fc0000000p-3, 0x1.361e640000000p-6, 0x1.0700b00000000p-4, -0x1.55b6ee0000000p-3, 0x1.f8854e0000000p-6, -0x1.26df700000000p-3, -0x1.6854a20000000p-6, -0x1.12c2600000000p-2, 0x1.1848600000000p-5, 0x1.9a38500000000p-3, 0x1.6de9740000000p-3, 0x1.4c5fca0000000p-4, 0x1.0eee4e0000000p-3, -0x1.b682820000000p-5, 0x1.275c140000000p-3, 0x1.19411a0000000p-4, -0x1.169db20000000p-3, 0x1.e0c6e80000000p-5, 0x1.2366200000000p-3, 0x1.4213fc0000000p-4, -0x1.1a5e3c0000000p-3, -0x1.dab3e60000000p-6, -0x1.9742540000000p-5, 0x1.b508ae0000000p-5, 0x1.61987e0000000p-3, -0x1.25e3b00000000p-2, -0x1.92bb660000000p-8}
, {-0x1.e7820a0000000p-4, -0x1.05a1560000000p-3, 0x1.8210a00000000p-5, -0x1.0042b20000000p-1, 0x1.2407f80000000p-3, -0x1.906d900000000p-5, 0x1.8617dc0000000p-5, -0x1.10dff20000000p-3, -0x1.a8e90e0000000p-4, -0x1.1559a00000000p-3, -0x1.1d91500000000p-7, -0x1.9bc8620000000p-3, -0x1.9875300000000p-4, 0x1.467a0e0000000p-4, -0x1.1b387e0000000p-3, 0x1.85d9060000000p-3, 0x1.af18680000000p-4, 0x1.4046580000000p-8, -0x1.1bd6980000000p-3, 0x1.c2d0140000000p-3, 0x1.1890960000000p-5, -0x1.8e56d20000000p-4, -0x1.239f800000000p-3, 0x1.1e814e0000000p-7, 0x1.e038360000000p-4, -0x1.76a83a0000000p-4, -0x1.cbc3220000000p-3, 0x1.7b34160000000p-5, 0x1.3911f40000000p-2, -0x1.2fdd540000000p-3, -0x1.38a9840000000p-2, 0x1.8551840000000p-5}
}
, {{-0x1.275a380000000p-5, 0x1.5a07660000000p-5, -0x1.a587440000000p-6, 0x1.301ed20000000p-6, 0x1.9e248e0000000p-3, 0x1.df923c0000000p-5, 0x1.ae07a60000000p-4, -0x1.d093220000000p-5, -0x1.c6c04c0000000p-4, 0x1.a557720000000p-4, 0x1.e5b97e0000000p-4, -0x1.1dbf160000000p-3, 0x1.61d5460000000p-5, -0x1.70065a0000000p-4, -0x1.fd3d960000000p-4, 0x1.624b100000000p-3, -0x1.74b1e60000000p-3, -0x1.3b477a0000000p-3, 0x1.1920c20000000p-3, 0x1.e843020000000p-4, 0x1.832c780000000p-6, -0x1.5a62e00000000p-10, -0x1.42d72e0000000p-3, -0x1.1ed39e0000000p-7, -0x1.22b3580000000p-5, -0x1.d0f9dc0000000p-3, -0x1.b7a0580000000p-3, 0x1.26d9220000000p-4, -0x1.5650580000000p-6, -0x1.e0bf160000000p-4, 0x1.e1f8aa0000000p-4, -0x1.25d3560000000p-3}
, {0x1.fc2e560000000p-5, 0x1.74671e0000000p-3, -0x1.338e120000000p-5, -0x1.7fc9520000000p-5, 0x1.60c8060000000p-4, -0x1.d0f7560000000p-4, 0x1.4738340000000p-6, 0x1.2c38520000000p-5, -0x1.a5adba0000000p-3, 0x1.a7d0740000000p-6, -0x1.6e55b60000000p-4, -0x1.5774380000000p-3, 0x1.6b4eee0000000p-2, -0x1.5aa47a0000000p-4, 0x1.a21f8c0000000p-7, 0x1.820ef00000000p-3, -0x1.29dd280000000p-3, 0x1.00bc4e0000000p-3, 0x1.20e5880000000p-4, 0x1.b369460000000p-5, -0x1.d4e8a80000000p-4, -0x1.a6d7460000000p-5, -0x1.3088080000000p-4, 0x1.13c5220000000p-7, 0x1.8aa2580000000p-4, -0x1.03673a0000000p-5, -0x1.56d30a0000000p-5, -0x1.5a4f540000000p-5, 0x1.12a7ca0000000p-3, -0x1.2e19ac0000000p-3, 0x1.9e96240000000p-4, 0x1.864e7e0000000p-4}
}
, {{-0x1.2077bc0000000p-3, -0x1.a7d01e0000000p-3, -0x1.9e6e280000000p-4, -0x1.e712800000000p-7, -0x1.8ec6ae0000000p-3, -0x1.2410960000000p-3, 0x1.bed9b20000000p-5, -0x1.8f7c5a0000000p-3, 0x1.3053580000000p-4, 0x1.7ffb4a0000000p-3, 0x1.05d4340000000p-3, 0x1.7dcb200000000p-4, -0x1.a4c53a0000000p-3, -0x1.bd3cd20000000p-5, 0x1.13b0920000000p-3, -0x1.6b52260000000p-6, -0x1.b88d1e0000000p-5, -0x1.378fbc0000000p-3, 0x1.61f1000000000p-3, 0x1.0f52780000000p-4, -0x1.0d60500000000p-3, -0x1.9a2e100000000p-3, 0x1.145ad60000000p-3, 0x1.0ceec40000000p-3, -0x1.86c6da0000000p-3, -0x1.91a7480000000p-3, -0x1.520e9a0000000p-5, -0x1.4594080000000p-5, 0x1.53f9fe0000000p-6, 0x1.19c4ae0000000p-6, -0x1.556c360000000p-3, 0x1.f437520000000p-5}
, {-0x1.ae3f0a0000000p-6, 0x1.515eaa0000000p-3, 0x1.c0a7860000000p-6, 0x1.8b0d140000000p-3, -0x1.46208c0000000p-5, -0x1.37f4220000000p-4, 0x1.f977de0000000p-4, -0x1.7c23ae0000000p-3, 0x1.eeb7f00000000p-4, -0x1.3dec9c0000000p-4, 0x1.ec52920000000p-4, 0x1.dced7c0000000p-4, 0x1.0affaa0000000p-4, 0x1.acc1b00000000p-3, -0x1.bf1eaa0000000p-12, -0x1.9f0ed00000000p-4, 0x1.f30b040000000p-5, -0x1.b316d80000000p-4, -0x1.dfe0980000000p-4, -0x1.f071080000000p-4, 0x1.0760780000000p-3, 0x1.cc26f40000000p-4, -0x1.9a80260000000p-4, 0x1.b3551a0000000p-5, 0x1.2ce9fe0000000p-6, -0x1.a51b3a0000000p-4, 0x1.6d8dd40000000p-3, 0x1.37974c0000000p-3, -0x1.9b7ad40000000p-3, 0x1.c8606a0000000p-3, -0x1.f342040000000p-6, 0x1.22a7200000000p-2}
}
, {{0x1.41ea680000000p-6, 0x1.9d2df40000000p-5, 0x1.55c7b00000000p-6, 0x1.b0ad160000000p-5, -0x1.ca02600000000p-6, -0x1.c3183c0000000p-5, 0x1.bb360a0000000p-4, 0x1.73a62e0000000p-4, 0x1.65a1e80000000p-4, 0x1.24d8040000000p-5, 0x1.5528ca0000000p-3, 0x1.0d94800000000p-2, -0x1.d991b40000000p-4, 0x1.6e499c0000000p-3, 0x1.4f4e180000000p-3, -0x1.df28c00000000p-4, 0x1.558bf20000000p-3, -0x1.db3f960000000p-4, 0x1.ba97aa0000000p-5, 0x1.6773880000000p-4, -0x1.d953880000000p-5, -0x1.7c41ca0000000p-4, 0x1.3489940000000p-3, 0x1.92817c0000000p-3, -0x1.3bb9460000000p-5, -0x1.54a74c0000000p-3, 0x1.943d300000000p-5, 0x1.2525c20000000p-5, -0x1.35e5960000000p-4, -0x1.5ade760000000p-8, 0x1.baa2840000000p-5, -0x1.4ad2e60000000p-2}
, {-0x1.1c41ae0000000p-3, -0x1.2683b80000000p-5, 0x1.4950800000000p-5, 0x1.789f1a0000000p-10, -0x1.c291200000000p-5, 0x1.2548380000000p-5, 0x1.65737a0000000p-3, -0x1.8396e40000000p-3, 0x1.a651da0000000p-3, -0x1.017eaa0000000p-4, 0x1.557f140000000p-4, 0x1.4300e40000000p-6, -0x1.400a9e0000000p-2, -0x1.7ead2e0000000p-6, -0x1.ec0d620000000p-4, -0x1.30a3fc0000000p-6, 0x1.2e4f560000000p-6, -0x1.0b71fe0000000p-4, 0x1.68859e0000000p-4, 0x1.d4871c0000000p-6, -0x1.6dffe20000000p-4, -0x1.e925740000000p-5, -0x1.4816060000000p-4, 0x1.45de3c0000000p-4, 0x1.1fc0000000000p-3, -0x1.c300640000000p-4, 0x1.6135240000000p-7, 0x1.2d8e500000000p-4, 0x1.1c52dc0000000p-4, 0x1.97137e0000000p-4, 0x1.516b6a0000000p-4, -0x1.c965220000000p-3}
}
, {{-0x1.a11d1c0000000p-4, 0x1.ccaa4c0000000p-6, -0x1.86dbae0000000p-6, -0x1.9d84c80000000p-3, -0x1.cc57e20000000p-4, 0x1.c96e8e0000000p-5, -0x1.80305a0000000p-4, -0x1.06f05a0000000p-3, -0x1.5f0ae00000000p-5, 0x1.98a79a0000000p-6, -0x1.1237040000000p-4, -0x1.4388120000000p-3, 0x1.4453ce0000000p-3, 0x1.c35f740000000p-5, 0x1.56e1360000000p-6, 0x1.160e580000000p-5, 0x1.4aa80a0000000p-4, -0x1.5bb50c0000000p-4, -0x1.6af5dc0000000p-8, 0x1.3b1f080000000p-2, 0x1.496b480000000p-4, 0x1.2ccf560000000p-3, -0x1.a664700000000p-4, -0x1.587da80000000p-4, 0x1.19d6c40000000p-3, 0x1.d1e93e0000000p-3, -0x1.ab29bc0000000p-4, 0x1.027a520000000p-3, 0x1.ad0f720000000p-7, 0x1.ac1ed60000000p-5, -0x1.0c98a60000000p-3, 0x1.55eb160000000p-4}
, {0x1.1a74740000000p-3, 0x1.3dafac0000000p-5, 0x1.fb84720000000p-7, -0x1.897eac0000000p-3, 0x1.334dac0000000p-6, 0x1.a58f480000000p-4, -0x1.1f2cd00000000p-3, 0x1.7d9ece0000000p-6, -0x1.22aa160000000p-5, -0x1.83f9f40000000p-5, -0x1.1ef9aa0000000p-3, -0x1.e585560000000p-4, -0x1.f7b0620000000p-5, 0x1.62c7c80000000p-3, -0x1.8894fa0000000p-4, 0x1.14d4440000000p-4, 0x1.c29c960000000p-3, -0x1.c4520e0000000p-4, 0x1.1eb9640000000p-3, 0x1.2355d20000000p-2, -0x1.64c3040000000p-3, 0x1.55b4160000000p-3, -0x1.3484e00000000p-6, 0x1.b2928e0000000p-3, -0x1.5e9ae40000000p-3, -0x1.904cb00000000p-4, 0x1.d13f080000000p-5, 0x1.3f78700000000p-6, 0x1.fd10ea0000000p-4, -0x1.05f4500000000p-3, -0x1.f831b20000000p-3, 0x1.8e89fe0000000p-4}
}
, {{-0x1.7799440000000p-5, -0x1.5cd11a0000000p-6, 0x1.6fd3840000000p-3, -0x1.99ca600000000p-4, 0x1.1b4f7e0000000p-4, -0x1.0f2c9a0000000p-5, -0x1.8a27540000000p-4, -0x1.758fd00000000p-7, -0x1.5f94de0000000p-6, -0x1.05dd120000000p-3, -0x1.8753280000000p-9, 0x1.36d4680000000p-2, 0x1.9d74ce0000000p-3, -0x1.8b0fb20000000p-3, 0x1.10fab60000000p-3, 0x1.755fcc0000000p-3, 0x1.76fa4a0000000p-4, -0x1.21862a0000000p-6, 0x1.0e283a0000000p-2, 0x1.058a740000000p-5, 0x1.1f955c0000000p-3, -0x1.14a4b00000000p-4, -0x1.14d9900000000p-4, -0x1.64b6820000000p-4, 0x1.eab2480000000p-5, -0x1.e407780000000p-6, 0x1.4e013a0000000p-3, -0x1.9cd7460000000p-3, -0x1.2a30200000000p-4, 0x1.0667be0000000p-3, 0x1.a23cee0000000p-3, -0x1.b9dcf60000000p-5}
, {-0x1.d6a0c80000000p-4, -0x1.d9a3a60000000p-4, -0x1.12a05a0000000p-4, 0x1.5c83a20000000p-4, -0x1.f855060000000p-6, 0x1.61fc4c0000000p-3, -0x1.8c261e0000000p-4, 0x1.1df09c0000000p-3, -0x1.2ab89a0000000p-5, 0x1.add6020000000p-4, 0x1.4cc6d40000000p-3, 0x1.db43de0000000p-3, 0x1.b203060000000p-2, 0x1.40394a0000000p-4, 0x1.9699560000000p-4, 0x1.fd325a0000000p-4, 0x1.e8a8ca0000000p-5, -0x1.944b9a0000000p-3, 0x1.59a8ba0000000p-3, 0x1.74e8a20000000p-4, 0x1.72ebfc0000000p-3, 0x1.670ec00000000p-3, -0x1.0d4b100000000p-2, -0x1.bf0f160000000p-3, 0x1.d36bc00000000p-4, -0x1.6b93b00000000p-4, -0x1.7572f40000000p-5, -0x1.46c36c0000000p-4, 0x1.f870520000000p-4, 0x1.6e591e0000000p-4, -0x1.5a37480000000p-4, 0x1.eb0d8a0000000p-5}
}
, {{-0x1.8f3d360000000p-3, -0x1.452ad00000000p-3, -0x1.c7c4560000000p-6, 0x1.0295da0000000p-3, 0x1.f40e3a0000000p-3, 0x1.e0e6200000000p-6, -0x1.b8511e0000000p-3, -0x1.a0c4800000000p-4, 0x1.d4146c0000000p-6, -0x1.a298d60000000p-5, -0x1.bba0120000000p-4, 0x1.a405040000000p-5, -0x1.87ccce0000000p-3, -0x1.9fb0060000000p-4, 0x1.a3de360000000p-6, 0x1.f510600000000p-5, -0x1.d47e7c0000000p-5, -0x1.8b5c680000000p-4, 0x1.a6d0680000000p-3, 0x1.cf069c0000000p-5, 0x1.37e6ce0000000p-6, 0x1.d4dd620000000p-4, 0x1.182b5e0000000p-4, 0x1.5e45240000000p-4, 0x1.1090a40000000p-4, -0x1.2784aa0000000p-4, -0x1.23f7240000000p-3, 0x1.a51f500000000p-4, -0x1.0ac1220000000p-5, 0x1.7dd8920000000p-4, 0x1.0559960000000p-5, 0x1.7ff0060000000p-2}
, {0x1.cae9e40000000p-4, 0x1.717b920000000p-4, -0x1.3953c60000000p-3, -0x1.368d8c0000000p-4, -0x1.87095c0000000p-3, 0x1.af0cca0000000p-3, -0x1.68e5440000000p-3, 0x1.ef964a0000000p-4, -0x1.4ad0e20000000p-4, -0x1.b5029c0000000p-4, 0x1.1bd6180000000p-4, 0x1.5996ae0000000p-6, -0x1.e0061a0000000p-4, -0x1.2743500000000p-5, 0x1.52afa60000000p-3, 0x1.5704600000000p-4, -0x1.26eed80000000p-5, 0x1.3180900000000p-4, -0x1.323d540000000p-7, 0x1.3132ea0000000p-4, -0x1.27e2980000000p-4, 0x1.0c9e740000000p-2, -0x1.13454c0000000p-6, -0x1.3707500000000p-4, 0x1.eb11820000000p-3, 0x1.f5f5ec0000000p-3, -0x1.eaffac0000000p-4, 0x1.2246d80000000p-3, -0x1.bae6760000000p-3, 0x1.9598420000000p-3, -0x1.b959060000000p-6, 0x1.1e55ae0000000p-4}
}
, {{0x1.0a28500000000p-6, -0x1.df11b60000000p-4, 0x1.efa9cc0000000p-4, -0x1.3ac1fa0000000p-3, 0x1.d8f9c20000000p-3, -0x1.1d401a0000000p-5, 0x1.f3790e0000000p-7, -0x1.3abdb20000000p-3, 0x1.8b2f820000000p-3, 0x1.76a1700000000p-3, 0x1.01b2320000000p-6, 0x1.c3686e0000000p-4, -0x1.f581d60000000p-5, 0x1.52896e0000000p-5, -0x1.8e3c100000000p-5, -0x1.9bfb5a0000000p-3, -0x1.8c45040000000p-3, -0x1.a51dfc0000000p-3, 0x1.5aeff00000000p-3, -0x1.4263d80000000p-5, 0x1.44ba4c0000000p-2, -0x1.15de520000000p-4, 0x1.062d540000000p-5, 0x1.10a09a0000000p-3, 0x1.365d280000000p-4, 0x1.4519ba0000000p-3, 0x1.a843360000000p-3, -0x1.294b180000000p-4, -0x1.7396400000000p-3, -0x1.0597920000000p-3, -0x1.ce957a0000000p-5, -0x1.029ca80000000p-3}
, {-0x1.18a64c0000000p-9, -0x1.8c9fa40000000p-4, 0x1.244e000000000p-5, -0x1.a565f80000000p-3, 0x1.c3ac9a0000000p-3, -0x1.4568320000000p-6, -0x1.c6407c0000000p-6, 0x1.42d2d60000000p-3, 0x1.2405b40000000p-3, -0x1.7d27480000000p-3, -0x1.2c969e0000000p-3, 0x1.0817060000000p-2, -0x1.79243a0000000p-6, -0x1.2639f60000000p-3, 0x1.a73ca80000000p-3, -0x1.0535a80000000p-4, -0x1.acd23a0000000p-4, -0x1.b651400000000p-4, 0x1.72b6ec0000000p-10, -0x1.22ff1c0000000p-4, 0x1.19c0200000000p-3, -0x1.99c9260000000p-4, 0x1.59b4460000000p-3, 0x1.5998dc0000000p-3, -0x1.814d380000000p-4, -0x1.c847d60000000p-3, -0x1.aa76440000000p-5, 0x1.cf87e00000000p-5, -0x1.a1e0360000000p-3, -0x1.5b2a3e0000000p-4, 0x1.07a39a0000000p-4, 0x1.0701c80000000p-2}
}
, {{0x1.5388640000000p-3, 0x1.2284340000000p-3, -0x1.22ead40000000p-3, 0x1.9431320000000p-7, 0x1.e163640000000p-4, 0x1.610de20000000p-4, -0x1.371ca60000000p-3, -0x1.ea122a0000000p-4, -0x1.76701c0000000p-4, -0x1.51f30a0000000p-4, -0x1.86e9da0000000p-4, -0x1.f432a20000000p-5, -0x1.012fe80000000p-2, 0x1.eb10480000000p-7, -0x1.9a6f0e0000000p-6, -0x1.9535860000000p-5, -0x1.55465a0000000p-3, 0x1.4a2aa00000000p-5, 0x1.1cd4da0000000p-3, -0x1.d8a3c80000000p-6, 0x1.a1c2b20000000p-6, -0x1.2bec1e0000000p-3, 0x1.b3058e0000000p-4, 0x1.af7faa0000000p-4, 0x1.37ac060000000p-4, 0x1.124f220000000p-2, 0x1.a88f780000000p-4, 0x1.36066c0000000p-3, -0x1.449e700000000p-3, -0x1.05828a0000000p-4, -0x1.da09160000000p-5, -0x1.2194040000000p-2}
, {-0x1.03789a0000000p-5, -0x1.1788f40000000p-10, 0x1.53d2580000000p-3, 0x1.10333c0000000p-5, 0x1.8a4ac60000000p-4, 0x1.655b2c0000000p-4, 0x1.2f893a0000000p-3, -0x1.3e5b9e0000000p-5, 0x1.a2320c0000000p-4, -0x1.827d420000000p-10, -0x1.bf5f360000000p-4, -0x1.6520ca0000000p-5, -0x1.b6c4940000000p-3, 0x1.8501540000000p-4, 0x1.f214180000000p-4, 0x1.864e280000000p-4, -0x1.d0cd180000000p-6, 0x1.463b540000000p-4, -0x1.7528f60000000p-3, 0x1.64c3e00000000p-3, 0x1.ba5e560000000p-5, 0x1.a033f00000000p-5, -0x1.ea04b80000000p-4, 0x1.5a733a0000000p-3, -0x1.9191620000000p-3, 0x1.91b31c0000000p-3, 0x1.cf5f140000000p-7, 0x1.94113a0000000p-5, 0x1.7859400000000p-5, 0x1.3b68da0000000p-3, 0x1.2940320000000p-4, -0x1.158f580000000p-2}
}
, {{0x1.1d58ac0000000p-4, 0x1.ce29060000000p-3, -0x1.5ea8560000000p-5, 0x1.ed658c0000000p-6, -0x1.51ca5e0000000p-3, -0x1.163e4e0000000p-2, -0x1.00e4740000000p-5, 0x1.3513900000000p-4, -0x1.c3d6b20000000p-3, 0x1.01d3960000000p-4, -0x1.3601280000000p-3, -0x1.958f080000000p-8, 0x1.986b020000000p-3, -0x1.0cdc660000000p-3, 0x1.54e7de0000000p-3, -0x1.f0cf980000000p-4, 0x1.eadf260000000p-4, -0x1.d1e4380000000p-4, -0x1.8cc3fa0000000p-5, -0x1.3514c20000000p-3, 0x1.07eeda0000000p-4, -0x1.b711b80000000p-5, 0x1.411b740000000p-3, -0x1.307a580000000p-4, -0x1.04aca60000000p-3, -0x1.8060f00000000p-3, -0x1.5e5c0c0000000p-3, 0x1.a14d000000000p-4, 0x1.a76c400000000p-5, 0x1.d3146a0000000p-4, -0x1.b5cb280000000p-2, 0x1.b462d80000000p-3}
, {0x1.fb49060000000p-4, 0x1.696a220000000p-3, -0x1.0773420000000p-2, 0x1.0d2b960000000p-3, -0x1.4caa200000000p-3, -0x1.f7e5120000000p-4, 0x1.566d640000000p-5, 0x1.244b0a0000000p-5, 0x1.067f8c0000000p-5, -0x1.2224c60000000p-7, -0x1.bd1adc0000000p-3, -0x1.6c7ca00000000p-3, 0x1.ac672e0000000p-4, 0x1.59609c0000000p-4, -0x1.9e85f80000000p-7, -0x1.e657180000000p-4, -0x1.c4d9c00000000p-5, 0x1.3d063c0000000p-3, -0x1.878b6e0000000p-5, 0x1.4e65880000000p-5, 0x1.ae3e400000000p-8, -0x1.65c60c0000000p-5, -0x1.71035e0000000p-3, -0x1.5d463c0000000p-4, 0x1.21d3e00000000p-5, 0x1.893f5c0000000p-4, -0x1.a0b4600000000p-4, 0x1.77ed820000000p-4, -0x1.7e2c420000000p-5, 0x1.bdfdb60000000p-7, -0x1.0980c00000000p-2, 0x1.b0e4100000000p-3}
}
, {{0x1.c075cc0000000p-6, 0x1.d4fa1e0000000p-8, 0x1.553b840000000p-3, 0x1.47ad6c0000000p-7, 0x1.162ee00000000p-4, 0x1.edd9480000000p-3, -0x1.5e22760000000p-5, 0x1.f19bca0000000p-5, -0x1.373ba60000000p-3, 0x1.8ff22e0000000p-3, 0x1.59ded80000000p-3, 0x1.4d1d4a0000000p-2, 0x1.7f3ba80000000p-4, 0x1.3565840000000p-3, -0x1.646cb60000000p-5, 0x1.c186f20000000p-6, -0x1.e6657c0000000p-6, -0x1.79c9ce0000000p-4, -0x1.3624200000000p-6, 0x1.0ed6d80000000p-2, -0x1.05aa000000000p-3, 0x1.36a33c0000000p-2, -0x1.57e36a0000000p-4, -0x1.0ae54a0000000p-3, -0x1.2f5c3e0000000p-4, 0x1.33a5da0000000p-5, -0x1.6cb3100000000p-4, 0x1.a90dc60000000p-3, -0x1.f361b40000000p-7, -0x1.bdc9760000000p-5, 0x1.0c778e0000000p-8, -0x1.650a440000000p-6}
, {-0x1.0a79b40000000p-4, -0x1.ed93b40000000p-7, -0x1.3bf59e0000000p-3, -0x1.35928a0000000p-5, -0x1.5dc7a00000000p-6, 0x1.76b69c0000000p-4, -0x1.6fce380000000p-5, -0x1.e8888a0000000p-4, 0x1.491bee0000000p-10, -0x1.1447a20000000p-3, -0x1.15b3800000000p-4, 0x1.51f37e0000000p-4, -0x1.390d680000000p-4, 0x1.508ab00000000p-7, 0x1.1804f60000000p-6, -0x1.f790220000000p-4, -0x1.4cec760000000p-8, -0x1.1cc4580000000p-3, 0x1.94a94a0000000p-4, 0x1.66e4dc0000000p-3, 0x1.8fe1440000000p-4, 0x1.75b30c0000000p-3, -0x1.3afcaa0000000p-3, 0x1.6354f00000000p-3, -0x1.3022a40000000p-4, 0x1.200f680000000p-5, 0x1.e84f060000000p-5, -0x1.b2b8100000000p-9, -0x1.cccd180000000p-4, 0x1.2b48000000000p-3, -0x1.3d73840000000p-5, -0x1.b359c60000000p-3}
}
, {{-0x1.6265d20000000p-3, -0x1.42577a0000000p-5, 0x1.3183b00000000p-3, -0x1.5c2f620000000p-6, 0x1.40be8c0000000p-2, -0x1.9f35cc0000000p-8, -0x1.e4a03c0000000p-7, 0x1.a8b13c0000000p-5, -0x1.0215000000000p-5, 0x1.99c7200000000p-4, -0x1.cb04620000000p-4, -0x1.9c7c7c0000000p-3, 0x1.68a6ba0000000p-3, 0x1.8fd06e0000000p-4, -0x1.a134480000000p-7, 0x1.8c74be0000000p-4, 0x1.0d22660000000p-2, -0x1.0bb4220000000p-3, -0x1.03d58e0000000p-2, -0x1.34d5f20000000p-3, -0x1.c445c00000000p-7, -0x1.e6fffa0000000p-3, -0x1.9a2b660000000p-5, 0x1.9798b60000000p-3, 0x1.5a7f000000000p-3, -0x1.d2039e0000000p-4, 0x1.222aca0000000p-3, -0x1.2451580000000p-6, -0x1.ac88c80000000p-3, 0x1.06615a0000000p-3, 0x1.699ec20000000p-3, -0x1.9aa4a00000000p-3}
, {-0x1.794f740000000p-4, -0x1.22b0ba0000000p-3, 0x1.c1496e0000000p-4, -0x1.1d662c0000000p-3, 0x1.a4e1440000000p-2, 0x1.cf415a0000000p-5, 0x1.9184a80000000p-6, -0x1.0cc5380000000p-5, 0x1.e7b2220000000p-3, -0x1.1ebc520000000p-3, 0x1.fdc0b60000000p-7, 0x1.8c2fec0000000p-8, 0x1.7272320000000p-2, -0x1.cf24a20000000p-4, 0x1.9313180000000p-3, 0x1.46d6f40000000p-5, -0x1.bd75700000000p-4, -0x1.598eb60000000p-3, 0x1.7f8fb00000000p-7, 0x1.367b360000000p-3, -0x1.2b49780000000p-4, -0x1.9170680000000p-5, -0x1.d3d3f60000000p-4, 0x1.c9216c0000000p-4, -0x1.3f92000000000p-4, 0x1.bf47720000000p-4, -0x1.0c12700000000p-3, 0x1.15ad980000000p-4, -0x1.b0b4ca0000000p-3, 0x1.0103ce0000000p-4, -0x1.78ad0a0000000p-3, -0x1.4fc9040000000p-3}
}
, {{0x1.9c4a1e0000000p-3, 0x1.55a6880000000p-3, -0x1.b130220000000p-5, 0x1.00c1920000000p-2, 0x1.151e940000000p-6, -0x1.1857220000000p-5, 0x1.6917040000000p-5, 0x1.6e11e80000000p-4, 0x1.aa50ce0000000p-6, -0x1.ab54de0000000p-3, -0x1.8f53f80000000p-5, -0x1.0bf9e40000000p-5, 0x1.c711b00000000p-4, -0x1.e532d80000000p-4, 0x1.ce8f760000000p-4, -0x1.9aa5fc0000000p-5, -0x1.91e6ca0000000p-4, 0x1.714da60000000p-4, 0x1.ba49200000000p-4, 0x1.8b30260000000p-5, -0x1.8273ac0000000p-4, -0x1.6ac28e0000000p-6, -0x1.1292c60000000p-3, 0x1.7dc7c40000000p-4, 0x1.1745d80000000p-3, 0x1.53e5e80000000p-6, 0x1.9a66da0000000p-4, -0x1.d796d60000000p-5, -0x1.29079c0000000p-4, 0x1.182d6e0000000p-3, 0x1.ce62480000000p-6, 0x1.70fa120000000p-3}
, {-0x1.d33a9e0000000p-10, 0x1.35848a0000000p-3, 0x1.081cc00000000p-4, 0x1.23e45e0000000p-3, 0x1.1439fa0000000p-6, 0x1.1c41760000000p-3, 0x1.50ddfc0000000p-5, -0x1.7d9bfa0000000p-9, 0x1.00762a0000000p-3, -0x1.e85f4a0000000p-3, -0x1.09ae7a0000000p-2, 0x1.8595620000000p-4, -0x1.ff561e0000000p-4, -0x1.6d82240000000p-4, -0x1.ddb55a0000000p-4, -0x1.3e672e0000000p-4, -0x1.b582ba0000000p-6, 0x1.a0d0160000000p-4, 0x1.7702320000000p-7, -0x1.b1a4ec0000000p-3, 0x1.18dff40000000p-5, -0x1.32d47e0000000p-3, -0x1.e68f5c0000000p-7, 0x1.852e580000000p-5, 0x1.9f55340000000p-5, -0x1.bea89e0000000p-6, -0x1.cfd7ce0000000p-4, -0x1.5e41660000000p-3, -0x1.84ad580000000p-4, 0x1.2ebebe0000000p-4, 0x1.b2a7800000000p-5, 0x1.6d19400000000p-2}
}
, {{0x1.1260d40000000p-3, 0x1.593f720000000p-5, 0x1.2c31c40000000p-3, 0x1.8a393e0000000p-8, -0x1.9238ee0000000p-4, -0x1.41ea940000000p-5, -0x1.224f920000000p-3, 0x1.2e18220000000p-4, 0x1.8fa6fe0000000p-6, 0x1.d759b20000000p-4, -0x1.383b3a0000000p-7, 0x1.8aa9ba0000000p-3, -0x1.40a4120000000p-6, -0x1.270fcc0000000p-4, 0x1.e8f2b80000000p-4, -0x1.9484a20000000p-3, 0x1.94b6420000000p-4, 0x1.efc05a0000000p-4, -0x1.0d66be0000000p-4, -0x1.b50b4c0000000p-3, -0x1.6319380000000p-3, 0x1.f69efa0000000p-6, 0x1.b1d43c0000000p-4, -0x1.9f94200000000p-3, 0x1.7cccda0000000p-4, 0x1.3164aa0000000p-4, 0x1.58aa6a0000000p-4, -0x1.7712be0000000p-3, -0x1.5c3bf00000000p-3, -0x1.6968aa0000000p-4, 0x1.2b5f140000000p-2, 0x1.de5cf20000000p-4}
, {0x1.6b70b40000000p-3, -0x1.6145ee0000000p-4, 0x1.7b13680000000p-3, -0x1.a4b9f20000000p-4, -0x1.9430ac0000000p-7, -0x1.0bcd520000000p-3, -0x1.3edcb40000000p-4, 0x1.28151c0000000p-3, 0x1.a2cdcc0000000p-4, 0x1.6688fa0000000p-5, -0x1.3dd3820000000p-3, -0x1.9c7fcc0000000p-5, 0x1.9d1fb00000000p-4, -0x1.05ffd60000000p-4, 0x1.2a923e0000000p-5, -0x1.1d58bc0000000p-5, 0x1.960abe0000000p-3, 0x1.f302600000000p-4, 0x1.e99e8c0000000p-3, -0x1.a37c4a0000000p-3, 0x1.1f21a20000000p-4, 0x1.1209f00000000p-3, -0x1.45e7520000000p-3, 0x1.78dc440000000p-3, 0x1.5e44360000000p-3, 0x1.6e0e820000000p-4, -0x1.099d460000000p-3, 0x1.4850d00000000p-8, -0x1.0564380000000p-3, 0x1.8fdb8e0000000p-11, 0x1.d0caf40000000p-3, 0x1.d5061e0000000p-4}
}
, {{0x1.1d2a800000000p-3, -0x1.278e6e0000000p-8, 0x1.0b05ac0000000p-3, -0x1.f731b60000000p-4, 0x1.bfbabe0000000p-3, 0x1.569dba0000000p-4, -0x1.6d89e40000000p-5, -0x1.2b62620000000p-6, -0x1.e290640000000p-4, -0x1.f1df460000000p-5, 0x1.cc97100000000p-4, -0x1.57fb860000000p-4, 0x1.385c780000000p-4, 0x1.d169060000000p-7, -0x1.68202e0000000p-4, 0x1.5acf2c0000000p-5, 0x1.a2d7e40000000p-5, -0x1.a90f700000000p-4, 0x1.8db7b40000000p-4, -0x1.a77a440000000p-3, 0x1.05df140000000p-2, 0x1.b8d5820000000p-5, -0x1.5e5f320000000p-3, 0x1.6e16e00000000p-3, 0x1.0356f20000000p-3, 0x1.eb35540000000p-4, 0x1.8145f60000000p-3, 0x1.53ec840000000p-5, -0x1.61f4be0000000p-4, 0x1.1343140000000p-3, 0x1.4e8b440000000p-3, -0x1.bbf6820000000p-4}
, {0x1.55bb980000000p-4, -0x1.4b35e40000000p-3, -0x1.0f84860000000p-4, 0x1.3513da0000000p-2, -0x1.eb45400000000p-10, -0x1.7f086e0000000p-4, 0x1.21cf260000000p-3, 0x1.f4bc4e0000000p-4, 0x1.2e58e80000000p-3, -0x1.6912780000000p-5, -0x1.18ba4e0000000p-5, 0x1.992f020000000p-3, 0x1.0afd700000000p-3, 0x1.706ca20000000p-3, -0x1.9099d40000000p-4, 0x1.7d43740000000p-7, 0x1.355f200000000p-3, -0x1.8f0ccc0000000p-4, 0x1.b8ef660000000p-6, -0x1.9292f60000000p-3, 0x1.69b5520000000p-5, -0x1.b2ee940000000p-5, -0x1.c884880000000p-4, -0x1.15f0980000000p-3, 0x1.d5591a0000000p-4, 0x1.3198dc0000000p-3, 0x1.c99bc20000000p-3, -0x1.cb99e20000000p-6, -0x1.ac193a0000000p-4, 0x1.af22ac0000000p-4, 0x1.9205200000000p-3, -0x1.0761c80000000p-4}
}
, {{-0x1.2bc0ae0000000p-4, 0x1.36a0980000000p-3, -0x1.cb4fb80000000p-8, 0x1.c57c5a0000000p-4, 0x1.d6cc8a0000000p-3, 0x1.3f70620000000p-5, -0x1.5662f20000000p-4, 0x1.7359a20000000p-5, 0x1.d317b80000000p-4, 0x1.3770bc0000000p-3, -0x1.5467820000000p-6, 0x1.2940b00000000p-3, -0x1.54e4da0000000p-2, -0x1.95dfda0000000p-7, -0x1.2c7c200000000p-6, -0x1.be853e0000000p-4, -0x1.d196240000000p-5, -0x1.17dbdc0000000p-5, -0x1.056e880000000p-4, -0x1.5f0d1e0000000p-5, -0x1.03ab140000000p-5, 0x1.41bdc60000000p-6, -0x1.bcaace0000000p-4, 0x1.5409040000000p-3, 0x1.82eeb00000000p-4, -0x1.810a580000000p-7, 0x1.4698f20000000p-4, 0x1.4b9a2c0000000p-3, 0x1.cb67e20000000p-4, 0x1.5e69ac0000000p-3, 0x1.22cb1c0000000p-3, 0x1.23af7a0000000p-2}
, {0x1.4a09d40000000p-5, 0x1.0255760000000p-4, -0x1.011e680000000p-4, -0x1.7b32260000000p-4, -0x1.3720c20000000p-8, -0x1.29f4580000000p-3, 0x1.b32df00000000p-4, 0x1.8ffa720000000p-3, -0x1.1072200000000p-6, -0x1.41564e0000000p-4, -0x1.acad360000000p-3, -0x1.da387e0000000p-6, -0x1.66a0c80000000p-3, 0x1.7217f40000000p-6, -0x1.64be820000000p-3, -0x1.1426940000000p-3, -0x1.6a15c00000000p-3, -0x1.74c7000000000p-3, 0x1.3653e00000000p-3, -0x1.bc701c0000000p-4, 0x1.b1ffcc0000000p-5, -0x1.133c4c0000000p-4, -0x1.fef8f60000000p-4, 0x1.2200040000000p-7, -0x1.9c00b80000000p-4, -0x1.07480c0000000p-3, -0x1.baae4c0000000p-3, -0x1.94004c0000000p-6, -0x1.fa10f80000000p-4, -0x1.c92e280000000p-3, -0x1.d61db60000000p-8, 0x1.e8815c0000000p-3}
}
, {{0x1.162f260000000p-3, -0x1.e8edee0000000p-4, 0x1.8b43800000000p-8, -0x1.12b4420000000p-2, 0x1.457e4c0000000p-3, 0x1.30c06a0000000p-4, 0x1.0cdef80000000p-3, -0x1.6af6100000000p-3, 0x1.a2619c0000000p-5, -0x1.03a5800000000p-3, 0x1.364a9a0000000p-3, -0x1.227bae0000000p-4, -0x1.1e58b80000000p-4, -0x1.afb9100000000p-4, 0x1.7563080000000p-5, -0x1.3c318e0000000p-5, 0x1.52e4280000000p-5, -0x1.64950c0000000p-11, 0x1.140bbe0000000p-3, 0x1.69c05a0000000p-3, 0x1.3ab0380000000p-3, 0x1.6556c00000000p-3, 0x1.54a90e0000000p-6, -0x1.775b820000000p-3, 0x1.3edd8e0000000p-3, -0x1.4357860000000p-3, 0x1.2079b80000000p-3, 0x1.a40bfc0000000p-4, 0x1.e1d9260000000p-3, -0x1.f6ba2c0000000p-3, 0x1.45e5980000000p-8, 0x1.41412c0000000p-3}
, {0x1.13ce8c0000000p-3, 0x1.95600c0000000p-5, -0x1.e1d3320000000p-6, -0x1.d8886e0000000p-2, 0x1.796c180000000p-9, 0x1.fee6c60000000p-4, -0x1.1707d80000000p-4, 0x1.3b855e0000000p-3, -0x1.969d260000000p-5, -0x1.4a3aec0000000p-4, 0x1.37f2080000000p-3, -0x1.3be63a0000000p-3, -0x1.12942a0000000p-3, 0x1.1103e40000000p-5, -0x1.f5ef140000000p-4, -0x1.9a52920000000p-5, -0x1.cfc4380000000p-4, -0x1.7fa1360000000p-6, -0x1.03a1100000000p-4, 0x1.c25ba20000000p-6, -0x1.69853c0000000p-4, 0x1.d2d8700000000p-3, -0x1.f0af220000000p-4, -0x1.76f63c0000000p-3, 0x1.5295d40000000p-6, 0x1.06c6800000000p-4, -0x1.6704ba0000000p-4, 0x1.8611f20000000p-3, -0x1.e104800000000p-6, -0x1.70bde40000000p-3, -0x1.c1a7a00000000p-4, -0x1.5d80f60000000p-4}
}
, {{-0x1.ebb6ce0000000p-8, 0x1.79e3dc0000000p-4, -0x1.2f64420000000p-4, 0x1.4ed0300000000p-2, 0x1.46e0960000000p-3, 0x1.cd38ce0000000p-4, -0x1.71c7520000000p-4, 0x1.d9515e0000000p-5, 0x1.410e5a0000000p-5, 0x1.5a7e2c0000000p-4, 0x1.6d799a0000000p-5, -0x1.2a91be0000000p-3, 0x1.bb525a0000000p-5, -0x1.2a0a860000000p-4, -0x1.705f040000000p-4, 0x1.df81840000000p-7, 0x1.5e9ba80000000p-4, 0x1.f7b9680000000p-4, -0x1.ed492c0000000p-3, 0x1.7da1b80000000p-9, 0x1.7039060000000p-8, 0x1.fa1d580000000p-4, -0x1.c313220000000p-4, -0x1.9254980000000p-4, -0x1.c962fe0000000p-8, 0x1.67a0b60000000p-3, 0x1.46df580000000p-8, 0x1.5e0a660000000p-4, 0x1.1fb5280000000p-2, -0x1.2895060000000p-3, 0x1.ad2acc0000000p-4, -0x1.176b0a0000000p-5}
, {-0x1.984f0e0000000p-4, 0x1.7467180000000p-7, 0x1.a63abc0000000p-4, 0x1.a253a60000000p-2, 0x1.12c08e0000000p-3, 0x1.ddce660000000p-3, -0x1.678c360000000p-4, -0x1.e2235a0000000p-4, 0x1.6ea60a0000000p-4, 0x1.c82c160000000p-7, -0x1.14dea80000000p-6, 0x1.5d5c820000000p-4, 0x1.5993b40000000p-2, -0x1.fd63dc0000000p-3, -0x1.359c6e0000000p-6, 0x1.7289ac0000000p-3, 0x1.4da30c0000000p-3, 0x1.2d20ea0000000p-4, -0x1.bccf700000000p-5, 0x1.6b95e20000000p-3, -0x1.6e3e140000000p-3, 0x1.94350e0000000p-4, -0x1.6bfaee0000000p-3, 0x1.f3c7080000000p-5, 0x1.297ffe0000000p-3, 0x1.68eb1a0000000p-4, -0x1.6135d80000000p-3, 0x1.f821200000000p-4, 0x1.a7da920000000p-3, 0x1.f039dc0000000p-6, -0x1.33e6840000000p-2, -0x1.9b30ac0000000p-4}
}
, {{-0x1.9cc9920000000p-5, -0x1.0c691c0000000p-3, 0x1.af27f60000000p-8, -0x1.b3dbe40000000p-3, 0x1.95692e0000000p-10, 0x1.0461100000000p-4, 0x1.598bd00000000p-3, -0x1.0b27f20000000p-3, -0x1.450ba80000000p-3, 0x1.0cb7ea0000000p-3, 0x1.ed15240000000p-6, -0x1.0fed860000000p-3, 0x1.20bdaa0000000p-4, 0x1.bc5c9a0000000p-4, 0x1.1831b80000000p-4, 0x1.6953340000000p-5, 0x1.34c5a40000000p-3, 0x1.52078a0000000p-5, -0x1.3553de0000000p-4, 0x1.7e0a220000000p-3, -0x1.16d4680000000p-3, 0x1.f9f97a0000000p-4, 0x1.a7d4dc0000000p-3, -0x1.a6de5e0000000p-4, 0x1.7ee4040000000p-4, -0x1.7cb3180000000p-4, -0x1.31ed0a0000000p-4, 0x1.2ad8ba0000000p-3, -0x1.265aac0000000p-7, 0x1.8e080a0000000p-4, -0x1.168d680000000p-4, -0x1.0fa6b80000000p-5}
, {-0x1.2bd79e0000000p-3, 0x1.2b6f120000000p-3, 0x1.54d9f60000000p-4, -0x1.72c36c0000000p-3, -0x1.ad02400000000p-4, -0x1.cc17e20000000p-8, -0x1.ea5f560000000p-4, 0x1.58cc1a0000000p-4, 0x1.b144780000000p-5, -0x1.8f0a9a0000000p-5, 0x1.f4255a0000000p-5, -0x1.30a2a40000000p-3, -0x1.2ba7ea0000000p-3, -0x1.77f0680000000p-4, 0x1.bb2a040000000p-5, -0x1.6149b80000000p-4, -0x1.ba344e0000000p-5, 0x1.58a0e20000000p-5, 0x1.87f26a0000000p-3, -0x1.1ca3a20000000p-3, -0x1.c2c0be0000000p-4, -0x1.a849e00000000p-5, -0x1.7db6ac0000000p-5, 0x1.103e2c0000000p-5, -0x1.277bd60000000p-3, 0x1.fcd2ee0000000p-4, -0x1.d6b6060000000p-7, 0x1.1924280000000p-3, 0x1.5cc1700000000p-3, 0x1.b0b9120000000p-5, -0x1.be7f980000000p-8, -0x1.c64d740000000p-5}
}
, {{-0x1.04ef7c0000000p-3, -0x1.37194c0000000p-4, -0x1.69a1fa0000000p-4, -0x1.427eae0000000p-2, -0x1.bfc5560000000p-4, -0x1.a1cc7c0000000p-4, 0x1.3b8c980000000p-5, 0x1.7b30300000000p-4, 0x1.2357d00000000p-3, 0x1.48a0a20000000p-3, -0x1.4140ea0000000p-11, 0x1.36f14c0000000p-3, -0x1.c26bae0000000p-6, -0x1.bdbd440000000p-4, -0x1.7409a40000000p-9, 0x1.1ab6e80000000p-4, 0x1.2b8fe80000000p-3, 0x1.74d7b40000000p-4, -0x1.38fb7e0000000p-3, -0x1.009ce40000000p-3, -0x1.1eec400000000p-2, 0x1.1fdbd00000000p-5, -0x1.6a96dc0000000p-4, 0x1.12e6ec0000000p-6, -0x1.02c69a0000000p-3, -0x1.0594f40000000p-4, -0x1.4538960000000p-3, 0x1.995c1a0000000p-3, 0x1.8684180000000p-3, 0x1.6050ce0000000p-4, 0x1.0861360000000p-4, -0x1.4c9f7a0000000p-6}
, {0x1.1581d80000000p-3, -0x1.1183fc0000000p-3, -0x1.1742d00000000p-9, 0x1.00aa4e0000000p-5, -0x1.3f37000000000p-3, 0x1.6b62a60000000p-4, -0x1.f004b60000000p-4, 0x1.301dea0000000p-4, -0x1.40c8280000000p-5, 0x1.0e23820000000p-4, 0x1.9addc60000000p-3, -0x1.4a771c0000000p-2, -0x1.3489700000000p-6, 0x1.bb0aa40000000p-5, 0x1.076f1c0000000p-3, -0x1.1a5c6a0000000p-3, -0x1.31c1d20000000p-4, -0x1.9dde6a0000000p-3, 0x1.25d37e0000000p-2, 0x1.8fe5d60000000p-5, -0x1.becf360000000p-3, 0x1.43813c0000000p-4, -0x1.7142320000000p-6, -0x1.9db41c0000000p-6, 0x1.2bcef20000000p-4, -0x1.bc7a040000000p-3, -0x1.67dbee0000000p-4, 0x1.02fc660000000p-3, 0x1.04efe80000000p-3, -0x1.1ca5060000000p-3, -0x1.5398c40000000p-7, 0x1.26c2e20000000p-4}
}
, {{-0x1.9155060000000p-6, -0x1.a1a77a0000000p-4, 0x1.7ab72c0000000p-4, 0x1.ca584c0000000p-3, 0x1.0b9f380000000p-2, 0x1.aee0560000000p-5, -0x1.4cac680000000p-3, 0x1.29bcb00000000p-3, -0x1.37d0840000000p-5, -0x1.0f771e0000000p-4, 0x1.e677b60000000p-5, 0x1.965ff80000000p-7, 0x1.c1dd620000000p-3, 0x1.85cb780000000p-5, 0x1.64e90a0000000p-5, 0x1.9a89500000000p-5, 0x1.c9f1c80000000p-4, -0x1.14248e0000000p-3, 0x1.7b9c820000000p-3, -0x1.2121b20000000p-4, 0x1.5ff2660000000p-3, -0x1.a2df8a0000000p-5, 0x1.0507f20000000p-4, -0x1.8584120000000p-8, -0x1.252fa20000000p-5, 0x1.08fb500000000p-2, -0x1.12705c0000000p-3, -0x1.0aabfa0000000p-3, -0x1.182a320000000p-7, -0x1.a305220000000p-6, 0x1.15c00e0000000p-3, -0x1.61140c0000000p-4}
, {-0x1.8063b20000000p-7, -0x1.0876060000000p-3, -0x1.ea1d220000000p-5, 0x1.6554fa0000000p-3, 0x1.7f605c0000000p-6, 0x1.6a82f80000000p-5, -0x1.6f6c8c0000000p-5, 0x1.87fea00000000p-3, -0x1.bbf0ca0000000p-4, 0x1.b755420000000p-8, -0x1.f573260000000p-4, 0x1.3fdcba0000000p-4, 0x1.3b30a60000000p-2, 0x1.ff12200000000p-4, -0x1.c02ed60000000p-6, 0x1.11d0300000000p-3, 0x1.01aa7e0000000p-4, 0x1.782a0a0000000p-4, 0x1.eff73c0000000p-4, -0x1.2668120000000p-3, -0x1.1d90820000000p-3, -0x1.35fed00000000p-4, 0x1.183f6e0000000p-4, 0x1.8a94080000000p-4, -0x1.6567380000000p-4, 0x1.bc69460000000p-3, -0x1.0d0a700000000p-3, -0x1.54f8740000000p-3, -0x1.e8ee6c0000000p-3, 0x1.3af5020000000p-5, 0x1.1c47620000000p-12, -0x1.7ba8b60000000p-3}
}
, {{-0x1.b5381a0000000p-4, -0x1.efce740000000p-4, -0x1.afa79e0000000p-5, -0x1.719fea0000000p-4, -0x1.c3afae0000000p-4, -0x1.2aa5400000000p-3, 0x1.6f85e00000000p-4, 0x1.355f460000000p-3, 0x1.a378580000000p-4, 0x1.5a09ea0000000p-3, 0x1.6e9bf00000000p-5, 0x1.cb511a0000000p-5, -0x1.c123700000000p-4, -0x1.0fe2c40000000p-3, 0x1.be08ce0000000p-5, 0x1.200bdc0000000p-3, -0x1.c3e1bc0000000p-3, 0x1.0040640000000p-5, 0x1.0c24da0000000p-5, 0x1.6b00a80000000p-3, 0x1.f008220000000p-13, 0x1.ac7fbe0000000p-6, 0x1.33a5d00000000p-3, -0x1.29e98e0000000p-4, -0x1.621a7e0000000p-4, 0x1.5676820000000p-6, -0x1.1a44100000000p-4, 0x1.0a195c0000000p-5, 0x1.fd2bf60000000p-4, -0x1.8e90a20000000p-4, -0x1.d8bc2a0000000p-3, 0x1.ba35200000000p-5}
, {0x1.6aa1b80000000p-4, -0x1.77337c0000000p-6, 0x1.d4616c0000000p-4, -0x1.a50cc80000000p-5, -0x1.057c6a0000000p-3, -0x1.948c320000000p-2, 0x1.6efe2a0000000p-3, 0x1.98c9e20000000p-6, -0x1.eb74f20000000p-3, 0x1.abdeee0000000p-4, -0x1.4687e40000000p-6, 0x1.195d3e0000000p-3, 0x1.1c64740000000p-4, 0x1.b4e96a0000000p-4, 0x1.60e1fa0000000p-3, 0x1.c957de0000000p-3, 0x1.525cbe0000000p-4, 0x1.f04fd80000000p-6, -0x1.12fc7a0000000p-3, -0x1.aac6820000000p-5, 0x1.10e2a20000000p-3, -0x1.6463460000000p-3, 0x1.b935de0000000p-3, -0x1.b5efb00000000p-4, -0x1.e8774c0000000p-4, 0x1.0068580000000p-3, -0x1.f805a00000000p-4, -0x1.33aadc0000000p-3, 0x1.eef4ac0000000p-3, -0x1.2f7f5e0000000p-4, -0x1.f39d0e0000000p-3, -0x1.5b920a0000000p-9}
}
, {{-0x1.ca14660000000p-5, 0x1.e9667c0000000p-7, 0x1.46169c0000000p-4, -0x1.9008660000000p-4, -0x1.5ed3440000000p-3, -0x1.dad1960000000p-5, -0x1.a68d140000000p-4, 0x1.cf57ec0000000p-5, -0x1.5468ce0000000p-5, 0x1.0a926a0000000p-3, 0x1.ed9fca0000000p-5, 0x1.84fb8a0000000p-4, 0x1.29542a0000000p-5, 0x1.3fe9260000000p-3, -0x1.f317c00000000p-4, 0x1.4d97080000000p-4, 0x1.3987460000000p-5, 0x1.dda3f40000000p-4, 0x1.407d860000000p-4, 0x1.278b9a0000000p-5, 0x1.49fd6e0000000p-3, -0x1.75f8780000000p-5, -0x1.fe7cda0000000p-4, -0x1.37fb920000000p-6, -0x1.9160360000000p-4, -0x1.489c4e0000000p-2, -0x1.48262e0000000p-3, 0x1.86be900000000p-4, 0x1.248e840000000p-3, -0x1.0662300000000p-2, -0x1.4bcb260000000p-4, 0x1.3be4260000000p-3}
, {0x1.9210900000000p-4, -0x1.5f7d080000000p-3, -0x1.8547e20000000p-4, 0x1.ac5ba80000000p-4, 0x1.a66a220000000p-4, 0x1.1545ce0000000p-6, 0x1.4ef15a0000000p-5, 0x1.6e14c80000000p-5, 0x1.71d9480000000p-6, -0x1.a8674e0000000p-8, 0x1.693b540000000p-3, 0x1.a1cb8e0000000p-3, -0x1.6c3be80000000p-3, 0x1.f4832c0000000p-4, -0x1.ae38800000000p-4, -0x1.e7e3b80000000p-4, -0x1.d530cc0000000p-4, 0x1.c528420000000p-6, -0x1.412f280000000p-3, 0x1.3aefb00000000p-3, -0x1.dd9f100000000p-5, 0x1.0da5ae0000000p-4, -0x1.683a480000000p-4, -0x1.bc50b00000000p-3, 0x1.7ff0ea0000000p-3, 0x1.a654f20000000p-4, 0x1.4d51000000000p-6, 0x1.1766300000000p-3, -0x1.6440a80000000p-4, -0x1.dbbd3e0000000p-4, -0x1.78bd140000000p-3, -0x1.6c6bb20000000p-4}
}
, {{-0x1.7c55220000000p-5, 0x1.45f7ce0000000p-4, -0x1.d59b180000000p-7, 0x1.ccef8c0000000p-4, -0x1.9e6d800000000p-3, -0x1.acb9860000000p-9, -0x1.a589be0000000p-5, 0x1.0dabba0000000p-4, -0x1.528f9e0000000p-3, -0x1.2aa8600000000p-3, -0x1.e4a4600000000p-3, 0x1.0881700000000p-2, 0x1.7717920000000p-2, 0x1.42e35e0000000p-5, 0x1.676d760000000p-7, -0x1.586fbe0000000p-3, -0x1.ea8eee0000000p-5, 0x1.1e588a0000000p-3, -0x1.8b65080000000p-5, -0x1.93b49c0000000p-3, -0x1.7975580000000p-4, 0x1.c1af340000000p-9, -0x1.068ea00000000p-3, -0x1.baafd80000000p-6, 0x1.79f5b40000000p-8, 0x1.a668fe0000000p-3, 0x1.31b4ec0000000p-5, -0x1.6f1c180000000p-4, -0x1.b12f220000000p-3, 0x1.b7cc440000000p-3, 0x1.14ac660000000p-2, 0x1.1848400000000p-2}
, {0x1.1e8f6e0000000p-3, 0x1.6bc4620000000p-7, 0x1.4e3e6e0000000p-3, 0x1.18f62c0000000p-3, -0x1.5408420000000p-5, -0x1.922cc40000000p-3, -0x1.e7670e0000000p-5, 0x1.0e8be80000000p-3, 0x1.eb6f620000000p-8, -0x1.3832200000000p-4, -0x1.45df3e0000000p-3, 0x1.c96d360000000p-3, 0x1.fcdae00000000p-4, -0x1.56ae6c0000000p-7, 0x1.2131040000000p-4, -0x1.52085a0000000p-3, -0x1.d651660000000p-7, 0x1.8acc640000000p-6, 0x1.3c07100000000p-3, 0x1.7bfece0000000p-8, -0x1.7d18660000000p-4, -0x1.35c39e0000000p-5, 0x1.4d13d40000000p-3, 0x1.d94c9c0000000p-3, -0x1.7c43360000000p-5, 0x1.b93cfe0000000p-4, 0x1.3fc3420000000p-3, 0x1.c892c20000000p-4, -0x1.9705a20000000p-6, 0x1.013ae40000000p-3, -0x1.2f90ea0000000p-4, 0x1.e688640000000p-4}
}
}
;

#undef INPUT_CHANNELS
#undef CONV_FILTERS
#undef CONV_KERNEL_SIZE
#undef CONV_GROUPS