/**
  ******************************************************************************
  * @file    weights/conv1d.cc
  * @author  Pierre-Emmanuel Novac <penovac@unice.fr>, LEAT, CNRS, Université Côte d'Azur, France
  * @version 1.0.0
  * @date    24 march 2020
  * @brief   Template generating plain C code for the implementation of Convolutional Neural Networks on MCU
  */

#include <stdint.h>

#define INPUT_CHANNELS    8
#define CONV_FILTERS      16
#define CONV_KERNEL_SIZE  8
#define CONV_GROUPS       1


const float  conv1d_1_bias[CONV_FILTERS] = {0x1.ba17ee0000000p-7, 0x1.a50b260000000p-4, 0x1.df7ddc0000000p-6, -0x1.2745d40000000p-6, -0x1.a07ef20000000p-4, 0x1.5a7ef80000000p-5, 0x1.1befd20000000p-5, -0x1.241aca0000000p-4, 0x1.5464740000000p-5, 0x1.061e3e0000000p-5, -0x1.b4d85e0000000p-8, -0x1.017d900000000p-4, 0x1.d4b40e0000000p-6, 0x1.7a2f980000000p-11, -0x1.437a100000000p-4, 0x1.154c840000000p-4}
;

const float  conv1d_1_kernel[CONV_FILTERS][CONV_KERNEL_SIZE][INPUT_CHANNELS / CONV_GROUPS] = {{{0x1.eebfd40000000p-5, -0x1.228a500000000p-3, 0x1.02fd120000000p-3, 0x1.4c3ef80000000p-3, -0x1.3efb0e0000000p-3, 0x1.c29cb60000000p-6, 0x1.7fd9b20000000p-4, 0x1.5334720000000p-3}
, {0x1.0e33f60000000p-3, -0x1.f16f800000000p-5, -0x1.4e234e0000000p-5, -0x1.0159f20000000p-4, -0x1.0f19a40000000p-2, 0x1.f9a9100000000p-4, -0x1.6b37a00000000p-3, -0x1.52470e0000000p-3}
, {-0x1.6523840000000p-3, 0x1.68178a0000000p-4, -0x1.015c0c0000000p-4, 0x1.15a12c0000000p-3, -0x1.8275d20000000p-3, -0x1.c135500000000p-3, -0x1.2392180000000p-5, 0x1.8e78dc0000000p-3}
, {-0x1.fac2640000000p-7, 0x1.32032c0000000p-3, 0x1.22aef40000000p-3, -0x1.85f4d00000000p-6, -0x1.fd9e380000000p-5, 0x1.3b9fd00000000p-5, 0x1.1abdea0000000p-4, -0x1.da5b280000000p-5}
, {-0x1.d2d82a0000000p-5, -0x1.091e9e0000000p-2, 0x1.1390f80000000p-4, -0x1.0ede5e0000000p-3, -0x1.5eedd40000000p-5, -0x1.2a692c0000000p-3, -0x1.977e4c0000000p-4, -0x1.cc6abc0000000p-5}
, {-0x1.3b5c280000000p-3, 0x1.142ad60000000p-5, 0x1.2ce3640000000p-4, -0x1.8415fa0000000p-4, 0x1.87e68e0000000p-4, 0x1.11dc540000000p-4, -0x1.64e6b60000000p-8, 0x1.9651100000000p-4}
, {0x1.cfa0c00000000p-4, 0x1.4b925c0000000p-5, -0x1.112dd60000000p-6, 0x1.129f760000000p-3, -0x1.afb3300000000p-4, 0x1.0beaf60000000p-3, 0x1.79bad40000000p-4, 0x1.2e060a0000000p-5}
, {-0x1.335e1c0000000p-3, -0x1.6200140000000p-3, -0x1.6f81740000000p-3, -0x1.1420900000000p-4, 0x1.1b812e0000000p-4, -0x1.1fda2e0000000p-3, -0x1.b0cf2e0000000p-3, -0x1.27a7300000000p-5}
}
, {{0x1.7ec3960000000p-5, -0x1.4b12b60000000p-3, -0x1.d96d2a0000000p-3, 0x1.bee2680000000p-4, 0x1.fd7e4e0000000p-6, -0x1.22face0000000p-3, -0x1.94801e0000000p-4, 0x1.1cf3e80000000p-5}
, {-0x1.30d7440000000p-2, 0x1.00f1fc0000000p-3, -0x1.5b89200000000p-4, -0x1.eaae840000000p-5, 0x1.73df120000000p-4, 0x1.9f65080000000p-3, -0x1.a93b880000000p-5, -0x1.0fd1e60000000p-2}
, {-0x1.7ec6e60000000p-8, -0x1.87eb600000000p-5, -0x1.81ad320000000p-5, -0x1.5b19880000000p-3, -0x1.37632e0000000p-6, -0x1.75ac900000000p-6, 0x1.08d0320000000p-4, -0x1.b442920000000p-3}
, {0x1.e55d120000000p-5, 0x1.62e2980000000p-4, -0x1.790ed40000000p-4, -0x1.9a5f1a0000000p-4, -0x1.c8ff0c0000000p-5, 0x1.6eaea60000000p-4, 0x1.6f69fa0000000p-4, -0x1.2604b80000000p-4}
, {-0x1.7f06b40000000p-3, -0x1.119bd60000000p-3, -0x1.9b58b60000000p-4, 0x1.74a5de0000000p-8, -0x1.125aea0000000p-2, -0x1.8450540000000p-3, -0x1.073e840000000p-7, 0x1.18e6840000000p-2}
, {-0x1.d247d20000000p-6, -0x1.7023140000000p-6, -0x1.5dad500000000p-3, 0x1.d62c0c0000000p-5, -0x1.e9c00c0000000p-3, -0x1.4e5bb60000000p-4, -0x1.4869540000000p-5, -0x1.1ff2fe0000000p-4}
, {-0x1.661b940000000p-3, 0x1.6957560000000p-4, -0x1.d11cfc0000000p-4, 0x1.1fb0d60000000p-3, 0x1.4d25dc0000000p-6, 0x1.1090900000000p-3, 0x1.7fa9a40000000p-3, 0x1.2f4c8c0000000p-4}
, {-0x1.361e8c0000000p-3, -0x1.7722080000000p-3, -0x1.32ad240000000p-2, 0x1.23873e0000000p-4, -0x1.7ad2a80000000p-3, 0x1.8426b40000000p-5, 0x1.2e62ca0000000p-3, 0x1.9c3a500000000p-7}
}
, {{0x1.759dea0000000p-3, 0x1.1422860000000p-7, 0x1.011ae40000000p-2, -0x1.15b2d40000000p-5, 0x1.62fb860000000p-3, -0x1.4debde0000000p-3, 0x1.cf804e0000000p-4, -0x1.73e8260000000p-4}
, {0x1.ecf8ba0000000p-7, 0x1.1a3d780000000p-3, 0x1.93a2c20000000p-3, -0x1.b2a50a0000000p-3, -0x1.8211940000000p-6, 0x1.6b028e0000000p-5, 0x1.e516260000000p-4, 0x1.47a0c80000000p-3}
, {0x1.463a920000000p-9, 0x1.aff1520000000p-4, 0x1.88f36c0000000p-5, -0x1.22d7d60000000p-4, -0x1.a678400000000p-4, -0x1.64382c0000000p-4, -0x1.d258940000000p-5, 0x1.a20d900000000p-8}
, {-0x1.0628c40000000p-3, 0x1.efe4d00000000p-4, 0x1.e70f600000000p-7, -0x1.b6f5e20000000p-4, -0x1.0592920000000p-4, -0x1.388d960000000p-4, 0x1.2c90120000000p-4, 0x1.020fd00000000p-3}
, {0x1.2762de0000000p-5, -0x1.5134de0000000p-3, 0x1.341d100000000p-4, -0x1.8be2d60000000p-3, 0x1.24011a0000000p-3, -0x1.da548e0000000p-4, -0x1.68af500000000p-3, -0x1.471f4e0000000p-4}
, {-0x1.f76ad80000000p-6, -0x1.847e0e0000000p-3, 0x1.20a2f80000000p-3, 0x1.325d680000000p-3, -0x1.8301c00000000p-4, 0x1.dceec80000000p-4, 0x1.4eb8a00000000p-3, 0x1.7499720000000p-3}
, {0x1.1774b60000000p-5, -0x1.466ea60000000p-5, -0x1.9a93c60000000p-6, -0x1.d59bb40000000p-4, -0x1.2632620000000p-3, -0x1.b87f300000000p-3, -0x1.28d83a0000000p-3, 0x1.2aa0140000000p-4}
, {0x1.e4137e0000000p-5, -0x1.cbb2660000000p-5, 0x1.031f8c0000000p-2, -0x1.cff4de0000000p-4, 0x1.7adb500000000p-4, 0x1.712c9a0000000p-3, -0x1.3648500000000p-3, -0x1.8847d80000000p-8}
}
, {{-0x1.c968140000000p-6, 0x1.7ef55c0000000p-3, 0x1.02cc5a0000000p-3, 0x1.9d0a660000000p-6, -0x1.e75a100000000p-4, 0x1.029bfc0000000p-6, -0x1.fcad300000000p-4, -0x1.85a4f60000000p-4}
, {-0x1.1ae6e80000000p-4, 0x1.9dde680000000p-4, 0x1.3c88760000000p-3, 0x1.9bdb240000000p-3, 0x1.b8237c0000000p-5, 0x1.db93cc0000000p-7, -0x1.0b3f760000000p-3, 0x1.3e4cd20000000p-5}
, {-0x1.c7c72e0000000p-4, -0x1.ae23740000000p-4, 0x1.1d34d40000000p-4, -0x1.000c660000000p-4, 0x1.a9db720000000p-3, 0x1.1cf00c0000000p-4, -0x1.230cd40000000p-6, 0x1.fd27960000000p-4}
, {-0x1.722ed20000000p-3, 0x1.0166440000000p-3, 0x1.207a340000000p-4, 0x1.5268c20000000p-4, 0x1.a1371e0000000p-3, -0x1.a25bd20000000p-4, 0x1.7f0cb60000000p-3, -0x1.d9a06e0000000p-4}
, {-0x1.6fe2c60000000p-3, -0x1.63be040000000p-3, -0x1.f95ba80000000p-4, -0x1.5ea33e0000000p-3, -0x1.024b1e0000000p-5, 0x1.2411fa0000000p-4, 0x1.011c7c0000000p-4, 0x1.d5b3da0000000p-5}
, {0x1.58d1940000000p-4, 0x1.4761780000000p-3, -0x1.c4093a0000000p-5, 0x1.2c4c0c0000000p-4, 0x1.cea22c0000000p-6, -0x1.74477e0000000p-4, 0x1.0f495c0000000p-3, -0x1.8c2f000000000p-4}
, {-0x1.1ca0860000000p-3, -0x1.8d1ba60000000p-4, 0x1.8048080000000p-6, -0x1.38a8fe0000000p-6, -0x1.8d08e40000000p-6, -0x1.5387560000000p-10, -0x1.7720760000000p-7, 0x1.59a86e0000000p-4}
, {0x1.1132100000000p-4, 0x1.051d540000000p-10, 0x1.1076c80000000p-3, 0x1.9585240000000p-4, -0x1.45a6020000000p-5, -0x1.94c8b80000000p-4, 0x1.5065240000000p-4, -0x1.e24eac0000000p-3}
}
, {{-0x1.29702a0000000p-3, -0x1.ed1d520000000p-5, 0x1.9ddde20000000p-5, -0x1.1bd89c0000000p-5, -0x1.91428e0000000p-4, 0x1.d589540000000p-4, 0x1.2f0af20000000p-4, -0x1.137c0a0000000p-3}
, {-0x1.49daca0000000p-3, -0x1.800bf00000000p-3, -0x1.eb1a800000000p-4, 0x1.4eca740000000p-9, 0x1.bccd0c0000000p-5, -0x1.92a6520000000p-5, 0x1.2e69b20000000p-4, 0x1.d779320000000p-4}
, {0x1.09916a0000000p-4, 0x1.8399c20000000p-5, 0x1.cda0f40000000p-4, -0x1.349ae60000000p-3, -0x1.7f72ce0000000p-4, 0x1.072a180000000p-4, -0x1.34b5940000000p-3, 0x1.0295000000000p-4}
, {0x1.8650b00000000p-4, -0x1.39731a0000000p-3, 0x1.ff8dfc0000000p-8, 0x1.5468e60000000p-4, 0x1.7511100000000p-4, 0x1.2a1a1c0000000p-3, 0x1.cd4c2a0000000p-4, -0x1.0116040000000p-3}
, {-0x1.0c15ba0000000p-4, 0x1.45384c0000000p-4, -0x1.b4b7540000000p-9, -0x1.af88f80000000p-3, -0x1.04a96a0000000p-4, 0x1.6a463c0000000p-3, -0x1.1770400000000p-5, -0x1.2537780000000p-4}
, {-0x1.8fc2e00000000p-3, -0x1.37c22e0000000p-4, 0x1.acbfa80000000p-4, 0x1.8bbad60000000p-4, -0x1.902ce20000000p-3, -0x1.2e04900000000p-3, 0x1.fef1940000000p-6, 0x1.a436ba0000000p-8}
, {0x1.7220700000000p-4, -0x1.79bea00000000p-5, 0x1.78e4820000000p-9, 0x1.fb30cc0000000p-4, -0x1.256c180000000p-9, -0x1.17a75e0000000p-7, -0x1.1b62140000000p-3, -0x1.ff8b0c0000000p-5}
, {0x1.a25ddc0000000p-5, 0x1.02f30c0000000p-4, 0x1.9ea6380000000p-5, -0x1.7a96f80000000p-3, 0x1.cb00bc0000000p-4, -0x1.6838a80000000p-6, -0x1.88c36a0000000p-3, -0x1.01e3580000000p-3}
}
, {{-0x1.687cee0000000p-6, -0x1.46de040000000p-4, -0x1.89467e0000000p-3, 0x1.5212e60000000p-4, -0x1.51c7bc0000000p-3, -0x1.4d45320000000p-4, 0x1.44882c0000000p-4, 0x1.cedd5c0000000p-5}
, {0x1.df88260000000p-9, -0x1.66e9480000000p-3, -0x1.5034540000000p-3, -0x1.167ab40000000p-2, -0x1.d8b1fa0000000p-5, -0x1.dde2600000000p-4, -0x1.169e820000000p-4, 0x1.80109a0000000p-4}
, {0x1.6247800000000p-3, 0x1.1a97ba0000000p-3, -0x1.d591760000000p-4, -0x1.42db4e0000000p-4, 0x1.21125a0000000p-5, 0x1.0566fc0000000p-4, -0x1.282c660000000p-3, 0x1.6125ee0000000p-4}
, {-0x1.4deddc0000000p-4, -0x1.7b175c0000000p-3, -0x1.2210820000000p-3, 0x1.57acb20000000p-4, -0x1.b461d60000000p-4, 0x1.a384a40000000p-7, 0x1.4c781c0000000p-3, -0x1.f770e40000000p-3}
, {-0x1.151eea0000000p-7, 0x1.1fc6740000000p-6, -0x1.9623a60000000p-3, 0x1.10833a0000000p-6, -0x1.20b8b00000000p-2, -0x1.e5a6080000000p-4, -0x1.2f055c0000000p-3, 0x1.1e18700000000p-3}
, {0x1.f1fc6c0000000p-5, 0x1.8261660000000p-4, -0x1.2b61800000000p-5, 0x1.609b6a0000000p-3, 0x1.d3b4560000000p-5, 0x1.569d120000000p-3, 0x1.6fa8020000000p-3, 0x1.28ab4a0000000p-3}
, {0x1.a87b340000000p-4, 0x1.e57b2c0000000p-7, -0x1.93b14a0000000p-3, -0x1.5928520000000p-5, -0x1.3fb8360000000p-3, -0x1.6a98760000000p-6, 0x1.6c01bc0000000p-3, -0x1.a4c8b20000000p-3}
, {-0x1.3594da0000000p-5, -0x1.e1593e0000000p-3, -0x1.7e80c20000000p-6, -0x1.8a7b4c0000000p-3, -0x1.0bbff40000000p-3, -0x1.153c1c0000000p-3, 0x1.fde68c0000000p-6, 0x1.6cedee0000000p-3}
}
, {{-0x1.2be7b60000000p-3, 0x1.c2e5320000000p-4, -0x1.72b2f20000000p-3, -0x1.86302e0000000p-6, -0x1.4e5e120000000p-4, 0x1.607a700000000p-4, 0x1.7434ee0000000p-4, 0x1.a110560000000p-4}
, {-0x1.10e2100000000p-2, -0x1.647e3e0000000p-6, -0x1.2daa560000000p-5, 0x1.1c745c0000000p-5, -0x1.57abfc0000000p-3, 0x1.5737020000000p-3, -0x1.845e7c0000000p-8, -0x1.32c1260000000p-3}
, {-0x1.9e1f620000000p-3, -0x1.9e30ec0000000p-7, -0x1.2dadde0000000p-5, -0x1.54a9da0000000p-3, -0x1.25855a0000000p-5, -0x1.d4157a0000000p-5, -0x1.f867860000000p-5, -0x1.15d1640000000p-4}
, {-0x1.5420380000000p-3, -0x1.1844f20000000p-6, 0x1.b5c64c0000000p-5, -0x1.25198e0000000p-3, 0x1.34d33c0000000p-4, -0x1.7dadcc0000000p-7, 0x1.be355a0000000p-6, 0x1.bec3e60000000p-6}
, {-0x1.9eaaf60000000p-3, 0x1.4684660000000p-3, -0x1.4a17400000000p-3, 0x1.39c34a0000000p-5, -0x1.3dcfa80000000p-4, 0x1.0ebe1e0000000p-3, 0x1.7578a20000000p-4, 0x1.996b5c0000000p-9}
, {-0x1.0800120000000p-2, 0x1.0e8e020000000p-4, 0x1.40eaf80000000p-5, 0x1.65d6900000000p-5, -0x1.e5a31a0000000p-4, 0x1.c6b7c60000000p-5, 0x1.8909b40000000p-3, -0x1.41fcb60000000p-2}
, {-0x1.470b880000000p-3, -0x1.42f4940000000p-3, -0x1.5bf0ec0000000p-3, -0x1.9688620000000p-4, -0x1.0ee2be0000000p-4, -0x1.ca375c0000000p-8, 0x1.28f1600000000p-3, -0x1.cd29a20000000p-3}
, {0x1.780c700000000p-4, -0x1.87055c0000000p-3, -0x1.9f04840000000p-5, 0x1.327d880000000p-9, -0x1.92b5e20000000p-4, 0x1.8b8b680000000p-4, -0x1.63f6580000000p-3, 0x1.eedbbc0000000p-3}
}
, {{-0x1.e378f20000000p-3, -0x1.be46080000000p-3, -0x1.b284c20000000p-3, 0x1.109f960000000p-4, -0x1.b9ba680000000p-3, 0x1.8c741c0000000p-11, -0x1.c1fb7c0000000p-3, -0x1.61483e0000000p-4}
, {-0x1.7e815e0000000p-3, 0x1.0c10500000000p-4, -0x1.5cb78e0000000p-3, 0x1.4e23660000000p-4, 0x1.9906020000000p-4, 0x1.e3878a0000000p-5, 0x1.f630140000000p-5, -0x1.b251f40000000p-3}
, {0x1.9b70ae0000000p-5, -0x1.c66d480000000p-3, -0x1.fdf0b80000000p-4, -0x1.76febc0000000p-3, -0x1.9b11440000000p-4, -0x1.aba35a0000000p-5, -0x1.ed8d060000000p-3, -0x1.a4ee9a0000000p-4}
, {-0x1.a02c5a0000000p-6, -0x1.7db2b40000000p-3, -0x1.a761be0000000p-7, 0x1.b074660000000p-5, 0x1.a877560000000p-4, -0x1.a0711e0000000p-3, -0x1.50315e0000000p-4, -0x1.c0eaf00000000p-3}
, {0x1.582ad40000000p-4, -0x1.0496780000000p-5, -0x1.eb044e0000000p-5, 0x1.9967340000000p-5, -0x1.1aafc00000000p-3, -0x1.278ed80000000p-3, 0x1.500c3a0000000p-5, -0x1.1069c00000000p-4}
, {-0x1.3eb7060000000p-4, -0x1.a4bb200000000p-3, 0x1.b62cc60000000p-6, 0x1.812c7e0000000p-6, 0x1.d4a97c0000000p-5, 0x1.02a42e0000000p-7, 0x1.3d961a0000000p-6, -0x1.e8da0a0000000p-4}
, {0x1.ac38220000000p-10, 0x1.d856e00000000p-4, 0x1.42d9c40000000p-4, 0x1.0829980000000p-4, -0x1.7f02e20000000p-3, -0x1.22caae0000000p-3, -0x1.bf1d380000000p-5, -0x1.55e4ca0000000p-9}
, {0x1.1721d40000000p-4, -0x1.44ee520000000p-4, 0x1.f6e3940000000p-5, -0x1.969c700000000p-3, 0x1.45c57e0000000p-5, 0x1.ab8d520000000p-4, 0x1.306d340000000p-4, -0x1.dca45c0000000p-7}
}
, {{-0x1.5dbe6c0000000p-3, -0x1.858c2a0000000p-3, 0x1.3a920c0000000p-3, -0x1.fea4220000000p-4, 0x1.5d2d1e0000000p-3, -0x1.2c65a40000000p-3, 0x1.2ace7c0000000p-4, 0x1.2814de0000000p-3}
, {0x1.4935960000000p-5, -0x1.bd77200000000p-4, 0x1.053dc40000000p-3, 0x1.efb09c0000000p-4, 0x1.16303c0000000p-4, -0x1.f72d1e0000000p-4, 0x1.5c7b6e0000000p-3, -0x1.1272d40000000p-5}
, {-0x1.d608a40000000p-4, -0x1.e92a580000000p-3, 0x1.0fc1e40000000p-3, 0x1.ec64b00000000p-5, -0x1.842c560000000p-5, -0x1.cc37ee0000000p-3, 0x1.ba93460000000p-5, 0x1.44680e0000000p-3}
, {0x1.9ef34a0000000p-3, 0x1.366d080000000p-4, 0x1.14cbbe0000000p-3, -0x1.64f2b20000000p-4, -0x1.5445c60000000p-6, -0x1.b5a1560000000p-4, -0x1.15ccbc0000000p-5, 0x1.5a36cc0000000p-3}
, {0x1.27c5ae0000000p-3, -0x1.8164200000000p-3, -0x1.2b97ca0000000p-3, -0x1.086e700000000p-3, -0x1.7baee20000000p-5, 0x1.3b57f40000000p-3, -0x1.c66f9c0000000p-4, -0x1.23d4560000000p-2}
, {0x1.f1e4c60000000p-5, -0x1.12acc60000000p-5, -0x1.affcb00000000p-4, 0x1.48bf500000000p-4, 0x1.a1c0c40000000p-4, -0x1.aa47260000000p-3, -0x1.ef597e0000000p-3, 0x1.6e96a40000000p-3}
, {0x1.281e540000000p-3, 0x1.af9f940000000p-6, 0x1.e3db8a0000000p-4, 0x1.9c24c80000000p-4, 0x1.3bde8c0000000p-4, -0x1.e1d30e0000000p-8, 0x1.1a18620000000p-3, -0x1.ba1ec20000000p-3}
, {0x1.0a99ca0000000p-3, 0x1.1749800000000p-4, -0x1.82a3020000000p-4, -0x1.d618520000000p-3, 0x1.d28a140000000p-5, -0x1.f16dcc0000000p-3, -0x1.677b220000000p-4, 0x1.aae2340000000p-4}
}
, {{-0x1.389a940000000p-4, 0x1.65b6020000000p-4, -0x1.fe53e00000000p-4, 0x1.073e8a0000000p-5, -0x1.eef7bc0000000p-5, 0x1.5c41320000000p-4, 0x1.785e920000000p-5, 0x1.4a3da20000000p-3}
, {-0x1.9fe1120000000p-5, -0x1.3d4aa40000000p-3, -0x1.e03c3e0000000p-4, -0x1.3284f60000000p-4, -0x1.1e6adc0000000p-3, 0x1.0e50b00000000p-3, 0x1.4240840000000p-3, 0x1.db4fd20000000p-4}
, {-0x1.3419460000000p-4, -0x1.eec9980000000p-5, -0x1.47f1a20000000p-5, -0x1.64235a0000000p-3, -0x1.f13a0c0000000p-7, -0x1.f579060000000p-5, 0x1.8757080000000p-4, -0x1.69cb540000000p-5}
, {-0x1.f96dd20000000p-4, -0x1.a054dc0000000p-3, 0x1.01aafe0000000p-4, -0x1.a187bc0000000p-6, -0x1.32baea0000000p-4, -0x1.8b35ac0000000p-3, -0x1.f4647c0000000p-3, -0x1.2d95d80000000p-6}
, {0x1.6580ac0000000p-6, 0x1.8526120000000p-3, 0x1.889fc00000000p-4, 0x1.8100a80000000p-3, 0x1.75369e0000000p-4, -0x1.0fd2e00000000p-5, 0x1.e1a1c20000000p-4, 0x1.6e33020000000p-3}
, {-0x1.709a420000000p-3, -0x1.b841ca0000000p-4, -0x1.28855c0000000p-3, -0x1.ded4680000000p-5, -0x1.08dd9e0000000p-3, 0x1.5cc0780000000p-3, 0x1.d51c440000000p-3, -0x1.0dbd740000000p-2}
, {-0x1.a5d5a60000000p-3, -0x1.175fc00000000p-3, -0x1.7db5040000000p-3, -0x1.1ad4f60000000p-2, -0x1.384c0a0000000p-3, -0x1.a964a20000000p-7, -0x1.a0714a0000000p-6, -0x1.df56ce0000000p-4}
, {-0x1.f816ac0000000p-4, -0x1.7960660000000p-3, -0x1.2c35600000000p-4, 0x1.a5df840000000p-5, -0x1.222f160000000p-5, -0x1.3247880000000p-5, -0x1.0529140000000p-3, 0x1.72e4f00000000p-3}
}
, {{-0x1.7b8bf40000000p-3, 0x1.47bfa80000000p-5, -0x1.71a43a0000000p-5, -0x1.9c4c100000000p-3, -0x1.c816e00000000p-11, 0x1.d123e00000000p-9, 0x1.c5940a0000000p-5, 0x1.84ab0c0000000p-3}
, {0x1.0b6c560000000p-3, -0x1.3357f00000000p-4, 0x1.3d223c0000000p-4, 0x1.7720ce0000000p-4, -0x1.57d4c00000000p-3, -0x1.0ff3940000000p-5, 0x1.e02a0e0000000p-6, 0x1.9e5ade0000000p-3}
, {0x1.8b991c0000000p-4, 0x1.d9553a0000000p-10, -0x1.5d7e180000000p-3, 0x1.49d7580000000p-8, -0x1.d9c26a0000000p-4, -0x1.1d3a080000000p-4, -0x1.ade4f60000000p-7, -0x1.6fb6200000000p-6}
, {0x1.1eee5c0000000p-3, -0x1.587d220000000p-4, 0x1.76fa940000000p-7, 0x1.1eca480000000p-4, -0x1.9482f80000000p-3, 0x1.fbe99a0000000p-4, 0x1.3e04160000000p-4, 0x1.33ba220000000p-3}
, {-0x1.3797120000000p-3, -0x1.1d72400000000p-5, -0x1.bfd6ec0000000p-5, -0x1.96903c0000000p-3, -0x1.87f3200000000p-5, 0x1.96880e0000000p-3, 0x1.ab8cc00000000p-3, -0x1.a720cc0000000p-3}
, {0x1.8cc37e0000000p-3, -0x1.30fc940000000p-4, 0x1.530bfa0000000p-6, -0x1.dfe80e0000000p-5, 0x1.f5b1a20000000p-5, -0x1.8a1d900000000p-5, -0x1.dc56740000000p-3, 0x1.52b3b80000000p-3}
, {-0x1.941ed80000000p-11, 0x1.6aa5680000000p-3, -0x1.871b460000000p-4, 0x1.05c13c0000000p-2, -0x1.ffab840000000p-3, 0x1.f994c40000000p-3, 0x1.1ef7800000000p-5, -0x1.408ad00000000p-7}
, {-0x1.677c860000000p-7, -0x1.be80040000000p-7, -0x1.2426920000000p-3, -0x1.4a0b840000000p-6, -0x1.47bff60000000p-3, -0x1.2245620000000p-3, -0x1.c3489c0000000p-4, -0x1.9f66780000000p-4}
}
, {{-0x1.28976e0000000p-3, 0x1.b6ca280000000p-4, -0x1.bb5ff00000000p-3, -0x1.cec1ce0000000p-4, -0x1.db68ec0000000p-3, -0x1.fddcb60000000p-4, -0x1.536e620000000p-3, -0x1.b116120000000p-8}
, {-0x1.624c800000000p-3, -0x1.0284cc0000000p-3, 0x1.056c100000000p-7, -0x1.1d89fa0000000p-4, 0x1.7a95960000000p-4, -0x1.0b10f80000000p-3, -0x1.4a448e0000000p-3, -0x1.373b360000000p-4}
, {-0x1.560cb20000000p-3, -0x1.8797140000000p-3, -0x1.382b680000000p-6, -0x1.1c5e380000000p-3, -0x1.be44580000000p-4, 0x1.2ef3ee0000000p-8, -0x1.54721e0000000p-3, -0x1.cd8bd40000000p-3}
, {0x1.144c400000000p-5, -0x1.0917c80000000p-3, -0x1.29a0300000000p-5, 0x1.c4f4100000000p-4, -0x1.9814f60000000p-4, 0x1.35ea140000000p-6, -0x1.eaf79c0000000p-6, 0x1.e0a7c80000000p-6}
, {0x1.4088a60000000p-4, -0x1.8fd5140000000p-4, -0x1.94bd1a0000000p-3, 0x1.822ee60000000p-5, 0x1.8f10560000000p-4, -0x1.e485e60000000p-4, -0x1.399f600000000p-3, -0x1.1af84a0000000p-3}
, {-0x1.3fe6fa0000000p-4, -0x1.38d1be0000000p-4, -0x1.dd43060000000p-3, 0x1.4c32460000000p-4, -0x1.63462a0000000p-6, -0x1.2c19cc0000000p-6, -0x1.745d740000000p-3, -0x1.697d880000000p-5}
, {-0x1.edfed60000000p-3, -0x1.21edb80000000p-5, -0x1.651ce20000000p-3, 0x1.b497140000000p-6, -0x1.a880f20000000p-3, -0x1.c2fdfa0000000p-3, 0x1.a421ca0000000p-4, -0x1.4540c40000000p-4}
, {-0x1.262c060000000p-3, -0x1.4e4f6e0000000p-3, -0x1.a739860000000p-3, -0x1.dc1e380000000p-3, 0x1.f165b40000000p-8, -0x1.db08b20000000p-3, -0x1.b238b40000000p-3, -0x1.cb81980000000p-5}
}
, {{-0x1.bf5dc60000000p-5, -0x1.4b00b80000000p-4, 0x1.ce03be0000000p-5, -0x1.b603760000000p-4, -0x1.a3c77e0000000p-6, 0x1.458d540000000p-4, 0x1.89b2100000000p-3, 0x1.bd10a60000000p-4}
, {0x1.23c1da0000000p-3, -0x1.43ca220000000p-6, 0x1.133e180000000p-3, -0x1.51c7f60000000p-5, 0x1.5e282e0000000p-4, -0x1.2a90500000000p-5, -0x1.407b500000000p-6, 0x1.74ff6a0000000p-3}
, {-0x1.f228e20000000p-10, 0x1.7562180000000p-5, 0x1.a599ea0000000p-4, 0x1.02e2ee0000000p-6, -0x1.e8b7140000000p-4, -0x1.99afe00000000p-8, -0x1.d789940000000p-4, -0x1.232c280000000p-4}
, {-0x1.defcfa0000000p-5, 0x1.69dd300000000p-5, 0x1.b3bfa40000000p-6, 0x1.92a0580000000p-6, -0x1.8e9b980000000p-4, -0x1.932ecc0000000p-6, 0x1.b9818e0000000p-5, -0x1.0dd7180000000p-3}
, {0x1.3933320000000p-4, -0x1.05ccaa0000000p-3, 0x1.3d73660000000p-7, 0x1.263fc40000000p-6, 0x1.33a0260000000p-3, -0x1.984e780000000p-4, -0x1.d51e7c0000000p-3, 0x1.cf9e300000000p-4}
, {0x1.9270d20000000p-3, 0x1.1d4ea80000000p-3, -0x1.6e71620000000p-6, 0x1.2f2bce0000000p-4, -0x1.ac2c860000000p-5, -0x1.bbf3620000000p-5, 0x1.fc696a0000000p-6, 0x1.5f74c60000000p-4}
, {0x1.ea16280000000p-4, -0x1.06fc760000000p-4, 0x1.6cd6e00000000p-4, -0x1.05c57c0000000p-3, -0x1.75d8340000000p-5, 0x1.7722800000000p-4, -0x1.b86ac60000000p-7, 0x1.2cb4620000000p-4}
, {0x1.7fc8080000000p-4, 0x1.5a56b00000000p-4, -0x1.c952b40000000p-4, 0x1.94cbf60000000p-3, 0x1.82a29c0000000p-3, -0x1.3af4fa0000000p-3, -0x1.38dd840000000p-4, 0x1.934eac0000000p-5}
}
, {{0x1.35941e0000000p-5, 0x1.756a340000000p-5, 0x1.d83a100000000p-4, 0x1.0305dc0000000p-2, -0x1.b844f20000000p-6, 0x1.dd178a0000000p-3, 0x1.fe5dee0000000p-4, -0x1.aee51c0000000p-3}
, {0x1.4e28540000000p-3, -0x1.dabb520000000p-5, 0x1.00c0dc0000000p-4, -0x1.816e4e0000000p-6, 0x1.a5e09c0000000p-5, -0x1.6d7c680000000p-4, -0x1.0d285c0000000p-3, -0x1.84eb900000000p-4}
, {-0x1.9894600000000p-5, 0x1.0b9eaa0000000p-2, 0x1.620d1e0000000p-4, 0x1.263b280000000p-2, -0x1.1285fc0000000p-4, -0x1.2b9de60000000p-3, 0x1.7197400000000p-4, 0x1.96f1560000000p-3}
, {-0x1.81556c0000000p-4, -0x1.4b70b40000000p-4, 0x1.1b17600000000p-3, 0x1.600f000000000p-5, 0x1.209cce0000000p-4, 0x1.3599a80000000p-3, 0x1.a3aa080000000p-5, -0x1.b9b4240000000p-4}
, {0x1.0c23e80000000p-2, -0x1.922c540000000p-4, -0x1.1d08120000000p-4, -0x1.58b0b00000000p-3, -0x1.6958bc0000000p-5, -0x1.6adc240000000p-3, -0x1.27aeb20000000p-4, 0x1.2180280000000p-3}
, {0x1.6bacb20000000p-3, 0x1.f6541c0000000p-6, -0x1.62d0600000000p-4, 0x1.178a160000000p-4, 0x1.8a27940000000p-6, -0x1.d65d3c0000000p-7, 0x1.c164ec0000000p-7, -0x1.2393140000000p-3}
, {-0x1.e090000000000p-6, -0x1.90ed060000000p-4, 0x1.41875a0000000p-5, -0x1.f76bfe0000000p-4, 0x1.a9a7c60000000p-3, -0x1.bae32a0000000p-7, -0x1.8e5ca60000000p-3, -0x1.2c7e9c0000000p-7}
, {0x1.8ed5700000000p-3, 0x1.c971720000000p-6, 0x1.3841c00000000p-3, 0x1.3d4d700000000p-3, -0x1.bcefb00000000p-13, -0x1.7d77f20000000p-4, -0x1.d0d0d20000000p-5, -0x1.43567c0000000p-5}
}
, {{-0x1.f270ba0000000p-4, -0x1.7bddcc0000000p-4, -0x1.f8e04c0000000p-3, 0x1.6ee05a0000000p-4, -0x1.6341760000000p-4, -0x1.c320c20000000p-4, -0x1.37ffac0000000p-3, -0x1.74fffa0000000p-6}
, {-0x1.f0cf800000000p-3, 0x1.24f9b40000000p-5, 0x1.18c5400000000p-4, 0x1.f595480000000p-5, -0x1.ea73540000000p-5, -0x1.c5ab360000000p-4, -0x1.4862f40000000p-5, -0x1.2969060000000p-3}
, {-0x1.01e09a0000000p-5, 0x1.885a400000000p-6, -0x1.1d512c0000000p-4, -0x1.beedee0000000p-3, -0x1.6c85f80000000p-3, 0x1.20bfd40000000p-7, -0x1.1dff1e0000000p-4, 0x1.d229f00000000p-4}
, {0x1.91d3ce0000000p-5, 0x1.20406c0000000p-4, 0x1.60297a0000000p-4, -0x1.c276040000000p-6, 0x1.e2d26e0000000p-6, -0x1.ef2eb20000000p-4, -0x1.9e0eb20000000p-3, -0x1.d1b8280000000p-8}
, {0x1.21f0440000000p-6, 0x1.3db9100000000p-6, 0x1.7fcd160000000p-6, 0x1.65702c0000000p-4, 0x1.82b65a0000000p-4, -0x1.e581020000000p-7, 0x1.2b75ac0000000p-6, -0x1.878bb40000000p-3}
, {0x1.ed4ff60000000p-5, 0x1.8d1f740000000p-4, -0x1.25531c0000000p-3, -0x1.65b3680000000p-3, 0x1.0ed6280000000p-6, 0x1.3e54e60000000p-5, 0x1.226d0a0000000p-6, -0x1.62db280000000p-5}
, {-0x1.0416640000000p-4, -0x1.18ec3a0000000p-4, -0x1.dc10c80000000p-3, -0x1.b8fe6c0000000p-4, -0x1.074fc60000000p-2, -0x1.be49f00000000p-3, -0x1.7817d60000000p-3, 0x1.951bd40000000p-4}
, {-0x1.bd56b40000000p-3, 0x1.c14a700000000p-4, -0x1.bb6f100000000p-5, 0x1.5ca6840000000p-4, -0x1.646a420000000p-3, -0x1.c94af00000000p-4, 0x1.6b563a0000000p-4, 0x1.bf99e80000000p-6}
}
, {{0x1.c7e8260000000p-4, -0x1.5a6b7e0000000p-5, -0x1.fdc7d60000000p-8, 0x1.4d35980000000p-4, -0x1.1b37760000000p-4, -0x1.59a3f80000000p-3, -0x1.4b4cde0000000p-3, -0x1.fd2b400000000p-4}
, {-0x1.a010e20000000p-6, -0x1.2698520000000p-4, 0x1.9015440000000p-4, 0x1.233f440000000p-5, -0x1.60d6320000000p-4, 0x1.76f44e0000000p-4, 0x1.3f1d5e0000000p-5, 0x1.1e1dd00000000p-4}
, {0x1.3e51440000000p-4, 0x1.6335000000000p-3, 0x1.2b7f6e0000000p-2, 0x1.8c7f5a0000000p-6, -0x1.7941e20000000p-4, 0x1.7ee1160000000p-5, -0x1.1402380000000p-8, 0x1.60c6580000000p-3}
, {0x1.52f7cc0000000p-3, -0x1.2bd0fa0000000p-3, 0x1.6032420000000p-3, 0x1.a94d720000000p-4, 0x1.577d880000000p-5, -0x1.09e5180000000p-3, -0x1.7d90ac0000000p-4, -0x1.265a140000000p-4}
, {0x1.7a79140000000p-3, -0x1.22541c0000000p-6, 0x1.5e78620000000p-3, -0x1.ea37460000000p-6, 0x1.5747540000000p-3, 0x1.27a7680000000p-3, 0x1.9858160000000p-5, 0x1.add8da0000000p-4}
, {0x1.ac6fc00000000p-3, 0x1.4506b60000000p-3, 0x1.1207f80000000p-3, 0x1.d0e9c00000000p-6, 0x1.bb3c9a0000000p-4, 0x1.06345e0000000p-4, 0x1.e408e80000000p-4, 0x1.4f8c8a0000000p-3}
, {0x1.a26bee0000000p-3, 0x1.2af4ae0000000p-5, 0x1.2fddbe0000000p-5, 0x1.ee9a4c0000000p-4, 0x1.5bca020000000p-4, -0x1.47c3a80000000p-4, 0x1.ed28020000000p-6, -0x1.e70fe60000000p-4}
, {0x1.9f071c0000000p-3, 0x1.4518a80000000p-5, 0x1.da8b480000000p-3, -0x1.90c2180000000p-7, 0x1.820b5a0000000p-6, -0x1.356bbc0000000p-3, 0x1.cc77f80000000p-5, 0x1.2de7840000000p-3}
}
}
;

#undef INPUT_CHANNELS
#undef CONV_FILTERS
#undef CONV_KERNEL_SIZE
#undef CONV_GROUPS