/**
  ******************************************************************************
  * @file    weights/conv1d.cc
  * @author  Pierre-Emmanuel Novac <penovac@unice.fr>, LEAT, CNRS, Université Côte d'Azur, France
  * @version 1.0.0
  * @date    24 march 2020
  * @brief   Template generating plain C code for the implementation of Convolutional Neural Networks on MCU
  */

#include <stdint.h>

#define INPUT_CHANNELS    32
#define CONV_FILTERS      64
#define CONV_KERNEL_SIZE  2
#define CONV_GROUPS       1


const float  conv1d_52_bias[CONV_FILTERS] = {0x1.755bc00000000p-3, -0x1.94c6620000000p-6, 0x1.21d3dc0000000p-4, -0x1.9d26f20000000p-4, -0x1.201cf60000000p-7, -0x1.1441340000000p-7, -0x1.1ae1c80000000p-5, 0x1.6b388a0000000p-5, 0x1.c6ed500000000p-6, -0x1.c59c6c0000000p-4, -0x1.48964a0000000p-5, 0x1.a679780000000p-6, -0x1.194bca0000000p-4, 0x1.d793460000000p-5, 0x1.c526760000000p-5, -0x1.0b5c8a0000000p-4, 0x1.439e9a0000000p-4, 0x1.4cb44c0000000p-4, 0x1.54bd5a0000000p-5, 0x1.1dcff40000000p-5, 0x1.17a0b40000000p-4, -0x1.2c0fb20000000p-4, 0x1.eb6df00000000p-4, 0x1.031aa40000000p-3, -0x1.115f1c0000000p-4, 0x1.8d12180000000p-5, 0x1.1c25e00000000p-4, 0x1.0991380000000p-4, -0x1.80a9760000000p-7, -0x1.25e9080000000p-9, 0x1.88db880000000p-13, 0x1.34345e0000000p-5, 0x1.2486a40000000p-5, 0x1.597f640000000p-5, 0x1.abdd7a0000000p-4, 0x1.fdd2680000000p-4, 0x1.052eac0000000p-3, -0x1.c6ff6a0000000p-9, 0x1.9f9c640000000p-5, 0x1.e4c1880000000p-7, 0x1.265c1e0000000p-4, -0x1.6e70920000000p-5, 0x1.1d0b020000000p-4, 0x1.4990900000000p-3, 0x1.1047da0000000p-4, 0x1.0e79840000000p-4, 0x1.61416a0000000p-3, 0x1.15b76c0000000p-3, 0x1.27fada0000000p-5, 0x1.ab09f60000000p-4, 0x1.ab9c4c0000000p-3, 0x1.41f1de0000000p-3, 0x1.27806a0000000p-3, 0x1.da6f2e0000000p-9, 0x1.4f69740000000p-6, 0x1.19d32a0000000p-4, -0x1.f39e7a0000000p-7, -0x1.97e8ce0000000p-6, 0x1.a224c40000000p-9, -0x1.8c9f5e0000000p-5, 0x1.ebbbcc0000000p-4, -0x1.e8c3380000000p-6, -0x1.3f2f980000000p-12, -0x1.62e1aa0000000p-4}
;

const float  conv1d_52_kernel[CONV_FILTERS][CONV_KERNEL_SIZE][INPUT_CHANNELS / CONV_GROUPS] = {{{0x1.1808d00000000p-2, -0x1.6995d60000000p-4, -0x1.2257ec0000000p-4, 0x1.cfa7f00000000p-5, -0x1.1394620000000p-8, -0x1.2d19fa0000000p-4, 0x1.1cde480000000p-3, 0x1.9e34280000000p-3, -0x1.99317a0000000p-6, 0x1.de9a720000000p-4, 0x1.56c4140000000p-3, -0x1.a3eff80000000p-3, 0x1.4dbf860000000p-3, -0x1.b7d4fa0000000p-3, -0x1.41aa1a0000000p-3, -0x1.dc8fe20000000p-5, -0x1.529c8c0000000p-4, -0x1.68b4840000000p-3, -0x1.47c2a60000000p-3, 0x1.61ec600000000p-3, 0x1.c71d000000000p-3, 0x1.cb42ce0000000p-4, -0x1.7b88a60000000p-4, 0x1.54d46c0000000p-5, 0x1.af374e0000000p-4, 0x1.1ad6520000000p-3, -0x1.57a5580000000p-3, 0x1.22ae040000000p-3, 0x1.aaf2720000000p-7, 0x1.0f32f80000000p-3, -0x1.8c09e60000000p-7, 0x1.cdfc100000000p-5}
, {0x1.0fb6160000000p-3, -0x1.780d6c0000000p-4, 0x1.87244a0000000p-3, -0x1.a8568a0000000p-4, -0x1.71ab3e0000000p-3, 0x1.79b56a0000000p-5, 0x1.4d37fc0000000p-3, 0x1.5db3ac0000000p-4, 0x1.4ec5fc0000000p-3, -0x1.b1f53c0000000p-5, 0x1.338fee0000000p-5, 0x1.1930c60000000p-3, -0x1.b9e44c0000000p-5, -0x1.9802420000000p-5, -0x1.b57d5e0000000p-6, -0x1.65d9d80000000p-4, 0x1.7cd74a0000000p-6, 0x1.b7a0dc0000000p-4, -0x1.bc0b3a0000000p-4, -0x1.63370c0000000p-3, -0x1.88c9820000000p-5, -0x1.a089320000000p-4, -0x1.3bd5580000000p-9, 0x1.5f7b9e0000000p-8, -0x1.aa577c0000000p-4, 0x1.3e64940000000p-4, 0x1.5671e20000000p-3, -0x1.57566a0000000p-10, -0x1.65c3ea0000000p-3, -0x1.468c7e0000000p-3, 0x1.38c0920000000p-4, -0x1.6b246c0000000p-4}
}
, {{0x1.a28e320000000p-4, -0x1.e4fb460000000p-4, -0x1.e903260000000p-4, -0x1.b0b9640000000p-6, -0x1.c020a80000000p-6, -0x1.f40a220000000p-8, 0x1.1ab56c0000000p-4, 0x1.467eb80000000p-3, 0x1.3c8a020000000p-3, 0x1.44d8960000000p-3, 0x1.f70b720000000p-3, 0x1.0192ec0000000p-3, -0x1.d32a0c0000000p-4, 0x1.eb1a160000000p-3, -0x1.14e6460000000p-4, -0x1.4972f80000000p-6, 0x1.a5a0700000000p-3, 0x1.7e03720000000p-5, -0x1.4782f00000000p-6, -0x1.1e01920000000p-4, -0x1.b821e60000000p-5, -0x1.6a41020000000p-3, 0x1.f7b6060000000p-9, -0x1.e38b9e0000000p-4, -0x1.d2c6000000000p-5, 0x1.1cd58c0000000p-4, 0x1.17ed580000000p-9, 0x1.84ea440000000p-3, -0x1.2afe020000000p-4, 0x1.27e08e0000000p-4, 0x1.7a3d0c0000000p-3, 0x1.bcdec80000000p-4}
, {0x1.1553ec0000000p-8, 0x1.81de560000000p-3, 0x1.0293c80000000p-6, -0x1.8056de0000000p-4, 0x1.402e040000000p-4, -0x1.2bdeaa0000000p-4, 0x1.deb8aa0000000p-5, 0x1.a35e3a0000000p-6, -0x1.5b5f4c0000000p-3, 0x1.b4689e0000000p-5, 0x1.1875480000000p-2, -0x1.5298840000000p-4, 0x1.cb353e0000000p-4, 0x1.0a02460000000p-4, -0x1.252faa0000000p-6, -0x1.494cca0000000p-3, -0x1.ef69b80000000p-6, 0x1.7938560000000p-7, 0x1.b90b020000000p-4, -0x1.158a660000000p-4, 0x1.55e43a0000000p-4, -0x1.60175c0000000p-4, -0x1.03941c0000000p-3, 0x1.f158ce0000000p-4, -0x1.52a4360000000p-4, -0x1.681f2e0000000p-4, -0x1.04f4560000000p-3, -0x1.0f75520000000p-6, 0x1.4e5b440000000p-3, -0x1.6a761e0000000p-4, -0x1.f0b50c0000000p-9, -0x1.b6d27a0000000p-4}
}
, {{0x1.105af60000000p-2, 0x1.07c67a0000000p-3, 0x1.1d73ea0000000p-3, -0x1.9d76ba0000000p-5, 0x1.5554f60000000p-4, -0x1.2319d20000000p-3, 0x1.48650a0000000p-3, -0x1.458d8c0000000p-3, -0x1.b717c00000000p-3, 0x1.84ed500000000p-7, 0x1.c416320000000p-4, -0x1.b551d40000000p-4, -0x1.088db40000000p-3, -0x1.3d37280000000p-3, 0x1.e75d040000000p-4, -0x1.8fdf6a0000000p-3, 0x1.7b872e0000000p-3, 0x1.4714980000000p-4, 0x1.c3fc000000000p-4, -0x1.4d9a000000000p-8, 0x1.2b44a20000000p-5, 0x1.31bb4e0000000p-4, -0x1.02037a0000000p-3, -0x1.945ae00000000p-6, 0x1.5b25840000000p-3, -0x1.70918c0000000p-3, 0x1.907f5c0000000p-6, -0x1.75af520000000p-7, 0x1.3107640000000p-6, 0x1.ae86040000000p-6, 0x1.0ebeea0000000p-3, -0x1.9a95980000000p-3}
, {0x1.04bc700000000p-3, -0x1.67aaa60000000p-4, 0x1.e709800000000p-5, -0x1.6e12720000000p-6, -0x1.3c3e6c0000000p-4, 0x1.aac3e60000000p-5, 0x1.1082900000000p-3, -0x1.bd09980000000p-5, 0x1.3b5ece0000000p-3, 0x1.b3fce20000000p-4, -0x1.15469a0000000p-3, 0x1.2e8a4a0000000p-3, -0x1.b5ef420000000p-5, -0x1.02c8ee0000000p-4, -0x1.4a1f380000000p-4, 0x1.9523440000000p-4, 0x1.0dbef80000000p-6, -0x1.9fe6520000000p-3, -0x1.8f151e0000000p-6, -0x1.e0fd480000000p-5, 0x1.d5afcc0000000p-4, 0x1.8809180000000p-4, 0x1.db917c0000000p-4, -0x1.ab29b40000000p-3, -0x1.05dd060000000p-3, -0x1.6a303e0000000p-4, 0x1.b83c320000000p-3, 0x1.b25b1a0000000p-5, -0x1.1037220000000p-3, 0x1.6c45b20000000p-3, -0x1.6939cc0000000p-3, -0x1.ebdf1a0000000p-4}
}
, {{0x1.10d46c0000000p-4, 0x1.97f9820000000p-5, 0x1.7424b80000000p-5, -0x1.e67ea40000000p-6, 0x1.d51a860000000p-3, -0x1.e707a00000000p-5, -0x1.55e6c40000000p-5, 0x1.57f3d00000000p-4, 0x1.9f96c00000000p-4, -0x1.31ba760000000p-4, -0x1.08ff180000000p-6, -0x1.2f752a0000000p-3, -0x1.3b33e40000000p-6, 0x1.6874b40000000p-3, 0x1.5ba1980000000p-7, -0x1.8e1da40000000p-5, -0x1.1f8bce0000000p-3, 0x1.f22a240000000p-4, -0x1.6f59020000000p-4, 0x1.63b9dc0000000p-4, 0x1.61aa820000000p-5, -0x1.cba5000000000p-4, -0x1.6413840000000p-3, 0x1.d3c2860000000p-7, 0x1.ef2b900000000p-5, 0x1.7924680000000p-6, 0x1.badd9c0000000p-4, 0x1.805bca0000000p-4, 0x1.0e67700000000p-6, 0x1.3515500000000p-3, -0x1.b698a00000000p-4, 0x1.6879e00000000p-5}
, {0x1.bffa140000000p-6, 0x1.3bdce80000000p-3, 0x1.7611fa0000000p-8, 0x1.cb4c100000000p-3, 0x1.f0bb0c0000000p-4, 0x1.8599520000000p-3, 0x1.ba32380000000p-3, -0x1.924bba0000000p-6, -0x1.1011c20000000p-3, -0x1.5a02880000000p-3, 0x1.88c1180000000p-7, 0x1.45c0500000000p-4, 0x1.e96f1c0000000p-7, 0x1.34f3760000000p-3, 0x1.4c2faa0000000p-4, 0x1.043fa00000000p-4, -0x1.3f7a280000000p-4, -0x1.26c1120000000p-3, -0x1.7c75a60000000p-6, -0x1.6228ac0000000p-3, 0x1.cd05d60000000p-4, 0x1.7078840000000p-3, -0x1.1191580000000p-4, 0x1.707e020000000p-8, 0x1.7bdc000000000p-5, -0x1.5a63060000000p-3, 0x1.147b7c0000000p-3, 0x1.a3cd0a0000000p-7, -0x1.69c03e0000000p-3, -0x1.3ec0d80000000p-5, -0x1.4640ec0000000p-6, -0x1.2891ac0000000p-3}
}
, {{-0x1.0209300000000p-3, 0x1.3c38240000000p-5, 0x1.7c22420000000p-4, -0x1.0ac3260000000p-7, 0x1.1fe7e40000000p-3, 0x1.59f2520000000p-5, 0x1.4eb5ac0000000p-3, 0x1.7fbad00000000p-4, 0x1.68533e0000000p-4, 0x1.7584620000000p-3, 0x1.3bdc040000000p-4, 0x1.e21aa00000000p-4, 0x1.02cbfa0000000p-3, -0x1.47118a0000000p-4, -0x1.fce23a0000000p-6, 0x1.18fe6a0000000p-8, -0x1.6d50680000000p-3, -0x1.749cc40000000p-5, -0x1.b312800000000p-4, 0x1.97406e0000000p-4, 0x1.cba4400000000p-5, 0x1.a831460000000p-4, 0x1.1f6ea00000000p-3, 0x1.2c70540000000p-3, -0x1.06e1fe0000000p-3, 0x1.8d4f2e0000000p-6, -0x1.81e7280000000p-3, -0x1.74632a0000000p-3, 0x1.2ee52e0000000p-3, -0x1.9fb3220000000p-4, 0x1.273d200000000p-4, 0x1.c1d4160000000p-4}
, {-0x1.80f4100000000p-6, -0x1.66dcc00000000p-7, -0x1.69c46a0000000p-4, -0x1.0333d40000000p-3, 0x1.418a560000000p-3, -0x1.98b8880000000p-6, -0x1.19383a0000000p-4, -0x1.b7ec720000000p-4, 0x1.8c93e60000000p-6, -0x1.e036fc0000000p-5, 0x1.9fbcd40000000p-5, -0x1.292cd20000000p-3, -0x1.6db3ae0000000p-6, 0x1.f97e6e0000000p-4, -0x1.6733540000000p-3, -0x1.4af6980000000p-4, 0x1.b6838c0000000p-4, 0x1.679c9e0000000p-3, -0x1.42305c0000000p-3, 0x1.49dd700000000p-4, 0x1.52c2ac0000000p-3, -0x1.e110d20000000p-4, 0x1.01517c0000000p-5, 0x1.b880120000000p-4, 0x1.7bc4cc0000000p-5, 0x1.6ac6840000000p-5, -0x1.71c46c0000000p-3, 0x1.248fc20000000p-4, -0x1.3792120000000p-3, 0x1.3410a20000000p-6, -0x1.cc32500000000p-6, 0x1.348c580000000p-5}
}
, {{-0x1.fa73680000000p-4, 0x1.420e4a0000000p-3, 0x1.ba58640000000p-4, -0x1.b7365a0000000p-3, 0x1.5f6a5e0000000p-3, 0x1.1281280000000p-7, 0x1.a0422a0000000p-4, 0x1.ee38620000000p-4, -0x1.bc68d80000000p-6, -0x1.4e670a0000000p-3, -0x1.53b2f00000000p-5, -0x1.ee7bc60000000p-4, 0x1.93a3820000000p-3, -0x1.6217f80000000p-4, -0x1.dfeae20000000p-6, 0x1.3a23720000000p-3, 0x1.01b9b20000000p-5, 0x1.0953380000000p-4, -0x1.4eae800000000p-7, -0x1.261db00000000p-8, -0x1.ca77c20000000p-4, 0x1.0318ac0000000p-3, -0x1.0a91780000000p-4, 0x1.15589e0000000p-3, -0x1.c0be3a0000000p-4, 0x1.6d39680000000p-4, 0x1.5b367e0000000p-3, -0x1.4ece4a0000000p-6, -0x1.15ec0c0000000p-3, -0x1.06b7520000000p-4, -0x1.e31fe20000000p-5, 0x1.4949d60000000p-7}
, {-0x1.49ee9c0000000p-3, 0x1.bbaa6c0000000p-5, 0x1.efd2620000000p-5, 0x1.64e25e0000000p-7, -0x1.c826180000000p-4, 0x1.7cb8d60000000p-4, 0x1.2d631e0000000p-3, -0x1.4beee20000000p-3, 0x1.41b7ce0000000p-3, -0x1.377d360000000p-3, 0x1.9981080000000p-5, -0x1.999b320000000p-7, 0x1.585f0a0000000p-7, 0x1.0bd5d20000000p-3, -0x1.c206f20000000p-4, -0x1.028f400000000p-3, 0x1.243fd80000000p-4, -0x1.8e8dc60000000p-4, -0x1.c52fe80000000p-5, -0x1.e89b920000000p-5, -0x1.ab4a160000000p-4, 0x1.22cbc20000000p-4, 0x1.4eb0200000000p-7, 0x1.c3834a0000000p-5, 0x1.ae30600000000p-4, 0x1.f801460000000p-4, -0x1.e3da680000000p-8, 0x1.40faa60000000p-3, 0x1.3eeaca0000000p-6, 0x1.efbc600000000p-5, 0x1.9b7fe20000000p-5, 0x1.1a632c0000000p-3}
}
, {{-0x1.6eeeee0000000p-5, 0x1.063a720000000p-3, 0x1.df33d40000000p-6, 0x1.029cfe0000000p-3, -0x1.87fb7a0000000p-4, -0x1.116c0a0000000p-4, 0x1.1c25ec0000000p-9, -0x1.3a5bbe0000000p-3, -0x1.8add260000000p-3, 0x1.83d7860000000p-4, 0x1.37161c0000000p-3, -0x1.001b2c0000000p-4, 0x1.f6fe920000000p-5, 0x1.10a1240000000p-5, -0x1.7e252a0000000p-6, -0x1.4bf04a0000000p-6, -0x1.dd3aec0000000p-4, 0x1.34aa960000000p-3, -0x1.7e79f00000000p-4, -0x1.905c220000000p-3, -0x1.13eac60000000p-5, -0x1.279c060000000p-4, 0x1.5cafb60000000p-4, 0x1.dacf780000000p-8, -0x1.484a920000000p-3, -0x1.1509360000000p-4, -0x1.58b11c0000000p-3, 0x1.516bfc0000000p-3, 0x1.8879960000000p-6, 0x1.e23f000000000p-4, 0x1.c0579e0000000p-4, 0x1.38deec0000000p-4}
, {0x1.1a202c0000000p-3, 0x1.fe98d60000000p-4, 0x1.fb4c920000000p-4, 0x1.12b8820000000p-7, 0x1.c745900000000p-4, 0x1.1a60ae0000000p-4, -0x1.50f8ac0000000p-3, -0x1.bb530a0000000p-4, 0x1.95537c0000000p-4, 0x1.2f2f280000000p-3, 0x1.a92eb20000000p-4, -0x1.94a7d80000000p-3, -0x1.ced2ac0000000p-5, 0x1.61abb00000000p-5, -0x1.37d6b00000000p-3, 0x1.3db3c80000000p-3, -0x1.21a0960000000p-6, 0x1.294d3c0000000p-3, -0x1.2849ce0000000p-6, -0x1.411db00000000p-4, -0x1.558e320000000p-6, 0x1.ad2e900000000p-4, -0x1.77562a0000000p-6, 0x1.3a37800000000p-4, -0x1.2d073a0000000p-4, 0x1.25450a0000000p-6, 0x1.e35eea0000000p-7, 0x1.63fe220000000p-3, -0x1.88aef00000000p-4, -0x1.ad575e0000000p-6, 0x1.0359ca0000000p-3, -0x1.2117620000000p-5}
}
, {{0x1.17de8c0000000p-3, -0x1.256ec80000000p-3, -0x1.3271220000000p-4, 0x1.58b80e0000000p-3, -0x1.2854ca0000000p-5, 0x1.1904080000000p-7, -0x1.f822480000000p-4, -0x1.523e740000000p-3, 0x1.6167240000000p-3, -0x1.7852340000000p-5, -0x1.26cf140000000p-3, -0x1.0546640000000p-4, 0x1.323a920000000p-3, 0x1.205f2c0000000p-3, 0x1.1e49e80000000p-6, 0x1.c71fc40000000p-5, 0x1.68bfb00000000p-3, 0x1.464dd20000000p-4, 0x1.6bc3300000000p-4, -0x1.d44c4e0000000p-4, 0x1.9e9f9c0000000p-7, 0x1.cc8a080000000p-4, -0x1.7fd3580000000p-6, 0x1.7cfb540000000p-5, -0x1.fbe3620000000p-6, -0x1.4fbd8e0000000p-3, 0x1.8f232c0000000p-3, -0x1.bd6d0c0000000p-5, -0x1.46779e0000000p-3, -0x1.6704940000000p-3, 0x1.49e8620000000p-5, 0x1.d239280000000p-6}
, {0x1.dc10c60000000p-4, -0x1.397c9e0000000p-3, 0x1.fed2500000000p-4, 0x1.25f5060000000p-3, 0x1.f3bac20000000p-4, 0x1.5f71480000000p-3, -0x1.28408a0000000p-3, -0x1.1b12200000000p-3, -0x1.3deb980000000p-7, -0x1.fe217a0000000p-4, -0x1.0318060000000p-4, 0x1.2d62c80000000p-3, -0x1.1d3f460000000p-5, -0x1.4723000000000p-4, 0x1.024a540000000p-4, 0x1.507bc60000000p-4, -0x1.397e520000000p-4, -0x1.f42ef80000000p-5, -0x1.6509320000000p-4, 0x1.eab18a0000000p-3, 0x1.9215480000000p-3, 0x1.24b6a00000000p-4, -0x1.6665f20000000p-3, -0x1.2a16460000000p-3, -0x1.d1add60000000p-4, 0x1.8fc4020000000p-8, 0x1.c224440000000p-6, -0x1.c41bbc0000000p-5, 0x1.3b59f80000000p-8, -0x1.4be8160000000p-3, 0x1.eb741c0000000p-5, 0x1.fa7d280000000p-4}
}
, {{-0x1.a1ade20000000p-4, 0x1.67e4380000000p-5, -0x1.588b520000000p-3, 0x1.4acb960000000p-4, -0x1.2a5cea0000000p-6, 0x1.39e8540000000p-3, -0x1.6300160000000p-3, 0x1.1a02060000000p-6, -0x1.39ac340000000p-4, -0x1.4df5ee0000000p-5, -0x1.b74d620000000p-4, -0x1.22d4d60000000p-3, -0x1.d870360000000p-6, -0x1.38dad00000000p-3, 0x1.c4bb100000000p-4, -0x1.38acf00000000p-3, 0x1.67d4340000000p-3, -0x1.4b964e0000000p-3, -0x1.0b9f0e0000000p-3, 0x1.b7a98c0000000p-4, -0x1.2575aa0000000p-5, -0x1.5c52420000000p-3, -0x1.2a5b640000000p-3, -0x1.8202c20000000p-5, 0x1.707fac0000000p-6, -0x1.3249780000000p-6, -0x1.88aae80000000p-4, 0x1.20f65a0000000p-3, -0x1.4340ba0000000p-6, 0x1.5fb6b00000000p-5, -0x1.10c4f20000000p-4, -0x1.a58f220000000p-4}
, {0x1.1639c20000000p-2, -0x1.056c7a0000000p-4, -0x1.9163c00000000p-5, -0x1.17a5340000000p-3, 0x1.c4f7ce0000000p-4, -0x1.20ffba0000000p-3, 0x1.2935ca0000000p-3, -0x1.8583980000000p-4, 0x1.235c160000000p-3, 0x1.25221a0000000p-5, -0x1.4565fa0000000p-4, -0x1.8ad2020000000p-4, 0x1.e97ed60000000p-4, -0x1.5a79160000000p-3, 0x1.800b520000000p-3, -0x1.5fbaee0000000p-9, 0x1.1c92a20000000p-6, 0x1.3ef2080000000p-3, 0x1.00b8480000000p-3, -0x1.2c695c0000000p-3, 0x1.924d320000000p-6, 0x1.581af20000000p-6, -0x1.4fe51c0000000p-3, 0x1.41ceb20000000p-3, -0x1.48b6380000000p-3, 0x1.ef7bf60000000p-5, 0x1.c3065e0000000p-4, 0x1.9acc8c0000000p-5, 0x1.60931c0000000p-4, 0x1.687a240000000p-5, -0x1.627aa20000000p-3, 0x1.a8fcdc0000000p-3}
}
, {{0x1.fc9e680000000p-4, 0x1.6bcbe60000000p-3, 0x1.49e9880000000p-4, -0x1.345e3e0000000p-6, -0x1.4421b20000000p-8, -0x1.7749980000000p-3, 0x1.3a93ce0000000p-3, -0x1.a8a1980000000p-3, -0x1.1516100000000p-4, 0x1.e670d00000000p-4, 0x1.52f6380000000p-11, 0x1.ad1fea0000000p-5, 0x1.7e3a540000000p-5, 0x1.cf58800000000p-4, 0x1.2d3e180000000p-4, 0x1.55d3b00000000p-3, -0x1.3ee3120000000p-3, -0x1.93ee9e0000000p-6, -0x1.2d5bae0000000p-3, -0x1.53be180000000p-3, -0x1.6ab8ce0000000p-4, 0x1.043ba40000000p-3, 0x1.b4460a0000000p-4, 0x1.93e49c0000000p-5, 0x1.f3b0c40000000p-7, 0x1.c1274e0000000p-4, -0x1.1e8af40000000p-3, 0x1.b3597c0000000p-4, -0x1.9131780000000p-4, 0x1.5291920000000p-4, -0x1.6f4bb60000000p-3, -0x1.4ca2ae0000000p-3}
, {0x1.284b060000000p-5, 0x1.f950fa0000000p-5, 0x1.3c0f8a0000000p-3, 0x1.c9eb700000000p-12, 0x1.3d79980000000p-6, 0x1.009eb00000000p-3, -0x1.c6e5040000000p-5, -0x1.3b2fe60000000p-6, 0x1.3c69440000000p-5, 0x1.3d49bc0000000p-5, 0x1.0627f80000000p-3, -0x1.198b900000000p-3, 0x1.244cf00000000p-3, 0x1.7671260000000p-3, -0x1.f553da0000000p-4, 0x1.2ebf220000000p-3, 0x1.30e2fe0000000p-3, 0x1.809ca60000000p-4, -0x1.8edacc0000000p-6, -0x1.09c7b80000000p-5, 0x1.1e5c980000000p-3, 0x1.8289a00000000p-4, 0x1.f64db20000000p-5, -0x1.23dd3a0000000p-6, -0x1.10180e0000000p-3, -0x1.b436a80000000p-4, -0x1.10cf800000000p-5, 0x1.093ba60000000p-8, 0x1.40fd920000000p-3, 0x1.d474840000000p-4, -0x1.78b58e0000000p-7, 0x1.a389720000000p-3}
}
, {{-0x1.2d4b760000000p-5, 0x1.25d7f60000000p-3, -0x1.538b560000000p-3, -0x1.7f1e8a0000000p-4, -0x1.4263800000000p-4, 0x1.09e7f20000000p-4, 0x1.88123e0000000p-6, -0x1.4bf14e0000000p-4, -0x1.6ef3960000000p-2, -0x1.55c8ae0000000p-7, 0x1.1752560000000p-2, 0x1.0afce60000000p-2, 0x1.c0ffd80000000p-4, -0x1.4020b00000000p-3, 0x1.b78eca0000000p-3, 0x1.6ffa460000000p-5, -0x1.bc5eec0000000p-6, 0x1.f8d4a40000000p-6, 0x1.8380cc0000000p-5, -0x1.121cce0000000p-3, -0x1.bd03620000000p-4, -0x1.e9ee400000000p-5, 0x1.8d4b380000000p-4, 0x1.6e4d500000000p-4, -0x1.6d3bbc0000000p-4, 0x1.193b500000000p-4, 0x1.d1dc020000000p-3, -0x1.a855220000000p-3, 0x1.94adce0000000p-5, -0x1.0f625c0000000p-4, 0x1.7ff4060000000p-6, -0x1.3474800000000p-6}
, {-0x1.db5c520000000p-4, 0x1.198dba0000000p-4, -0x1.a83cfe0000000p-3, -0x1.1e99340000000p-3, 0x1.99d9e80000000p-3, 0x1.59a3e00000000p-4, -0x1.beb8ba0000000p-6, -0x1.1b89d60000000p-3, -0x1.c745ce0000000p-3, 0x1.9b35580000000p-4, -0x1.6c486e0000000p-9, -0x1.70ef0c0000000p-4, 0x1.12f8140000000p-5, 0x1.85d0cc0000000p-4, -0x1.06631a0000000p-3, -0x1.bae7f00000000p-7, 0x1.28f6cc0000000p-4, 0x1.a83f0a0000000p-4, 0x1.0d24a00000000p-6, -0x1.0b66240000000p-4, 0x1.1733fa0000000p-8, -0x1.2838820000000p-3, -0x1.6597c80000000p-3, 0x1.4067ee0000000p-3, -0x1.b71e4c0000000p-4, -0x1.3d52060000000p-6, 0x1.ae95160000000p-3, 0x1.be79d40000000p-4, 0x1.cd99f60000000p-3, 0x1.8c54280000000p-10, 0x1.aa22880000000p-6, -0x1.3db3aa0000000p-3}
}
, {{-0x1.fac0020000000p-7, -0x1.07ea9e0000000p-4, -0x1.be89f00000000p-5, -0x1.34861e0000000p-4, -0x1.fcd7e40000000p-3, -0x1.4db54a0000000p-3, -0x1.1e829a0000000p-4, 0x1.50cc300000000p-3, -0x1.f74da80000000p-4, -0x1.3fefce0000000p-5, 0x1.8f120c0000000p-4, 0x1.e2c8660000000p-3, 0x1.26fffa0000000p-3, -0x1.c333ee0000000p-4, 0x1.2996b80000000p-3, 0x1.0f22260000000p-3, 0x1.4181ce0000000p-3, 0x1.5067960000000p-5, -0x1.6df25a0000000p-8, -0x1.613d0e0000000p-3, -0x1.5d72680000000p-3, -0x1.d9c6ea0000000p-3, -0x1.0b3ba40000000p-4, 0x1.4acebe0000000p-4, 0x1.15de3e0000000p-6, 0x1.3e6cf20000000p-4, 0x1.3d785e0000000p-3, -0x1.9dd3f80000000p-3, 0x1.e034220000000p-4, 0x1.1cf45c0000000p-4, 0x1.e310260000000p-14, 0x1.951e020000000p-4}
, {0x1.63be340000000p-5, -0x1.8b7cc40000000p-3, 0x1.3fc3d40000000p-4, 0x1.9d6ac20000000p-4, -0x1.ebaaa20000000p-4, 0x1.92420e0000000p-4, -0x1.eae20e0000000p-7, -0x1.ad70be0000000p-6, -0x1.7daa7c0000000p-3, 0x1.5112de0000000p-4, -0x1.9800f00000000p-3, -0x1.3ce28c0000000p-4, -0x1.104b4e0000000p-4, -0x1.4c3a9a0000000p-4, 0x1.a8760e0000000p-4, 0x1.1e69f40000000p-3, 0x1.39768c0000000p-3, 0x1.7d02360000000p-3, -0x1.e4101c0000000p-4, -0x1.0fae9e0000000p-6, -0x1.5b3ff20000000p-7, 0x1.4ca15c0000000p-6, -0x1.65343c0000000p-5, 0x1.3b37280000000p-6, 0x1.778e020000000p-3, -0x1.5392ee0000000p-3, -0x1.9c9f780000000p-4, 0x1.b574b60000000p-5, 0x1.b406620000000p-5, 0x1.f1d0320000000p-10, 0x1.1f43da0000000p-4, -0x1.0b51860000000p-6}
}
, {{0x1.20fc720000000p-4, 0x1.4308e80000000p-3, -0x1.73e41e0000000p-3, 0x1.50d4c20000000p-6, -0x1.1405000000000p-3, 0x1.1fc9fe0000000p-4, 0x1.2316680000000p-5, -0x1.5dd4100000000p-4, -0x1.a725260000000p-4, 0x1.638bea0000000p-4, 0x1.fbfb1a0000000p-3, 0x1.18153e0000000p-4, 0x1.73f1be0000000p-4, -0x1.791ca00000000p-7, 0x1.6a66960000000p-3, -0x1.5a8bc80000000p-5, 0x1.17e55c0000000p-3, -0x1.9acecc0000000p-4, 0x1.92c6fa0000000p-3, -0x1.191e140000000p-5, 0x1.56f6900000000p-4, 0x1.efe14e0000000p-4, -0x1.83f74c0000000p-3, -0x1.864f4e0000000p-3, 0x1.c7ac6a0000000p-5, 0x1.21a7ca0000000p-4, 0x1.04d24e0000000p-6, -0x1.3c26700000000p-4, -0x1.9f4db20000000p-4, 0x1.526a840000000p-5, -0x1.1517960000000p-4, -0x1.cd21f20000000p-4}
, {0x1.6469980000000p-4, 0x1.60b4c80000000p-4, 0x1.6905720000000p-5, 0x1.12259c0000000p-3, -0x1.18f2000000000p-4, 0x1.5c17860000000p-3, -0x1.4fd7fe0000000p-7, 0x1.0d2adc0000000p-6, -0x1.e802be0000000p-5, 0x1.ebe2f20000000p-5, 0x1.7086a80000000p-2, -0x1.75eb4c0000000p-3, 0x1.4f4a140000000p-3, 0x1.0d702a0000000p-3, 0x1.9947580000000p-3, 0x1.25146e0000000p-3, -0x1.3f5da40000000p-6, -0x1.8cc6260000000p-4, 0x1.fd01ec0000000p-6, -0x1.a8bdfa0000000p-4, -0x1.12997a0000000p-4, 0x1.6520d60000000p-3, -0x1.56eb720000000p-4, 0x1.40f3c40000000p-3, 0x1.4f61f20000000p-8, -0x1.66bc080000000p-4, 0x1.2edb280000000p-3, 0x1.9434480000000p-7, -0x1.24ec7e0000000p-3, -0x1.6398200000000p-8, -0x1.39ecf40000000p-5, -0x1.14c71c0000000p-8}
}
, {{0x1.c25bd80000000p-5, 0x1.499ae40000000p-7, 0x1.859bbc0000000p-3, 0x1.c30d240000000p-5, -0x1.0248f80000000p-4, 0x1.0855c60000000p-7, -0x1.e437ea0000000p-5, -0x1.59054e0000000p-4, 0x1.41b6200000000p-4, -0x1.91a0c60000000p-4, 0x1.3d3ed40000000p-3, 0x1.4097ac0000000p-3, -0x1.6793b00000000p-3, -0x1.f2b4b40000000p-5, 0x1.5703c00000000p-6, 0x1.1e58b00000000p-5, 0x1.e6295c0000000p-4, 0x1.a08abc0000000p-3, -0x1.2eb10c0000000p-3, 0x1.2a00840000000p-5, 0x1.1487080000000p-4, -0x1.6c43cc0000000p-3, -0x1.d7668e0000000p-5, 0x1.639f040000000p-4, -0x1.b351480000000p-6, -0x1.0ab6840000000p-5, 0x1.4fe51a0000000p-4, 0x1.8cb5a80000000p-5, 0x1.2cdc580000000p-5, -0x1.9769220000000p-3, 0x1.6563940000000p-4, 0x1.f07e0a0000000p-4}
, {-0x1.96b7880000000p-4, -0x1.9bc8120000000p-3, 0x1.0a9e1c0000000p-4, -0x1.8394700000000p-3, -0x1.98dbe80000000p-9, -0x1.6fa6e80000000p-3, -0x1.3f377a0000000p-5, 0x1.1e32840000000p-3, 0x1.dff7180000000p-5, 0x1.e672640000000p-6, 0x1.54ec220000000p-3, 0x1.39ecfc0000000p-3, -0x1.9c5d0c0000000p-3, 0x1.93fed40000000p-7, 0x1.52c9c80000000p-3, 0x1.caf54e0000000p-3, 0x1.0fd6360000000p-4, 0x1.2f40e20000000p-4, 0x1.5627e40000000p-3, -0x1.5218de0000000p-5, -0x1.0835ac0000000p-4, -0x1.42cb740000000p-3, -0x1.b179200000000p-3, 0x1.a5f9b60000000p-4, 0x1.b32b1a0000000p-4, 0x1.19a8540000000p-3, 0x1.1a98060000000p-4, -0x1.11e0d80000000p-4, 0x1.464f100000000p-4, -0x1.68531e0000000p-4, 0x1.72ff9c0000000p-5, -0x1.84a75c0000000p-4}
}
, {{-0x1.93f9ce0000000p-3, 0x1.33b49a0000000p-4, -0x1.91e8a20000000p-4, -0x1.5652a20000000p-4, 0x1.9949400000000p-3, 0x1.296e6e0000000p-3, 0x1.9376e80000000p-5, 0x1.72caf80000000p-5, -0x1.0cff0e0000000p-4, -0x1.6b38ba0000000p-4, -0x1.176aec0000000p-5, 0x1.2236360000000p-3, -0x1.350c380000000p-3, 0x1.8075620000000p-10, -0x1.7cfdc40000000p-10, -0x1.dfb0f40000000p-5, -0x1.17ca340000000p-4, -0x1.d113c40000000p-5, 0x1.8a08800000000p-3, -0x1.1aa3340000000p-5, -0x1.f3764e0000000p-4, 0x1.813c020000000p-7, 0x1.b00f7c0000000p-3, -0x1.17f7180000000p-4, 0x1.4a3d240000000p-4, 0x1.1266780000000p-4, -0x1.3e6a100000000p-4, 0x1.a131320000000p-3, 0x1.96d2f40000000p-4, -0x1.d6d6be0000000p-4, 0x1.1e709e0000000p-3, 0x1.1165fa0000000p-4}
, {0x1.787d200000000p-3, 0x1.e0bd1a0000000p-4, 0x1.c777c40000000p-4, 0x1.2e7a020000000p-3, -0x1.b72bd40000000p-4, 0x1.959dca0000000p-7, -0x1.5738640000000p-3, -0x1.0ba4560000000p-6, -0x1.2f7fd60000000p-4, 0x1.14b2a60000000p-5, 0x1.fd92d80000000p-5, -0x1.6aca4e0000000p-8, -0x1.8b449a0000000p-4, 0x1.f793e00000000p-4, -0x1.7e6e240000000p-4, 0x1.9b0db20000000p-5, 0x1.5b424e0000000p-3, -0x1.11cdee0000000p-4, -0x1.9208c00000000p-3, -0x1.47b3660000000p-5, 0x1.2e08640000000p-3, -0x1.76a2fa0000000p-3, 0x1.4754420000000p-4, -0x1.c9be1e0000000p-4, -0x1.11909c0000000p-5, -0x1.48c9200000000p-4, -0x1.26bae20000000p-3, -0x1.1b13640000000p-4, 0x1.c72ba20000000p-6, 0x1.2aee260000000p-3, -0x1.809b8a0000000p-7, 0x1.3f8b980000000p-8}
}
, {{-0x1.2bf5220000000p-3, 0x1.e22e260000000p-4, -0x1.0b19dc0000000p-5, 0x1.89b9420000000p-3, -0x1.6bf5c40000000p-7, 0x1.8519a80000000p-3, 0x1.8bda660000000p-4, -0x1.258dda0000000p-4, 0x1.11cce80000000p-4, 0x1.3f2cb80000000p-3, 0x1.4efbfc0000000p-5, 0x1.329d4e0000000p-3, -0x1.e540760000000p-4, 0x1.a3933a0000000p-4, 0x1.7915ce0000000p-6, 0x1.82d2b40000000p-4, -0x1.5c87dc0000000p-3, -0x1.3b32ca0000000p-5, 0x1.df15bc0000000p-5, 0x1.4471fe0000000p-5, 0x1.5ed4680000000p-7, 0x1.8e95fc0000000p-7, 0x1.cb1a1c0000000p-4, 0x1.601d400000000p-5, 0x1.ec3da80000000p-5, -0x1.21a6aa0000000p-3, -0x1.0acb0c0000000p-3, -0x1.201b840000000p-6, 0x1.99f1960000000p-4, 0x1.8166220000000p-5, -0x1.c76ffa0000000p-6, 0x1.23e0480000000p-3}
, {-0x1.345e240000000p-5, -0x1.3f83f80000000p-5, -0x1.55444e0000000p-3, 0x1.09604a0000000p-3, 0x1.6e008e0000000p-4, 0x1.ffaf140000000p-4, -0x1.629bcc0000000p-4, -0x1.69a6b00000000p-5, 0x1.d8f6460000000p-6, 0x1.6c9ebc0000000p-3, 0x1.6d54a80000000p-5, 0x1.71d9560000000p-5, -0x1.e02ac80000000p-4, 0x1.57ae2c0000000p-3, -0x1.d99a1c0000000p-5, -0x1.79de540000000p-3, -0x1.149b760000000p-5, -0x1.7667040000000p-4, 0x1.05790c0000000p-5, 0x1.b4f2100000000p-4, 0x1.16e38e0000000p-4, 0x1.3112400000000p-3, 0x1.a63f440000000p-3, -0x1.6682740000000p-3, -0x1.9c3d0c0000000p-3, 0x1.3ad6600000000p-7, 0x1.17176a0000000p-5, 0x1.b9900a0000000p-6, 0x1.91cf620000000p-5, 0x1.23e7f40000000p-3, 0x1.7d691c0000000p-4, 0x1.4e267e0000000p-4}
}
, {{-0x1.00aeba0000000p-3, -0x1.0da4580000000p-3, 0x1.2cbbfe0000000p-3, 0x1.80cfaa0000000p-4, 0x1.9d2ca00000000p-8, -0x1.27cfbe0000000p-3, -0x1.6a136e0000000p-5, -0x1.7063de0000000p-3, 0x1.209a560000000p-3, -0x1.2ea95a0000000p-5, -0x1.f6a8540000000p-5, 0x1.7d47140000000p-3, 0x1.3e94280000000p-3, 0x1.9d560a0000000p-8, 0x1.a002440000000p-3, 0x1.db4e160000000p-5, -0x1.18a0fa0000000p-4, 0x1.6b87480000000p-3, -0x1.8d71cc0000000p-8, 0x1.ed8d840000000p-4, 0x1.271aa80000000p-4, -0x1.52c66e0000000p-4, -0x1.41e1240000000p-6, 0x1.55c9460000000p-3, 0x1.b4e3a80000000p-3, -0x1.7311660000000p-4, -0x1.f76d960000000p-4, -0x1.06f5ac0000000p-3, -0x1.e51e1e0000000p-6, 0x1.7973080000000p-4, -0x1.09e8060000000p-3, -0x1.27b5a00000000p-4}
, {0x1.8955b20000000p-4, -0x1.7722b60000000p-3, 0x1.8f33ce0000000p-5, 0x1.79b20a0000000p-5, -0x1.f66d900000000p-4, -0x1.0601ac0000000p-3, 0x1.75d7dc0000000p-6, -0x1.9b41e80000000p-3, -0x1.b4ec700000000p-10, -0x1.32e5d20000000p-3, -0x1.995b620000000p-3, 0x1.4e0e580000000p-7, 0x1.b577c80000000p-5, 0x1.92209c0000000p-5, 0x1.8856ee0000000p-6, 0x1.7c68140000000p-4, 0x1.6cfd840000000p-3, 0x1.30ed400000000p-4, -0x1.dbb1a60000000p-5, 0x1.87fc960000000p-4, 0x1.f8a9c60000000p-7, -0x1.55e0aa0000000p-5, 0x1.ec92380000000p-4, 0x1.3cad400000000p-3, -0x1.e1d3f20000000p-5, 0x1.c3e3ec0000000p-4, -0x1.9eb0580000000p-4, -0x1.0fcd560000000p-3, -0x1.27b63c0000000p-5, -0x1.3d10380000000p-3, 0x1.17e6240000000p-5, 0x1.a2aa2c0000000p-14}
}
, {{0x1.e610c60000000p-5, 0x1.5cd8c80000000p-8, -0x1.1b97740000000p-3, -0x1.4262d00000000p-3, 0x1.7cc72c0000000p-3, 0x1.e5f60a0000000p-3, -0x1.8c183c0000000p-4, 0x1.b534340000000p-4, 0x1.34e0f80000000p-3, -0x1.2995040000000p-3, 0x1.9e22b40000000p-5, 0x1.b92fda0000000p-5, -0x1.4f174a0000000p-3, -0x1.a9c4960000000p-4, -0x1.463dee0000000p-4, -0x1.0efb4c0000000p-9, 0x1.8cd0740000000p-5, -0x1.1797000000000p-3, -0x1.bc1c120000000p-5, -0x1.4daec80000000p-3, -0x1.ba51580000000p-3, 0x1.ff65900000000p-5, 0x1.fbc3a60000000p-4, 0x1.b68eb80000000p-5, -0x1.a5d1aa0000000p-7, -0x1.e0af960000000p-4, -0x1.f3ab0c0000000p-4, -0x1.242c420000000p-6, -0x1.ea0ed80000000p-5, -0x1.cc769e0000000p-4, -0x1.2513ca0000000p-4, -0x1.5265e60000000p-6}
, {0x1.bff61a0000000p-5, -0x1.ac7cf60000000p-5, 0x1.f20ab40000000p-6, -0x1.93521e0000000p-3, 0x1.a002400000000p-3, 0x1.674d9e0000000p-3, 0x1.5d98c00000000p-3, 0x1.790f0c0000000p-3, 0x1.dcdea20000000p-5, 0x1.30040c0000000p-4, 0x1.081f540000000p-5, 0x1.0930ee0000000p-3, 0x1.223bc60000000p-5, -0x1.b12ec20000000p-8, -0x1.3c93d00000000p-3, -0x1.0b7f740000000p-3, -0x1.3648300000000p-4, 0x1.6df4e80000000p-4, 0x1.6990540000000p-3, -0x1.b7a3be0000000p-6, 0x1.e1b0000000000p-7, 0x1.269eae0000000p-4, 0x1.c744f00000000p-4, 0x1.862f3a0000000p-3, 0x1.0749900000000p-5, 0x1.7929500000000p-3, 0x1.62f5900000000p-3, -0x1.4c925e0000000p-5, 0x1.01263c0000000p-3, -0x1.7ca2100000000p-3, 0x1.5c9ca00000000p-5, 0x1.46f6000000000p-4}
}
, {{0x1.a9272a0000000p-3, -0x1.2f57700000000p-5, -0x1.0e07580000000p-5, 0x1.8ad3d60000000p-4, 0x1.ad37e20000000p-5, -0x1.44ea960000000p-5, 0x1.56abf60000000p-6, 0x1.6421540000000p-5, 0x1.ac1eca0000000p-5, -0x1.0220980000000p-4, 0x1.b2cf2a0000000p-3, 0x1.65a8600000000p-3, -0x1.f240dc0000000p-7, 0x1.276cba0000000p-3, -0x1.bdd8220000000p-5, 0x1.f57ad40000000p-4, 0x1.d7b4f40000000p-7, 0x1.f9e3b40000000p-4, -0x1.10aaec0000000p-6, 0x1.2dfe6e0000000p-7, -0x1.b10d040000000p-4, 0x1.e36fa80000000p-5, -0x1.f07a1c0000000p-4, 0x1.09b3940000000p-4, 0x1.5f6ff40000000p-3, 0x1.d7cfa40000000p-7, 0x1.3a56740000000p-3, 0x1.3df1c60000000p-3, -0x1.3643ec0000000p-3, -0x1.147b820000000p-4, 0x1.7734140000000p-6, 0x1.a2866a0000000p-3}
, {0x1.1ed2160000000p-3, -0x1.d230ee0000000p-4, -0x1.bcc6220000000p-4, 0x1.ed54fc0000000p-3, -0x1.b586480000000p-4, 0x1.af6e5a0000000p-4, 0x1.4d1c500000000p-3, 0x1.a8b9100000000p-4, -0x1.80379a0000000p-5, 0x1.b4924c0000000p-7, 0x1.7d2ea40000000p-3, 0x1.416a920000000p-3, -0x1.de7f780000000p-4, 0x1.1755cc0000000p-5, 0x1.8bd0c40000000p-4, -0x1.fd6a0c0000000p-7, 0x1.2b9e0e0000000p-3, -0x1.c5c9d00000000p-4, -0x1.aa3f060000000p-5, 0x1.2b244e0000000p-4, -0x1.a78d080000000p-6, -0x1.7397c20000000p-4, -0x1.d0b8560000000p-4, 0x1.c38a040000000p-4, -0x1.6cb5d20000000p-3, 0x1.3b8ea60000000p-5, 0x1.0ca5f40000000p-5, -0x1.4e494c0000000p-3, -0x1.9f5c320000000p-4, -0x1.61257a0000000p-5, -0x1.0f33700000000p-3, -0x1.5f198c0000000p-4}
}
, {{0x1.d2cff20000000p-6, -0x1.6020900000000p-5, -0x1.48eec20000000p-3, -0x1.4cf1560000000p-5, -0x1.d1551c0000000p-3, -0x1.29d17c0000000p-4, -0x1.05f0f00000000p-5, 0x1.957a540000000p-4, 0x1.eff9960000000p-7, -0x1.358caa0000000p-4, 0x1.7687600000000p-7, 0x1.d3761c0000000p-3, 0x1.0578ae0000000p-3, -0x1.0d6c160000000p-4, 0x1.9f813c0000000p-4, -0x1.b73bc00000000p-4, 0x1.0d10a40000000p-5, 0x1.2204fc0000000p-5, -0x1.de4f700000000p-7, -0x1.6be73a0000000p-7, -0x1.0661780000000p-4, -0x1.21ae260000000p-4, 0x1.268e120000000p-3, -0x1.9565220000000p-5, 0x1.2367940000000p-5, 0x1.a336040000000p-9, 0x1.95538c0000000p-5, 0x1.25de540000000p-3, -0x1.7fa73c0000000p-6, -0x1.5cade80000000p-5, 0x1.29f5da0000000p-5, -0x1.6033640000000p-3}
, {0x1.67f25a0000000p-5, -0x1.cf4c4e0000000p-3, 0x1.7250a40000000p-3, -0x1.6e0a2e0000000p-5, -0x1.56ae3e0000000p-4, -0x1.7f6e420000000p-9, -0x1.2b82b20000000p-5, 0x1.7bf4c20000000p-5, -0x1.824a300000000p-3, -0x1.f84f980000000p-4, 0x1.083bc40000000p-3, 0x1.20da760000000p-6, 0x1.9bba500000000p-3, -0x1.77c2fa0000000p-3, 0x1.a19eba0000000p-4, 0x1.8ac3a00000000p-3, 0x1.122a9a0000000p-4, -0x1.2a491e0000000p-3, 0x1.4d33080000000p-5, -0x1.420f4e0000000p-5, 0x1.6c7d3a0000000p-3, -0x1.7853e20000000p-6, 0x1.65a1600000000p-4, -0x1.d20f900000000p-4, 0x1.6a42300000000p-3, -0x1.00e3700000000p-3, 0x1.0e8bc40000000p-3, -0x1.6b669c0000000p-3, 0x1.59d2d20000000p-3, -0x1.3417f40000000p-4, 0x1.1d127a0000000p-6, -0x1.aa04120000000p-5}
}
, {{0x1.f8e6e40000000p-5, 0x1.b1d75c0000000p-3, 0x1.a92bb80000000p-4, 0x1.4ef1f40000000p-3, -0x1.af5ea60000000p-4, 0x1.7ef9a60000000p-4, -0x1.c763640000000p-5, -0x1.ae687e0000000p-4, -0x1.d466420000000p-5, 0x1.7a70f40000000p-3, 0x1.920d620000000p-3, 0x1.6cab880000000p-4, -0x1.587f900000000p-3, -0x1.9ff5a80000000p-3, 0x1.328bf40000000p-3, 0x1.6b4ade0000000p-3, -0x1.54a9080000000p-4, -0x1.ea54ee0000000p-4, -0x1.2dda460000000p-3, 0x1.2aab220000000p-6, -0x1.4d70a40000000p-6, -0x1.e452d40000000p-4, -0x1.7412ce0000000p-4, -0x1.c931ee0000000p-4, 0x1.9669b60000000p-4, 0x1.33caae0000000p-3, -0x1.faa6d00000000p-4, -0x1.e90c240000000p-8, 0x1.357b380000000p-5, -0x1.f27df40000000p-4, -0x1.38d0a20000000p-3, -0x1.3deb840000000p-4}
, {-0x1.06c0c40000000p-5, -0x1.128d9e0000000p-2, 0x1.5be7dc0000000p-5, 0x1.40af4e0000000p-3, 0x1.a053000000000p-16, -0x1.27c40c0000000p-6, 0x1.4997900000000p-3, 0x1.8aa8960000000p-6, 0x1.8f30380000000p-4, 0x1.624ae00000000p-3, -0x1.97c4b40000000p-3, -0x1.1259cc0000000p-4, -0x1.3327d60000000p-3, 0x1.3f02240000000p-4, -0x1.ec30700000000p-4, 0x1.deb3320000000p-6, 0x1.0fbc6c0000000p-4, -0x1.057d000000000p-3, -0x1.597b2a0000000p-3, 0x1.ca58860000000p-3, 0x1.6716e40000000p-3, 0x1.8516f60000000p-7, -0x1.79b8f20000000p-3, 0x1.135d200000000p-3, 0x1.30676c0000000p-3, 0x1.44ff4a0000000p-5, 0x1.cb347c0000000p-7, -0x1.2b58080000000p-6, -0x1.c1bb420000000p-5, -0x1.c315100000000p-5, -0x1.f5201c0000000p-3, 0x1.6fbe3a0000000p-4}
}
, {{-0x1.dfe15a0000000p-6, -0x1.d5b88a0000000p-4, 0x1.2815660000000p-7, -0x1.d451460000000p-4, -0x1.4fc6f20000000p-6, -0x1.308ffa0000000p-6, 0x1.37b7da0000000p-3, -0x1.19b3c80000000p-4, -0x1.c85ab20000000p-3, 0x1.06cbac0000000p-4, 0x1.27b0800000000p-3, -0x1.3847b40000000p-3, 0x1.5faeba0000000p-3, 0x1.c48e280000000p-8, -0x1.4905a00000000p-8, -0x1.06dd360000000p-3, -0x1.7d33320000000p-6, -0x1.713a0a0000000p-5, 0x1.c1bf720000000p-4, -0x1.4dcc4e0000000p-5, -0x1.6db2da0000000p-3, -0x1.8bea260000000p-4, -0x1.0f15760000000p-5, -0x1.61da7a0000000p-4, -0x1.59fa4a0000000p-3, 0x1.17980e0000000p-4, 0x1.d73ea40000000p-6, 0x1.1ebcd60000000p-4, 0x1.0289ca0000000p-3, 0x1.f858220000000p-5, 0x1.53bde40000000p-5, -0x1.41793a0000000p-6}
, {0x1.22f0fa0000000p-4, 0x1.6c0eb40000000p-3, 0x1.381eac0000000p-4, 0x1.5ee53a0000000p-7, 0x1.e42f6a0000000p-4, 0x1.79b5d60000000p-3, 0x1.0a7eac0000000p-8, -0x1.2ec14e0000000p-3, -0x1.5efb340000000p-5, -0x1.1512740000000p-3, 0x1.6f842c0000000p-3, 0x1.3e190e0000000p-5, 0x1.6bde340000000p-3, 0x1.905fc80000000p-3, 0x1.74e6960000000p-3, 0x1.9b78440000000p-3, 0x1.2c2f920000000p-4, 0x1.0504be0000000p-3, 0x1.6559440000000p-3, -0x1.18fab40000000p-4, 0x1.76f73c0000000p-4, -0x1.389fc20000000p-4, 0x1.21e24a0000000p-9, 0x1.26ec0c0000000p-3, -0x1.bb1d260000000p-5, -0x1.212ac40000000p-3, 0x1.8ff3e00000000p-9, -0x1.296e6e0000000p-3, -0x1.c813c80000000p-6, -0x1.ce81c40000000p-4, 0x1.d45d280000000p-5, 0x1.213dd40000000p-3}
}
, {{0x1.6c81f00000000p-4, 0x1.7a287c0000000p-5, -0x1.ea3d9e0000000p-3, -0x1.f3eb880000000p-4, 0x1.8729f80000000p-3, 0x1.69be760000000p-5, 0x1.94c2060000000p-6, 0x1.b2dfa80000000p-4, 0x1.d26c120000000p-5, -0x1.74e1880000000p-3, -0x1.981b0a0000000p-3, -0x1.98e2300000000p-10, -0x1.7a92d40000000p-4, -0x1.d193de0000000p-4, 0x1.c012b60000000p-4, 0x1.059e520000000p-3, -0x1.7207700000000p-5, 0x1.6366c00000000p-4, 0x1.7ec6180000000p-4, 0x1.c9d0de0000000p-5, -0x1.a045960000000p-4, 0x1.cb26c60000000p-4, -0x1.91352e0000000p-3, -0x1.4f39de0000000p-3, -0x1.dccc5e0000000p-4, 0x1.64ce6c0000000p-4, -0x1.b08f300000000p-5, 0x1.5642d60000000p-6, 0x1.0bc33a0000000p-4, -0x1.2486300000000p-3, 0x1.389a600000000p-4, -0x1.b075840000000p-5}
, {-0x1.55b8040000000p-3, -0x1.83f3fa0000000p-4, -0x1.f7a4700000000p-3, -0x1.c35f8e0000000p-4, -0x1.f982140000000p-4, -0x1.91001c0000000p-4, -0x1.e37acc0000000p-4, 0x1.21fe6a0000000p-3, 0x1.009c5a0000000p-4, -0x1.28c9100000000p-3, 0x1.67e1060000000p-3, -0x1.1476700000000p-4, -0x1.51ff340000000p-4, -0x1.94036a0000000p-7, 0x1.0553a00000000p-3, -0x1.f4b65c0000000p-4, 0x1.ebd4ca0000000p-4, 0x1.dd13d20000000p-5, -0x1.45546a0000000p-4, 0x1.b4949c0000000p-4, 0x1.7c08ea0000000p-4, 0x1.5472e40000000p-3, 0x1.f7533e0000000p-5, 0x1.86b9100000000p-5, -0x1.78b8020000000p-3, 0x1.91489a0000000p-3, -0x1.7481ba0000000p-5, 0x1.4b99f60000000p-4, 0x1.410c120000000p-3, 0x1.2105900000000p-9, 0x1.9643ca0000000p-5, 0x1.48e5ba0000000p-3}
}
, {{-0x1.73462a0000000p-8, 0x1.395bf40000000p-8, -0x1.32b0a40000000p-3, 0x1.5dfeb40000000p-5, -0x1.21d51a0000000p-3, 0x1.4e26640000000p-3, -0x1.9099b60000000p-5, -0x1.5cdb2c0000000p-4, -0x1.9410220000000p-4, 0x1.f6d77c0000000p-4, 0x1.99743c0000000p-4, -0x1.45d6d20000000p-7, -0x1.b851100000000p-4, -0x1.86b1700000000p-4, 0x1.27e25a0000000p-6, 0x1.ab231e0000000p-5, 0x1.58cc440000000p-6, 0x1.ad910e0000000p-6, -0x1.23043e0000000p-5, 0x1.691e100000000p-6, -0x1.3921f20000000p-3, -0x1.7161560000000p-5, -0x1.7b26160000000p-5, -0x1.023c9e0000000p-7, 0x1.a964f80000000p-5, 0x1.aa8c840000000p-4, 0x1.355a780000000p-5, -0x1.0adad00000000p-5, 0x1.899c700000000p-4, 0x1.ba8b0a0000000p-3, 0x1.6909980000000p-3, -0x1.6b1b080000000p-3}
, {-0x1.1eea2c0000000p-5, 0x1.1d49e40000000p-5, -0x1.13e8e20000000p-3, 0x1.0090840000000p-3, 0x1.12c0be0000000p-4, 0x1.886b120000000p-5, 0x1.1d8ba80000000p-4, 0x1.510eac0000000p-3, -0x1.3f406e0000000p-5, -0x1.c5fc080000000p-4, 0x1.c36a0c0000000p-3, -0x1.989ad00000000p-4, 0x1.a87d680000000p-5, 0x1.3aaf040000000p-3, -0x1.0ce2660000000p-4, -0x1.4e95960000000p-3, 0x1.098bc00000000p-3, -0x1.e4ecf20000000p-5, -0x1.465e3e0000000p-4, -0x1.8dba720000000p-4, -0x1.8242d80000000p-6, -0x1.329e5c0000000p-3, -0x1.59dc4a0000000p-4, -0x1.1a3eda0000000p-5, -0x1.a62da20000000p-6, -0x1.e25cd00000000p-9, -0x1.6881dc0000000p-7, 0x1.519ac60000000p-5, -0x1.e343960000000p-6, 0x1.40809a0000000p-3, 0x1.a2fb780000000p-3, -0x1.0283d20000000p-3}
}
, {{-0x1.e20ebc0000000p-5, -0x1.7c58b60000000p-4, 0x1.7aa2760000000p-3, 0x1.79d19c0000000p-4, -0x1.d2bf1c0000000p-5, 0x1.4fdeae0000000p-4, 0x1.6b878e0000000p-3, 0x1.1e8d240000000p-6, -0x1.2b9c900000000p-3, 0x1.62ff2e0000000p-7, 0x1.1730c20000000p-7, 0x1.288b4e0000000p-3, 0x1.9139100000000p-6, 0x1.ab8e7c0000000p-4, -0x1.a415b40000000p-4, -0x1.210c9a0000000p-4, 0x1.c452d00000000p-6, -0x1.1a29ea0000000p-3, -0x1.eab2b60000000p-5, -0x1.33bf8e0000000p-5, -0x1.ebd5440000000p-4, -0x1.6120820000000p-5, 0x1.960f580000000p-5, 0x1.7bbd4a0000000p-4, 0x1.fb66de0000000p-3, 0x1.dca1b20000000p-4, 0x1.fb25a40000000p-4, 0x1.0978480000000p-7, -0x1.7841680000000p-4, -0x1.32e4ba0000000p-4, 0x1.6939780000000p-4, -0x1.e178a40000000p-4}
, {-0x1.835fac0000000p-7, 0x1.340d6e0000000p-6, 0x1.fa4bae0000000p-9, -0x1.4ee93c0000000p-4, 0x1.20bab40000000p-4, 0x1.6bfffa0000000p-4, 0x1.a2c1600000000p-4, 0x1.113c980000000p-4, 0x1.52192c0000000p-4, 0x1.802ac60000000p-6, 0x1.a4a3a80000000p-6, -0x1.09d94e0000000p-4, 0x1.09de9a0000000p-5, 0x1.546b500000000p-3, 0x1.2c62380000000p-4, 0x1.58d26e0000000p-3, -0x1.aee99c0000000p-4, -0x1.04bff00000000p-3, 0x1.8425bc0000000p-4, 0x1.0572ba0000000p-3, -0x1.cd6b6a0000000p-7, 0x1.a615ae0000000p-4, -0x1.2bb39c0000000p-3, -0x1.25dbca0000000p-4, 0x1.99e14a0000000p-3, 0x1.ee7aa60000000p-6, 0x1.8fd2e20000000p-3, -0x1.db2fd00000000p-5, -0x1.adca840000000p-5, -0x1.82db380000000p-5, 0x1.78c4c80000000p-7, 0x1.b33bcc0000000p-5}
}
, {{-0x1.c0770e0000000p-3, 0x1.3674540000000p-2, 0x1.cec0f80000000p-5, 0x1.ead9240000000p-3, 0x1.bf721c0000000p-4, 0x1.89cafc0000000p-3, 0x1.a2dd900000000p-3, -0x1.5c7f000000000p-4, 0x1.52f60e0000000p-4, 0x1.10e53c0000000p-4, 0x1.b1a2d00000000p-3, 0x1.bbb3a40000000p-3, 0x1.93d1000000000p-4, -0x1.4a140e0000000p-4, 0x1.01b7f40000000p-3, 0x1.31d0da0000000p-5, -0x1.c8cd380000000p-6, 0x1.bdd19c0000000p-3, -0x1.299ec60000000p-3, 0x1.2dd2a80000000p-8, -0x1.1254960000000p-3, 0x1.f19ca40000000p-4, -0x1.24ffca0000000p-5, -0x1.e090ac0000000p-5, 0x1.5f75160000000p-7, 0x1.0e5bc40000000p-3, 0x1.b7a49e0000000p-4, -0x1.63bd620000000p-5, -0x1.94b1d40000000p-7, -0x1.ee3dc00000000p-4, 0x1.c05c620000000p-5, -0x1.8bed260000000p-6}
, {-0x1.9356aa0000000p-5, 0x1.1804da0000000p-2, -0x1.a3b5160000000p-4, 0x1.85b6d20000000p-5, 0x1.30dabe0000000p-4, -0x1.c6ec660000000p-5, 0x1.9349800000000p-3, 0x1.9729cc0000000p-6, -0x1.c466680000000p-4, -0x1.62171c0000000p-3, 0x1.d5bf420000000p-3, 0x1.6bde960000000p-3, -0x1.fcfda00000000p-4, -0x1.48912e0000000p-3, -0x1.3775a20000000p-3, -0x1.9b96960000000p-3, 0x1.0c595c0000000p-4, 0x1.3bb0040000000p-3, -0x1.3765620000000p-6, -0x1.42e4900000000p-3, -0x1.e39db60000000p-6, 0x1.68b2dc0000000p-3, 0x1.d4de0a0000000p-4, 0x1.06b51a0000000p-4, 0x1.0876340000000p-3, 0x1.c8b45a0000000p-4, 0x1.632c480000000p-4, 0x1.22a0ce0000000p-7, 0x1.8092c80000000p-5, -0x1.9397820000000p-3, -0x1.945c9a0000000p-4, 0x1.ad091a0000000p-3}
}
, {{0x1.0edce60000000p-2, -0x1.2e5de80000000p-3, 0x1.3ccdd40000000p-4, 0x1.01fa600000000p-3, 0x1.78978e0000000p-4, -0x1.8e34420000000p-7, 0x1.53a26e0000000p-3, -0x1.24cf0e0000000p-3, -0x1.084f520000000p-6, -0x1.bdf6440000000p-4, -0x1.c500b60000000p-4, 0x1.b46d8e0000000p-5, 0x1.2cf7f40000000p-6, -0x1.a550e60000000p-4, -0x1.d781e60000000p-4, -0x1.e587380000000p-4, -0x1.5c0d800000000p-3, 0x1.563e280000000p-7, -0x1.0636e60000000p-11, -0x1.53a5440000000p-6, -0x1.72d9000000000p-5, 0x1.7b79500000000p-3, -0x1.8426960000000p-6, -0x1.18c6800000000p-3, 0x1.0d66180000000p-6, -0x1.1697380000000p-5, -0x1.b01c760000000p-8, -0x1.b8269a0000000p-3, 0x1.bfa5060000000p-4, 0x1.471d1c0000000p-5, 0x1.a23b900000000p-3, 0x1.75e54e0000000p-4}
, {-0x1.1b8c720000000p-6, 0x1.46b93c0000000p-6, 0x1.e16bc00000000p-4, 0x1.1c99820000000p-3, 0x1.8352560000000p-4, 0x1.98708a0000000p-3, 0x1.5e865e0000000p-3, -0x1.361b740000000p-3, -0x1.3443f00000000p-3, 0x1.1af5360000000p-3, -0x1.eb7c520000000p-4, 0x1.0864de0000000p-5, -0x1.2241fc0000000p-3, -0x1.6f56ea0000000p-3, 0x1.5aa5380000000p-4, 0x1.0149880000000p-10, -0x1.37f3280000000p-3, -0x1.cb03740000000p-9, 0x1.3946760000000p-4, 0x1.734b320000000p-3, 0x1.4197400000000p-4, 0x1.66500c0000000p-4, 0x1.d48c840000000p-4, -0x1.47efb00000000p-5, 0x1.3751420000000p-3, -0x1.0e364a0000000p-5, 0x1.922c420000000p-3, -0x1.4ceb980000000p-10, 0x1.15ebb80000000p-4, -0x1.53d14a0000000p-4, -0x1.5d72ce0000000p-4, 0x1.3608e20000000p-4}
}
, {{0x1.f1e7ee0000000p-4, -0x1.b1e1c60000000p-5, -0x1.6d7b100000000p-3, 0x1.9310dc0000000p-3, 0x1.0993a20000000p-4, -0x1.06f2be0000000p-5, -0x1.447cbe0000000p-3, -0x1.5b41a20000000p-4, 0x1.b5f1420000000p-4, 0x1.6bd6320000000p-3, 0x1.862e620000000p-3, 0x1.d615040000000p-3, -0x1.ad9b300000000p-4, -0x1.3873ba0000000p-3, -0x1.9917520000000p-4, -0x1.c86d3c0000000p-5, -0x1.5280c20000000p-6, -0x1.8bc41a0000000p-3, -0x1.4dd0040000000p-3, -0x1.1ead180000000p-5, 0x1.d509660000000p-4, 0x1.06d1980000000p-3, -0x1.61e53c0000000p-4, -0x1.21656c0000000p-6, -0x1.8665720000000p-5, -0x1.72c3480000000p-6, 0x1.2cf2640000000p-3, 0x1.3fe87c0000000p-3, 0x1.61ed8a0000000p-3, 0x1.86438c0000000p-4, -0x1.8d21180000000p-3, -0x1.7635620000000p-6}
, {0x1.2138700000000p-5, 0x1.b7d5500000000p-5, -0x1.87de160000000p-3, 0x1.fc07ca0000000p-5, -0x1.52a23c0000000p-5, 0x1.7a791a0000000p-3, -0x1.270e8a0000000p-4, 0x1.8ff78a0000000p-5, -0x1.3c8c240000000p-3, -0x1.20f65e0000000p-4, -0x1.ec6f100000000p-9, 0x1.e82e0e0000000p-4, 0x1.fe1d1a0000000p-6, -0x1.1c32cc0000000p-3, 0x1.4eeea80000000p-4, 0x1.b139800000000p-4, 0x1.890b020000000p-3, 0x1.23817a0000000p-4, -0x1.044a600000000p-4, 0x1.45a88c0000000p-4, 0x1.972eb40000000p-3, 0x1.21fd300000000p-3, -0x1.0c724a0000000p-7, -0x1.bb9bb60000000p-4, 0x1.f369d40000000p-4, -0x1.7605e20000000p-7, 0x1.2711ba0000000p-3, -0x1.5735dc0000000p-4, -0x1.133c880000000p-4, -0x1.eba3ae0000000p-4, -0x1.c289900000000p-3, 0x1.66ae3a0000000p-4}
}
, {{-0x1.a088440000000p-4, 0x1.8535260000000p-3, 0x1.ea274e0000000p-3, -0x1.0575f40000000p-3, -0x1.98ad0c0000000p-3, 0x1.af87120000000p-4, 0x1.769a8c0000000p-3, -0x1.55afd40000000p-4, -0x1.082f500000000p-4, 0x1.3959d40000000p-3, 0x1.0e24160000000p-4, -0x1.718f5e0000000p-5, -0x1.c7e4ba0000000p-4, -0x1.678f780000000p-3, 0x1.7ecf520000000p-3, 0x1.10807e0000000p-3, 0x1.0e3f660000000p-2, -0x1.7960de0000000p-5, 0x1.40d9d60000000p-3, -0x1.f3f1c60000000p-4, 0x1.091a9c0000000p-3, -0x1.cced660000000p-5, -0x1.4228d20000000p-5, 0x1.ae70780000000p-4, -0x1.ee25740000000p-5, -0x1.0bd6740000000p-4, 0x1.7d4e520000000p-4, -0x1.343b5e0000000p-3, -0x1.08f7ea0000000p-4, 0x1.13b97c0000000p-3, -0x1.2cd4000000000p-4, -0x1.27b9720000000p-6}
, {-0x1.4772820000000p-5, -0x1.89f8c40000000p-4, -0x1.86b3fa0000000p-4, -0x1.732a7e0000000p-4, -0x1.47260c0000000p-3, -0x1.718e0c0000000p-6, -0x1.0cde5e0000000p-3, 0x1.1e6bc00000000p-3, 0x1.16de280000000p-5, 0x1.25ec560000000p-4, 0x1.3299740000000p-5, 0x1.e3350a0000000p-5, -0x1.3e3f960000000p-5, 0x1.e0d1660000000p-4, 0x1.3e15740000000p-5, -0x1.7c4d060000000p-15, -0x1.688cb60000000p-5, -0x1.7c2be40000000p-3, -0x1.392d080000000p-3, 0x1.1a8eae0000000p-7, -0x1.af952a0000000p-4, 0x1.02ea8a0000000p-4, -0x1.1d6de40000000p-4, 0x1.ea72ea0000000p-5, 0x1.11265e0000000p-5, -0x1.14a5aa0000000p-3, 0x1.662b5a0000000p-5, -0x1.7be42a0000000p-5, 0x1.1e82620000000p-3, 0x1.20e2940000000p-3, -0x1.e5e4c40000000p-4, 0x1.a6753e0000000p-6}
}
, {{-0x1.38c8b00000000p-7, 0x1.49518e0000000p-3, -0x1.1696860000000p-3, -0x1.6854cc0000000p-3, 0x1.1267980000000p-3, 0x1.594a200000000p-3, -0x1.2cfb0e0000000p-5, 0x1.dc349c0000000p-3, -0x1.8c92040000000p-4, -0x1.3d71240000000p-3, -0x1.110c660000000p-4, -0x1.b4e90e0000000p-4, -0x1.55c0200000000p-3, -0x1.4f6afa0000000p-3, 0x1.a5fc7e0000000p-3, 0x1.cf1cca0000000p-4, -0x1.e1c79c0000000p-4, -0x1.53f7780000000p-4, 0x1.6c295c0000000p-3, -0x1.fed21e0000000p-5, 0x1.a99c240000000p-5, -0x1.af18aa0000000p-4, -0x1.0176700000000p-3, -0x1.52e7e00000000p-3, 0x1.927c400000000p-3, -0x1.11bfc60000000p-6, -0x1.d9d03c0000000p-4, 0x1.1cac840000000p-4, 0x1.9c9f560000000p-4, 0x1.7c7cea0000000p-4, 0x1.477ee00000000p-3, -0x1.cdf78c0000000p-4}
, {0x1.cfdec20000000p-4, 0x1.5f21fa0000000p-3, 0x1.67b9c40000000p-5, -0x1.0fa3cc0000000p-5, -0x1.f34dc20000000p-4, 0x1.b8860e0000000p-4, -0x1.48deaa0000000p-3, 0x1.8e446e0000000p-4, 0x1.7e9a400000000p-6, -0x1.f6eef40000000p-5, 0x1.2ff0360000000p-3, -0x1.9722ae0000000p-6, -0x1.e2d2e60000000p-5, -0x1.b58fe80000000p-4, -0x1.f8614c0000000p-8, 0x1.7644d00000000p-3, -0x1.9c6f380000000p-6, 0x1.90a64c0000000p-5, 0x1.42c7d00000000p-3, 0x1.6a67020000000p-5, 0x1.fde3500000000p-5, -0x1.47c5f80000000p-4, -0x1.16af9a0000000p-3, -0x1.8a8d2a0000000p-3, 0x1.08c1920000000p-3, 0x1.6a3f620000000p-4, -0x1.d2a05c0000000p-4, -0x1.89082c0000000p-5, -0x1.60a9d00000000p-6, 0x1.5e99b40000000p-3, 0x1.0613060000000p-4, 0x1.89cd7a0000000p-4}
}
, {{0x1.7a72ac0000000p-3, 0x1.1525ae0000000p-2, 0x1.265ad60000000p-3, -0x1.aea2720000000p-6, -0x1.4e87540000000p-3, 0x1.e7c3580000000p-3, -0x1.91240e0000000p-4, -0x1.50429c0000000p-7, 0x1.8238e40000000p-3, 0x1.83aa680000000p-3, -0x1.f2a8cc0000000p-4, 0x1.c8e1160000000p-5, 0x1.e744840000000p-6, -0x1.442b020000000p-6, 0x1.95c9760000000p-3, 0x1.d553980000000p-3, 0x1.6eaeea0000000p-6, -0x1.a573560000000p-4, 0x1.14773a0000000p-5, 0x1.4244da0000000p-6, 0x1.5425640000000p-6, -0x1.5b2e580000000p-9, -0x1.364ace0000000p-3, -0x1.94f0040000000p-5, -0x1.5d326a0000000p-5, -0x1.a3f3860000000p-4, -0x1.46647a0000000p-3, 0x1.304a2e0000000p-3, -0x1.5af36c0000000p-3, -0x1.c2baca0000000p-4, 0x1.a16d6a0000000p-3, -0x1.11fd4e0000000p-6}
, {0x1.5611fc0000000p-3, 0x1.2f917c0000000p-3, -0x1.f2fd2a0000000p-4, 0x1.2a5d1c0000000p-5, -0x1.b12d800000000p-4, 0x1.4a87ec0000000p-3, 0x1.58ae140000000p-5, 0x1.bf29500000000p-3, 0x1.3f4cc80000000p-3, -0x1.fe31680000000p-6, -0x1.8dde540000000p-4, 0x1.be7e420000000p-14, -0x1.1a9f080000000p-3, 0x1.991e080000000p-5, -0x1.4522360000000p-4, 0x1.24cf100000000p-8, 0x1.e1702e0000000p-7, -0x1.47dbf60000000p-3, -0x1.25ed400000000p-4, -0x1.37788a0000000p-4, -0x1.3ee68e0000000p-4, -0x1.5a2bec0000000p-3, -0x1.9b47d40000000p-3, -0x1.5a1d4e0000000p-3, 0x1.b398220000000p-4, -0x1.7bd2f20000000p-5, -0x1.5f39940000000p-3, -0x1.dcd8260000000p-8, -0x1.09b2520000000p-3, -0x1.d21d7a0000000p-4, -0x1.2adebe0000000p-3, -0x1.10567c0000000p-4}
}
, {{-0x1.3333ce0000000p-3, 0x1.6ef25e0000000p-6, 0x1.2185d40000000p-4, -0x1.232e4e0000000p-3, 0x1.6598a80000000p-5, 0x1.b421300000000p-3, -0x1.1a57de0000000p-6, -0x1.6851260000000p-4, 0x1.3115f20000000p-4, -0x1.dcb4c00000000p-4, -0x1.7fc8220000000p-3, -0x1.e3586e0000000p-4, 0x1.0570280000000p-3, -0x1.3d9b2a0000000p-5, 0x1.4353e80000000p-4, -0x1.4e9eca0000000p-3, -0x1.3af1600000000p-3, -0x1.58f51e0000000p-3, 0x1.0f1dc60000000p-6, -0x1.afa0500000000p-6, 0x1.df95d40000000p-4, 0x1.241b880000000p-7, -0x1.6659260000000p-4, 0x1.8146260000000p-3, 0x1.fa31540000000p-3, 0x1.f6f1940000000p-5, -0x1.1fec160000000p-3, -0x1.33f76c0000000p-5, 0x1.9417480000000p-3, 0x1.45a9a60000000p-4, 0x1.5ffd9e0000000p-3, 0x1.63d1600000000p-4}
, {0x1.9d05fc0000000p-4, 0x1.c72f400000000p-5, -0x1.0539c00000000p-4, -0x1.1e07280000000p-5, 0x1.8fdbac0000000p-6, -0x1.cdb8280000000p-4, 0x1.422ee40000000p-3, -0x1.8051040000000p-5, -0x1.dbfc360000000p-4, 0x1.31efb40000000p-6, 0x1.ef3ccc0000000p-3, -0x1.4b562a0000000p-3, 0x1.e2c7a80000000p-5, -0x1.63da2c0000000p-5, 0x1.74c85c0000000p-4, -0x1.450fa00000000p-8, 0x1.0fa3140000000p-3, -0x1.4992500000000p-4, -0x1.f0d6ae0000000p-4, -0x1.5716dc0000000p-3, -0x1.82ca520000000p-3, -0x1.f1f2700000000p-4, -0x1.e810c80000000p-5, -0x1.266c360000000p-3, -0x1.25b8680000000p-8, 0x1.4c047a0000000p-3, 0x1.62124c0000000p-3, -0x1.a65eda0000000p-4, 0x1.844c560000000p-3, -0x1.98c3bc0000000p-5, 0x1.ac92360000000p-3, -0x1.7d82680000000p-3}
}
, {{-0x1.f5ccc00000000p-3, 0x1.665e1c0000000p-3, -0x1.80bb780000000p-4, -0x1.e130aa0000000p-5, 0x1.a358aa0000000p-5, 0x1.4b11d40000000p-4, 0x1.363b960000000p-6, 0x1.e79bcc0000000p-7, 0x1.1371f80000000p-5, -0x1.5bbbe20000000p-8, 0x1.6d7d860000000p-5, -0x1.f62e200000000p-3, -0x1.04c79e0000000p-3, -0x1.92974e0000000p-5, -0x1.24d7160000000p-3, 0x1.cbf6660000000p-4, 0x1.59c3620000000p-5, 0x1.3843a40000000p-3, -0x1.9693560000000p-5, 0x1.0cc2840000000p-6, -0x1.8d29e40000000p-4, 0x1.972abe0000000p-3, -0x1.04da7a0000000p-3, 0x1.48867a0000000p-4, 0x1.1043b80000000p-6, 0x1.a7132a0000000p-3, -0x1.7213800000000p-4, 0x1.7f65a20000000p-9, 0x1.ae54220000000p-4, 0x1.062b5e0000000p-6, 0x1.93b4460000000p-3, 0x1.9eb96a0000000p-4}
, {0x1.b9c8fe0000000p-4, 0x1.90c1a00000000p-3, -0x1.9786b80000000p-4, -0x1.81586e0000000p-4, 0x1.3af95a0000000p-3, -0x1.13624e0000000p-3, -0x1.3c0f040000000p-6, 0x1.75fa640000000p-3, 0x1.ccc2380000000p-4, 0x1.4cf6d60000000p-7, -0x1.0771500000000p-2, 0x1.23d2d00000000p-5, 0x1.6d7b940000000p-7, 0x1.a32aa60000000p-4, 0x1.0cc8d80000000p-3, -0x1.61593c0000000p-3, -0x1.3be5000000000p-3, 0x1.37028a0000000p-3, 0x1.2c544a0000000p-5, -0x1.87fb660000000p-4, -0x1.945b860000000p-5, -0x1.8435f20000000p-6, -0x1.2ef0c40000000p-3, -0x1.4b7a360000000p-4, 0x1.b3d0c00000000p-6, 0x1.222e2e0000000p-4, 0x1.6a85220000000p-4, 0x1.337f600000000p-8, -0x1.d7a09e0000000p-6, -0x1.3a2e720000000p-3, 0x1.0bd0a20000000p-3, 0x1.31ef380000000p-3}
}
, {{0x1.292e8e0000000p-4, 0x1.7e148e0000000p-3, -0x1.c85b9c0000000p-6, -0x1.016c220000000p-4, 0x1.2157c60000000p-4, -0x1.4730d80000000p-3, 0x1.37d86c0000000p-3, -0x1.04ad080000000p-4, 0x1.449afe0000000p-3, 0x1.f1c2da0000000p-4, 0x1.ebbfd00000000p-5, 0x1.d753960000000p-5, -0x1.3aec2c0000000p-3, -0x1.438e700000000p-3, 0x1.3d3cd20000000p-3, 0x1.03d7e60000000p-3, -0x1.f27eda0000000p-5, 0x1.5778880000000p-3, 0x1.3e682a0000000p-3, 0x1.84ea780000000p-5, -0x1.3fc2780000000p-3, 0x1.81e4680000000p-3, -0x1.40cb3c0000000p-6, 0x1.38361c0000000p-5, -0x1.477c620000000p-5, -0x1.bfbd0e0000000p-4, 0x1.825d500000000p-8, -0x1.1cfe320000000p-5, -0x1.2df6660000000p-5, 0x1.dd92660000000p-4, -0x1.d45da60000000p-4, -0x1.2f87960000000p-3}
, {-0x1.2903f80000000p-3, 0x1.4d7a8c0000000p-3, 0x1.3a81bc0000000p-3, -0x1.8ed7660000000p-3, -0x1.a5d83c0000000p-3, -0x1.58b22c0000000p-3, 0x1.58ed100000000p-3, -0x1.ad14d60000000p-3, 0x1.4916520000000p-3, -0x1.ae8fb20000000p-4, -0x1.015ecc0000000p-3, -0x1.29ad5a0000000p-3, 0x1.f4c05e0000000p-6, -0x1.62c4fa0000000p-3, 0x1.6061580000000p-5, -0x1.1f04080000000p-3, 0x1.c93c560000000p-4, -0x1.2346200000000p-3, -0x1.f966dc0000000p-4, -0x1.3bb8080000000p-3, -0x1.0327140000000p-4, 0x1.466a880000000p-9, 0x1.ed3bb40000000p-5, 0x1.2532820000000p-5, -0x1.90ea040000000p-5, 0x1.5498b20000000p-4, -0x1.aff1e40000000p-5, 0x1.5db8cc0000000p-5, -0x1.450bce0000000p-4, 0x1.ffaede0000000p-4, -0x1.1a18080000000p-3, 0x1.d209140000000p-4}
}
, {{0x1.1f69e80000000p-4, -0x1.9b33160000000p-3, -0x1.0348700000000p-6, -0x1.77044a0000000p-3, 0x1.c71b1e0000000p-6, 0x1.7397e20000000p-4, -0x1.d650f60000000p-3, 0x1.73e1c40000000p-4, -0x1.f26d820000000p-7, -0x1.ac84780000000p-4, 0x1.c7cd300000000p-4, 0x1.d1fb720000000p-3, 0x1.3e85480000000p-5, 0x1.b919fa0000000p-5, -0x1.4aecaa0000000p-6, -0x1.11c0b20000000p-3, -0x1.241cde0000000p-5, -0x1.a23bac0000000p-5, -0x1.3fde040000000p-3, 0x1.3572480000000p-5, -0x1.1602a60000000p-3, -0x1.df57780000000p-3, -0x1.3bc5700000000p-3, 0x1.0db4de0000000p-4, -0x1.8595e20000000p-6, -0x1.10f3f20000000p-4, 0x1.5ad45e0000000p-5, -0x1.a3f63a0000000p-5, -0x1.61380c0000000p-4, 0x1.8b1f100000000p-4, 0x1.75a3ce0000000p-5, -0x1.e279700000000p-6}
, {0x1.118e3c0000000p-3, -0x1.33fde60000000p-4, 0x1.7e73f40000000p-4, -0x1.37e43e0000000p-3, 0x1.4e9a9a0000000p-3, 0x1.a531f80000000p-4, -0x1.0d8d4c0000000p-3, -0x1.5218aa0000000p-3, 0x1.6989880000000p-6, 0x1.1dc4b80000000p-3, 0x1.07af760000000p-6, -0x1.28f8b00000000p-4, 0x1.41866e0000000p-4, 0x1.79dd980000000p-6, 0x1.4be03a0000000p-4, 0x1.9391040000000p-5, 0x1.1da8760000000p-9, 0x1.41d82c0000000p-4, 0x1.8db8b80000000p-3, -0x1.cd37020000000p-5, 0x1.041f520000000p-5, -0x1.1a13dc0000000p-4, -0x1.c229920000000p-5, 0x1.ce58500000000p-3, 0x1.c1a4a00000000p-4, -0x1.d9e00a0000000p-5, -0x1.e607360000000p-4, 0x1.0a35660000000p-3, -0x1.2c58a60000000p-5, 0x1.ac03f40000000p-6, -0x1.eb184a0000000p-4, 0x1.05fc260000000p-3}
}
, {{0x1.f30e1c0000000p-4, -0x1.f3cb2c0000000p-4, -0x1.011dec0000000p-6, -0x1.d4a01a0000000p-4, 0x1.016e440000000p-8, -0x1.99c5680000000p-4, 0x1.c2eb260000000p-4, -0x1.98dd520000000p-3, 0x1.2a8bba0000000p-5, -0x1.88518a0000000p-7, 0x1.37591c0000000p-2, -0x1.5dd6440000000p-5, 0x1.b4a5f80000000p-5, -0x1.3751840000000p-3, 0x1.0912480000000p-6, 0x1.4ca0f20000000p-3, 0x1.773a280000000p-3, 0x1.1aab520000000p-3, -0x1.80d52a0000000p-3, 0x1.f5232a0000000p-4, 0x1.1b8e580000000p-4, -0x1.567b8e0000000p-3, 0x1.5ff3580000000p-3, 0x1.102b9a0000000p-4, 0x1.e47d140000000p-6, -0x1.e2a3780000000p-4, 0x1.4336c40000000p-5, 0x1.7335560000000p-3, 0x1.666c620000000p-6, -0x1.399dfc0000000p-5, 0x1.b3e42c0000000p-3, -0x1.7a0ece0000000p-6}
, {0x1.2c04c00000000p-3, 0x1.cc104e0000000p-4, 0x1.ba90c60000000p-4, 0x1.8fe1d20000000p-4, 0x1.4437140000000p-6, 0x1.1d33a00000000p-4, -0x1.2778780000000p-3, -0x1.e8643c0000000p-4, -0x1.ee115e0000000p-4, -0x1.7659d60000000p-3, -0x1.549ba20000000p-10, -0x1.6b872e0000000p-4, 0x1.eb37400000000p-4, 0x1.0881580000000p-4, -0x1.96b5bc0000000p-4, -0x1.0e98e60000000p-3, 0x1.d2cd3c0000000p-6, -0x1.2ddfd20000000p-5, -0x1.9b43100000000p-4, -0x1.a7bf5c0000000p-4, 0x1.6176fc0000000p-9, 0x1.7950c40000000p-3, 0x1.d0b5ba0000000p-3, 0x1.b12e4e0000000p-4, -0x1.60993e0000000p-4, -0x1.f9e34e0000000p-5, -0x1.1822e00000000p-4, -0x1.8956400000000p-5, -0x1.e721b20000000p-6, 0x1.aecff00000000p-4, -0x1.57d9660000000p-4, -0x1.5a25dc0000000p-5}
}
, {{0x1.543bee0000000p-4, -0x1.87f0c60000000p-3, -0x1.a8f4aa0000000p-5, 0x1.1b353c0000000p-3, -0x1.4004880000000p-3, -0x1.294e280000000p-3, -0x1.bab12e0000000p-4, -0x1.8930020000000p-4, 0x1.e271800000000p-4, 0x1.b158c40000000p-4, -0x1.37f8b40000000p-3, -0x1.7014240000000p-4, -0x1.aece260000000p-6, -0x1.8da0a80000000p-5, -0x1.00a9aa0000000p-3, -0x1.fe852e0000000p-5, -0x1.0a96ba0000000p-3, -0x1.8f16d60000000p-3, 0x1.6c18440000000p-3, -0x1.de70a20000000p-9, 0x1.69181e0000000p-6, -0x1.82b6120000000p-5, 0x1.4637e80000000p-7, -0x1.8123000000000p-8, -0x1.e1cbd80000000p-4, -0x1.37fbe80000000p-6, 0x1.06ece20000000p-3, 0x1.ba09e60000000p-4, 0x1.d8950a0000000p-7, 0x1.e386800000000p-3, -0x1.b90fba0000000p-4, -0x1.21d1240000000p-3}
, {0x1.9f5ca60000000p-4, 0x1.9002ce0000000p-5, -0x1.1df9020000000p-2, -0x1.ed07b80000000p-9, 0x1.a499420000000p-4, -0x1.c864360000000p-3, 0x1.c64d8c0000000p-5, -0x1.4532760000000p-4, -0x1.6bd1ca0000000p-6, 0x1.a0a4c20000000p-3, 0x1.d900f20000000p-5, -0x1.0d2c0a0000000p-2, -0x1.0707320000000p-5, 0x1.5cbc5a0000000p-4, -0x1.7a51440000000p-5, -0x1.da9dc80000000p-4, -0x1.54b22a0000000p-4, 0x1.fda8000000000p-4, 0x1.e5ce120000000p-7, 0x1.44b79c0000000p-5, -0x1.c30de80000000p-6, -0x1.80d6500000000p-3, -0x1.14f4f20000000p-3, -0x1.a70d240000000p-3, -0x1.6bfff20000000p-3, 0x1.b6a61c0000000p-6, 0x1.80434e0000000p-3, 0x1.159d580000000p-4, -0x1.12ad6c0000000p-4, 0x1.19652e0000000p-4, 0x1.34dd340000000p-3, -0x1.3977da0000000p-3}
}
, {{-0x1.1fdc760000000p-5, 0x1.d70da40000000p-3, -0x1.a0d5e80000000p-4, 0x1.df28b40000000p-4, 0x1.89fcca0000000p-6, 0x1.30b2740000000p-3, -0x1.094d340000000p-4, -0x1.eef7680000000p-4, -0x1.7b49e20000000p-4, -0x1.caabba0000000p-8, 0x1.e874740000000p-4, 0x1.af425e0000000p-3, 0x1.1ab3900000000p-3, -0x1.7960100000000p-3, -0x1.a982a00000000p-5, 0x1.14be5c0000000p-4, 0x1.d0f3e00000000p-6, 0x1.8071fe0000000p-4, 0x1.8d72120000000p-4, 0x1.a807300000000p-4, 0x1.6758560000000p-3, -0x1.253de60000000p-3, 0x1.956dc80000000p-4, 0x1.51ff8a0000000p-6, 0x1.f9508c0000000p-7, 0x1.0faae40000000p-3, -0x1.04aa540000000p-6, 0x1.f075f60000000p-5, 0x1.29815a0000000p-5, 0x1.48f0100000000p-3, -0x1.adfe120000000p-4, 0x1.827c660000000p-5}
, {0x1.dfd5520000000p-5, -0x1.736fb60000000p-4, 0x1.e80db20000000p-4, 0x1.82cd8c0000000p-4, -0x1.1e44680000000p-5, -0x1.45e07a0000000p-3, 0x1.2c17cc0000000p-5, -0x1.08aba80000000p-5, -0x1.fc4ee60000000p-5, -0x1.0fea5a0000000p-4, 0x1.76bc580000000p-4, 0x1.4b37cc0000000p-3, -0x1.eab5960000000p-4, -0x1.c830600000000p-4, 0x1.a111dc0000000p-7, 0x1.0163bc0000000p-3, 0x1.e388be0000000p-4, 0x1.c6c8560000000p-4, 0x1.22403c0000000p-3, 0x1.50e03e0000000p-3, -0x1.29c78e0000000p-3, -0x1.a291980000000p-4, 0x1.7148c80000000p-3, -0x1.1151e60000000p-4, -0x1.1467840000000p-3, 0x1.352c6c0000000p-5, 0x1.6e56140000000p-8, -0x1.e643d60000000p-8, -0x1.6588640000000p-3, -0x1.6b24960000000p-3, -0x1.c9abdc0000000p-3, -0x1.e1985a0000000p-7}
}
, {{0x1.f080aa0000000p-5, 0x1.9d06720000000p-5, 0x1.765f2e0000000p-6, 0x1.1c07840000000p-4, 0x1.2a0b700000000p-3, 0x1.0c5d020000000p-4, 0x1.b80b240000000p-4, 0x1.0a6ca40000000p-3, 0x1.29e2fc0000000p-3, -0x1.6d02ca0000000p-4, 0x1.9999c40000000p-4, 0x1.3d3d760000000p-4, 0x1.101d620000000p-4, -0x1.034b2e0000000p-4, 0x1.3bdd440000000p-3, -0x1.2e3e840000000p-3, 0x1.1489660000000p-3, -0x1.6e8c0a0000000p-3, -0x1.2812020000000p-4, 0x1.cccc300000000p-5, -0x1.cb12400000000p-14, -0x1.fdd59c0000000p-8, 0x1.6cdf2a0000000p-3, -0x1.f97edc0000000p-5, -0x1.db41660000000p-6, -0x1.a33a100000000p-6, 0x1.8217700000000p-3, -0x1.3c3f020000000p-5, 0x1.fc0f860000000p-4, 0x1.81ce2e0000000p-5, -0x1.1187720000000p-3, -0x1.0a42e80000000p-8}
, {-0x1.724d000000000p-7, -0x1.4e046c0000000p-3, -0x1.a7a22a0000000p-4, 0x1.2de7da0000000p-3, -0x1.64e5aa0000000p-4, 0x1.e507340000000p-4, -0x1.509d200000000p-4, 0x1.6504360000000p-4, 0x1.202eba0000000p-3, 0x1.1f39fa0000000p-3, 0x1.b88eec0000000p-5, 0x1.29e2d40000000p-5, -0x1.09c2c20000000p-4, -0x1.c516860000000p-5, -0x1.9463de0000000p-3, -0x1.7e6d1e0000000p-3, 0x1.28d8700000000p-5, 0x1.e8b5760000000p-4, 0x1.74fef40000000p-4, -0x1.bdb4be0000000p-5, 0x1.1f1a840000000p-4, -0x1.5e2cf00000000p-3, 0x1.5ac8a40000000p-3, 0x1.bb087e0000000p-4, -0x1.4e2eae0000000p-3, 0x1.59fe280000000p-4, 0x1.0ff9040000000p-3, -0x1.6051900000000p-4, -0x1.c272220000000p-6, -0x1.3e0fd60000000p-6, 0x1.4633440000000p-4, -0x1.1e31a20000000p-7}
}
, {{0x1.7974a60000000p-3, 0x1.13b5e80000000p-5, -0x1.2ce5780000000p-4, 0x1.74fc320000000p-4, -0x1.f45ae60000000p-4, -0x1.16b9da0000000p-4, 0x1.0560380000000p-4, 0x1.ee59520000000p-5, -0x1.54994e0000000p-8, -0x1.547c040000000p-4, 0x1.86f50c0000000p-3, 0x1.201e900000000p-4, 0x1.87374e0000000p-4, 0x1.bc40600000000p-4, -0x1.e168c20000000p-4, 0x1.992cb40000000p-4, 0x1.7e572a0000000p-3, 0x1.834ea80000000p-5, -0x1.413b540000000p-12, -0x1.4d4c7e0000000p-4, 0x1.a6ad4c0000000p-5, -0x1.2a01560000000p-7, 0x1.284b3c0000000p-3, -0x1.fd8cc40000000p-4, 0x1.da2a9a0000000p-3, 0x1.07678e0000000p-6, 0x1.1a639e0000000p-4, -0x1.b7786a0000000p-6, 0x1.eaa8b80000000p-4, -0x1.917f240000000p-4, -0x1.6d5d580000000p-3, -0x1.04d5000000000p-3}
, {0x1.6c39d60000000p-3, 0x1.ac86c20000000p-5, -0x1.e6c8540000000p-5, -0x1.aa1b5e0000000p-3, -0x1.4c25880000000p-3, 0x1.50012c0000000p-5, -0x1.34aae20000000p-3, 0x1.434dd80000000p-5, -0x1.5b3c320000000p-5, -0x1.2cc5520000000p-7, -0x1.f5310a0000000p-7, -0x1.4b4aea0000000p-6, -0x1.91462a0000000p-6, -0x1.580e7a0000000p-4, -0x1.e6986a0000000p-4, 0x1.688e8e0000000p-4, 0x1.384bd80000000p-3, 0x1.51734e0000000p-3, 0x1.4d6e180000000p-7, -0x1.292c040000000p-3, 0x1.ed7be60000000p-4, -0x1.3c75900000000p-3, 0x1.16d2040000000p-8, -0x1.06d6620000000p-6, -0x1.1ee61a0000000p-4, -0x1.4902ea0000000p-3, 0x1.113b060000000p-3, -0x1.e7ccb00000000p-5, 0x1.8658c80000000p-3, 0x1.66b1fa0000000p-3, -0x1.cb2e8a0000000p-4, 0x1.c269000000000p-4}
}
, {{-0x1.e506320000000p-5, 0x1.43b4600000000p-5, 0x1.e5cc280000000p-4, -0x1.78a4d20000000p-4, -0x1.27f90c0000000p-2, -0x1.6491c00000000p-4, -0x1.0efb5e0000000p-4, -0x1.8022b20000000p-5, -0x1.459f460000000p-8, -0x1.9e3e260000000p-4, -0x1.12139c0000000p-2, -0x1.7e27160000000p-4, 0x1.f7e1a40000000p-4, 0x1.211fd00000000p-4, -0x1.8a43120000000p-4, 0x1.4160a40000000p-3, 0x1.5925500000000p-3, -0x1.40bcbc0000000p-3, -0x1.6b130e0000000p-3, -0x1.50391c0000000p-3, 0x1.35eb1a0000000p-3, -0x1.f028640000000p-5, -0x1.994efe0000000p-3, -0x1.2a3ac80000000p-5, 0x1.266a8a0000000p-3, -0x1.3825380000000p-3, 0x1.23e1340000000p-5, -0x1.aaa8220000000p-5, -0x1.e4efae0000000p-5, -0x1.bd06260000000p-7, -0x1.b505d00000000p-8, -0x1.59311c0000000p-3}
, {0x1.cdccea0000000p-5, -0x1.6d520e0000000p-3, -0x1.9b1da60000000p-5, 0x1.61468a0000000p-4, -0x1.1e1ec80000000p-3, 0x1.4f2c1c0000000p-6, 0x1.d02b0e0000000p-4, -0x1.0035ae0000000p-2, 0x1.321f840000000p-3, 0x1.15d8840000000p-5, -0x1.a6fa5a0000000p-3, 0x1.65582c0000000p-3, 0x1.1981ca0000000p-3, 0x1.f9d3fe0000000p-4, 0x1.2efada0000000p-5, 0x1.2641e80000000p-5, -0x1.b0a9dc0000000p-4, 0x1.591ea40000000p-3, 0x1.3297c20000000p-3, 0x1.36e9ba0000000p-11, 0x1.02ff8e0000000p-3, -0x1.0baa1e0000000p-3, -0x1.74cea40000000p-8, 0x1.11f22e0000000p-4, 0x1.942fb60000000p-5, -0x1.2a88680000000p-3, 0x1.ac43340000000p-5, 0x1.4da12c0000000p-4, -0x1.d2f5580000000p-5, -0x1.20e29a0000000p-3, 0x1.7afe940000000p-7, 0x1.648faa0000000p-5}
}
, {{0x1.6b26f40000000p-5, 0x1.ea1a120000000p-5, -0x1.1cd5300000000p-7, 0x1.9ad7540000000p-7, -0x1.def0780000000p-4, -0x1.3125400000000p-7, -0x1.1268f00000000p-5, 0x1.3e5ad40000000p-4, 0x1.b46f1a0000000p-5, -0x1.83c6700000000p-3, -0x1.dafaa60000000p-5, 0x1.34421e0000000p-4, 0x1.120bda0000000p-3, 0x1.36d6340000000p-3, 0x1.2da8980000000p-4, 0x1.6ef5e40000000p-5, -0x1.4919da0000000p-4, 0x1.f6434e0000000p-5, -0x1.029cc80000000p-4, -0x1.fb53ca0000000p-5, -0x1.4b73740000000p-5, 0x1.df7b400000000p-5, 0x1.2cadbc0000000p-3, -0x1.aee9b00000000p-8, 0x1.6f9b120000000p-3, -0x1.d7fd840000000p-4, 0x1.74dd840000000p-4, -0x1.95ad180000000p-3, 0x1.cde3e00000000p-9, 0x1.70d6640000000p-3, -0x1.8c05960000000p-6, -0x1.9a98fc0000000p-3}
, {-0x1.8a78200000000p-6, -0x1.5783a20000000p-4, -0x1.86f9620000000p-5, -0x1.53599a0000000p-4, 0x1.3cc8f60000000p-3, -0x1.10335e0000000p-5, 0x1.494a380000000p-4, -0x1.0143f00000000p-6, 0x1.779c000000000p-5, -0x1.954c700000000p-4, 0x1.7feb400000000p-4, 0x1.7fff1e0000000p-3, 0x1.ca675a0000000p-7, -0x1.66cbda0000000p-5, 0x1.300ea00000000p-3, -0x1.59e2c80000000p-4, 0x1.6c8e1e0000000p-3, 0x1.5617e60000000p-3, -0x1.b3f4e00000000p-4, 0x1.68f3140000000p-3, 0x1.5152460000000p-3, -0x1.71c7e60000000p-3, 0x1.500fbc0000000p-3, -0x1.a4c4900000000p-6, 0x1.321a240000000p-4, 0x1.49ec220000000p-4, 0x1.5b18c80000000p-3, -0x1.b37e680000000p-4, 0x1.b7649c0000000p-7, 0x1.d97c3e0000000p-5, -0x1.1cc78e0000000p-5, 0x1.dba2480000000p-5}
}
, {{0x1.f7e9be0000000p-5, -0x1.8186c00000000p-3, 0x1.740e3c0000000p-6, -0x1.1013880000000p-3, 0x1.aa49520000000p-3, 0x1.3956960000000p-5, -0x1.1845020000000p-3, -0x1.4c67200000000p-3, 0x1.75760a0000000p-4, 0x1.9c88520000000p-3, -0x1.6151440000000p-2, 0x1.433cde0000000p-5, -0x1.a123320000000p-3, -0x1.1e183c0000000p-3, -0x1.1b39380000000p-3, -0x1.1a3c7a0000000p-5, -0x1.3e7d580000000p-3, 0x1.49f8f00000000p-3, 0x1.1db28c0000000p-3, -0x1.770d3e0000000p-4, 0x1.6a19e80000000p-3, 0x1.8f42700000000p-4, 0x1.6616cc0000000p-6, -0x1.76f7b40000000p-4, 0x1.1c19bc0000000p-3, 0x1.4f16c00000000p-6, -0x1.c8a40a0000000p-3, 0x1.8d66f00000000p-4, -0x1.ca69d40000000p-13, -0x1.0edb500000000p-3, -0x1.06124a0000000p-3, -0x1.0038c40000000p-5}
, {-0x1.12ac780000000p-3, 0x1.2295a40000000p-4, -0x1.46c6b60000000p-6, 0x1.3c36660000000p-5, 0x1.ad3f4c0000000p-4, 0x1.98ed7a0000000p-7, 0x1.4b82300000000p-3, 0x1.9ab8c20000000p-4, 0x1.92f6f20000000p-4, 0x1.8f6afa0000000p-5, -0x1.6948080000000p-5, -0x1.3ccd260000000p-3, -0x1.203b500000000p-8, 0x1.34f4fc0000000p-4, -0x1.2172f20000000p-4, 0x1.7a1e220000000p-5, -0x1.95f4f60000000p-4, -0x1.f6a7800000000p-6, -0x1.ca69d20000000p-5, 0x1.70efc60000000p-4, 0x1.a311d80000000p-7, 0x1.60a64a0000000p-4, -0x1.24f42c0000000p-5, 0x1.c3b5380000000p-4, -0x1.0fb3400000000p-3, 0x1.4368e60000000p-5, -0x1.17fd8c0000000p-3, -0x1.3b9d920000000p-3, -0x1.2585080000000p-3, -0x1.1385f00000000p-3, -0x1.32fdae0000000p-3, 0x1.0024880000000p-3}
}
, {{0x1.633dc60000000p-4, 0x1.ce10700000000p-4, 0x1.7720220000000p-7, 0x1.f619e40000000p-7, 0x1.019d940000000p-4, -0x1.bb5f7e0000000p-4, -0x1.883b060000000p-6, 0x1.1932e00000000p-3, -0x1.ec8b020000000p-5, -0x1.84d79c0000000p-3, -0x1.c0cfe20000000p-4, -0x1.cd651e0000000p-4, -0x1.b2d8760000000p-4, -0x1.08baf00000000p-3, 0x1.94bd340000000p-5, -0x1.1f1d5e0000000p-6, 0x1.1ce7b60000000p-3, -0x1.bb85e60000000p-4, -0x1.ccd46a0000000p-5, -0x1.71fe4a0000000p-4, 0x1.6726b20000000p-4, -0x1.9d030c0000000p-4, 0x1.85a5a40000000p-7, 0x1.bb46b00000000p-4, -0x1.8ac89a0000000p-4, -0x1.1d94b00000000p-7, 0x1.bc43840000000p-6, 0x1.9f7d680000000p-4, -0x1.1f63320000000p-4, -0x1.880ba80000000p-3, -0x1.a459be0000000p-9, 0x1.c4855e0000000p-6}
, {0x1.e331b00000000p-5, 0x1.a3fbaa0000000p-12, -0x1.c7b04c0000000p-5, -0x1.4116da0000000p-3, 0x1.7df5700000000p-3, -0x1.6006f20000000p-3, 0x1.72c0380000000p-3, -0x1.cb9d8a0000000p-6, -0x1.76649c0000000p-3, -0x1.38d76a0000000p-5, -0x1.e45a9e0000000p-4, 0x1.4ca0cc0000000p-3, -0x1.1ff5ca0000000p-3, 0x1.81f6d20000000p-4, 0x1.412b520000000p-5, -0x1.43d4560000000p-3, 0x1.ef07640000000p-4, 0x1.8aa6960000000p-4, -0x1.aa356a0000000p-7, -0x1.7972ca0000000p-3, 0x1.ad5b9c0000000p-5, 0x1.30b80e0000000p-3, 0x1.77fbd00000000p-5, 0x1.c7973c0000000p-5, 0x1.7b3d7c0000000p-4, 0x1.9895fc0000000p-3, 0x1.0a138c0000000p-4, 0x1.20f0e40000000p-3, 0x1.2275260000000p-3, 0x1.8f17c20000000p-5, -0x1.3271100000000p-7, 0x1.24f82e0000000p-3}
}
, {{0x1.1d76080000000p-6, 0x1.547c2a0000000p-3, -0x1.2585b00000000p-3, -0x1.3030740000000p-5, 0x1.4c7cc00000000p-4, -0x1.c1c87e0000000p-6, -0x1.601fea0000000p-5, 0x1.85b24a0000000p-3, 0x1.10ef420000000p-4, 0x1.5e9b1a0000000p-5, 0x1.65dbc00000000p-4, -0x1.f5af4a0000000p-9, 0x1.14023a0000000p-6, -0x1.2c707c0000000p-3, -0x1.0765420000000p-3, -0x1.49a4b80000000p-3, 0x1.e392aa0000000p-4, -0x1.002bbc0000000p-5, -0x1.532c780000000p-4, 0x1.2a1bde0000000p-3, 0x1.9f1d440000000p-8, -0x1.8b0c8c0000000p-5, 0x1.387b0e0000000p-3, 0x1.99b36c0000000p-5, -0x1.118df00000000p-4, -0x1.228fd00000000p-5, -0x1.669d3a0000000p-4, -0x1.0521b20000000p-3, -0x1.20a8da0000000p-3, -0x1.0b73b20000000p-4, -0x1.6f597e0000000p-4, 0x1.db7b2c0000000p-4}
, {0x1.7a19ea0000000p-4, 0x1.ca55240000000p-4, 0x1.44d7ca0000000p-3, 0x1.e8a58a0000000p-4, 0x1.9c2f8e0000000p-5, -0x1.cdf0080000000p-4, 0x1.31542c0000000p-4, 0x1.40856a0000000p-3, 0x1.39a81e0000000p-5, -0x1.b802d80000000p-6, 0x1.73691a0000000p-3, -0x1.7715c20000000p-5, -0x1.ab81cc0000000p-9, 0x1.d6db760000000p-5, 0x1.519d4e0000000p-4, 0x1.0745740000000p-6, 0x1.d5d84a0000000p-3, -0x1.2527b80000000p-3, 0x1.6dba420000000p-3, 0x1.d4c8700000000p-4, 0x1.8c251e0000000p-6, -0x1.07dd880000000p-4, -0x1.ee81640000000p-4, -0x1.28769e0000000p-3, -0x1.55105e0000000p-3, -0x1.16e0a00000000p-5, 0x1.b6ec180000000p-3, 0x1.af5dd80000000p-5, 0x1.143e9a0000000p-6, 0x1.4178000000000p-3, -0x1.54ebaa0000000p-3, 0x1.7a37320000000p-3}
}
, {{-0x1.1b2d700000000p-3, 0x1.ff480a0000000p-6, 0x1.0470220000000p-4, 0x1.b5e0a80000000p-3, 0x1.6344b80000000p-3, 0x1.22d5180000000p-6, 0x1.e1ffb80000000p-3, 0x1.0c21a00000000p-7, 0x1.cfc4320000000p-5, -0x1.3fc7700000000p-7, 0x1.aa712c0000000p-3, -0x1.6b0e460000000p-4, -0x1.7f027e0000000p-5, 0x1.4354840000000p-3, 0x1.1c73040000000p-6, 0x1.6c656a0000000p-3, -0x1.83aea60000000p-5, 0x1.cb80180000000p-3, 0x1.8892920000000p-4, -0x1.541a200000000p-3, 0x1.4e68e00000000p-5, -0x1.f4b1f60000000p-4, -0x1.0495060000000p-3, 0x1.360b540000000p-3, -0x1.9117dc0000000p-4, 0x1.079b5e0000000p-4, 0x1.768fbc0000000p-4, -0x1.44ff180000000p-7, -0x1.03ebb20000000p-3, -0x1.6c07d40000000p-3, -0x1.1c21660000000p-4, 0x1.57625c0000000p-3}
, {-0x1.23fdbe0000000p-6, -0x1.ee38d00000000p-7, 0x1.6c17320000000p-3, 0x1.0320360000000p-2, 0x1.7735de0000000p-4, -0x1.d7bd760000000p-7, 0x1.2608ac0000000p-3, -0x1.938dd20000000p-5, -0x1.9ce30c0000000p-3, -0x1.812b800000000p-9, -0x1.05d3020000000p-5, 0x1.ada2d60000000p-3, -0x1.a3f9280000000p-5, 0x1.e4e5360000000p-4, 0x1.06111a0000000p-3, -0x1.1549900000000p-3, -0x1.9066160000000p-4, -0x1.8f7e3e0000000p-4, -0x1.41f3f00000000p-3, -0x1.7d2c800000000p-4, 0x1.27a7940000000p-3, -0x1.7742fe0000000p-3, 0x1.2f79280000000p-3, 0x1.1482ca0000000p-3, 0x1.d8dc2c0000000p-4, -0x1.1c046e0000000p-3, -0x1.ce71f60000000p-6, 0x1.dfea320000000p-4, 0x1.0b76a00000000p-5, -0x1.ce765a0000000p-5, 0x1.14d96a0000000p-4, 0x1.2e00ec0000000p-7}
}
, {{0x1.7856c00000000p-4, 0x1.dade7a0000000p-3, -0x1.06c34a0000000p-4, 0x1.1fe29a0000000p-4, -0x1.5b79fe0000000p-3, 0x1.5446d80000000p-4, 0x1.4e21e60000000p-5, -0x1.3322360000000p-4, -0x1.2decc40000000p-5, 0x1.1520660000000p-5, -0x1.f7d5a00000000p-4, -0x1.caf08a0000000p-9, 0x1.90e0f00000000p-4, -0x1.3f4abe0000000p-3, 0x1.614ec80000000p-4, -0x1.1b599c0000000p-3, -0x1.cd1e760000000p-6, 0x1.6e80640000000p-3, -0x1.67b0d20000000p-3, 0x1.cd36620000000p-5, 0x1.db47500000000p-4, 0x1.a748860000000p-4, -0x1.41eed60000000p-3, 0x1.4c1a3e0000000p-3, 0x1.4fd75c0000000p-4, -0x1.379b880000000p-3, -0x1.5cae300000000p-3, -0x1.c3d4360000000p-5, -0x1.7fd3440000000p-3, -0x1.6ce1400000000p-3, -0x1.580cec0000000p-4, 0x1.35ace20000000p-6}
, {-0x1.bf4c0a0000000p-8, 0x1.1a63480000000p-2, -0x1.ed27f80000000p-5, 0x1.0ff9d60000000p-3, 0x1.54ab680000000p-4, -0x1.a821680000000p-5, -0x1.441ea60000000p-3, 0x1.b868fe0000000p-5, -0x1.64f10c0000000p-3, 0x1.565f720000000p-4, -0x1.3d88620000000p-3, -0x1.7f0ef00000000p-3, 0x1.2a1bfe0000000p-3, 0x1.323f140000000p-3, 0x1.b4c4360000000p-5, -0x1.6d4b100000000p-4, 0x1.ba17c20000000p-3, 0x1.0822ca0000000p-6, -0x1.38e44c0000000p-4, 0x1.054b820000000p-5, 0x1.493be40000000p-3, 0x1.17969c0000000p-3, -0x1.5c1c540000000p-6, 0x1.bb44340000000p-4, -0x1.8999a60000000p-6, 0x1.78646a0000000p-4, -0x1.a6364a0000000p-4, -0x1.03bbec0000000p-6, 0x1.6394880000000p-3, -0x1.241ece0000000p-3, 0x1.0b12f80000000p-3, 0x1.9437ec0000000p-5}
}
, {{0x1.0029e60000000p-5, -0x1.849fee0000000p-3, 0x1.36730e0000000p-3, -0x1.72cbb80000000p-3, -0x1.e83ab40000000p-6, -0x1.69f6ec0000000p-3, 0x1.2a82220000000p-3, 0x1.0ee0fe0000000p-3, 0x1.0adda60000000p-3, -0x1.ab5bd40000000p-4, 0x1.8f77700000000p-4, 0x1.1426380000000p-3, -0x1.55f42e0000000p-3, 0x1.a903580000000p-6, 0x1.16c7540000000p-4, -0x1.319c360000000p-5, -0x1.41f41c0000000p-3, -0x1.612dc40000000p-4, -0x1.f0b64e0000000p-4, 0x1.30a63e0000000p-3, -0x1.9972760000000p-8, 0x1.b995480000000p-4, 0x1.36d1fc0000000p-4, -0x1.17f98a0000000p-5, 0x1.f456800000000p-4, -0x1.d3ee760000000p-3, -0x1.589d1c0000000p-3, 0x1.d319f00000000p-4, -0x1.f63aec0000000p-3, -0x1.d4397c0000000p-3, -0x1.2690ac0000000p-3, 0x1.6641b20000000p-3}
, {-0x1.339fa60000000p-4, -0x1.08d6160000000p-2, 0x1.59e1fa0000000p-5, -0x1.14f8ac0000000p-5, -0x1.538c060000000p-3, 0x1.a120320000000p-8, 0x1.fb637e0000000p-5, 0x1.4e72f40000000p-3, 0x1.22cd960000000p-5, 0x1.7ce8360000000p-3, -0x1.406f140000000p-7, 0x1.6503de0000000p-5, 0x1.2662600000000p-4, 0x1.be31680000000p-4, 0x1.7f92c60000000p-3, -0x1.5673a60000000p-4, 0x1.a99d6a0000000p-4, 0x1.439caa0000000p-6, -0x1.8c5f6e0000000p-4, 0x1.efada20000000p-9, 0x1.94a6880000000p-4, -0x1.2e25a20000000p-4, 0x1.51b6720000000p-3, -0x1.c2779c0000000p-8, -0x1.b061e00000000p-5, -0x1.79dcea0000000p-3, 0x1.03cb9a0000000p-3, 0x1.659f9a0000000p-3, -0x1.5dfa060000000p-4, -0x1.2961560000000p-3, -0x1.1585f80000000p-3, 0x1.2fc8260000000p-3}
}
, {{-0x1.147b220000000p-4, 0x1.7e3eee0000000p-5, 0x1.9ce6f00000000p-5, -0x1.530a860000000p-4, 0x1.3e72da0000000p-4, 0x1.77de7c0000000p-11, -0x1.7b76160000000p-5, -0x1.14fdd60000000p-6, 0x1.a6af680000000p-5, -0x1.dcfa6e0000000p-6, 0x1.74c30c0000000p-5, 0x1.203cb40000000p-2, 0x1.281ea20000000p-3, 0x1.0c56b00000000p-3, 0x1.4f805e0000000p-3, -0x1.3011ae0000000p-6, 0x1.6560520000000p-3, -0x1.ff37e20000000p-4, 0x1.0ae2a00000000p-4, -0x1.9ed52a0000000p-5, 0x1.73b0020000000p-6, 0x1.e616fe0000000p-4, -0x1.b043ba0000000p-6, 0x1.a039a60000000p-4, 0x1.83b1dc0000000p-3, 0x1.c35f240000000p-5, 0x1.b646180000000p-5, -0x1.53cb000000000p-4, -0x1.843e0a0000000p-3, -0x1.b8966c0000000p-4, -0x1.5f3a8e0000000p-4, -0x1.1f58d40000000p-3}
, {-0x1.e887920000000p-6, 0x1.1f811a0000000p-3, -0x1.484b3e0000000p-3, -0x1.ab0cbe0000000p-5, 0x1.4a74d40000000p-3, -0x1.6986f20000000p-4, 0x1.7d1be40000000p-4, -0x1.6211e60000000p-7, 0x1.92306e0000000p-6, 0x1.da2faa0000000p-5, 0x1.1a5db60000000p-6, 0x1.0a885e0000000p-2, -0x1.aa89a00000000p-4, 0x1.33b4000000000p-5, 0x1.114aa60000000p-6, -0x1.d8920e0000000p-6, 0x1.02663e0000000p-4, -0x1.1066500000000p-4, -0x1.4df07a0000000p-4, -0x1.3d896e0000000p-3, -0x1.f58e900000000p-6, -0x1.903c040000000p-4, -0x1.7ad52c0000000p-4, 0x1.4898100000000p-4, -0x1.86f1480000000p-4, 0x1.638b3a0000000p-3, -0x1.57f8540000000p-3, -0x1.308a540000000p-5, -0x1.e9e96c0000000p-6, -0x1.ae91120000000p-5, 0x1.192fb00000000p-5, 0x1.2bced40000000p-6}
}
, {{-0x1.8e740c0000000p-6, -0x1.c206320000000p-4, 0x1.5e49400000000p-4, -0x1.1aa51e0000000p-3, -0x1.7c16d80000000p-6, 0x1.2018660000000p-3, -0x1.2b7b620000000p-5, 0x1.9b65d80000000p-4, -0x1.ac8a9a0000000p-6, 0x1.55e5820000000p-4, 0x1.9fe4920000000p-3, -0x1.a854080000000p-4, -0x1.3e3aac0000000p-5, -0x1.bcdc2a0000000p-6, 0x1.e1a96c0000000p-4, -0x1.22dd580000000p-3, 0x1.02bd260000000p-2, 0x1.bd3faa0000000p-7, 0x1.626b6e0000000p-3, 0x1.7435ac0000000p-4, 0x1.0ac2320000000p-4, -0x1.8831c40000000p-4, 0x1.ed14780000000p-5, -0x1.ab2ef20000000p-3, -0x1.9917dc0000000p-4, 0x1.a81f600000000p-3, -0x1.635be20000000p-4, 0x1.2639ea0000000p-6, -0x1.abdc780000000p-9, 0x1.edc0ac0000000p-4, 0x1.3077c40000000p-3, 0x1.5112960000000p-4}
, {-0x1.1efcb20000000p-5, 0x1.28860e0000000p-6, -0x1.3aa6b40000000p-4, 0x1.dca1e40000000p-4, -0x1.36d38e0000000p-3, -0x1.dbfdae0000000p-4, -0x1.0c354c0000000p-3, -0x1.2bc6040000000p-3, 0x1.26d1b00000000p-5, 0x1.f5a4800000000p-5, 0x1.24d4160000000p-5, -0x1.204ea40000000p-3, 0x1.2ef0ca0000000p-4, -0x1.aafe4e0000000p-3, -0x1.8a621a0000000p-6, -0x1.21170c0000000p-3, -0x1.9aa6a00000000p-4, 0x1.d2fc540000000p-7, -0x1.816e0c0000000p-3, 0x1.7c567c0000000p-3, 0x1.ad868e0000000p-4, 0x1.09291a0000000p-5, -0x1.c77c440000000p-3, 0x1.6ceeba0000000p-7, 0x1.60b4760000000p-3, 0x1.29caaa0000000p-4, -0x1.18629a0000000p-3, -0x1.7190340000000p-4, -0x1.271b300000000p-3, 0x1.1b0dd40000000p-5, 0x1.d78a8a0000000p-5, 0x1.8fb2460000000p-7}
}
, {{0x1.d8962a0000000p-5, -0x1.2f4f920000000p-3, -0x1.9dd0960000000p-4, 0x1.661fda0000000p-7, -0x1.892cf40000000p-4, -0x1.ef8b0e0000000p-5, 0x1.0d99080000000p-3, -0x1.a53abe0000000p-5, -0x1.993d160000000p-3, 0x1.48dc360000000p-8, -0x1.06b15a0000000p-8, 0x1.8cec220000000p-4, 0x1.37da760000000p-4, -0x1.d039e20000000p-3, -0x1.ebaa6a0000000p-4, -0x1.5c3f360000000p-3, -0x1.34c3d00000000p-3, -0x1.a5243c0000000p-3, -0x1.58bee80000000p-3, -0x1.4cf38a0000000p-4, -0x1.4d3a040000000p-5, -0x1.0fadc20000000p-4, 0x1.8426a80000000p-4, -0x1.bdcf7a0000000p-5, -0x1.d594e40000000p-6, -0x1.4daaf00000000p-3, -0x1.03ab700000000p-4, 0x1.9b647e0000000p-4, 0x1.3114b20000000p-8, -0x1.04ed120000000p-2, 0x1.c7dc220000000p-5, -0x1.f33fa00000000p-5}
, {-0x1.0b9ccc0000000p-6, -0x1.d2d6620000000p-5, 0x1.4d564e0000000p-4, -0x1.1ce1960000000p-8, -0x1.8a95de0000000p-6, -0x1.0eb9d40000000p-3, 0x1.e654c80000000p-3, 0x1.ef70d80000000p-4, -0x1.6290740000000p-5, -0x1.47eb460000000p-9, 0x1.e54f4a0000000p-5, 0x1.a455a60000000p-5, -0x1.2f2f720000000p-5, 0x1.ade7ae0000000p-6, 0x1.0c96f60000000p-3, 0x1.bfe1820000000p-3, -0x1.9b8cce0000000p-8, 0x1.176a160000000p-5, 0x1.e161c80000000p-3, 0x1.0bbc560000000p-3, -0x1.00c0c20000000p-3, 0x1.ab34340000000p-3, 0x1.20962e0000000p-3, 0x1.315ff60000000p-3, -0x1.20a3080000000p-4, 0x1.a9918c0000000p-4, -0x1.83316c0000000p-4, -0x1.1e2a400000000p-3, -0x1.88775a0000000p-4, 0x1.be8b8e0000000p-5, -0x1.6abf240000000p-5, 0x1.d9619e0000000p-5}
}
, {{0x1.ee89340000000p-3, 0x1.8604020000000p-5, -0x1.f9a2da0000000p-7, 0x1.1531420000000p-6, 0x1.55a5f60000000p-3, -0x1.6471280000000p-6, 0x1.1b26640000000p-6, -0x1.7c47ca0000000p-5, 0x1.4725520000000p-4, -0x1.87c9820000000p-3, -0x1.e33bb40000000p-6, -0x1.17febe0000000p-3, -0x1.83b8020000000p-3, -0x1.da62c00000000p-6, -0x1.3260f80000000p-3, -0x1.8ead140000000p-4, -0x1.22ddac0000000p-3, 0x1.d2becc0000000p-4, -0x1.9337a60000000p-3, -0x1.feabee0000000p-8, -0x1.1b26a40000000p-3, -0x1.3fd4ea0000000p-3, 0x1.335ce40000000p-4, -0x1.c538d20000000p-4, -0x1.6628de0000000p-3, 0x1.018d340000000p-3, 0x1.23ebca0000000p-3, 0x1.217b120000000p-4, -0x1.b755160000000p-4, -0x1.2505880000000p-3, -0x1.725bd80000000p-4, -0x1.4998c00000000p-3}
, {-0x1.3ffd080000000p-4, -0x1.e27ea80000000p-7, 0x1.220f840000000p-3, -0x1.b26dca0000000p-6, 0x1.55f2700000000p-3, 0x1.fbfa080000000p-3, 0x1.5a831a0000000p-3, 0x1.03f8620000000p-4, -0x1.366c3e0000000p-6, -0x1.56ae540000000p-4, 0x1.6d4c7a0000000p-6, 0x1.b3290a0000000p-4, 0x1.fa96180000000p-8, 0x1.2b605e0000000p-4, -0x1.462f0c0000000p-4, -0x1.7f9a460000000p-3, 0x1.ea12560000000p-5, -0x1.3d9f960000000p-11, 0x1.d081400000000p-3, -0x1.d96ba00000000p-5, -0x1.aa3d500000000p-4, 0x1.5955180000000p-3, 0x1.00a7f80000000p-10, 0x1.c927500000000p-6, -0x1.2f145c0000000p-4, -0x1.f471620000000p-4, -0x1.01efca0000000p-4, 0x1.cb72e00000000p-4, 0x1.e7a80e0000000p-7, 0x1.d862820000000p-5, -0x1.8000080000000p-3, 0x1.19213a0000000p-2}
}
, {{0x1.2e62720000000p-6, -0x1.07950a0000000p-5, 0x1.61869a0000000p-3, -0x1.c1472a0000000p-3, -0x1.31af2c0000000p-3, -0x1.e1b44c0000000p-6, -0x1.29e34a0000000p-4, 0x1.4d17fa0000000p-4, -0x1.9aa0520000000p-4, -0x1.d86d7e0000000p-5, -0x1.c162340000000p-3, 0x1.8131f60000000p-3, 0x1.b692520000000p-4, -0x1.9080fa0000000p-3, 0x1.7516080000000p-3, 0x1.45ca440000000p-4, -0x1.4520160000000p-4, 0x1.6bc30e0000000p-6, -0x1.20a2f60000000p-3, -0x1.dd00aa0000000p-4, -0x1.f0fbac0000000p-7, -0x1.450cda0000000p-4, -0x1.164c660000000p-3, -0x1.42aa2e0000000p-4, 0x1.bec5160000000p-3, 0x1.deb0560000000p-6, 0x1.e9bda60000000p-9, 0x1.03a76e0000000p-4, 0x1.d9bb8c0000000p-4, 0x1.58892e0000000p-6, 0x1.29e86e0000000p-3, 0x1.d2c4f40000000p-4}
, {-0x1.04a6e40000000p-4, -0x1.1dba4c0000000p-3, -0x1.b5c2920000000p-4, 0x1.0652c40000000p-3, -0x1.8b2b6c0000000p-5, -0x1.7a449a0000000p-3, 0x1.c237200000000p-7, -0x1.596ab80000000p-4, 0x1.6143200000000p-4, -0x1.ed68f60000000p-5, 0x1.389f740000000p-3, 0x1.148f940000000p-3, 0x1.c8b4c60000000p-7, -0x1.1efcba0000000p-3, -0x1.6dc6cc0000000p-5, 0x1.d93ebe0000000p-4, 0x1.f3d7140000000p-4, -0x1.69a5ee0000000p-4, 0x1.5d0da40000000p-5, 0x1.696e080000000p-5, -0x1.f16b0a0000000p-5, -0x1.4a84780000000p-3, -0x1.334a760000000p-3, 0x1.d186d20000000p-5, 0x1.ba715a0000000p-5, -0x1.69825c0000000p-5, -0x1.ce0bd40000000p-4, -0x1.920be20000000p-3, 0x1.63eb380000000p-3, -0x1.603a900000000p-4, 0x1.b236720000000p-3, 0x1.063a920000000p-3}
}
, {{-0x1.2dd26e0000000p-3, 0x1.131fb00000000p-4, -0x1.6f00800000000p-4, 0x1.cce1ea0000000p-6, 0x1.8e5b8c0000000p-3, -0x1.7276b40000000p-4, 0x1.5fe0360000000p-3, 0x1.9dc1140000000p-5, 0x1.ac81620000000p-6, 0x1.5623580000000p-3, -0x1.b361160000000p-3, -0x1.f0850e0000000p-4, 0x1.421bfe0000000p-4, 0x1.dcfa2a0000000p-3, 0x1.2778b40000000p-4, 0x1.008f6a0000000p-3, 0x1.c46dc40000000p-3, 0x1.02c6ea0000000p-4, -0x1.59f7ba0000000p-3, 0x1.b3d6540000000p-3, 0x1.ac320e0000000p-5, -0x1.bc6a8a0000000p-7, -0x1.6d02120000000p-4, 0x1.0a14f20000000p-4, -0x1.4447580000000p-3, 0x1.1246940000000p-2, -0x1.49cd320000000p-7, -0x1.2c09680000000p-4, -0x1.69422a0000000p-4, -0x1.3f1af60000000p-5, -0x1.0087fe0000000p-6, -0x1.dc34660000000p-5}
, {-0x1.42177c0000000p-3, -0x1.a7a01e0000000p-3, -0x1.8df1080000000p-3, 0x1.280c380000000p-2, 0x1.ac809c0000000p-6, -0x1.5b4f840000000p-3, -0x1.5582000000000p-4, -0x1.b33f8e0000000p-3, -0x1.b0350e0000000p-3, -0x1.2a308a0000000p-4, 0x1.7719500000000p-3, -0x1.b04ff60000000p-4, 0x1.35c4440000000p-3, -0x1.f5d0600000000p-5, -0x1.6ef2140000000p-5, -0x1.4f71c20000000p-6, 0x1.ac3d280000000p-4, -0x1.f4e4480000000p-4, -0x1.9243e00000000p-3, 0x1.e0e43a0000000p-4, -0x1.eb4ee00000000p-7, -0x1.dbbc280000000p-4, 0x1.da77120000000p-6, 0x1.0777820000000p-3, -0x1.556d740000000p-3, 0x1.26d4440000000p-4, -0x1.a078960000000p-4, 0x1.7f80c60000000p-5, -0x1.390b220000000p-10, -0x1.252fce0000000p-3, 0x1.6871220000000p-4, -0x1.c95fa80000000p-4}
}
, {{-0x1.8eff300000000p-4, -0x1.6b19e00000000p-3, -0x1.33c7360000000p-4, -0x1.3c56c80000000p-4, 0x1.25ca980000000p-5, 0x1.030c040000000p-3, 0x1.5579100000000p-4, 0x1.420ec60000000p-3, 0x1.7a3a080000000p-6, -0x1.15c6e40000000p-3, -0x1.2b17ae0000000p-3, -0x1.1b987e0000000p-4, 0x1.32d6ae0000000p-4, 0x1.98f7260000000p-4, -0x1.7372d20000000p-3, -0x1.0786400000000p-3, -0x1.1777940000000p-4, -0x1.a932820000000p-3, 0x1.aa684c0000000p-4, -0x1.6e6f980000000p-3, -0x1.84752e0000000p-5, 0x1.d3071e0000000p-4, -0x1.f3ade20000000p-4, 0x1.01fdc60000000p-3, -0x1.0986300000000p-5, 0x1.bf546a0000000p-3, 0x1.2511be0000000p-5, -0x1.79836a0000000p-5, -0x1.3905ae0000000p-4, -0x1.52fa200000000p-4, -0x1.6ebc0e0000000p-6, 0x1.77ce7a0000000p-3}
, {-0x1.20afaa0000000p-3, 0x1.e88de40000000p-8, -0x1.284ad20000000p-5, 0x1.71c2be0000000p-3, 0x1.ac2b700000000p-4, 0x1.6e6f1c0000000p-4, -0x1.6d42800000000p-3, 0x1.0131540000000p-4, 0x1.940a360000000p-5, 0x1.c4ba640000000p-5, -0x1.cac7420000000p-5, -0x1.ab8e7a0000000p-4, 0x1.3252640000000p-3, 0x1.a589ba0000000p-4, 0x1.12b3400000000p-3, 0x1.3d58bc0000000p-5, 0x1.969e0e0000000p-3, 0x1.1ad6000000000p-5, -0x1.26d3900000000p-5, 0x1.abf4a60000000p-4, 0x1.f7658c0000000p-4, -0x1.3984f60000000p-3, 0x1.3737b80000000p-3, -0x1.0c155c0000000p-3, 0x1.d853660000000p-6, 0x1.5b80160000000p-5, 0x1.8a47f20000000p-3, 0x1.0f5f5e0000000p-4, 0x1.56e9260000000p-6, -0x1.2c8c7c0000000p-3, -0x1.c1a1d20000000p-5, 0x1.ef137a0000000p-10}
}
, {{0x1.7157d20000000p-4, 0x1.b051b60000000p-4, 0x1.bc9f800000000p-4, 0x1.4f03a20000000p-3, 0x1.d626580000000p-5, -0x1.82e1ac0000000p-4, 0x1.843f560000000p-5, 0x1.a4cfaa0000000p-5, 0x1.18fdfe0000000p-3, 0x1.0b674c0000000p-4, 0x1.8524380000000p-4, 0x1.7743d00000000p-3, 0x1.0443420000000p-4, 0x1.f4a7d60000000p-5, 0x1.ba1e320000000p-5, -0x1.7ed4b40000000p-4, -0x1.eb86900000000p-5, 0x1.7596720000000p-7, 0x1.3356c80000000p-5, 0x1.7afd980000000p-3, 0x1.eb4da60000000p-6, 0x1.4d6ade0000000p-4, -0x1.421c780000000p-3, -0x1.3aefae0000000p-3, 0x1.77bf080000000p-4, -0x1.64ad8a0000000p-6, 0x1.e8d55c0000000p-4, 0x1.ea24dc0000000p-5, -0x1.6599bc0000000p-3, -0x1.e07cb40000000p-4, -0x1.8a27740000000p-4, 0x1.2ae1440000000p-4}
, {0x1.1844380000000p-3, 0x1.6365000000000p-3, 0x1.33dfea0000000p-3, -0x1.111c3c0000000p-7, 0x1.64b9c00000000p-4, 0x1.89d1300000000p-4, 0x1.b7b0a60000000p-4, 0x1.aa62600000000p-5, -0x1.5f24f00000000p-6, -0x1.fa16aa0000000p-4, 0x1.2aa7640000000p-3, 0x1.f1c9d20000000p-10, -0x1.be6fbc0000000p-4, -0x1.cbde3a0000000p-10, -0x1.af99560000000p-4, -0x1.153ccc0000000p-3, 0x1.1dd7400000000p-2, -0x1.ec51ea0000000p-4, 0x1.5465780000000p-8, 0x1.d2d4bc0000000p-4, -0x1.664cec0000000p-5, -0x1.386e660000000p-4, -0x1.dfb7c20000000p-5, -0x1.2914d60000000p-4, 0x1.623c5c0000000p-6, -0x1.8fe5420000000p-4, 0x1.2985f60000000p-5, 0x1.ffddae0000000p-4, -0x1.49603e0000000p-3, 0x1.0b835a0000000p-8, 0x1.0bafbc0000000p-4, 0x1.8966e00000000p-3}
}
, {{-0x1.433fe00000000p-4, -0x1.bdee920000000p-4, -0x1.450efe0000000p-3, -0x1.37a7420000000p-5, 0x1.67cf880000000p-6, -0x1.1bdcb80000000p-4, -0x1.e357ac0000000p-5, 0x1.08326c0000000p-6, -0x1.7530ea0000000p-7, 0x1.3df2b60000000p-8, -0x1.570e5e0000000p-5, -0x1.1def780000000p-2, -0x1.5f93ba0000000p-4, -0x1.1d51240000000p-3, 0x1.db54fc0000000p-4, -0x1.4d86700000000p-5, 0x1.dbd0b80000000p-4, -0x1.c5d83e0000000p-7, 0x1.a4fc260000000p-4, 0x1.b736ec0000000p-4, 0x1.0da5ea0000000p-3, 0x1.3fec120000000p-3, -0x1.bc03ea0000000p-4, 0x1.7ba99a0000000p-9, -0x1.32a04e0000000p-7, 0x1.8095a20000000p-4, -0x1.89019a0000000p-5, 0x1.3ca48c0000000p-3, -0x1.d4c2360000000p-4, 0x1.7302ba0000000p-3, 0x1.ae0f3e0000000p-3, 0x1.aac4e80000000p-4}
, {0x1.4b619e0000000p-5, -0x1.0228500000000p-5, -0x1.ebe1a40000000p-4, -0x1.d40bae0000000p-4, -0x1.f5c5120000000p-4, -0x1.6fd1e40000000p-3, -0x1.baecb60000000p-4, 0x1.f3a1960000000p-5, -0x1.3335500000000p-4, -0x1.ed39020000000p-4, 0x1.332cd80000000p-7, -0x1.79e9f60000000p-3, 0x1.b1c3680000000p-5, 0x1.0364dc0000000p-3, 0x1.89caf60000000p-4, 0x1.a697f40000000p-3, -0x1.3fb2d20000000p-4, 0x1.21c02e0000000p-4, -0x1.72337c0000000p-4, -0x1.a611100000000p-3, 0x1.09b9d00000000p-5, 0x1.8f2d880000000p-6, -0x1.90986c0000000p-4, 0x1.b00a460000000p-5, 0x1.77bba60000000p-3, 0x1.8f90500000000p-4, -0x1.8aae380000000p-4, -0x1.5442680000000p-5, 0x1.a4a1040000000p-3, -0x1.28f2c20000000p-4, 0x1.36cff20000000p-4, -0x1.8907580000000p-4}
}
, {{-0x1.c64f9a0000000p-6, -0x1.5728fe0000000p-7, 0x1.53ad920000000p-3, 0x1.6524d80000000p-5, -0x1.3c8ed60000000p-6, 0x1.8f8cbc0000000p-6, 0x1.2a5cec0000000p-6, 0x1.8078860000000p-4, 0x1.4822a40000000p-3, -0x1.8bf7820000000p-4, 0x1.1322600000000p-3, 0x1.6b65840000000p-6, 0x1.ef415a0000000p-9, -0x1.cb5d300000000p-4, -0x1.f80a200000000p-5, 0x1.2913180000000p-8, 0x1.324d520000000p-4, 0x1.644af60000000p-4, 0x1.618f640000000p-3, 0x1.4a7f220000000p-3, 0x1.9189940000000p-5, 0x1.a471380000000p-4, -0x1.4500800000000p-3, 0x1.d476980000000p-4, -0x1.01887c0000000p-3, -0x1.a96f6e0000000p-3, 0x1.f734e80000000p-4, 0x1.e5684a0000000p-4, -0x1.2b5ff00000000p-3, -0x1.b5194a0000000p-4, -0x1.2100920000000p-9, -0x1.39dd100000000p-5}
, {0x1.72ae280000000p-4, 0x1.edaf220000000p-4, 0x1.2c257c0000000p-3, 0x1.06afe60000000p-3, 0x1.be9ecc0000000p-4, 0x1.9157ea0000000p-6, -0x1.0450740000000p-3, 0x1.6841d80000000p-3, -0x1.6c57a20000000p-4, 0x1.6d23640000000p-6, -0x1.09289e0000000p-5, -0x1.5398ca0000000p-5, -0x1.2337260000000p-3, 0x1.a450aa0000000p-4, 0x1.e454f00000000p-5, 0x1.18ebb20000000p-3, 0x1.719ba00000000p-8, -0x1.1956100000000p-6, 0x1.147dc00000000p-3, -0x1.72244e0000000p-4, 0x1.fc20ec0000000p-4, 0x1.23b40a0000000p-4, -0x1.d9ed800000000p-4, 0x1.d8f6300000000p-3, 0x1.33824c0000000p-13, 0x1.8de3260000000p-7, -0x1.93d0d00000000p-4, 0x1.c6b0340000000p-6, -0x1.54e41a0000000p-3, -0x1.f9d02a0000000p-4, -0x1.34051a0000000p-3, 0x1.d43fbe0000000p-4}
}
, {{0x1.708da80000000p-3, -0x1.87b5660000000p-5, -0x1.68df880000000p-5, 0x1.27efdc0000000p-3, -0x1.ca3cb00000000p-3, -0x1.8f77b20000000p-3, 0x1.5e052a0000000p-3, -0x1.7660e80000000p-8, 0x1.5f7f300000000p-5, -0x1.418da00000000p-4, -0x1.511f740000000p-5, -0x1.b142880000000p-5, -0x1.3d052c0000000p-4, -0x1.5c970c0000000p-3, -0x1.11d14e0000000p-4, 0x1.71db000000000p-3, 0x1.230d660000000p-5, -0x1.4965da0000000p-3, -0x1.e9c8cc0000000p-5, -0x1.f660900000000p-4, 0x1.a836f00000000p-3, -0x1.6124a80000000p-3, -0x1.2468300000000p-4, -0x1.48028c0000000p-3, 0x1.11fdd20000000p-3, 0x1.611c280000000p-3, 0x1.35abda0000000p-3, 0x1.41aa9c0000000p-4, 0x1.064e020000000p-5, 0x1.7328400000000p-3, 0x1.10804a0000000p-5, 0x1.6c33fe0000000p-5}
, {0x1.0739ee0000000p-3, -0x1.ae28080000000p-5, 0x1.c0a8ca0000000p-3, 0x1.5a4cd60000000p-3, -0x1.147c720000000p-2, -0x1.bfa0d20000000p-4, -0x1.2247fc0000000p-4, -0x1.affa2c0000000p-5, -0x1.273e960000000p-3, 0x1.91ea820000000p-3, -0x1.3f20f00000000p-7, 0x1.a25dfe0000000p-4, -0x1.1580f80000000p-4, -0x1.0d9d500000000p-3, 0x1.8590420000000p-3, 0x1.1b43900000000p-3, -0x1.9597160000000p-5, 0x1.62899a0000000p-3, 0x1.e7db560000000p-6, -0x1.c70de80000000p-4, 0x1.8534380000000p-6, -0x1.1f41500000000p-6, -0x1.363ed40000000p-3, -0x1.ce61e40000000p-4, -0x1.7ba10c0000000p-5, -0x1.cee1460000000p-4, -0x1.b03fe00000000p-4, 0x1.31698e0000000p-6, -0x1.1df2b60000000p-3, -0x1.70d70e0000000p-5, -0x1.24aa520000000p-2, 0x1.78c54e0000000p-3}
}
, {{-0x1.1461740000000p-4, 0x1.90be620000000p-4, 0x1.0249360000000p-3, 0x1.9ba3dc0000000p-8, 0x1.4fb7ca0000000p-3, -0x1.2e58f60000000p-4, 0x1.e2ffce0000000p-6, -0x1.336da20000000p-3, -0x1.186c240000000p-3, -0x1.5c8c0c0000000p-3, -0x1.6eaf5a0000000p-4, 0x1.9321aa0000000p-4, -0x1.dc14f20000000p-4, 0x1.a645ae0000000p-5, -0x1.a6a8460000000p-4, 0x1.cc6a0e0000000p-4, -0x1.b82da40000000p-3, 0x1.107d9a0000000p-4, 0x1.42921a0000000p-3, 0x1.40c21e0000000p-3, 0x1.1695680000000p-4, -0x1.2e33c40000000p-6, -0x1.3234c20000000p-3, 0x1.a509160000000p-3, 0x1.164cec0000000p-3, 0x1.2b93000000000p-4, 0x1.4f104e0000000p-3, -0x1.484b2e0000000p-4, -0x1.490a740000000p-3, -0x1.083fb40000000p-3, 0x1.464a0a0000000p-3, 0x1.6e88280000000p-4}
, {0x1.a937420000000p-4, 0x1.a581740000000p-6, 0x1.e484ae0000000p-4, -0x1.544d2a0000000p-3, -0x1.238cd40000000p-5, 0x1.29c5540000000p-3, 0x1.2f7a380000000p-6, -0x1.ea757e0000000p-6, -0x1.589d800000000p-3, 0x1.07ce1a0000000p-3, -0x1.61f5080000000p-4, -0x1.3d58460000000p-8, -0x1.b4319a0000000p-7, 0x1.f101940000000p-4, -0x1.9ee8200000000p-4, 0x1.642a5e0000000p-3, -0x1.b1f4ee0000000p-4, 0x1.c2c8ce0000000p-3, 0x1.6315e40000000p-4, -0x1.e802860000000p-4, 0x1.4ea2540000000p-9, 0x1.cc72b00000000p-4, -0x1.4d41420000000p-5, -0x1.372f2c0000000p-4, 0x1.4f156c0000000p-3, -0x1.e88f040000000p-4, -0x1.7372b60000000p-3, 0x1.5a9a0c0000000p-3, 0x1.7f0a300000000p-3, -0x1.01bba20000000p-3, 0x1.8f5b8e0000000p-7, 0x1.ad996e0000000p-4}
}
, {{0x1.ea09580000000p-4, -0x1.3c6e820000000p-10, 0x1.7dc9620000000p-4, 0x1.1d96040000000p-3, 0x1.faead40000000p-3, -0x1.271e120000000p-4, -0x1.6264f20000000p-3, 0x1.4fc5ac0000000p-3, 0x1.27c2b60000000p-3, 0x1.afed280000000p-3, 0x1.6d8f540000000p-4, -0x1.1fd72c0000000p-3, 0x1.fde3bc0000000p-6, -0x1.2f76680000000p-3, -0x1.e7b07c0000000p-4, -0x1.349cfa0000000p-4, 0x1.e504c80000000p-5, 0x1.b186580000000p-5, -0x1.4984ee0000000p-4, 0x1.56740e0000000p-3, -0x1.83cfba0000000p-9, 0x1.8f9dba0000000p-7, -0x1.7ec30e0000000p-5, 0x1.5a70880000000p-3, 0x1.57eec60000000p-4, 0x1.b34ffe0000000p-3, 0x1.a7acf80000000p-4, 0x1.f832340000000p-4, -0x1.1afd0e0000000p-3, 0x1.8871c60000000p-3, 0x1.b0c36c0000000p-4, -0x1.0cf3160000000p-5}
, {-0x1.1b92e20000000p-3, -0x1.af51de0000000p-4, 0x1.530a8c0000000p-4, -0x1.e330ba0000000p-4, 0x1.08ea1e0000000p-3, -0x1.9a1f940000000p-3, 0x1.6fe35a0000000p-4, -0x1.daf8060000000p-5, 0x1.f9de9a0000000p-4, 0x1.f48c040000000p-4, -0x1.2989380000000p-5, -0x1.7e26a80000000p-4, -0x1.9ee5460000000p-6, -0x1.e268180000000p-5, -0x1.dc70340000000p-4, -0x1.4284e00000000p-3, -0x1.1771c20000000p-4, -0x1.54637a0000000p-3, -0x1.32f2580000000p-5, 0x1.84e7540000000p-6, -0x1.6eaa800000000p-11, -0x1.e378020000000p-5, -0x1.3d4bb20000000p-3, -0x1.7793640000000p-3, -0x1.96013c0000000p-6, -0x1.61de1a0000000p-4, -0x1.1c77680000000p-3, -0x1.27c5da0000000p-3, 0x1.e143960000000p-5, 0x1.0e5d500000000p-3, -0x1.6353700000000p-3, -0x1.f8a63c0000000p-5}
}
, {{0x1.3abc4e0000000p-4, -0x1.1999f20000000p-4, -0x1.c27c420000000p-4, -0x1.e03e1c0000000p-6, 0x1.48c71e0000000p-6, 0x1.251ece0000000p-7, 0x1.2429320000000p-3, 0x1.fb2e9a0000000p-4, 0x1.eddcdc0000000p-5, -0x1.eca5980000000p-5, -0x1.9bef8c0000000p-4, -0x1.1391c40000000p-3, -0x1.60525a0000000p-4, 0x1.102a560000000p-3, 0x1.9f3fec0000000p-5, 0x1.4ae42e0000000p-4, 0x1.26cd3c0000000p-6, 0x1.2db35e0000000p-3, -0x1.23f2b60000000p-4, -0x1.59109a0000000p-3, 0x1.0150620000000p-3, 0x1.e9d5ae0000000p-6, -0x1.2c31020000000p-3, -0x1.689d900000000p-3, 0x1.95da6a0000000p-3, 0x1.bff6a00000000p-5, 0x1.0083c40000000p-3, -0x1.1efc860000000p-3, 0x1.495f300000000p-3, 0x1.2eacae0000000p-4, 0x1.9c497c0000000p-4, -0x1.9542920000000p-3}
, {0x1.0932760000000p-5, 0x1.edac380000000p-12, -0x1.360e140000000p-4, 0x1.b6e0360000000p-4, -0x1.db8bee0000000p-3, -0x1.4eb0100000000p-4, 0x1.16f2a40000000p-3, 0x1.4a71b60000000p-3, -0x1.0854100000000p-3, 0x1.6b25120000000p-5, 0x1.054a920000000p-5, -0x1.7820760000000p-3, 0x1.85cb500000000p-4, 0x1.78c8520000000p-3, -0x1.e3c8a60000000p-4, 0x1.3e595e0000000p-3, 0x1.ceeafc0000000p-8, 0x1.59c9720000000p-3, 0x1.e2e10a0000000p-4, 0x1.d3cb6c0000000p-4, 0x1.88d40c0000000p-5, -0x1.65d0e20000000p-3, -0x1.a6eb3e0000000p-4, -0x1.6bf77e0000000p-7, -0x1.f3a5900000000p-7, -0x1.207ac80000000p-3, 0x1.a207240000000p-4, 0x1.81a3e60000000p-4, 0x1.cd2c820000000p-6, 0x1.08de6e0000000p-5, -0x1.7aa8b40000000p-5, -0x1.3f44b00000000p-4}
}
, {{0x1.5c01c80000000p-4, -0x1.069e620000000p-4, 0x1.5547be0000000p-5, -0x1.7b56bc0000000p-5, -0x1.73a5960000000p-5, -0x1.eec05c0000000p-4, -0x1.6c86aa0000000p-6, -0x1.4f6ba20000000p-3, -0x1.0e5ed60000000p-5, 0x1.3017a60000000p-3, 0x1.b3bb8c0000000p-4, 0x1.3e15040000000p-3, -0x1.b6c6ce0000000p-3, -0x1.3c3e3c0000000p-5, 0x1.012e540000000p-5, -0x1.8349b00000000p-7, -0x1.e546c20000000p-4, 0x1.b359720000000p-5, -0x1.280e600000000p-5, 0x1.44765c0000000p-3, 0x1.9c6ea40000000p-3, -0x1.826e300000000p-6, -0x1.2c20b60000000p-4, -0x1.77d7d60000000p-4, -0x1.63c5e00000000p-3, 0x1.ccb8600000000p-5, -0x1.41f5c00000000p-3, 0x1.24f5620000000p-4, -0x1.228eb60000000p-3, -0x1.3c2dfa0000000p-3, -0x1.ba5c060000000p-4, -0x1.d9fd260000000p-4}
, {-0x1.5ada2c0000000p-3, 0x1.7d01bc0000000p-4, 0x1.b985180000000p-3, -0x1.e004600000000p-6, -0x1.8e87400000000p-4, -0x1.e4edc60000000p-5, 0x1.363ace0000000p-4, -0x1.71cfae0000000p-3, 0x1.17446a0000000p-5, -0x1.8214d60000000p-4, -0x1.0ba2360000000p-4, -0x1.5e92fa0000000p-4, -0x1.5b6b420000000p-6, 0x1.97d8be0000000p-5, 0x1.07cfe20000000p-3, 0x1.2a00060000000p-3, 0x1.dadc160000000p-4, 0x1.588ce60000000p-3, 0x1.7fe4d00000000p-3, 0x1.8d51f00000000p-3, 0x1.16e1d00000000p-5, -0x1.1f01bc0000000p-6, -0x1.e5cd360000000p-5, -0x1.79d5d60000000p-3, -0x1.dcbbee0000000p-5, -0x1.aaa5be0000000p-3, 0x1.7711760000000p-7, -0x1.a5e7240000000p-4, -0x1.43b1400000000p-4, -0x1.12dfd60000000p-3, -0x1.e24fe60000000p-3, 0x1.4ad67e0000000p-3}
}
, {{0x1.f6ef760000000p-6, 0x1.1a69a40000000p-3, 0x1.993a4e0000000p-5, 0x1.bdf8940000000p-7, 0x1.383fb00000000p-3, -0x1.bace320000000p-4, 0x1.c6489c0000000p-4, 0x1.21fca40000000p-3, 0x1.367bb20000000p-4, -0x1.2955360000000p-4, -0x1.09ac9a0000000p-3, 0x1.869eb60000000p-5, -0x1.b0ab420000000p-5, -0x1.93a6900000000p-6, 0x1.01387a0000000p-3, -0x1.35f8820000000p-6, -0x1.bfa0480000000p-4, -0x1.92a0f60000000p-3, 0x1.ae5d6e0000000p-4, -0x1.4c2c9c0000000p-6, 0x1.9fff1a0000000p-4, 0x1.9632920000000p-4, 0x1.320f740000000p-4, 0x1.1b55840000000p-4, 0x1.7275280000000p-5, -0x1.7030380000000p-7, -0x1.f1a1b60000000p-5, 0x1.24673e0000000p-3, 0x1.338f340000000p-3, 0x1.3791bc0000000p-3, -0x1.49c3ba0000000p-6, -0x1.22cfbe0000000p-3}
, {0x1.ed3f880000000p-5, 0x1.a526d40000000p-3, 0x1.0cfb5c0000000p-3, -0x1.4e1ba60000000p-4, -0x1.78c8620000000p-4, 0x1.4f15740000000p-11, -0x1.58e65a0000000p-3, 0x1.90b1bc0000000p-4, 0x1.f1ce9a0000000p-4, 0x1.041a960000000p-7, 0x1.fd05dc0000000p-3, 0x1.115ed80000000p-4, 0x1.b04c940000000p-7, 0x1.2c46d40000000p-4, -0x1.fba7fa0000000p-5, -0x1.73eafc0000000p-4, -0x1.dc6eaa0000000p-4, 0x1.0e21800000000p-3, -0x1.a091180000000p-4, 0x1.6bba4e0000000p-5, 0x1.7724da0000000p-6, -0x1.72e7980000000p-3, 0x1.bde6720000000p-5, -0x1.40ebc80000000p-5, 0x1.0db6860000000p-4, 0x1.a786880000000p-6, -0x1.1b26ac0000000p-3, 0x1.d9788e0000000p-4, 0x1.4339b00000000p-5, -0x1.ba54060000000p-3, -0x1.14b7ae0000000p-7, 0x1.58d8700000000p-5}
}
}
;

#undef INPUT_CHANNELS
#undef CONV_FILTERS
#undef CONV_KERNEL_SIZE
#undef CONV_GROUPS