/**
  ******************************************************************************
  * @file    weights/conv1d.cc
  * @author  Pierre-Emmanuel Novac <penovac@unice.fr>, LEAT, CNRS, Université Côte d'Azur, France
  * @version 1.0.0
  * @date    24 march 2020
  * @brief   Template generating plain C code for the implementation of Convolutional Neural Networks on MCU
  */

#include <stdint.h>

#define INPUT_CHANNELS    8
#define CONV_FILTERS      16
#define CONV_KERNEL_SIZE  8
#define CONV_GROUPS       1


const float  conv1d_46_bias[CONV_FILTERS] = {0x1.60a1520000000p-5, 0x1.0271d60000000p-4, 0x1.3eb0c40000000p-4, 0x1.411f740000000p-5, 0x1.8d10e00000000p-4, 0x1.a88aec0000000p-5, 0x1.4438e80000000p-10, 0x1.13a72c0000000p-10, 0x1.53c0ae0000000p-4, -0x1.9610bc0000000p-4, 0x1.e8002a0000000p-6, 0x1.9acb700000000p-6, 0x1.c9ad720000000p-9, 0x1.d3379a0000000p-8, 0x1.052a720000000p-5, 0x1.e677de0000000p-4}
;

const float  conv1d_46_kernel[CONV_FILTERS][CONV_KERNEL_SIZE][INPUT_CHANNELS / CONV_GROUPS] = {{{0x1.2245b20000000p-2, 0x1.666e560000000p-3, 0x1.a87da40000000p-6, -0x1.32e6c40000000p-3, -0x1.e745060000000p-4, -0x1.15dbc20000000p-3, 0x1.385da00000000p-3, -0x1.351c160000000p-5}
, {0x1.190ea80000000p-3, 0x1.bf1a7e0000000p-3, 0x1.4c22be0000000p-3, -0x1.c5a3820000000p-4, 0x1.6b48ca0000000p-7, 0x1.be34ac0000000p-6, -0x1.0499480000000p-4, -0x1.0ad8a60000000p-4}
, {0x1.84f62c0000000p-3, -0x1.3d91fe0000000p-3, -0x1.1c6cb00000000p-3, 0x1.4f284a0000000p-3, 0x1.7692740000000p-3, -0x1.4aea580000000p-3, 0x1.06e4f40000000p-3, -0x1.97d5be0000000p-5}
, {0x1.d695e00000000p-5, -0x1.3d3f460000000p-3, -0x1.df8d8a0000000p-4, -0x1.091e300000000p-5, 0x1.06ad920000000p-4, -0x1.452eb00000000p-3, -0x1.d2b86c0000000p-4, -0x1.5844da0000000p-6}
, {0x1.dde8720000000p-3, -0x1.074ac80000000p-3, -0x1.52bfa80000000p-5, 0x1.b3a2e60000000p-3, -0x1.8405540000000p-4, 0x1.26e9500000000p-3, -0x1.46d6580000000p-4, -0x1.2c87940000000p-3}
, {0x1.ec46760000000p-3, -0x1.fae1be0000000p-5, -0x1.23dd700000000p-3, -0x1.046a300000000p-5, -0x1.6c3b560000000p-4, -0x1.2e8ab80000000p-4, -0x1.f3f8060000000p-6, -0x1.bcef420000000p-4}
, {0x1.7ed6480000000p-3, -0x1.006ad60000000p-4, -0x1.6d76620000000p-4, 0x1.a5504a0000000p-5, 0x1.22b1dc0000000p-5, 0x1.1d2f260000000p-3, -0x1.3ae55c0000000p-6, 0x1.0ceb9c0000000p-6}
, {0x1.4b3b740000000p-3, -0x1.1b9c780000000p-10, -0x1.5c1eb40000000p-4, -0x1.127bae0000000p-5, -0x1.d8fd9e0000000p-4, 0x1.148e7e0000000p-5, 0x1.9e812a0000000p-3, 0x1.f5b0740000000p-5}
}
, {{0x1.b77b500000000p-3, -0x1.b240b20000000p-4, -0x1.7d2bec0000000p-3, 0x1.c1ac0a0000000p-6, -0x1.89d0980000000p-3, 0x1.1a85e00000000p-3, -0x1.7126440000000p-6, -0x1.b1f44c0000000p-4}
, {0x1.c9dec00000000p-3, -0x1.8cec7c0000000p-10, 0x1.a3d0140000000p-4, 0x1.b84d100000000p-3, 0x1.11ca320000000p-3, 0x1.3039320000000p-6, 0x1.5ffd0c0000000p-3, 0x1.04f2f00000000p-3}
, {0x1.efc5000000000p-3, -0x1.bff9460000000p-4, 0x1.5f1f800000000p-3, 0x1.6241580000000p-3, 0x1.2089280000000p-4, -0x1.2789120000000p-3, -0x1.c593700000000p-5, 0x1.20b7f20000000p-3}
, {0x1.6e61d00000000p-6, 0x1.39eb080000000p-3, 0x1.812dda0000000p-3, -0x1.6a81e40000000p-3, -0x1.5ba0b40000000p-4, 0x1.918b9a0000000p-4, 0x1.fde9960000000p-5, -0x1.5247600000000p-6}
, {0x1.fd6d2a0000000p-5, -0x1.58f4da0000000p-3, 0x1.c06c300000000p-4, 0x1.0d0dd00000000p-4, -0x1.171c740000000p-3, -0x1.4dc0320000000p-3, 0x1.8e8cb20000000p-3, -0x1.ca31400000000p-3}
, {0x1.a50bd20000000p-3, -0x1.27b71e0000000p-5, 0x1.5146ea0000000p-3, -0x1.0873f00000000p-4, -0x1.1acf6e0000000p-6, -0x1.6f4ae00000000p-4, -0x1.1926a40000000p-4, -0x1.99018a0000000p-3}
, {-0x1.220e7a0000000p-5, -0x1.fc59e40000000p-6, 0x1.2e7d920000000p-5, 0x1.1c14a00000000p-3, 0x1.0238f40000000p-6, 0x1.2db3880000000p-4, -0x1.86150a0000000p-4, -0x1.7cd03c0000000p-8}
, {0x1.5d6ebe0000000p-4, 0x1.d1bc360000000p-8, -0x1.24fc5e0000000p-3, -0x1.9080400000000p-6, -0x1.6279a60000000p-4, -0x1.50b3180000000p-4, -0x1.115c740000000p-3, -0x1.8af4760000000p-4}
}
, {{-0x1.34096e0000000p-8, -0x1.4c15e00000000p-4, -0x1.0170560000000p-3, -0x1.3531c00000000p-3, 0x1.77c3f00000000p-4, -0x1.648b520000000p-3, 0x1.e0a26a0000000p-6, 0x1.9f6e580000000p-7}
, {-0x1.ffe7860000000p-5, 0x1.b440240000000p-4, 0x1.5605380000000p-3, -0x1.1b5d4a0000000p-3, -0x1.e5087a0000000p-7, -0x1.9c10de0000000p-4, -0x1.ff24b40000000p-7, -0x1.0b3cbc0000000p-3}
, {-0x1.3ccb0a0000000p-3, 0x1.e3e4080000000p-4, -0x1.e29fd60000000p-4, -0x1.a4d3680000000p-5, -0x1.9f43340000000p-6, -0x1.24b5ea0000000p-4, -0x1.03e3820000000p-3, -0x1.ddad540000000p-5}
, {0x1.4fb2bc0000000p-8, 0x1.8c7f4c0000000p-3, 0x1.17f6ec0000000p-3, -0x1.8ff7b00000000p-3, -0x1.9edddc0000000p-4, -0x1.d91d6e0000000p-3, 0x1.816f460000000p-3, 0x1.a1fb100000000p-5}
, {0x1.1869720000000p-3, 0x1.3488b80000000p-4, 0x1.2ca4c40000000p-3, -0x1.1523760000000p-4, 0x1.26cef00000000p-3, -0x1.a38a220000000p-4, -0x1.ebdb2e0000000p-4, -0x1.6fb2040000000p-3}
, {0x1.4b375a0000000p-4, 0x1.30b3d60000000p-3, 0x1.6ab64c0000000p-5, 0x1.75086a0000000p-3, -0x1.2c4f4a0000000p-3, -0x1.3016cc0000000p-6, 0x1.825e140000000p-4, -0x1.f798420000000p-4}
, {0x1.e748fe0000000p-4, -0x1.01a2c20000000p-3, 0x1.e897d80000000p-6, -0x1.e663c00000000p-4, 0x1.2ba8f80000000p-7, -0x1.4637000000000p-3, 0x1.6f93fc0000000p-3, -0x1.0c7a3a0000000p-3}
, {0x1.60ae7a0000000p-3, 0x1.5a203c0000000p-8, 0x1.951e9a0000000p-3, -0x1.ce914a0000000p-5, 0x1.98c36e0000000p-5, 0x1.670b340000000p-3, 0x1.8facc40000000p-3, 0x1.3093720000000p-3}
}
, {{0x1.e6f24c0000000p-3, 0x1.c7e1b40000000p-3, 0x1.bd9caa0000000p-6, 0x1.42b8600000000p-3, 0x1.3ddafe0000000p-4, -0x1.9148f40000000p-4, -0x1.0dc5400000000p-6, 0x1.dfb6580000000p-6}
, {-0x1.740c500000000p-4, 0x1.bdb34c0000000p-3, 0x1.519ddc0000000p-3, -0x1.df32c60000000p-5, 0x1.e50b280000000p-3, -0x1.429ba60000000p-4, 0x1.2174140000000p-4, 0x1.0d0a7c0000000p-3}
, {0x1.0afcc00000000p-4, -0x1.d5285e0000000p-4, -0x1.0fb50a0000000p-3, -0x1.8d8ed60000000p-4, 0x1.a3ad520000000p-3, 0x1.5e7d4a0000000p-5, -0x1.67fc4c0000000p-4, -0x1.06b10a0000000p-3}
, {-0x1.b9864e0000000p-6, 0x1.dd17aa0000000p-3, 0x1.24a26c0000000p-5, -0x1.9f3d420000000p-7, -0x1.16cefe0000000p-4, -0x1.d8c9f80000000p-5, 0x1.13723a0000000p-3, -0x1.04b1a80000000p-7}
, {0x1.3e2de00000000p-4, 0x1.137ac60000000p-3, 0x1.a7b58a0000000p-3, -0x1.4fe2e80000000p-3, 0x1.a66d9c0000000p-3, -0x1.360a0e0000000p-3, -0x1.f3e2e20000000p-4, -0x1.d7f7940000000p-4}
, {-0x1.ee0c680000000p-7, 0x1.539d1c0000000p-3, 0x1.29b5c80000000p-3, 0x1.8dab640000000p-3, -0x1.5741940000000p-6, 0x1.3706d40000000p-6, 0x1.cf9e5e0000000p-4, -0x1.1bb38a0000000p-6}
, {0x1.bacc500000000p-3, -0x1.1fd2120000000p-4, 0x1.a33ec60000000p-4, 0x1.796b9c0000000p-3, -0x1.2993100000000p-3, -0x1.7893ce0000000p-4, -0x1.9e44c40000000p-4, -0x1.56446e0000000p-5}
, {0x1.3602fc0000000p-4, 0x1.226d4a0000000p-5, 0x1.04193c0000000p-8, -0x1.14ac740000000p-3, 0x1.39f3b40000000p-4, -0x1.2fce100000000p-3, 0x1.58c0960000000p-8, -0x1.5454720000000p-6}
}
, {{0x1.9c77320000000p-9, 0x1.daa5380000000p-4, 0x1.5f8f080000000p-7, 0x1.38095a0000000p-3, 0x1.e5c40a0000000p-3, 0x1.07032e0000000p-3, 0x1.00ab720000000p-3, -0x1.80cd620000000p-5}
, {-0x1.7217da0000000p-3, 0x1.3a17640000000p-5, -0x1.78bc260000000p-3, -0x1.e974d00000000p-4, -0x1.3846c20000000p-7, -0x1.d1a0ce0000000p-8, 0x1.6ecd520000000p-4, -0x1.b950d80000000p-5}
, {-0x1.79ee380000000p-3, -0x1.202ac60000000p-3, -0x1.d1598e0000000p-4, 0x1.2838700000000p-3, 0x1.db0b5e0000000p-4, -0x1.375c5c0000000p-5, 0x1.441aea0000000p-4, -0x1.f8d5880000000p-4}
, {-0x1.0a497a0000000p-2, 0x1.e649ce0000000p-4, -0x1.9262960000000p-4, 0x1.8f8b480000000p-3, 0x1.3235e40000000p-5, -0x1.45887a0000000p-4, 0x1.fabe2e0000000p-8, -0x1.e167880000000p-5}
, {-0x1.656b100000000p-3, 0x1.2924d00000000p-5, -0x1.271b120000000p-3, 0x1.d3cb3c0000000p-7, 0x1.d2dfcc0000000p-5, 0x1.30d62e0000000p-5, -0x1.3377000000000p-6, -0x1.16a4360000000p-6}
, {-0x1.bdbb7c0000000p-7, -0x1.5ae7d00000000p-5, -0x1.0c8fb20000000p-3, -0x1.dcc20a0000000p-5, 0x1.0c99de0000000p-3, 0x1.ad4ffe0000000p-3, 0x1.769ddc0000000p-3, -0x1.9f59820000000p-5}
, {0x1.7edd600000000p-5, -0x1.e657ee0000000p-5, -0x1.5e88920000000p-3, 0x1.11af260000000p-6, 0x1.a8d1980000000p-3, 0x1.6a16c60000000p-4, -0x1.fa09d20000000p-4, 0x1.1fc1640000000p-3}
, {-0x1.de5c5a0000000p-3, -0x1.13b03a0000000p-3, -0x1.054c260000000p-3, -0x1.bdd01e0000000p-4, -0x1.bb5e100000000p-4, 0x1.5b3c800000000p-3, 0x1.e9188a0000000p-4, -0x1.136ea00000000p-3}
}
, {{0x1.7d558e0000000p-3, -0x1.224a180000000p-3, 0x1.7af2b20000000p-3, 0x1.9cf6f40000000p-3, 0x1.4b7e180000000p-3, 0x1.0cafdc0000000p-3, -0x1.3006760000000p-4, -0x1.903d200000000p-4}
, {0x1.8af6ec0000000p-3, -0x1.19d3fa0000000p-3, -0x1.a0b2920000000p-5, -0x1.acd9ae0000000p-10, -0x1.32d6b40000000p-3, 0x1.bcf6f60000000p-5, -0x1.a424fc0000000p-5, 0x1.0c0b8e0000000p-3}
, {-0x1.1e18160000000p-6, -0x1.7c90ce0000000p-6, -0x1.0c0fe40000000p-4, 0x1.8c6ed00000000p-3, 0x1.c234c80000000p-4, 0x1.8d12f60000000p-3, 0x1.782f680000000p-4, 0x1.2bb9220000000p-4}
, {-0x1.97ca4a0000000p-4, 0x1.892c7e0000000p-6, -0x1.1c5abe0000000p-9, 0x1.c2f16c0000000p-3, 0x1.c98c9a0000000p-4, -0x1.a58d660000000p-4, 0x1.179d5c0000000p-5, 0x1.4b3dda0000000p-3}
, {0x1.83bc780000000p-4, -0x1.c1e9fe0000000p-5, 0x1.3eee620000000p-3, 0x1.db36e00000000p-4, -0x1.82b6560000000p-4, 0x1.114a620000000p-3, -0x1.529e940000000p-4, -0x1.66adaa0000000p-4}
, {-0x1.b04b420000000p-4, 0x1.4310620000000p-3, -0x1.116f4a0000000p-3, 0x1.7229d20000000p-5, 0x1.3a302e0000000p-4, 0x1.d2f87c0000000p-6, -0x1.501f660000000p-3, 0x1.358da80000000p-5}
, {0x1.d6bd960000000p-4, 0x1.c3d2420000000p-4, 0x1.0183f00000000p-6, 0x1.19f3340000000p-4, 0x1.3a90e20000000p-3, 0x1.8ec8a00000000p-3, 0x1.10ab780000000p-3, -0x1.b1d98c0000000p-4}
, {0x1.c7a6040000000p-3, -0x1.1e53e80000000p-8, 0x1.002b680000000p-3, 0x1.028eba0000000p-3, -0x1.fd86260000000p-6, -0x1.4a65a80000000p-4, -0x1.975a240000000p-3, 0x1.6e12e80000000p-4}
}
, {{0x1.199f8a0000000p-3, 0x1.4c2e300000000p-3, -0x1.9922f00000000p-4, -0x1.945cb60000000p-4, 0x1.28cd340000000p-3, -0x1.52a1be0000000p-3, 0x1.b205640000000p-3, -0x1.a391a60000000p-3}
, {0x1.69b5fe0000000p-4, -0x1.cbaba20000000p-4, -0x1.1542a00000000p-3, -0x1.6581ce0000000p-3, -0x1.bff5ba0000000p-5, 0x1.c04b240000000p-7, 0x1.c564680000000p-4, 0x1.67a3fa0000000p-4}
, {-0x1.51b63c0000000p-6, -0x1.2d896a0000000p-9, 0x1.4a0e480000000p-3, 0x1.0d20ee0000000p-3, 0x1.465df60000000p-3, 0x1.2128980000000p-3, 0x1.b78ebc0000000p-3, -0x1.c4b6f80000000p-5}
, {0x1.fab7840000000p-8, -0x1.1654c20000000p-3, 0x1.73d9680000000p-3, -0x1.1a338c0000000p-4, -0x1.1770e60000000p-3, 0x1.9a84420000000p-3, 0x1.5729de0000000p-3, -0x1.c603940000000p-4}
, {-0x1.cba5e60000000p-11, -0x1.0b972e0000000p-6, -0x1.ac25820000000p-3, -0x1.868a680000000p-4, 0x1.bcb4c20000000p-4, -0x1.f97b8e0000000p-4, -0x1.22a1e20000000p-5, 0x1.9a35700000000p-4}
, {-0x1.ef39400000000p-4, 0x1.c7aba60000000p-6, -0x1.92c6840000000p-4, 0x1.af9cac0000000p-4, 0x1.039bf40000000p-5, 0x1.9f00f00000000p-7, 0x1.91a3140000000p-7, -0x1.472a040000000p-3}
, {-0x1.73264e0000000p-5, 0x1.8941420000000p-5, 0x1.48e3360000000p-3, -0x1.1d3f040000000p-4, 0x1.611db80000000p-4, 0x1.28be540000000p-3, -0x1.2416b80000000p-5, -0x1.cc9b3c0000000p-3}
, {-0x1.f0b1180000000p-13, -0x1.b888340000000p-8, -0x1.2d2ff60000000p-6, -0x1.0b092a0000000p-9, -0x1.68719a0000000p-5, 0x1.3eb4f80000000p-7, -0x1.5d1b880000000p-4, -0x1.b581140000000p-9}
}
, {{-0x1.fe293c0000000p-4, -0x1.6c69d00000000p-7, -0x1.78ce5c0000000p-4, -0x1.97fb920000000p-4, 0x1.bcec600000000p-3, -0x1.65972a0000000p-3, -0x1.06bb5c0000000p-5, 0x1.a885740000000p-3}
, {0x1.3fbe0c0000000p-3, -0x1.b3105c0000000p-6, 0x1.02d60c0000000p-4, 0x1.01c9880000000p-4, 0x1.a011180000000p-4, 0x1.96129e0000000p-4, 0x1.1b7d160000000p-3, -0x1.04b5880000000p-3}
, {0x1.5196060000000p-5, 0x1.a284140000000p-3, -0x1.5b4a440000000p-5, 0x1.fc94240000000p-5, 0x1.ddd9c80000000p-3, -0x1.df6fa60000000p-4, 0x1.021c0e0000000p-3, 0x1.0c32ee0000000p-3}
, {-0x1.2db1de0000000p-3, 0x1.24591c0000000p-2, 0x1.01e39a0000000p-7, -0x1.b6ec520000000p-3, -0x1.056d660000000p-4, 0x1.608c220000000p-3, -0x1.a6f9180000000p-4, -0x1.0ed3360000000p-3}
, {-0x1.9938200000000p-5, 0x1.7f67c80000000p-4, -0x1.20c8480000000p-5, -0x1.e3b6dc0000000p-4, 0x1.3d1a660000000p-3, -0x1.62ec580000000p-3, 0x1.1b6cfe0000000p-3, 0x1.d75fba0000000p-4}
, {0x1.4a2bda0000000p-3, 0x1.9a76440000000p-5, 0x1.539f8e0000000p-3, -0x1.fdab580000000p-4, 0x1.e29cea0000000p-4, 0x1.5a0f780000000p-3, -0x1.19d8400000000p-4, 0x1.9c720a0000000p-3}
, {0x1.992b800000000p-4, 0x1.10274c0000000p-4, -0x1.b2a3c40000000p-4, -0x1.c42a200000000p-3, 0x1.177bca0000000p-3, -0x1.37c3680000000p-5, 0x1.f1b64c0000000p-9, 0x1.747a1c0000000p-3}
, {-0x1.0de6760000000p-5, 0x1.1f1b780000000p-2, 0x1.584c080000000p-4, 0x1.b383d60000000p-6, 0x1.1a0a040000000p-4, -0x1.a7dd6a0000000p-4, -0x1.07faea0000000p-3, 0x1.5db26c0000000p-4}
}
, {{-0x1.43669a0000000p-4, 0x1.8e92820000000p-6, 0x1.1ad5180000000p-5, 0x1.3ec8680000000p-3, 0x1.b3195e0000000p-3, 0x1.180dfe0000000p-4, 0x1.3054b20000000p-4, 0x1.4f7fb40000000p-4}
, {0x1.74bd220000000p-3, 0x1.1e5b260000000p-3, -0x1.b19e940000000p-4, 0x1.241a0c0000000p-6, 0x1.efff820000000p-4, 0x1.66cb7c0000000p-5, 0x1.4b891a0000000p-4, -0x1.3af89c0000000p-3}
, {0x1.54ab400000000p-3, 0x1.6095800000000p-4, -0x1.b6ad560000000p-4, -0x1.619d460000000p-4, -0x1.38c38a0000000p-3, -0x1.41941a0000000p-4, -0x1.85a5600000000p-4, -0x1.9dd9480000000p-4}
, {0x1.9ad38c0000000p-3, 0x1.1b2c040000000p-3, -0x1.e37b1a0000000p-4, -0x1.60136e0000000p-3, 0x1.40707a0000000p-4, -0x1.5445b20000000p-7, 0x1.e9fdf60000000p-3, -0x1.37b0b60000000p-6}
, {-0x1.56a2460000000p-5, -0x1.2c14660000000p-3, -0x1.096e2a0000000p-4, -0x1.61f2a80000000p-5, -0x1.0e4eae0000000p-3, 0x1.4d99d20000000p-6, 0x1.e34e7a0000000p-3, 0x1.073fd20000000p-5}
, {-0x1.dec60a0000000p-6, 0x1.17ad040000000p-6, 0x1.06de260000000p-3, -0x1.72cec60000000p-3, -0x1.64b60e0000000p-4, -0x1.2725680000000p-4, -0x1.f39c640000000p-4, -0x1.9dceec0000000p-4}
, {-0x1.bcbc260000000p-4, -0x1.84ea6e0000000p-4, -0x1.ee75e20000000p-5, 0x1.71786a0000000p-4, -0x1.6d65f40000000p-4, -0x1.5de31a0000000p-7, 0x1.d4faac0000000p-4, -0x1.1a15fe0000000p-3}
, {-0x1.a444f80000000p-3, -0x1.dc712a0000000p-3, 0x1.4e35900000000p-3, 0x1.818f100000000p-5, -0x1.240a940000000p-3, -0x1.ec00e80000000p-5, 0x1.a8bf700000000p-5, -0x1.b61e780000000p-4}
}
, {{0x1.5043680000000p-4, 0x1.a35fe80000000p-10, -0x1.618d4a0000000p-4, 0x1.af4a360000000p-3, -0x1.3e70b20000000p-3, 0x1.695d480000000p-4, -0x1.4720ec0000000p-4, 0x1.38d33a0000000p-3}
, {0x1.fb10d20000000p-3, -0x1.19321a0000000p-3, 0x1.2ff0000000000p-4, 0x1.00bec80000000p-5, 0x1.c491360000000p-4, -0x1.48d8aa0000000p-6, 0x1.6106540000000p-3, 0x1.a86ae60000000p-7}
, {0x1.bcd3b60000000p-3, 0x1.e264280000000p-4, 0x1.76ae2c0000000p-6, 0x1.10db5e0000000p-3, -0x1.f567300000000p-3, 0x1.b22cde0000000p-4, 0x1.2f77060000000p-3, -0x1.11c67c0000000p-4}
, {0x1.c756500000000p-3, 0x1.2041c40000000p-3, 0x1.8dd6be0000000p-3, 0x1.5cdb860000000p-3, -0x1.c544760000000p-5, 0x1.1c99f20000000p-3, 0x1.679bbe0000000p-6, -0x1.29642c0000000p-4}
, {-0x1.d9fd580000000p-4, 0x1.56ff960000000p-3, 0x1.4e62380000000p-4, -0x1.2350080000000p-4, -0x1.e1e3720000000p-4, -0x1.8097d60000000p-3, 0x1.0735b20000000p-3, 0x1.6a27a00000000p-3}
, {0x1.e1286e0000000p-3, 0x1.c8ef120000000p-3, 0x1.2c90aa0000000p-5, 0x1.1134320000000p-3, 0x1.2075760000000p-4, 0x1.07ebbe0000000p-3, -0x1.b9e1180000000p-3, 0x1.1115c40000000p-3}
, {-0x1.906e2c0000000p-5, -0x1.1adcc60000000p-7, -0x1.1437ce0000000p-4, 0x1.38fb7e0000000p-5, -0x1.5749d80000000p-5, -0x1.771ff60000000p-3, 0x1.e423340000000p-5, 0x1.0fddbe0000000p-4}
, {0x1.7d4a3e0000000p-3, 0x1.9438180000000p-3, -0x1.24591a0000000p-3, 0x1.cb08160000000p-3, 0x1.1930680000000p-7, -0x1.af42960000000p-3, 0x1.f59e220000000p-5, 0x1.231cbc0000000p-3}
}
, {{-0x1.e0189c0000000p-4, 0x1.2d4d0a0000000p-3, 0x1.6d04160000000p-3, -0x1.84a1ce0000000p-4, 0x1.8221700000000p-3, 0x1.49369c0000000p-3, 0x1.01a8300000000p-3, 0x1.b9adb80000000p-3}
, {0x1.c923300000000p-6, -0x1.8455ca0000000p-6, -0x1.1e1df60000000p-4, -0x1.c30d6c0000000p-7, -0x1.5820da0000000p-4, -0x1.5526e80000000p-5, -0x1.82972e0000000p-4, 0x1.c5d2e40000000p-3}
, {-0x1.cb92fe0000000p-5, 0x1.c6cd180000000p-3, 0x1.c5d2ea0000000p-6, -0x1.5bb6d60000000p-3, -0x1.d2a1fe0000000p-4, -0x1.b7ebde0000000p-4, 0x1.47328c0000000p-3, 0x1.5cb59e0000000p-3}
, {-0x1.07a4d00000000p-5, -0x1.1603680000000p-5, -0x1.bd5a2c0000000p-10, -0x1.269b760000000p-3, -0x1.1b9d880000000p-5, 0x1.d56e780000000p-6, 0x1.7497420000000p-3, 0x1.cce5ec0000000p-4}
, {-0x1.1a7aa60000000p-8, 0x1.021bb00000000p-2, -0x1.7dd1780000000p-5, -0x1.f1d4000000000p-3, 0x1.0adc6a0000000p-4, -0x1.c554de0000000p-8, 0x1.55bbf60000000p-5, 0x1.31b3bc0000000p-3}
, {-0x1.5b2ac20000000p-5, 0x1.9af48e0000000p-6, 0x1.8a90cc0000000p-5, -0x1.118bc40000000p-4, -0x1.01f6400000000p-3, 0x1.01d7dc0000000p-5, 0x1.8320a60000000p-7, -0x1.ee8d0e0000000p-4}
, {0x1.e55a580000000p-5, -0x1.5fd7400000000p-4, 0x1.35cd260000000p-5, 0x1.ecfd080000000p-6, 0x1.751e700000000p-3, 0x1.8ba2860000000p-3, -0x1.f33b620000000p-7, -0x1.2b7b480000000p-3}
, {0x1.0569bc0000000p-3, 0x1.db0e040000000p-6, -0x1.9325680000000p-3, -0x1.18f6b80000000p-3, -0x1.8113240000000p-3, 0x1.33201e0000000p-5, -0x1.efbb500000000p-4, -0x1.0afb5a0000000p-4}
}
, {{0x1.aad68c0000000p-3, -0x1.ba70c60000000p-4, -0x1.a01b1a0000000p-5, 0x1.3a6b920000000p-3, -0x1.0de7540000000p-3, -0x1.11fb820000000p-3, -0x1.b54a7e0000000p-3, 0x1.038fa00000000p-4}
, {0x1.143a640000000p-7, 0x1.36bbe40000000p-5, 0x1.332f420000000p-3, 0x1.a1f6800000000p-3, 0x1.364dbe0000000p-3, 0x1.4bbd7c0000000p-4, -0x1.5cfeaa0000000p-8, -0x1.4b32400000000p-8}
, {-0x1.537fd60000000p-4, -0x1.39fa840000000p-5, -0x1.55589c0000000p-3, -0x1.81683a0000000p-5, 0x1.11cb3c0000000p-4, -0x1.03a2140000000p-3, -0x1.c21ae60000000p-3, 0x1.4c8ccc0000000p-4}
, {0x1.1d5daa0000000p-3, 0x1.29098c0000000p-4, -0x1.f92d5a0000000p-5, 0x1.1e2b2c0000000p-2, 0x1.5bc5340000000p-5, -0x1.05f8300000000p-3, -0x1.04a9540000000p-6, -0x1.fcb6980000000p-4}
, {0x1.59ad9a0000000p-3, 0x1.fcacea0000000p-7, -0x1.53269c0000000p-4, -0x1.d1034e0000000p-4, -0x1.3354ca0000000p-6, 0x1.b15c7a0000000p-4, -0x1.e74cf40000000p-6, -0x1.fa6f340000000p-7}
, {-0x1.e79a920000000p-5, 0x1.048bf80000000p-3, -0x1.fb0d0e0000000p-4, 0x1.f287940000000p-8, -0x1.9f2ce40000000p-4, 0x1.4412fa0000000p-3, -0x1.ceaf1a0000000p-3, 0x1.61a4ec0000000p-5}
, {0x1.f2ebfc0000000p-4, -0x1.fd1eac0000000p-4, -0x1.a5b1be0000000p-4, 0x1.245a660000000p-4, 0x1.5d6ab40000000p-4, 0x1.b12a380000000p-4, -0x1.3eb9980000000p-3, -0x1.e70c320000000p-7}
, {-0x1.3657000000000p-5, -0x1.1de8140000000p-3, -0x1.94d1340000000p-6, 0x1.f77ce40000000p-3, -0x1.fb72780000000p-7, -0x1.f836960000000p-4, 0x1.9061780000000p-5, 0x1.0d2d3c0000000p-3}
}
, {{-0x1.9d76b00000000p-3, -0x1.b52f640000000p-3, -0x1.4990f40000000p-3, -0x1.82ea460000000p-3, -0x1.83760a0000000p-3, -0x1.ee6ac20000000p-5, -0x1.f4c7420000000p-4, 0x1.1d1abc0000000p-8}
, {-0x1.b253ac0000000p-3, 0x1.00b31a0000000p-4, -0x1.8fe7ac0000000p-4, -0x1.71e4600000000p-3, -0x1.3aee0e0000000p-3, -0x1.22a88e0000000p-5, -0x1.39e1820000000p-3, -0x1.fb36700000000p-5}
, {-0x1.30aca60000000p-3, -0x1.8dddb60000000p-3, 0x1.d1e7da0000000p-4, 0x1.cd50520000000p-5, -0x1.738aaa0000000p-6, -0x1.cd64020000000p-4, -0x1.545c200000000p-5, -0x1.74d74c0000000p-4}
, {0x1.86d4a20000000p-3, 0x1.7181760000000p-5, -0x1.6be92c0000000p-4, 0x1.c254b80000000p-5, 0x1.f3efc00000000p-7, 0x1.d475ee0000000p-7, 0x1.7e04f80000000p-4, -0x1.b34a4c0000000p-4}
, {0x1.4687b40000000p-4, -0x1.2c88d60000000p-3, 0x1.9982bc0000000p-3, 0x1.5f9df40000000p-3, 0x1.17f2fa0000000p-3, 0x1.54dd1c0000000p-5, 0x1.72bfdc0000000p-3, 0x1.75de700000000p-7}
, {-0x1.30f95e0000000p-7, -0x1.c998740000000p-5, -0x1.9baaee0000000p-4, 0x1.05186a0000000p-5, -0x1.1f8ee00000000p-6, 0x1.283dc80000000p-3, -0x1.2820e20000000p-8, 0x1.aeb6020000000p-3}
, {0x1.416b080000000p-3, -0x1.40da380000000p-3, 0x1.f4a0980000000p-8, 0x1.4279200000000p-5, 0x1.644ec20000000p-3, 0x1.e6048c0000000p-3, 0x1.7a90e60000000p-3, 0x1.769ec40000000p-3}
, {-0x1.4501900000000p-7, -0x1.1297440000000p-4, 0x1.eced820000000p-4, 0x1.6cad840000000p-5, -0x1.9d200e0000000p-9, 0x1.feec8a0000000p-3, -0x1.be20e60000000p-5, -0x1.0d06d60000000p-4}
}
, {{0x1.c46c4a0000000p-4, -0x1.aa67ac0000000p-3, -0x1.3627560000000p-5, 0x1.5d1efc0000000p-5, -0x1.bd4b740000000p-5, 0x1.a00cd00000000p-3, 0x1.8e95360000000p-6, 0x1.ad320a0000000p-4}
, {0x1.b7f2e80000000p-6, -0x1.015ad20000000p-6, 0x1.6931920000000p-4, 0x1.d94e740000000p-4, -0x1.8d1e9c0000000p-4, 0x1.34bebe0000000p-4, 0x1.623d100000000p-5, -0x1.3349160000000p-5}
, {-0x1.6f63e00000000p-3, -0x1.6df1f20000000p-5, -0x1.afd8200000000p-5, 0x1.80a1220000000p-6, 0x1.9def9e0000000p-4, 0x1.0a4b500000000p-7, 0x1.5d01ba0000000p-3, 0x1.c8f7e80000000p-5}
, {-0x1.34d3820000000p-6, 0x1.b881680000000p-5, -0x1.47e0120000000p-3, -0x1.5a1cfe0000000p-5, 0x1.bdde820000000p-4, 0x1.8f22540000000p-5, 0x1.bd5c700000000p-3, 0x1.798cf40000000p-3}
, {-0x1.7e5b960000000p-4, -0x1.22b2d80000000p-3, -0x1.205b640000000p-7, 0x1.d3be820000000p-4, -0x1.460a300000000p-3, 0x1.0a50a20000000p-3, -0x1.2a481a0000000p-5, 0x1.28f6500000000p-4}
, {0x1.b1eb060000000p-4, 0x1.a002c20000000p-5, -0x1.0f52880000000p-4, -0x1.501ede0000000p-5, 0x1.86bd000000000p-6, 0x1.8223e60000000p-4, -0x1.6df5780000000p-7, 0x1.a5b4ba0000000p-4}
, {-0x1.e97a1e0000000p-4, 0x1.0857260000000p-3, -0x1.3e393e0000000p-3, 0x1.6a39380000000p-4, -0x1.1a54060000000p-4, 0x1.1bfd460000000p-2, -0x1.be0d6a0000000p-6, 0x1.a38d9e0000000p-3}
, {0x1.4da1ba0000000p-3, 0x1.156ece0000000p-3, -0x1.16a8880000000p-3, -0x1.fa18500000000p-6, -0x1.e92eb20000000p-5, 0x1.09e0b60000000p-2, 0x1.a6dcac0000000p-6, 0x1.3e0cfe0000000p-4}
}
, {{-0x1.c8033a0000000p-5, 0x1.1d82f40000000p-3, 0x1.2e6d4c0000000p-5, -0x1.ebdc9a0000000p-4, 0x1.0b58ba0000000p-6, -0x1.93c6dc0000000p-6, -0x1.bc15d60000000p-6, -0x1.7b18d80000000p-5}
, {0x1.a27eba0000000p-4, 0x1.fd8b100000000p-4, -0x1.66e71e0000000p-3, 0x1.959c8e0000000p-3, -0x1.43433a0000000p-4, 0x1.e1b3600000000p-4, 0x1.19efe80000000p-3, -0x1.87682c0000000p-4}
, {-0x1.6fd8700000000p-5, -0x1.10c8720000000p-3, -0x1.65cf580000000p-4, 0x1.60c4d80000000p-3, 0x1.9fe59e0000000p-5, -0x1.6cb7a20000000p-3, -0x1.07eada0000000p-3, -0x1.4dd6fc0000000p-4}
, {-0x1.2546500000000p-3, -0x1.44beaa0000000p-3, -0x1.d91e900000000p-4, -0x1.8a1e500000000p-8, 0x1.db10580000000p-4, -0x1.8222160000000p-4, -0x1.09efbc0000000p-5, 0x1.487cde0000000p-3}
, {0x1.0c6c9c0000000p-2, 0x1.6ee3a40000000p-3, -0x1.135e100000000p-3, 0x1.0e63a20000000p-6, -0x1.250bb40000000p-4, 0x1.6b9ece0000000p-3, -0x1.fb3b940000000p-6, -0x1.950c960000000p-4}
, {0x1.c578b80000000p-5, 0x1.3e672e0000000p-4, -0x1.b4a08a0000000p-7, 0x1.c3c4760000000p-6, 0x1.18e4340000000p-3, -0x1.b0e7980000000p-3, -0x1.5fd8b00000000p-3, -0x1.0c474c0000000p-3}
, {0x1.3a8ba00000000p-3, -0x1.4d4e960000000p-11, 0x1.02e9e20000000p-3, 0x1.dab0a20000000p-6, 0x1.d3adf60000000p-3, -0x1.ecc2280000000p-4, 0x1.918a4c0000000p-4, 0x1.ab33360000000p-4}
, {-0x1.7ecdde0000000p-3, -0x1.9fd1440000000p-6, -0x1.76a5c60000000p-5, 0x1.d8fa0c0000000p-4, 0x1.3fa8b20000000p-3, -0x1.280a240000000p-4, -0x1.98582c0000000p-3, -0x1.2ec3fe0000000p-4}
}
, {{0x1.eee8780000000p-4, -0x1.9016060000000p-5, 0x1.d598a60000000p-8, 0x1.7224240000000p-4, 0x1.6086a80000000p-4, -0x1.bf20ba0000000p-3, 0x1.c41e240000000p-4, -0x1.587ac20000000p-3}
, {0x1.f2e14e0000000p-3, -0x1.8789260000000p-4, -0x1.edaa0e0000000p-4, 0x1.b44cea0000000p-4, 0x1.b6e5120000000p-4, -0x1.c775260000000p-4, 0x1.2b4de80000000p-4, -0x1.be25760000000p-3}
, {-0x1.34cc940000000p-3, 0x1.9e7cf40000000p-3, 0x1.35bd840000000p-4, 0x1.12cdac0000000p-3, 0x1.4f05d40000000p-5, -0x1.77aa220000000p-3, 0x1.e4c0e40000000p-5, 0x1.9753460000000p-4}
, {0x1.f375a60000000p-6, 0x1.324d7a0000000p-4, 0x1.63cfd60000000p-5, 0x1.58d2fc0000000p-3, 0x1.d973100000000p-3, -0x1.9b0d180000000p-4, 0x1.0d14940000000p-3, -0x1.5d297a0000000p-3}
, {-0x1.1c8ce00000000p-6, -0x1.575aec0000000p-4, -0x1.1e039c0000000p-3, 0x1.70d32a0000000p-7, 0x1.3632200000000p-3, -0x1.8e78540000000p-3, -0x1.4b42140000000p-3, -0x1.cd28f20000000p-4}
, {0x1.960a0c0000000p-5, 0x1.e3a81c0000000p-4, -0x1.a001a80000000p-9, -0x1.06a6280000000p-4, 0x1.47af300000000p-5, -0x1.066f6a0000000p-2, 0x1.1477420000000p-4, -0x1.24d8c20000000p-4}
, {0x1.1fa42c0000000p-5, 0x1.3e089a0000000p-3, -0x1.c0a2760000000p-4, -0x1.b86aec0000000p-4, 0x1.4f00620000000p-6, 0x1.0e1c700000000p-3, -0x1.c6b7fe0000000p-4, 0x1.49707c0000000p-3}
, {-0x1.bf23740000000p-5, 0x1.6a10960000000p-4, 0x1.419aa40000000p-4, -0x1.5129c00000000p-4, 0x1.75f7dc0000000p-3, -0x1.7e5d700000000p-5, -0x1.a2f50a0000000p-4, -0x1.f0378e0000000p-6}
}
}
;

#undef INPUT_CHANNELS
#undef CONV_FILTERS
#undef CONV_KERNEL_SIZE
#undef CONV_GROUPS