/**
  ******************************************************************************
  * @file    weights/conv1d.cc
  * @author  Pierre-Emmanuel Novac <penovac@unice.fr>, LEAT, CNRS, Université Côte d'Azur, France
  * @version 1.0.0
  * @date    24 march 2020
  * @brief   Template generating plain C code for the implementation of Convolutional Neural Networks on MCU
  */

#include <stdint.h>

#define INPUT_CHANNELS    1
#define CONV_FILTERS      8
#define CONV_KERNEL_SIZE  20
#define CONV_GROUPS       1


const float  conv1d_28_bias[CONV_FILTERS] = {0x1.e8b6640000000p-5, 0x1.7be0200000000p-7, 0x1.4662700000000p-13, 0x1.7139480000000p-5, 0x1.88cbc60000000p-5, 0x1.0d3dca0000000p-9, -0x1.903dd80000000p-13, 0x1.195e0c0000000p-6}
;

const float  conv1d_28_kernel[CONV_FILTERS][CONV_KERNEL_SIZE][INPUT_CHANNELS / CONV_GROUPS] = {{{0x1.49a5d60000000p-4}
, {-0x1.78eeb60000000p-5}
, {-0x1.a935f00000000p-4}
, {-0x1.d726e80000000p-3}
, {-0x1.68b2640000000p-3}
, {-0x1.0c0eb80000000p-3}
, {-0x1.60c8080000000p-4}
, {-0x1.3a24b60000000p-5}
, {0x1.196d880000000p-2}
, {0x1.577d140000000p-2}
, {0x1.1754d80000000p-2}
, {0x1.2eb3380000000p-2}
, {0x1.cbdbe20000000p-3}
, {0x1.b863480000000p-6}
, {-0x1.350d7e0000000p-6}
, {0x1.1eace20000000p-6}
, {-0x1.7d1b1a0000000p-4}
, {-0x1.d5e3860000000p-4}
, {0x1.a08ca80000000p-9}
, {0x1.a3c5860000000p-9}
}
, {{0x1.a79a440000000p-6}
, {-0x1.c026de0000000p-5}
, {-0x1.785f240000000p-4}
, {-0x1.f63f740000000p-3}
, {-0x1.0577d20000000p-3}
, {-0x1.0d75b60000000p-2}
, {-0x1.cd28ec0000000p-3}
, {0x1.ffd67a0000000p-4}
, {0x1.36c9100000000p-3}
, {0x1.e4ac300000000p-3}
, {0x1.4ac52a0000000p-3}
, {-0x1.c8467a0000000p-6}
, {-0x1.b32a720000000p-3}
, {-0x1.c7650c0000000p-5}
, {-0x1.31bb0e0000000p-3}
, {0x1.c5b3740000000p-8}
, {-0x1.11e76c0000000p-2}
, {-0x1.c5133c0000000p-3}
, {0x1.aeefca0000000p-4}
, {0x1.d949a60000000p-3}
}
, {{-0x1.60ee0e0000000p-3}
, {0x1.5cd6480000000p-4}
, {0x1.111ac40000000p-7}
, {-0x1.1b59560000000p-3}
, {0x1.6b406c0000000p-5}
, {0x1.acf0940000000p-4}
, {0x1.3997200000000p-4}
, {0x1.62ebde0000000p-2}
, {0x1.176b580000000p-3}
, {0x1.003a740000000p-4}
, {0x1.edb2d00000000p-3}
, {0x1.6d92b60000000p-2}
, {0x1.84c1500000000p-2}
, {0x1.9eba7e0000000p-2}
, {0x1.53ca8e0000000p-2}
, {0x1.5066580000000p-2}
, {0x1.fc4ed80000000p-7}
, {0x1.510f4a0000000p-2}
, {0x1.dd13e60000000p-3}
, {0x1.2582180000000p-2}
}
, {{-0x1.c595580000000p-4}
, {0x1.a74d2c0000000p-3}
, {0x1.69fc2e0000000p-5}
, {-0x1.03aa100000000p-2}
, {-0x1.88e4d00000000p-3}
, {-0x1.2144cc0000000p-2}
, {-0x1.74355c0000000p-4}
, {-0x1.9c90ac0000000p-3}
, {-0x1.955e240000000p-3}
, {-0x1.37c8820000000p-5}
, {0x1.d7c9420000000p-4}
, {0x1.1648fc0000000p-2}
, {0x1.f336a20000000p-4}
, {-0x1.a4d97e0000000p-4}
, {-0x1.e1c6260000000p-3}
, {-0x1.b055c60000000p-3}
, {-0x1.9044520000000p-2}
, {-0x1.3a0d560000000p-2}
, {-0x1.c037280000000p-6}
, {-0x1.4e87700000000p-5}
}
, {{0x1.c5d04a0000000p-6}
, {-0x1.fe6fac0000000p-5}
, {0x1.e08e700000000p-3}
, {0x1.3092c00000000p-2}
, {0x1.2fdac60000000p-2}
, {0x1.5402160000000p-2}
, {0x1.b009a80000000p-3}
, {-0x1.edee600000000p-3}
, {-0x1.f52ce00000000p-3}
, {-0x1.3ce3940000000p-3}
, {0x1.1e84f20000000p-3}
, {0x1.d290ca0000000p-3}
, {-0x1.aa75740000000p-4}
, {0x1.ac7abe0000000p-3}
, {-0x1.c7e1ca0000000p-4}
, {0x1.488e7c0000000p-3}
, {0x1.2e05880000000p-2}
, {0x1.fde1280000000p-6}
, {0x1.3030be0000000p-2}
, {0x1.1d4b4e0000000p-3}
}
, {{0x1.3599ba0000000p-2}
, {0x1.28cc0a0000000p-2}
, {-0x1.cc420c0000000p-4}
, {-0x1.a225420000000p-4}
, {0x1.08438e0000000p-5}
, {-0x1.5d45480000000p-3}
, {-0x1.11e2ea0000000p-3}
, {-0x1.262c3e0000000p-2}
, {-0x1.9a19bc0000000p-3}
, {-0x1.d899000000000p-3}
, {0x1.2e2d2e0000000p-5}
, {0x1.8bc0e60000000p-6}
, {0x1.3b6ad20000000p-2}
, {0x1.8d60cc0000000p-2}
, {0x1.1321560000000p-6}
, {-0x1.b8f29a0000000p-6}
, {-0x1.7d003a0000000p-4}
, {-0x1.43a31a0000000p-3}
, {-0x1.729ace0000000p-3}
, {0x1.edbc360000000p-4}
}
, {{0x1.c498e60000000p-2}
, {0x1.06730a0000000p-6}
, {-0x1.8491120000000p-2}
, {-0x1.a893180000000p-2}
, {-0x1.6303ae0000000p-2}
, {-0x1.c438800000000p-3}
, {-0x1.781e500000000p-5}
, {-0x1.111b220000000p-8}
, {0x1.7640bc0000000p-3}
, {0x1.102b540000000p-6}
, {0x1.85ad900000000p-3}
, {-0x1.12ea440000000p-2}
, {-0x1.03bf240000000p-2}
, {-0x1.1ee3b40000000p-8}
, {0x1.00eb420000000p-13}
, {0x1.268aae0000000p-2}
, {0x1.8bfdf80000000p-3}
, {0x1.e6db220000000p-3}
, {0x1.7770c80000000p-3}
, {0x1.4c16660000000p-4}
}
, {{-0x1.f5ba300000000p-5}
, {0x1.7e879e0000000p-3}
, {0x1.9b6b120000000p-3}
, {0x1.276ff20000000p-2}
, {0x1.1c66aa0000000p-2}
, {0x1.86f2b80000000p-3}
, {0x1.110c6a0000000p-6}
, {-0x1.0d48440000000p-3}
, {0x1.2ed4a80000000p-7}
, {-0x1.0e03ca0000000p-3}
, {-0x1.054ca20000000p-2}
, {-0x1.4f25520000000p-2}
, {-0x1.28f33c0000000p-2}
, {-0x1.eb577c0000000p-3}
, {-0x1.d6b4cc0000000p-3}
, {-0x1.a36c420000000p-10}
, {0x1.099f1e0000000p-3}
, {0x1.63bf1c0000000p-5}
, {0x1.0d0af00000000p-5}
, {0x1.ec56fe0000000p-3}
}
}
;

#undef INPUT_CHANNELS
#undef CONV_FILTERS
#undef CONV_KERNEL_SIZE
#undef CONV_GROUPS