/**
  ******************************************************************************
  * @file    weights/conv1d.cc
  * @author  Pierre-Emmanuel Novac <penovac@unice.fr>, LEAT, CNRS, Université Côte d'Azur, France
  * @version 1.0.0
  * @date    24 march 2020
  * @brief   Template generating plain C code for the implementation of Convolutional Neural Networks on MCU
  */

#include <stdint.h>

#define INPUT_CHANNELS    16
#define CONV_FILTERS      32
#define CONV_KERNEL_SIZE  4
#define CONV_GROUPS       1


const float  conv1d_51_bias[CONV_FILTERS] = {0x1.6189be0000000p-4, 0x1.7df5a20000000p-7, 0x1.901b5c0000000p-4, -0x1.b534260000000p-6, 0x1.c9613c0000000p-5, -0x1.a1eefa0000000p-4, 0x1.2c8c380000000p-4, 0x1.14d7ba0000000p-3, 0x1.346fb60000000p-4, -0x1.16e7580000000p-10, 0x1.f969560000000p-5, 0x1.dcbb520000000p-5, -0x1.37506e0000000p-4, -0x1.8192480000000p-3, 0x1.97084c0000000p-6, -0x1.5dcfb20000000p-4, 0x1.92e47e0000000p-4, 0x1.7842b80000000p-7, -0x1.0fdc1a0000000p-3, 0x1.6d24e00000000p-5, 0x1.ddbd000000000p-6, -0x1.aa0f000000000p-5, -0x1.b83f260000000p-8, 0x1.a571dc0000000p-5, 0x1.cf9f3e0000000p-6, 0x1.bbd6540000000p-5, 0x1.9121140000000p-5, 0x1.5685f60000000p-9, -0x1.d2fce40000000p-6, -0x1.0f99f00000000p-5, 0x1.7a9d2e0000000p-5, 0x1.eddece0000000p-4}
;

const float  conv1d_51_kernel[CONV_FILTERS][CONV_KERNEL_SIZE][INPUT_CHANNELS / CONV_GROUPS] = {{{0x1.2355040000000p-5, 0x1.ec05900000000p-7, 0x1.1cf8e40000000p-3, 0x1.afdbe40000000p-7, 0x1.16c0040000000p-2, 0x1.5b6a2c0000000p-6, -0x1.9e14ac0000000p-4, 0x1.8aae7e0000000p-4, 0x1.58c3c80000000p-3, 0x1.984e9a0000000p-3, 0x1.e0d13e0000000p-4, -0x1.3341200000000p-3, -0x1.ffbe9c0000000p-4, -0x1.6d0f3c0000000p-5, 0x1.65bb920000000p-3, 0x1.8f82d60000000p-5}
, {0x1.a36f0a0000000p-3, -0x1.1c3f140000000p-5, -0x1.b446640000000p-4, 0x1.94c0080000000p-7, 0x1.6fa17e0000000p-3, 0x1.acba280000000p-6, -0x1.91b6700000000p-6, -0x1.e0ba760000000p-5, -0x1.250d880000000p-2, -0x1.400f720000000p-4, -0x1.836c7a0000000p-6, -0x1.f923560000000p-4, -0x1.d11f0e0000000p-5, 0x1.a49db60000000p-8, 0x1.87969a0000000p-3, 0x1.a04ca60000000p-8}
, {-0x1.734e8c0000000p-4, -0x1.1993b40000000p-5, -0x1.40e4300000000p-3, -0x1.4e0ad00000000p-5, 0x1.218eba0000000p-3, 0x1.00d5b00000000p-4, 0x1.4700ee0000000p-3, -0x1.be6d3e0000000p-3, -0x1.24c4fa0000000p-3, 0x1.780e1e0000000p-4, 0x1.3a06420000000p-3, -0x1.3d21c80000000p-3, 0x1.0145d40000000p-3, 0x1.b7f1520000000p-3, -0x1.3bb0a40000000p-3, -0x1.f50a420000000p-9}
, {0x1.2515bc0000000p-6, 0x1.0aa5760000000p-4, -0x1.480b240000000p-3, -0x1.880a1c0000000p-4, 0x1.cb8a100000000p-5, -0x1.9188dc0000000p-5, -0x1.0ee0880000000p-7, -0x1.0869980000000p-5, 0x1.cede0e0000000p-4, -0x1.92c3500000000p-4, -0x1.8810fc0000000p-4, 0x1.0388560000000p-3, 0x1.90de8c0000000p-4, 0x1.3a2d0a0000000p-4, -0x1.73a3580000000p-5, -0x1.0ea0b80000000p-3}
}
, {{-0x1.6c833c0000000p-3, 0x1.20bf2e0000000p-5, 0x1.6311a00000000p-5, -0x1.8d1c2e0000000p-4, 0x1.45ecda0000000p-3, 0x1.07336a0000000p-4, -0x1.5a7ff00000000p-4, 0x1.5fc34c0000000p-4, 0x1.2e9f440000000p-5, 0x1.6b8f0c0000000p-5, -0x1.e83ab40000000p-4, -0x1.6b42320000000p-4, -0x1.3085d60000000p-4, 0x1.1cfeb40000000p-2, -0x1.1065760000000p-2, 0x1.1a2d1a0000000p-3}
, {0x1.38fb880000000p-3, 0x1.8c780a0000000p-3, -0x1.0cec7e0000000p-6, 0x1.fa98220000000p-6, 0x1.f0a8120000000p-5, 0x1.5d98d80000000p-3, 0x1.16697a0000000p-5, 0x1.a923240000000p-3, 0x1.c6d0300000000p-3, -0x1.eabe1c0000000p-5, 0x1.cd31340000000p-7, 0x1.6e1f020000000p-3, 0x1.50d7120000000p-4, -0x1.f2e6280000000p-4, 0x1.bf461c0000000p-5, 0x1.bf7ed00000000p-6}
, {-0x1.458ef20000000p-3, 0x1.7109c60000000p-5, -0x1.18d2c40000000p-4, -0x1.47c8560000000p-4, 0x1.1fc0300000000p-3, -0x1.6f3bcc0000000p-3, 0x1.ab1dd60000000p-8, -0x1.3aec2c0000000p-4, 0x1.8412180000000p-3, 0x1.2a46740000000p-6, -0x1.87c5660000000p-4, -0x1.ff0b5c0000000p-6, -0x1.68b3220000000p-4, -0x1.e7640e0000000p-4, 0x1.2702ea0000000p-5, -0x1.f5089c0000000p-4}
, {-0x1.52ea720000000p-3, 0x1.236b280000000p-3, -0x1.7ec93e0000000p-3, 0x1.5d14900000000p-3, 0x1.d8e0160000000p-4, 0x1.1c91300000000p-3, -0x1.3e05aa0000000p-4, -0x1.b88a8c0000000p-4, -0x1.40833e0000000p-8, -0x1.f7412c0000000p-3, 0x1.4197c00000000p-3, -0x1.7af1a40000000p-4, -0x1.b034360000000p-5, 0x1.2167a60000000p-4, 0x1.4d4c680000000p-4, -0x1.8dad9e0000000p-3}
}
, {{0x1.736aa20000000p-4, 0x1.6c0c600000000p-4, -0x1.c6e5aa0000000p-6, 0x1.8fe84a0000000p-4, -0x1.610cd60000000p-4, 0x1.f26a0a0000000p-4, -0x1.00d8a60000000p-4, -0x1.3cf2ea0000000p-3, -0x1.ca01c40000000p-4, 0x1.93f5080000000p-4, -0x1.6d11720000000p-5, 0x1.dc3aec0000000p-4, 0x1.7f3a560000000p-3, 0x1.20b3be0000000p-3, 0x1.3552aa0000000p-3, -0x1.26d2b40000000p-3}
, {-0x1.e22f1c0000000p-4, 0x1.6da1420000000p-4, -0x1.46c0ec0000000p-3, -0x1.32fa420000000p-3, -0x1.3f5cae0000000p-4, 0x1.2ac2980000000p-4, -0x1.210d160000000p-4, -0x1.89a7960000000p-3, 0x1.b3045e0000000p-4, -0x1.6584460000000p-3, 0x1.770f2e0000000p-3, -0x1.fec2800000000p-4, -0x1.307dc20000000p-4, -0x1.3b85d20000000p-4, -0x1.786e080000000p-5, -0x1.23433a0000000p-3}
, {0x1.a9fb840000000p-3, -0x1.fd32380000000p-6, 0x1.6938180000000p-5, -0x1.3680a20000000p-3, -0x1.80705c0000000p-3, -0x1.da6f1e0000000p-4, 0x1.37ef780000000p-3, -0x1.2919f60000000p-3, -0x1.f82c900000000p-6, 0x1.4621e00000000p-3, 0x1.6b35a80000000p-3, 0x1.48c1340000000p-4, -0x1.08e7d80000000p-10, 0x1.63adce0000000p-4, 0x1.56af5a0000000p-3, 0x1.483f080000000p-3}
, {0x1.7678580000000p-5, 0x1.353dc80000000p-4, 0x1.1644000000000p-3, -0x1.18c3860000000p-6, -0x1.2187880000000p-3, 0x1.19c6ce0000000p-4, 0x1.8a73520000000p-3, -0x1.42f07c0000000p-5, -0x1.22374a0000000p-4, 0x1.0b5f040000000p-5, 0x1.80e9220000000p-10, -0x1.20acb60000000p-4, 0x1.1f4f820000000p-2, -0x1.b4e2260000000p-4, 0x1.7ac4580000000p-3, -0x1.1c05040000000p-5}
}
, {{0x1.e3fff00000000p-6, -0x1.e9feca0000000p-5, 0x1.6b9a780000000p-5, -0x1.93e78c0000000p-5, 0x1.a4c49c0000000p-4, 0x1.a7a8d80000000p-4, -0x1.3e7ade0000000p-3, -0x1.16f6e20000000p-5, 0x1.1f1c780000000p-4, 0x1.2c4f4a0000000p-3, 0x1.1ede400000000p-3, -0x1.2c63960000000p-3, 0x1.9a92160000000p-4, 0x1.67da140000000p-4, -0x1.40e0340000000p-2, -0x1.3dc1220000000p-3}
, {0x1.1276b40000000p-5, -0x1.0435e40000000p-2, 0x1.87843e0000000p-5, 0x1.e901b80000000p-5, -0x1.6d6ea00000000p-7, -0x1.9a9b560000000p-6, 0x1.12746c0000000p-3, 0x1.1000e60000000p-3, -0x1.2b62ac0000000p-4, 0x1.bd0dc60000000p-5, -0x1.d0e2e80000000p-4, -0x1.51eec40000000p-4, -0x1.aa74d00000000p-4, 0x1.a07ea60000000p-3, 0x1.bafdf40000000p-5, 0x1.1c82500000000p-3}
, {0x1.aad6260000000p-4, -0x1.c45cf00000000p-4, -0x1.1bee360000000p-4, 0x1.cdf2180000000p-5, 0x1.8a5e6c0000000p-6, 0x1.977ad00000000p-4, -0x1.f870700000000p-4, 0x1.6ea7dc0000000p-3, -0x1.d1535a0000000p-6, -0x1.0177360000000p-5, -0x1.bd8ecc0000000p-4, -0x1.ef5a860000000p-4, -0x1.fbef860000000p-6, 0x1.1153540000000p-3, 0x1.56e8be0000000p-3, -0x1.02e9f20000000p-5}
, {-0x1.3e69b00000000p-3, -0x1.6101fe0000000p-3, 0x1.9751640000000p-7, -0x1.3c244c0000000p-4, 0x1.9eeb340000000p-6, 0x1.5e00640000000p-6, -0x1.4c01ec0000000p-5, -0x1.7033040000000p-4, 0x1.e5f9700000000p-14, -0x1.e451040000000p-4, 0x1.5ac8640000000p-3, -0x1.a2ceea0000000p-6, -0x1.d756680000000p-4, 0x1.2b809a0000000p-5, 0x1.432a540000000p-4, -0x1.9176d00000000p-5}
}
, {{-0x1.00909a0000000p-3, 0x1.9d55ba0000000p-4, 0x1.385ab80000000p-8, -0x1.41d5780000000p-4, 0x1.b3ad580000000p-5, -0x1.c53dae0000000p-4, 0x1.369fc40000000p-4, -0x1.3c6f660000000p-3, 0x1.fee7860000000p-6, 0x1.bc3df40000000p-6, 0x1.550fcc0000000p-5, -0x1.ea16240000000p-4, -0x1.544ec40000000p-3, -0x1.c51c8c0000000p-5, -0x1.bf91140000000p-5, -0x1.0698680000000p-3}
, {-0x1.c912da0000000p-5, -0x1.2f45860000000p-4, 0x1.09ebfe0000000p-9, -0x1.5382000000000p-6, 0x1.c40c860000000p-4, 0x1.64dce00000000p-3, -0x1.31a3020000000p-4, 0x1.9857e80000000p-4, 0x1.deb3ea0000000p-4, -0x1.be89b60000000p-4, -0x1.7cb58e0000000p-5, 0x1.881d080000000p-3, 0x1.3de35c0000000p-6, 0x1.a72d020000000p-4, -0x1.f6b2920000000p-4, 0x1.42eefe0000000p-6}
, {0x1.1825c00000000p-3, 0x1.0710100000000p-2, 0x1.d428ac0000000p-5, 0x1.e15ae40000000p-4, -0x1.02b2060000000p-3, 0x1.6231f40000000p-7, 0x1.68407a0000000p-3, 0x1.ca1e500000000p-3, 0x1.018fce0000000p-8, -0x1.2078380000000p-6, -0x1.b61afc0000000p-4, 0x1.211bea0000000p-5, 0x1.4b89d20000000p-3, 0x1.fdb51e0000000p-4, -0x1.673b740000000p-4, 0x1.2d92500000000p-3}
, {-0x1.9bb7580000000p-6, 0x1.004b900000000p-4, -0x1.5aa7d60000000p-4, -0x1.4c71be0000000p-5, 0x1.3e10180000000p-4, -0x1.c60d8a0000000p-4, 0x1.76e8420000000p-4, 0x1.0f142c0000000p-3, -0x1.fe3d3c0000000p-5, -0x1.ff059c0000000p-5, -0x1.7860f60000000p-3, 0x1.9d8e7e0000000p-4, -0x1.d085540000000p-4, -0x1.f72b7e0000000p-4, -0x1.d2b47e0000000p-3, -0x1.dc6f900000000p-4}
}
, {{-0x1.93f8f20000000p-3, -0x1.5904dc0000000p-3, 0x1.3d726a0000000p-5, -0x1.71718e0000000p-4, 0x1.a0687e0000000p-5, -0x1.d883ea0000000p-4, -0x1.13981a0000000p-5, -0x1.b894ce0000000p-6, -0x1.27bf220000000p-5, -0x1.1fb7fe0000000p-3, 0x1.d799ec0000000p-4, -0x1.f5109e0000000p-4, 0x1.21e38a0000000p-4, -0x1.7437bc0000000p-5, 0x1.840e3c0000000p-4, -0x1.987c540000000p-4}
, {-0x1.e467280000000p-4, 0x1.bd152a0000000p-3, -0x1.057f4c0000000p-3, -0x1.6715cc0000000p-3, 0x1.67e5de0000000p-4, 0x1.bce3d20000000p-5, -0x1.594eec0000000p-3, 0x1.16880c0000000p-3, -0x1.a3b40a0000000p-4, -0x1.59ce480000000p-6, -0x1.7149860000000p-3, 0x1.f0bdb60000000p-4, 0x1.0abe580000000p-4, -0x1.6752be0000000p-3, 0x1.39b53c0000000p-3, 0x1.85b1620000000p-3}
, {0x1.85e9420000000p-3, -0x1.00f4200000000p-2, 0x1.8e33dc0000000p-3, 0x1.b4857c0000000p-4, 0x1.b9abc20000000p-4, 0x1.b21d4a0000000p-4, 0x1.704f200000000p-4, 0x1.83e5b00000000p-3, 0x1.3a61f00000000p-3, 0x1.7bffc20000000p-6, 0x1.7994fe0000000p-3, -0x1.587cb60000000p-3, 0x1.308e540000000p-4, 0x1.90fe300000000p-7, -0x1.3214ae0000000p-4, 0x1.af57c80000000p-3}
, {-0x1.af77b20000000p-4, 0x1.60a5be0000000p-4, 0x1.65155a0000000p-3, -0x1.5eb1020000000p-4, -0x1.6400f20000000p-4, -0x1.5acc5c0000000p-5, 0x1.d498d00000000p-4, -0x1.1eb2a60000000p-4, -0x1.2c52460000000p-3, 0x1.e7ca980000000p-4, 0x1.055cc40000000p-6, 0x1.b1b9720000000p-5, 0x1.95a56c0000000p-4, 0x1.4091f00000000p-6, -0x1.21bfe20000000p-3, -0x1.bb6fa00000000p-5}
}
, {{-0x1.ca66c40000000p-5, -0x1.4321a20000000p-9, -0x1.392dc40000000p-3, 0x1.7b4fa80000000p-5, -0x1.47b9080000000p-3, -0x1.2887c40000000p-5, 0x1.0481be0000000p-5, -0x1.d07f980000000p-6, 0x1.f231a20000000p-4, -0x1.5856280000000p-3, -0x1.39024a0000000p-3, 0x1.39f6720000000p-4, 0x1.670a040000000p-3, 0x1.2902860000000p-4, 0x1.09eae00000000p-2, -0x1.6743080000000p-4}
, {0x1.43faca0000000p-4, -0x1.3afbb80000000p-6, 0x1.17345e0000000p-5, 0x1.e268e60000000p-4, -0x1.b76d5a0000000p-6, -0x1.c80c840000000p-5, 0x1.2443e00000000p-3, 0x1.2fce060000000p-6, -0x1.221bd40000000p-5, -0x1.1c92300000000p-3, 0x1.640d240000000p-5, -0x1.6cb21e0000000p-5, 0x1.7c21060000000p-4, 0x1.a7dc880000000p-3, 0x1.610bfe0000000p-3, 0x1.47c8020000000p-3}
, {0x1.4d439c0000000p-5, 0x1.a5f8000000000p-4, -0x1.3f9af20000000p-3, -0x1.a8e2640000000p-4, -0x1.1517960000000p-3, -0x1.ef12100000000p-5, -0x1.e83d8c0000000p-5, 0x1.bace880000000p-6, -0x1.c832820000000p-4, 0x1.e5040c0000000p-4, -0x1.9fd6220000000p-7, -0x1.cca5940000000p-3, 0x1.c0f6f00000000p-4, -0x1.3d97a60000000p-3, 0x1.9c3e460000000p-3, -0x1.4b2bfe0000000p-4}
, {-0x1.4d78da0000000p-5, 0x1.eb85d00000000p-4, 0x1.60539c0000000p-5, -0x1.8fee360000000p-9, -0x1.f07cfc0000000p-5, 0x1.0f22220000000p-3, -0x1.2dc8620000000p-3, 0x1.c981360000000p-5, -0x1.edccc40000000p-6, -0x1.3323120000000p-3, 0x1.65c24e0000000p-4, 0x1.06b0080000000p-3, 0x1.ff1a940000000p-5, -0x1.1861280000000p-3, 0x1.c838840000000p-4, 0x1.22bf680000000p-5}
}
, {{-0x1.0d47660000000p-4, -0x1.486d5e0000000p-5, 0x1.f6a15c0000000p-4, -0x1.485ff80000000p-4, 0x1.c1457c0000000p-4, 0x1.180cd60000000p-3, -0x1.6d0ef60000000p-4, 0x1.56f7ba0000000p-3, -0x1.a4722e0000000p-6, 0x1.f05c500000000p-4, -0x1.2046140000000p-5, -0x1.069c640000000p-5, -0x1.53f5700000000p-4, 0x1.fc68480000000p-6, -0x1.127c560000000p-4, -0x1.5c31140000000p-5}
, {-0x1.80ad000000000p-3, 0x1.00fe1c0000000p-3, -0x1.3eba280000000p-4, 0x1.9670120000000p-6, 0x1.d60f480000000p-4, 0x1.14538e0000000p-7, -0x1.4f74920000000p-3, 0x1.1971120000000p-3, 0x1.d4cfee0000000p-3, 0x1.280b7c0000000p-4, -0x1.1adb3e0000000p-4, 0x1.0829440000000p-6, -0x1.bcae4c0000000p-5, -0x1.332a7e0000000p-3, -0x1.c47ece0000000p-3, -0x1.bbe8600000000p-4}
, {-0x1.518cc40000000p-10, 0x1.a215b40000000p-9, -0x1.5870cc0000000p-4, 0x1.7e583e0000000p-5, 0x1.6b29660000000p-5, 0x1.116e3e0000000p-3, 0x1.fe50500000000p-4, 0x1.ce965a0000000p-3, -0x1.8133ae0000000p-4, 0x1.721f620000000p-3, 0x1.8d73ea0000000p-3, -0x1.7357aa0000000p-4, 0x1.056de40000000p-4, -0x1.084fe20000000p-3, 0x1.88b25e0000000p-5, 0x1.d0d28e0000000p-5}
, {-0x1.553b7c0000000p-3, 0x1.684c740000000p-6, 0x1.256d6a0000000p-3, 0x1.111d900000000p-4, 0x1.ce218c0000000p-4, -0x1.59381e0000000p-3, -0x1.0130d00000000p-3, 0x1.8755ba0000000p-4, 0x1.59b40a0000000p-3, -0x1.1a6aec0000000p-5, 0x1.e642d40000000p-8, -0x1.ae6aaa0000000p-4, -0x1.ee6ecc0000000p-6, -0x1.28e0320000000p-3, -0x1.64e53e0000000p-3, -0x1.d6c6160000000p-4}
}
, {{0x1.99f7b60000000p-5, 0x1.4ef51c0000000p-4, 0x1.bdaba80000000p-9, -0x1.8db9e00000000p-3, -0x1.6f95e80000000p-3, 0x1.9b9f3a0000000p-4, 0x1.69ec4c0000000p-7, 0x1.22d1d60000000p-3, -0x1.5660fc0000000p-3, -0x1.2a8c160000000p-4, 0x1.40482c0000000p-3, 0x1.be777e0000000p-5, 0x1.53f6580000000p-8, -0x1.9582720000000p-4, 0x1.673ac60000000p-8, -0x1.a3f0f20000000p-7}
, {0x1.cfa0fc0000000p-4, -0x1.d88c960000000p-6, -0x1.f900160000000p-4, -0x1.2295ec0000000p-4, -0x1.9989960000000p-3, 0x1.2b884a0000000p-3, 0x1.6bed1e0000000p-3, 0x1.2d202e0000000p-3, 0x1.3847120000000p-4, -0x1.a4e0a00000000p-4, -0x1.c4fcd00000000p-4, 0x1.9797080000000p-3, 0x1.3db4e60000000p-6, -0x1.21c5aa0000000p-4, -0x1.54cdd80000000p-3, -0x1.6498560000000p-4}
, {0x1.bc7a7a0000000p-3, -0x1.695b3e0000000p-3, -0x1.98daf40000000p-4, -0x1.1ff56e0000000p-3, -0x1.229dfc0000000p-9, -0x1.0bb85a0000000p-4, 0x1.9375f80000000p-4, -0x1.126cb20000000p-8, -0x1.06d69a0000000p-3, 0x1.865caa0000000p-3, 0x1.51c1980000000p-3, 0x1.320bae0000000p-6, 0x1.b8b11e0000000p-4, -0x1.82d1b80000000p-3, -0x1.8b76b80000000p-5, 0x1.e2e8e20000000p-6}
, {-0x1.18a0260000000p-6, 0x1.90e8cc0000000p-5, -0x1.aff4cc0000000p-6, 0x1.399b340000000p-4, 0x1.e3a50e0000000p-4, 0x1.10b78e0000000p-4, -0x1.5604040000000p-5, 0x1.f720440000000p-4, -0x1.4f66ea0000000p-3, -0x1.0447ea0000000p-3, -0x1.41ecc60000000p-3, -0x1.46e5c60000000p-4, -0x1.468f420000000p-5, -0x1.8a64540000000p-6, -0x1.0dc8780000000p-2, 0x1.3c25060000000p-6}
}
, {{0x1.f203740000000p-3, 0x1.30c1be0000000p-3, 0x1.741d580000000p-5, 0x1.0170da0000000p-4, -0x1.05e19e0000000p-3, 0x1.404aac0000000p-3, -0x1.1692e40000000p-4, 0x1.66337c0000000p-4, -0x1.66577a0000000p-3, -0x1.5e6d000000000p-8, 0x1.c257080000000p-4, 0x1.03ba200000000p-3, 0x1.728a5a0000000p-3, 0x1.80614a0000000p-4, -0x1.e5dd960000000p-7, 0x1.264af80000000p-4}
, {-0x1.e51d240000000p-4, -0x1.442c620000000p-4, -0x1.151df80000000p-3, 0x1.8231540000000p-4, 0x1.ce00840000000p-6, 0x1.9af18c0000000p-5, 0x1.4570160000000p-3, -0x1.8f587e0000000p-5, -0x1.1d7df80000000p-5, -0x1.4cd90c0000000p-5, -0x1.429d620000000p-3, 0x1.380b840000000p-3, -0x1.55bbb40000000p-4, 0x1.2e51d60000000p-4, -0x1.af62b60000000p-4, 0x1.756a900000000p-4}
, {-0x1.6e2a540000000p-6, 0x1.d46a620000000p-7, 0x1.2bc7b60000000p-3, 0x1.6f1c580000000p-4, -0x1.a087b20000000p-4, -0x1.214a2e0000000p-3, 0x1.3a3cc00000000p-5, -0x1.11e0460000000p-4, 0x1.7514cc0000000p-6, 0x1.fb13900000000p-6, 0x1.a0b0980000000p-3, -0x1.29d8540000000p-3, -0x1.c3970e0000000p-5, 0x1.c6c4640000000p-3, -0x1.35bb0a0000000p-3, -0x1.285e420000000p-6}
, {0x1.25d3ee0000000p-4, -0x1.6a86fe0000000p-3, -0x1.1f68540000000p-3, -0x1.9968980000000p-4, 0x1.31c7480000000p-3, 0x1.6ddc280000000p-8, 0x1.8334160000000p-4, 0x1.7235020000000p-4, -0x1.56e6e00000000p-3, -0x1.74d9c60000000p-5, 0x1.2025340000000p-5, 0x1.de5fe20000000p-4, -0x1.f014e00000000p-9, 0x1.a4518c0000000p-4, -0x1.6655f80000000p-4, -0x1.ce42920000000p-4}
}
, {{-0x1.5fdf040000000p-4, 0x1.3003740000000p-3, 0x1.6a16700000000p-5, -0x1.df10f20000000p-4, -0x1.ce6e680000000p-9, -0x1.5597120000000p-3, -0x1.ddef140000000p-4, -0x1.3d7b7e0000000p-4, -0x1.79a8fa0000000p-3, -0x1.2925760000000p-4, 0x1.4651f60000000p-5, -0x1.6bd0b00000000p-4, -0x1.fcd1b80000000p-5, 0x1.5ab7e80000000p-3, -0x1.0e0ad40000000p-5, 0x1.22ca180000000p-4}
, {0x1.6ea7be0000000p-3, 0x1.0300c60000000p-2, 0x1.4d4c500000000p-6, 0x1.31be6e0000000p-3, 0x1.f6d4cc0000000p-4, -0x1.069b4a0000000p-3, -0x1.17d1dc0000000p-3, 0x1.fedcdc0000000p-4, -0x1.34444a0000000p-5, 0x1.1b13320000000p-3, 0x1.798bd40000000p-4, -0x1.4e4e960000000p-4, 0x1.f89c4e0000000p-5, -0x1.aa47420000000p-5, -0x1.90f8920000000p-6, -0x1.4a784e0000000p-3}
, {-0x1.61c8d40000000p-3, -0x1.09c7ae0000000p-4, 0x1.7c5d4e0000000p-4, 0x1.4f220c0000000p-4, -0x1.d993220000000p-5, 0x1.65a2060000000p-4, -0x1.92700c0000000p-5, -0x1.5415520000000p-5, 0x1.f71c080000000p-6, 0x1.ccb3bc0000000p-3, -0x1.5057080000000p-3, -0x1.1691040000000p-3, 0x1.d39edc0000000p-6, 0x1.ff26cc0000000p-3, 0x1.7c6f180000000p-4, 0x1.3341080000000p-3}
, {0x1.07ae6c0000000p-4, 0x1.043cbc0000000p-2, -0x1.2d71bc0000000p-3, 0x1.0df5540000000p-3, 0x1.403a3e0000000p-3, 0x1.97664a0000000p-3, -0x1.0aeb0e0000000p-3, -0x1.ed9e6a0000000p-4, 0x1.609cd60000000p-3, -0x1.55c5840000000p-3, 0x1.4ef53c0000000p-3, -0x1.852c1a0000000p-4, -0x1.81d24c0000000p-4, -0x1.675cde0000000p-4, 0x1.b4ee180000000p-6, -0x1.14cbac0000000p-3}
}
, {{0x1.5bf47e0000000p-4, 0x1.9ca6860000000p-4, -0x1.e627e60000000p-4, 0x1.834e860000000p-5, 0x1.bbb1580000000p-4, -0x1.3cacca0000000p-3, -0x1.071a0e0000000p-2, -0x1.bcf7480000000p-3, 0x1.7b43480000000p-4, 0x1.10e6360000000p-3, -0x1.33608a0000000p-3, -0x1.31af440000000p-3, -0x1.26de480000000p-3, 0x1.c6bccc0000000p-4, 0x1.d760020000000p-3, -0x1.5877e40000000p-3}
, {-0x1.0bab600000000p-3, -0x1.7388c20000000p-5, -0x1.15e3b20000000p-3, 0x1.2d4d8a0000000p-4, 0x1.c655c60000000p-4, -0x1.e565640000000p-4, 0x1.a722f40000000p-4, 0x1.9b6ff80000000p-4, -0x1.8090c40000000p-4, 0x1.def3500000000p-4, 0x1.3d2c880000000p-3, -0x1.96cec20000000p-5, -0x1.06d49e0000000p-3, -0x1.53a2c80000000p-3, 0x1.1d0e060000000p-3, 0x1.63ab2a0000000p-3}
, {-0x1.0208300000000p-3, 0x1.b9f9ca0000000p-4, -0x1.953bae0000000p-3, 0x1.db9b060000000p-6, 0x1.6e07760000000p-5, 0x1.1b54360000000p-4, -0x1.e6afc60000000p-4, -0x1.947ff40000000p-3, -0x1.3e91a40000000p-11, -0x1.5998920000000p-4, 0x1.32ae780000000p-4, -0x1.61f8c40000000p-9, 0x1.80cd0c0000000p-4, -0x1.65e6320000000p-5, 0x1.19a0120000000p-2, 0x1.f7d2a60000000p-5}
, {0x1.357f860000000p-3, -0x1.395b7c0000000p-6, -0x1.edc91a0000000p-5, -0x1.baa3840000000p-7, 0x1.096f1c0000000p-4, -0x1.8815e80000000p-4, 0x1.17c2920000000p-6, 0x1.78d8240000000p-4, -0x1.9eff4e0000000p-4, -0x1.44fd980000000p-5, 0x1.9257220000000p-3, 0x1.59fe9c0000000p-3, 0x1.36ab060000000p-3, 0x1.f03cc00000000p-7, -0x1.ddf7480000000p-4, 0x1.4880180000000p-3}
}
, {{0x1.20af560000000p-5, -0x1.03c3fc0000000p-5, 0x1.0a52920000000p-4, -0x1.b2437c0000000p-4, 0x1.d3ab220000000p-4, -0x1.50342a0000000p-3, 0x1.d8299c0000000p-5, -0x1.0d16720000000p-8, 0x1.959dee0000000p-3, -0x1.f35a980000000p-7, -0x1.8565640000000p-7, -0x1.dcbc860000000p-4, 0x1.6fc2740000000p-7, -0x1.8731000000000p-6, 0x1.0b7c1e0000000p-2, 0x1.cfccba0000000p-4}
, {0x1.068cd80000000p-4, 0x1.fc88fa0000000p-4, 0x1.15c4ee0000000p-4, 0x1.21a5a60000000p-6, 0x1.1066ea0000000p-3, 0x1.0027ce0000000p-5, 0x1.f13cd60000000p-4, -0x1.45e7b40000000p-3, 0x1.1734040000000p-3, 0x1.b436460000000p-3, 0x1.a7765e0000000p-4, 0x1.52014a0000000p-4, 0x1.9f34c80000000p-7, 0x1.c5d4ce0000000p-6, -0x1.5cd1b80000000p-8, -0x1.edf8880000000p-6}
, {0x1.68f6820000000p-4, -0x1.8964b40000000p-7, 0x1.373f5a0000000p-5, -0x1.644df40000000p-6, -0x1.7b0ede0000000p-4, 0x1.2196420000000p-3, -0x1.b031140000000p-3, 0x1.0375640000000p-3, 0x1.7bed4e0000000p-3, 0x1.a4db920000000p-3, -0x1.18c5a80000000p-5, -0x1.341c400000000p-5, -0x1.23f5140000000p-5, 0x1.3aadf60000000p-5, 0x1.43312e0000000p-3, 0x1.1d56300000000p-3}
, {0x1.fd21160000000p-4, 0x1.1649440000000p-3, 0x1.f3396e0000000p-4, -0x1.92bd7e0000000p-6, -0x1.20a5f40000000p-4, -0x1.a4b8b40000000p-3, -0x1.685e5c0000000p-5, 0x1.ecb2f20000000p-4, 0x1.c076b20000000p-3, 0x1.3a236e0000000p-3, 0x1.2e02280000000p-3, 0x1.57d26c0000000p-7, 0x1.b560300000000p-4, -0x1.4b33480000000p-5, -0x1.dac1b80000000p-4, 0x1.e3f8800000000p-3}
}
, {{0x1.41a3680000000p-5, -0x1.d6a7c20000000p-4, -0x1.3f2ec80000000p-4, 0x1.c1c4140000000p-4, -0x1.87a36c0000000p-5, -0x1.8368160000000p-6, -0x1.63f92a0000000p-3, 0x1.d740ba0000000p-8, 0x1.ccba080000000p-3, -0x1.5ac1f60000000p-3, 0x1.55a6800000000p-3, -0x1.e0330a0000000p-5, -0x1.468f160000000p-9, 0x1.09106c0000000p-3, -0x1.00aac80000000p-3, 0x1.427f3e0000000p-3}
, {0x1.048d3c0000000p-3, 0x1.82686c0000000p-5, 0x1.76cf460000000p-3, 0x1.312a860000000p-3, 0x1.1c91100000000p-4, 0x1.46ebb40000000p-7, 0x1.595a560000000p-4, 0x1.a5d94e0000000p-5, 0x1.33d5dc0000000p-3, -0x1.6773860000000p-3, -0x1.97261c0000000p-3, -0x1.0406ce0000000p-3, -0x1.cf34b40000000p-8, 0x1.45d45a0000000p-3, 0x1.3234f00000000p-3, 0x1.f5a28e0000000p-4}
, {0x1.d0fbce0000000p-5, 0x1.3332500000000p-5, -0x1.72ccfc0000000p-3, 0x1.7073160000000p-4, -0x1.b53f960000000p-4, -0x1.7420440000000p-4, 0x1.0f8f020000000p-3, -0x1.9ee5620000000p-4, -0x1.75ffc40000000p-3, -0x1.2724380000000p-5, -0x1.5b1b700000000p-4, 0x1.6db1560000000p-7, 0x1.1975200000000p-5, -0x1.d3cc840000000p-4, -0x1.d604740000000p-5, 0x1.bea3620000000p-5}
, {-0x1.6f60600000000p-3, -0x1.4536f40000000p-4, 0x1.0201c60000000p-6, 0x1.33c2960000000p-3, -0x1.3571b80000000p-4, 0x1.963d9e0000000p-4, 0x1.65029e0000000p-3, -0x1.d33f000000000p-5, 0x1.aca7100000000p-4, -0x1.0456960000000p-4, 0x1.7f4f500000000p-4, 0x1.4c12060000000p-5, 0x1.25ef5a0000000p-8, -0x1.8a89960000000p-5, -0x1.3099d60000000p-5, -0x1.81e13c0000000p-3}
}
, {{-0x1.83497a0000000p-4, 0x1.da2b6a0000000p-7, -0x1.763c200000000p-6, 0x1.6b851a0000000p-4, 0x1.d1ebe00000000p-3, 0x1.7698460000000p-5, -0x1.b13f980000000p-4, -0x1.60fe140000000p-4, 0x1.9ec7300000000p-3, -0x1.1c9e740000000p-4, 0x1.338f4c0000000p-4, 0x1.a76b920000000p-6, 0x1.9b8cae0000000p-5, -0x1.8aed700000000p-3, 0x1.ae73d40000000p-4, 0x1.0974460000000p-4}
, {0x1.4d2dc40000000p-6, 0x1.0975d40000000p-5, -0x1.6843440000000p-4, -0x1.e962000000000p-4, -0x1.6ffac20000000p-4, 0x1.0595480000000p-3, -0x1.164b620000000p-5, -0x1.32cf2e0000000p-3, 0x1.67d1e80000000p-3, 0x1.4d8a200000000p-3, 0x1.6e6c160000000p-3, -0x1.a4d5380000000p-4, 0x1.51c7960000000p-9, 0x1.f868200000000p-5, -0x1.cd7bf00000000p-11, -0x1.26ef6a0000000p-4}
, {-0x1.8d84fe0000000p-7, -0x1.0097300000000p-4, 0x1.21d1780000000p-3, -0x1.221fcc0000000p-4, 0x1.d5d0860000000p-4, 0x1.25967e0000000p-3, -0x1.577e5a0000000p-4, -0x1.c1d0280000000p-5, 0x1.fdbee20000000p-4, 0x1.4564a80000000p-5, 0x1.f668940000000p-4, 0x1.5c62f00000000p-4, -0x1.5088080000000p-5, 0x1.d5d5de0000000p-4, -0x1.10b8ee0000000p-4, 0x1.3310880000000p-3}
, {0x1.176a3c0000000p-3, -0x1.76a0500000000p-6, 0x1.6e97bc0000000p-5, -0x1.5d474e0000000p-5, 0x1.5684d00000000p-4, -0x1.c0f8dc0000000p-6, -0x1.40572a0000000p-3, 0x1.28c5bc0000000p-4, 0x1.020a580000000p-5, -0x1.23683c0000000p-5, -0x1.28d7f80000000p-5, 0x1.28ffc60000000p-3, 0x1.76a1700000000p-5, 0x1.6c23c40000000p-6, 0x1.230bdc0000000p-6, -0x1.38869e0000000p-4}
}
, {{0x1.6541e00000000p-8, 0x1.06763a0000000p-3, -0x1.7de96e0000000p-5, 0x1.bfda240000000p-4, 0x1.1aff520000000p-3, 0x1.801e800000000p-3, 0x1.9902620000000p-6, -0x1.903f660000000p-3, -0x1.0226d40000000p-6, -0x1.6a8d800000000p-3, 0x1.858f780000000p-3, 0x1.7863860000000p-3, 0x1.47c0340000000p-3, 0x1.4e9d0e0000000p-10, -0x1.0b44460000000p-4, 0x1.5218c40000000p-4}
, {-0x1.567f2c0000000p-4, 0x1.62fe0a0000000p-4, -0x1.22bbbc0000000p-3, -0x1.7fdeca0000000p-6, -0x1.a8ddc00000000p-4, 0x1.2abc080000000p-3, 0x1.40fae20000000p-4, -0x1.dae4fc0000000p-6, 0x1.bb35e40000000p-4, 0x1.0d9e6c0000000p-3, -0x1.3470580000000p-3, -0x1.99a16a0000000p-4, -0x1.64d8780000000p-7, -0x1.7f702e0000000p-6, 0x1.39a5240000000p-2, -0x1.805bc40000000p-4}
, {0x1.1eab780000000p-3, 0x1.333d540000000p-3, -0x1.124aa60000000p-3, -0x1.13646c0000000p-4, -0x1.8a7ad20000000p-5, 0x1.1a42960000000p-4, -0x1.d273940000000p-7, -0x1.2da8720000000p-3, -0x1.4eb4320000000p-8, -0x1.9f61120000000p-4, 0x1.74bc280000000p-3, 0x1.31967c0000000p-3, 0x1.1e663c0000000p-4, -0x1.19b6f40000000p-4, 0x1.40704e0000000p-7, 0x1.906e420000000p-4}
, {0x1.6fb3580000000p-3, -0x1.da6fb60000000p-4, -0x1.e61b5a0000000p-4, -0x1.cb357c0000000p-4, 0x1.654aea0000000p-3, -0x1.553e920000000p-5, -0x1.1a88960000000p-3, 0x1.6e9d9a0000000p-12, 0x1.43b4fc0000000p-5, -0x1.88dac00000000p-3, -0x1.08f6560000000p-8, 0x1.cd7dd00000000p-5, 0x1.1c02820000000p-4, 0x1.4d9a440000000p-4, -0x1.6580cc0000000p-4, 0x1.7412a40000000p-4}
}
, {{0x1.01c8780000000p-4, 0x1.315ee00000000p-4, -0x1.e1ef6a0000000p-5, -0x1.daf73c0000000p-6, -0x1.c2c37a0000000p-4, 0x1.3f644c0000000p-4, -0x1.7459a00000000p-3, -0x1.4deb180000000p-4, -0x1.2f68c60000000p-4, 0x1.687a680000000p-3, 0x1.de5f140000000p-4, -0x1.55c26c0000000p-4, 0x1.9dc3e80000000p-4, 0x1.59b61a0000000p-3, -0x1.6e05640000000p-6, 0x1.089a640000000p-4}
, {-0x1.0461de0000000p-4, -0x1.4b72420000000p-8, 0x1.174f2c0000000p-4, 0x1.32fc4c0000000p-3, 0x1.e3fc2c0000000p-3, -0x1.450daa0000000p-4, -0x1.66c8a60000000p-4, -0x1.0e68720000000p-3, 0x1.0ec07e0000000p-3, -0x1.3690e80000000p-5, 0x1.b05cfa0000000p-5, 0x1.bc171a0000000p-8, 0x1.8b522e0000000p-6, 0x1.9688cc0000000p-4, -0x1.8ac1b20000000p-4, 0x1.f99aa80000000p-3}
, {0x1.5813ea0000000p-3, 0x1.baa7520000000p-3, -0x1.f515120000000p-4, 0x1.3417a00000000p-4, 0x1.02f9e20000000p-4, -0x1.bfda6a0000000p-4, -0x1.4eb6fc0000000p-3, -0x1.9563e80000000p-6, 0x1.88b66c0000000p-3, -0x1.4a2ab40000000p-8, 0x1.571ef00000000p-3, -0x1.b3c4420000000p-7, 0x1.ba7b220000000p-6, 0x1.a16de40000000p-3, 0x1.e6ae200000000p-4, -0x1.a6b2160000000p-9}
, {0x1.9c6d6e0000000p-3, 0x1.0aa5a60000000p-3, -0x1.cc97540000000p-4, -0x1.e0b13c0000000p-4, 0x1.2457460000000p-3, -0x1.115bc00000000p-4, 0x1.2dfde40000000p-6, -0x1.5262fa0000000p-3, 0x1.e2709c0000000p-4, 0x1.444b560000000p-5, -0x1.8973fa0000000p-5, -0x1.9fbe3e0000000p-4, -0x1.f5c9d80000000p-6, -0x1.2c98aa0000000p-4, -0x1.0bca7c0000000p-5, 0x1.6363300000000p-5}
}
, {{-0x1.8a9e620000000p-3, 0x1.4d6e400000000p-5, -0x1.b361020000000p-5, -0x1.14ca240000000p-4, 0x1.d93b860000000p-3, 0x1.094b9a0000000p-4, 0x1.cd84920000000p-5, -0x1.dc67920000000p-4, 0x1.66ee060000000p-3, -0x1.0e0f4c0000000p-5, -0x1.8d20720000000p-4, 0x1.8ec92c0000000p-4, 0x1.cf61080000000p-4, 0x1.2820fe0000000p-3, 0x1.0205340000000p-4, 0x1.7218960000000p-3}
, {0x1.23ca440000000p-4, 0x1.00b4e00000000p-2, 0x1.bc86be0000000p-5, -0x1.1505a60000000p-3, -0x1.5e018e0000000p-7, 0x1.4204820000000p-4, -0x1.1ea21e0000000p-5, 0x1.6b42000000000p-6, -0x1.2a281c0000000p-4, 0x1.e17f040000000p-4, -0x1.7cdfa80000000p-4, 0x1.42bfe60000000p-6, 0x1.6b17600000000p-3, 0x1.380e800000000p-4, 0x1.dc99620000000p-3, -0x1.2251f20000000p-3}
, {-0x1.a576560000000p-4, 0x1.18adf20000000p-5, -0x1.066a560000000p-3, -0x1.3a23380000000p-5, -0x1.758f4e0000000p-8, 0x1.431f020000000p-15, 0x1.84f3e00000000p-4, -0x1.478e600000000p-5, 0x1.1aae220000000p-4, -0x1.ea79760000000p-7, -0x1.69ebfe0000000p-4, 0x1.6dec940000000p-3, -0x1.8b64140000000p-4, 0x1.2835960000000p-4, -0x1.6b02f40000000p-6, -0x1.5e6bd20000000p-6}
, {0x1.04a2da0000000p-3, -0x1.66120c0000000p-5, -0x1.2e881c0000000p-3, -0x1.2b815a0000000p-5, 0x1.3c128e0000000p-3, -0x1.a41e3a0000000p-4, -0x1.307d560000000p-3, -0x1.3691be0000000p-3, 0x1.5b8dec0000000p-3, -0x1.3de64e0000000p-5, -0x1.5d0fc00000000p-4, 0x1.934b500000000p-3, -0x1.c0e79c0000000p-4, 0x1.0a370c0000000p-3, -0x1.ae01340000000p-4, 0x1.b44fc00000000p-7}
}
, {{-0x1.2840f80000000p-3, -0x1.41b4b40000000p-2, -0x1.08b4780000000p-3, 0x1.cf4f340000000p-6, -0x1.f153220000000p-3, -0x1.1863d40000000p-3, -0x1.4f7f8a0000000p-3, -0x1.97bb5a0000000p-4, -0x1.1bfe860000000p-3, -0x1.a4ce5e0000000p-4, -0x1.408be40000000p-4, 0x1.904f420000000p-5, -0x1.db998a0000000p-5, 0x1.9337d80000000p-5, -0x1.00effe0000000p-2, 0x1.78b76a0000000p-6}
, {0x1.99b3800000000p-4, 0x1.1818e80000000p-5, 0x1.2760b00000000p-3, 0x1.42a2de0000000p-3, 0x1.ff80d00000000p-4, -0x1.8322fa0000000p-4, -0x1.3b95e40000000p-3, 0x1.ef77ea0000000p-5, 0x1.8b57d60000000p-5, 0x1.7a56f20000000p-5, 0x1.3191940000000p-3, 0x1.395d2e0000000p-3, -0x1.56456e0000000p-5, 0x1.d4edf60000000p-5, -0x1.e6ff2c0000000p-4, 0x1.f6a7800000000p-5}
, {-0x1.0912a60000000p-3, 0x1.936acc0000000p-10, -0x1.afea9c0000000p-3, 0x1.2190540000000p-4, 0x1.073dd80000000p-3, 0x1.5c34200000000p-3, -0x1.58b94c0000000p-5, 0x1.0922100000000p-3, 0x1.2bfe580000000p-5, 0x1.50c7580000000p-3, -0x1.e38d0e0000000p-5, 0x1.9ca0f40000000p-4, 0x1.3029520000000p-4, 0x1.1f61dc0000000p-5, 0x1.5180b20000000p-4, 0x1.b8922c0000000p-3}
, {0x1.4249b00000000p-7, -0x1.fca5f40000000p-4, 0x1.05c67c0000000p-3, 0x1.9d35340000000p-3, -0x1.89417e0000000p-7, 0x1.76109e0000000p-3, 0x1.415a500000000p-3, -0x1.274af20000000p-3, 0x1.07defa0000000p-3, 0x1.f3651a0000000p-6, 0x1.618b9e0000000p-4, 0x1.1c78260000000p-4, 0x1.a260880000000p-3, -0x1.447f940000000p-3, -0x1.31cdda0000000p-3, -0x1.8d421e0000000p-4}
}
, {{0x1.d1a9640000000p-3, -0x1.f4dd300000000p-4, -0x1.1d09740000000p-5, 0x1.0510fe0000000p-3, -0x1.9c29ba0000000p-3, 0x1.0f415c0000000p-3, 0x1.d22b9e0000000p-4, 0x1.8bc59a0000000p-6, 0x1.7d3d220000000p-9, 0x1.37f0d60000000p-3, -0x1.3be77c0000000p-6, 0x1.a7d33c0000000p-3, -0x1.eebcf20000000p-4, -0x1.13819a0000000p-3, 0x1.8715e40000000p-4, -0x1.06aa3a0000000p-3}
, {0x1.8617ac0000000p-5, 0x1.96d4960000000p-4, -0x1.dd9b6e0000000p-4, 0x1.4be3500000000p-3, 0x1.88e6fa0000000p-5, -0x1.59af900000000p-3, -0x1.f50b5c0000000p-5, -0x1.89c0020000000p-5, -0x1.913c980000000p-4, -0x1.0cfe480000000p-3, -0x1.c9dace0000000p-8, 0x1.25617e0000000p-4, -0x1.9ad02a0000000p-6, 0x1.1679280000000p-4, -0x1.04b6ba0000000p-2, -0x1.75fd580000000p-3}
, {0x1.bcc04e0000000p-8, -0x1.cb33b80000000p-4, -0x1.17bf5a0000000p-3, -0x1.9bfd440000000p-3, -0x1.387eb40000000p-5, 0x1.2d6f9e0000000p-5, -0x1.4c57360000000p-5, 0x1.1acbea0000000p-4, 0x1.3385420000000p-4, -0x1.0f9b3c0000000p-4, -0x1.06c4480000000p-3, -0x1.36f73e0000000p-3, 0x1.d429ba0000000p-4, -0x1.bb7ef60000000p-5, 0x1.e71e9c0000000p-8, -0x1.40b1f00000000p-3}
, {0x1.0945380000000p-3, -0x1.c20a360000000p-4, 0x1.2be3260000000p-3, -0x1.f6a1600000000p-4, 0x1.43a7260000000p-3, -0x1.52c4400000000p-4, 0x1.5a88520000000p-4, 0x1.be20560000000p-4, 0x1.0bba440000000p-4, 0x1.bc9cea0000000p-4, 0x1.4092180000000p-3, -0x1.bdea0c0000000p-6, -0x1.70e1160000000p-4, -0x1.eb2cd60000000p-7, -0x1.f2069c0000000p-4, 0x1.6cda8a0000000p-3}
}
, {{-0x1.06a2440000000p-4, -0x1.969f9c0000000p-3, 0x1.f3b7300000000p-5, 0x1.1dc3620000000p-4, -0x1.0428360000000p-3, 0x1.e5eec00000000p-4, 0x1.2360f80000000p-4, 0x1.07a3e00000000p-3, -0x1.581bd40000000p-4, 0x1.a67abc0000000p-5, 0x1.adb3d20000000p-3, 0x1.fc272a0000000p-4, 0x1.45e0e40000000p-3, 0x1.3376140000000p-3, -0x1.6a4d660000000p-4, -0x1.331e840000000p-3}
, {-0x1.f963f80000000p-5, -0x1.0054620000000p-2, 0x1.6b5aae0000000p-8, 0x1.2d7c800000000p-4, 0x1.ff6d420000000p-3, -0x1.0113b00000000p-5, 0x1.893e400000000p-4, -0x1.f86b040000000p-4, -0x1.670c340000000p-4, -0x1.6e4b0a0000000p-4, 0x1.aace6c0000000p-3, -0x1.a76c900000000p-7, 0x1.31d6760000000p-5, 0x1.1632fc0000000p-3, -0x1.a26cb20000000p-3, 0x1.2af0900000000p-3}
, {0x1.109a020000000p-3, 0x1.7bae920000000p-5, -0x1.3400520000000p-3, -0x1.5868ac0000000p-3, 0x1.6ab8580000000p-3, 0x1.4bef2c0000000p-4, 0x1.3b8a060000000p-4, -0x1.55712e0000000p-4, 0x1.32b9d40000000p-3, 0x1.f848d20000000p-4, 0x1.a5d94c0000000p-3, 0x1.3a33740000000p-7, -0x1.0a2fcc0000000p-3, 0x1.e5f9400000000p-4, -0x1.925fd20000000p-6, -0x1.6ea0540000000p-9}
, {-0x1.b37d9a0000000p-5, -0x1.32c0d40000000p-7, -0x1.ac27a00000000p-3, -0x1.756c540000000p-3, 0x1.d7e13e0000000p-3, 0x1.f2e7ae0000000p-4, -0x1.e0173a0000000p-4, -0x1.db25280000000p-6, 0x1.2020540000000p-5, 0x1.1992b00000000p-4, 0x1.8821a60000000p-4, -0x1.549c7c0000000p-3, -0x1.0031e40000000p-3, 0x1.726d5c0000000p-4, 0x1.719cd40000000p-4, -0x1.4876dc0000000p-3}
}
, {{0x1.ad4a040000000p-4, -0x1.52c8aa0000000p-3, 0x1.0518920000000p-3, -0x1.86c84e0000000p-6, 0x1.d2d1840000000p-5, -0x1.c19b840000000p-4, 0x1.49336c0000000p-3, -0x1.2638000000000p-3, 0x1.cafbe60000000p-3, -0x1.956a920000000p-4, -0x1.c7389c0000000p-3, -0x1.e19a420000000p-4, 0x1.31ee1e0000000p-9, -0x1.abf7000000000p-4, -0x1.0a0a340000000p-2, -0x1.0f75520000000p-3}
, {-0x1.5d5ecc0000000p-3, -0x1.096bba0000000p-10, 0x1.0008a20000000p-3, 0x1.21181a0000000p-5, -0x1.1b4b400000000p-3, 0x1.aa13920000000p-3, 0x1.d67c1a0000000p-6, 0x1.b04ebc0000000p-3, -0x1.3a946c0000000p-3, -0x1.075f980000000p-4, 0x1.0ea8620000000p-6, 0x1.0f78f80000000p-3, -0x1.0317520000000p-5, -0x1.6daa4e0000000p-4, 0x1.c7111a0000000p-4, 0x1.87d69a0000000p-5}
, {-0x1.3e77aa0000000p-4, -0x1.5a957a0000000p-4, -0x1.cdf41e0000000p-5, 0x1.c2e7c80000000p-4, 0x1.0a006a0000000p-4, 0x1.aaa45c0000000p-3, 0x1.13ce8a0000000p-3, 0x1.64a4620000000p-5, 0x1.aec5780000000p-3, 0x1.ade0bc0000000p-6, 0x1.7484440000000p-4, -0x1.e15ca00000000p-5, 0x1.ddc6b80000000p-5, -0x1.cb92d20000000p-6, 0x1.26fa600000000p-14, -0x1.08ffc00000000p-4}
, {0x1.2ea8980000000p-5, 0x1.bbd6700000000p-4, -0x1.063b1e0000000p-3, -0x1.2ef06a0000000p-4, -0x1.c5b4fc0000000p-4, 0x1.3045dc0000000p-4, 0x1.dc04120000000p-4, 0x1.9ecf400000000p-4, -0x1.60a2000000000p-6, 0x1.8966660000000p-5, -0x1.6e0ddc0000000p-4, -0x1.83d4140000000p-6, -0x1.a76f360000000p-5, 0x1.34d0b20000000p-3, -0x1.1e90a40000000p-3, 0x1.3bb8760000000p-3}
}
, {{-0x1.aab40e0000000p-5, -0x1.fb66a00000000p-5, 0x1.75fd900000000p-4, -0x1.59b0340000000p-3, -0x1.9335ec0000000p-4, 0x1.b71b220000000p-4, -0x1.3d03460000000p-4, 0x1.e177920000000p-6, -0x1.b3a06e0000000p-4, -0x1.60a2b40000000p-6, -0x1.602f840000000p-3, -0x1.08bbc00000000p-3, 0x1.d189ac0000000p-7, 0x1.64f4420000000p-4, -0x1.d04dfa0000000p-5, 0x1.3763c00000000p-5}
, {0x1.34514e0000000p-4, -0x1.9e9cd40000000p-3, -0x1.efd4fa0000000p-4, 0x1.a764280000000p-4, -0x1.0866480000000p-5, -0x1.fc97a40000000p-4, 0x1.07c3900000000p-3, 0x1.30a8020000000p-4, -0x1.1f69b60000000p-3, -0x1.10b50c0000000p-4, -0x1.e44e280000000p-4, -0x1.7568a00000000p-4, -0x1.c16f820000000p-4, -0x1.10d6500000000p-5, 0x1.0d43d40000000p-6, 0x1.50dc0e0000000p-4}
, {0x1.1114720000000p-3, -0x1.05d01a0000000p-3, 0x1.0983540000000p-4, -0x1.6fd2940000000p-3, -0x1.94cffe0000000p-4, 0x1.2ad0700000000p-4, 0x1.991cf40000000p-4, 0x1.1c16620000000p-5, -0x1.5b11ec0000000p-3, 0x1.0034020000000p-3, 0x1.f5a0260000000p-8, -0x1.078c480000000p-3, -0x1.2b8d7e0000000p-3, 0x1.60f3220000000p-4, 0x1.1febec0000000p-3, 0x1.205b280000000p-3}
, {0x1.1438d60000000p-3, 0x1.4894c40000000p-4, -0x1.a25f3a0000000p-9, 0x1.4ad9aa0000000p-3, 0x1.bc49e00000000p-4, 0x1.53990c0000000p-4, -0x1.01cbe40000000p-3, 0x1.5bcf580000000p-3, 0x1.45d1da0000000p-4, -0x1.f57f540000000p-7, 0x1.918bca0000000p-5, 0x1.5074d80000000p-3, -0x1.bf728e0000000p-6, -0x1.49ac000000000p-17, 0x1.9a59180000000p-7, -0x1.9871080000000p-4}
}
, {{-0x1.1440b40000000p-3, -0x1.e904dc0000000p-5, 0x1.6b34aa0000000p-4, 0x1.0d63100000000p-4, -0x1.8cb5d80000000p-5, -0x1.7a3bb80000000p-5, 0x1.28e1260000000p-3, -0x1.5923120000000p-5, -0x1.4815a40000000p-4, -0x1.6e7a300000000p-8, -0x1.d66a680000000p-3, 0x1.bd87980000000p-5, -0x1.9cd0d80000000p-11, 0x1.33178a0000000p-3, -0x1.2d7a280000000p-7, 0x1.d886d20000000p-7}
, {0x1.d039d20000000p-5, 0x1.0b9b600000000p-3, -0x1.69e01a0000000p-6, -0x1.1c27880000000p-3, 0x1.4fb2460000000p-4, 0x1.fd07c00000000p-4, -0x1.72cdf20000000p-4, -0x1.f4cb9a0000000p-5, 0x1.d71b660000000p-5, -0x1.19f63c0000000p-4, -0x1.ae0ab60000000p-3, 0x1.2fdb080000000p-4, -0x1.4448340000000p-4, -0x1.2ef7be0000000p-3, 0x1.3fd0860000000p-5, 0x1.aa77960000000p-9}
, {0x1.7620a60000000p-4, 0x1.fbb41e0000000p-6, 0x1.2f6e620000000p-3, 0x1.a96fdc0000000p-4, -0x1.8245f00000000p-3, 0x1.5d77840000000p-3, 0x1.82efe40000000p-3, -0x1.55853e0000000p-4, -0x1.884fa20000000p-5, 0x1.08ef120000000p-5, -0x1.74c0ce0000000p-3, -0x1.0fc3760000000p-5, -0x1.c8e4e20000000p-7, 0x1.5b1cf60000000p-5, -0x1.6365560000000p-4, 0x1.7e470e0000000p-4}
, {0x1.f778020000000p-4, 0x1.6412960000000p-3, -0x1.038a0c0000000p-3, -0x1.721f6c0000000p-3, 0x1.1137d20000000p-3, 0x1.3e053a0000000p-3, 0x1.9408f80000000p-4, -0x1.0b08000000000p-3, 0x1.99cc500000000p-3, -0x1.2841ba0000000p-3, -0x1.caa7080000000p-4, 0x1.bfbf220000000p-4, 0x1.1521520000000p-3, 0x1.91c8500000000p-4, 0x1.c83dd40000000p-5, 0x1.3fae960000000p-3}
}
, {{-0x1.7300080000000p-5, 0x1.7eb2a40000000p-5, 0x1.69f0f80000000p-6, 0x1.05e48c0000000p-4, 0x1.14da4e0000000p-2, 0x1.647b340000000p-4, 0x1.ee1d640000000p-4, -0x1.582f020000000p-3, 0x1.46b7440000000p-3, 0x1.2000680000000p-3, 0x1.5b49440000000p-7, -0x1.1b0c780000000p-4, 0x1.9ab8ac0000000p-4, -0x1.fde6e00000000p-3, 0x1.bc758a0000000p-5, -0x1.8d5ce80000000p-4}
, {0x1.64ed340000000p-5, -0x1.379fe20000000p-4, 0x1.25800c0000000p-3, 0x1.f357580000000p-4, -0x1.5b96e20000000p-4, -0x1.85a1ec0000000p-4, -0x1.3359600000000p-5, 0x1.9585f80000000p-4, 0x1.38d8a40000000p-5, -0x1.7cfd500000000p-4, -0x1.7d2c640000000p-5, 0x1.57b0e60000000p-4, -0x1.1dfdb00000000p-3, -0x1.ba8d4c0000000p-3, 0x1.1598040000000p-2, 0x1.b4ac760000000p-3}
, {-0x1.79faf60000000p-5, 0x1.b4bd880000000p-4, 0x1.43b4a60000000p-3, -0x1.b60b0a0000000p-5, -0x1.5c5d720000000p-4, 0x1.1b031a0000000p-3, -0x1.6a66780000000p-3, -0x1.669f0a0000000p-3, -0x1.49eb6c0000000p-3, 0x1.15d0a60000000p-3, 0x1.6a17da0000000p-3, 0x1.9bff380000000p-4, 0x1.30dd160000000p-3, -0x1.4634700000000p-4, 0x1.be68300000000p-4, -0x1.439c2e0000000p-7}
, {-0x1.7140b60000000p-6, 0x1.407de80000000p-4, 0x1.4aac1e0000000p-3, -0x1.3ce6d80000000p-4, 0x1.319ae40000000p-4, -0x1.4574da0000000p-4, -0x1.8d29520000000p-3, -0x1.ab13d40000000p-3, -0x1.c19aec0000000p-7, -0x1.db98780000000p-5, 0x1.e1caf20000000p-5, 0x1.3a7c0a0000000p-3, -0x1.64ce080000000p-3, -0x1.d122fa0000000p-3, 0x1.17e0860000000p-3, 0x1.8c13fa0000000p-3}
}
, {{-0x1.96db440000000p-3, 0x1.89b9460000000p-3, 0x1.b78f240000000p-4, 0x1.267a840000000p-3, 0x1.69bac80000000p-6, 0x1.8b66aa0000000p-4, 0x1.8234380000000p-3, 0x1.8a8a600000000p-3, 0x1.238aca0000000p-3, -0x1.b7f21e0000000p-6, 0x1.bf76920000000p-6, 0x1.dbdbcc0000000p-5, -0x1.87bbda0000000p-3, -0x1.9a2aae0000000p-3, -0x1.76de400000000p-3, -0x1.5f4cdc0000000p-4}
, {-0x1.59c5b60000000p-4, -0x1.0126540000000p-11, -0x1.ac97040000000p-6, 0x1.1d2a6a0000000p-3, -0x1.48ca6a0000000p-4, -0x1.18922e0000000p-3, -0x1.795b140000000p-6, 0x1.98787c0000000p-4, 0x1.f9fc140000000p-3, 0x1.bba1da0000000p-7, 0x1.dfdc7e0000000p-4, 0x1.a9a66c0000000p-3, -0x1.df72580000000p-4, 0x1.3a207c0000000p-3, -0x1.0bcba80000000p-3, -0x1.bbd9f40000000p-4}
, {-0x1.7ffb020000000p-3, 0x1.0aa3340000000p-2, 0x1.5b10c40000000p-4, -0x1.6783740000000p-4, -0x1.81b9100000000p-4, -0x1.b410600000000p-7, 0x1.75ba1c0000000p-3, -0x1.3ce68c0000000p-8, 0x1.73d2720000000p-3, -0x1.fce8320000000p-4, 0x1.ada4ce0000000p-5, 0x1.1176040000000p-3, 0x1.0c0ada0000000p-5, -0x1.c44c080000000p-3, -0x1.280c700000000p-3, 0x1.b49a6a0000000p-5}
, {0x1.4860100000000p-4, -0x1.33ac420000000p-6, 0x1.36d8960000000p-12, 0x1.2f1d740000000p-4, -0x1.25b1100000000p-4, -0x1.85ab100000000p-4, 0x1.884e6e0000000p-7, 0x1.36c1de0000000p-4, 0x1.8b3f800000000p-3, -0x1.ffea900000000p-4, -0x1.5625580000000p-3, -0x1.5835b00000000p-5, -0x1.aa74340000000p-3, -0x1.a1fc100000000p-5, 0x1.262d900000000p-6, -0x1.66749e0000000p-5}
}
, {{0x1.4420a40000000p-5, -0x1.ef5fee0000000p-6, 0x1.89116c0000000p-4, 0x1.0d82660000000p-7, 0x1.0657c60000000p-3, -0x1.20fada0000000p-3, -0x1.3547180000000p-3, 0x1.2b54f40000000p-3, 0x1.0230540000000p-3, 0x1.8b8b3c0000000p-3, -0x1.b21e360000000p-4, -0x1.4e7dc80000000p-3, -0x1.2d1e380000000p-6, 0x1.240b6c0000000p-4, 0x1.75a1500000000p-3, 0x1.9172720000000p-3}
, {0x1.78c0100000000p-5, -0x1.a655300000000p-7, -0x1.89a4f20000000p-5, 0x1.68104a0000000p-3, -0x1.f81c8a0000000p-4, 0x1.ffdda40000000p-5, -0x1.64be2e0000000p-3, -0x1.ab89460000000p-4, -0x1.28685c0000000p-4, 0x1.a043e20000000p-4, 0x1.8c1d580000000p-3, 0x1.3d86a00000000p-4, -0x1.1694040000000p-5, 0x1.6fe3ca0000000p-5, 0x1.d6c9780000000p-7, 0x1.002f720000000p-2}
, {-0x1.2ed6e00000000p-5, 0x1.4328340000000p-3, -0x1.e929f40000000p-9, -0x1.4328b00000000p-3, -0x1.99dd420000000p-5, -0x1.8d55160000000p-3, -0x1.33f3700000000p-3, -0x1.2287da0000000p-3, -0x1.14a4680000000p-3, -0x1.2877200000000p-3, -0x1.29709e0000000p-3, 0x1.2a3be20000000p-3, -0x1.2959960000000p-3, 0x1.10af700000000p-5, -0x1.b7899a0000000p-4, -0x1.2d05a00000000p-3}
, {0x1.5669b40000000p-4, 0x1.875f020000000p-3, 0x1.8c2d880000000p-3, 0x1.ea823e0000000p-4, -0x1.2a12080000000p-4, 0x1.240f300000000p-3, 0x1.6e02b00000000p-3, 0x1.0fd3e80000000p-3, -0x1.29cf580000000p-3, 0x1.383bf60000000p-3, 0x1.239dde0000000p-3, -0x1.55973a0000000p-3, 0x1.09fe3a0000000p-4, -0x1.536f6e0000000p-3, 0x1.9506a40000000p-7, 0x1.f95e180000000p-4}
}
, {{0x1.3c3cf20000000p-5, 0x1.3c52dc0000000p-3, -0x1.3fc4500000000p-3, 0x1.e121480000000p-4, -0x1.19efd60000000p-6, 0x1.c1d2ae0000000p-6, 0x1.27dbda0000000p-7, -0x1.d18c500000000p-6, -0x1.de120c0000000p-4, -0x1.4981280000000p-6, -0x1.2f4ff40000000p-4, -0x1.4975480000000p-3, 0x1.fbcc080000000p-9, -0x1.2a4fc60000000p-4, -0x1.6a759a0000000p-6, 0x1.0fd5260000000p-3}
, {-0x1.4995840000000p-4, 0x1.acf4060000000p-3, 0x1.a287ca0000000p-4, 0x1.1dcba40000000p-3, 0x1.4318960000000p-4, 0x1.22fc500000000p-3, 0x1.894e1a0000000p-3, 0x1.3f75a00000000p-4, 0x1.e493660000000p-4, 0x1.0421240000000p-4, -0x1.7435660000000p-4, -0x1.f3afa40000000p-6, 0x1.901aa40000000p-7, -0x1.df6d700000000p-12, -0x1.39ba2a0000000p-3, -0x1.4274cc0000000p-3}
, {-0x1.2890740000000p-3, 0x1.7345100000000p-6, 0x1.d5d3de0000000p-4, -0x1.3a7c1a0000000p-3, 0x1.4f3ece0000000p-3, -0x1.886ea60000000p-5, -0x1.ff7f3e0000000p-7, 0x1.98bf8c0000000p-3, 0x1.45b9720000000p-3, -0x1.6142d60000000p-6, 0x1.4658220000000p-5, 0x1.0d230a0000000p-3, 0x1.57c2ce0000000p-4, 0x1.3329760000000p-3, -0x1.a04e700000000p-3, -0x1.e124820000000p-5}
, {-0x1.d84af40000000p-4, 0x1.ad4bc60000000p-5, -0x1.7b84e40000000p-4, -0x1.1afe2c0000000p-4, 0x1.642e320000000p-3, 0x1.5c03860000000p-4, 0x1.3ec63c0000000p-6, 0x1.25b4200000000p-3, -0x1.4a35f20000000p-5, -0x1.ce66dc0000000p-4, 0x1.7027c00000000p-5, -0x1.f526700000000p-5, 0x1.935db00000000p-7, 0x1.4e50ac0000000p-5, 0x1.f1bb620000000p-5, -0x1.4ebd840000000p-3}
}
, {{-0x1.15494e0000000p-3, 0x1.3ca0d20000000p-3, 0x1.033c760000000p-6, 0x1.0193c40000000p-3, 0x1.9b32740000000p-4, 0x1.0eb7ea0000000p-3, -0x1.52898a0000000p-3, -0x1.3cbdf00000000p-7, 0x1.623aa60000000p-3, 0x1.9ac2be0000000p-4, -0x1.39596a0000000p-5, 0x1.597c800000000p-3, -0x1.51a4920000000p-3, -0x1.ccd2880000000p-6, 0x1.1ce1c60000000p-3, 0x1.5458440000000p-3}
, {0x1.4e40460000000p-4, -0x1.003cdc0000000p-5, 0x1.ed8bb00000000p-7, 0x1.88c62a0000000p-5, -0x1.2956e80000000p-5, -0x1.fc8ecc0000000p-4, 0x1.084cb00000000p-3, 0x1.1542680000000p-4, 0x1.a4c4920000000p-4, 0x1.dac9480000000p-3, 0x1.78ba200000000p-7, -0x1.fc7cc80000000p-4, 0x1.bc04140000000p-6, -0x1.98c3a00000000p-6, 0x1.97d9520000000p-5, 0x1.5354780000000p-6}
, {-0x1.3a3a160000000p-5, 0x1.64697c0000000p-3, -0x1.ffbc5e0000000p-5, 0x1.745a420000000p-6, 0x1.cb67240000000p-4, -0x1.80696c0000000p-3, -0x1.ce2f080000000p-5, -0x1.fd796c0000000p-6, -0x1.35ba880000000p-3, -0x1.98d1960000000p-4, 0x1.1e3e460000000p-3, 0x1.46e3620000000p-4, -0x1.0e2b520000000p-3, -0x1.3801e40000000p-4, 0x1.4274c40000000p-3, 0x1.9397c40000000p-3}
, {0x1.d37ea60000000p-4, -0x1.4ee1860000000p-4, -0x1.796f700000000p-8, 0x1.64a3be0000000p-3, 0x1.b52ba80000000p-3, 0x1.036ed20000000p-3, -0x1.c653a60000000p-7, -0x1.0ac1d00000000p-3, 0x1.0cc4220000000p-3, 0x1.1da8ae0000000p-10, -0x1.25a25a0000000p-3, 0x1.1d06820000000p-5, -0x1.a09a660000000p-3, 0x1.12fa660000000p-4, 0x1.858a8e0000000p-3, 0x1.1607040000000p-3}
}
, {{0x1.0f14580000000p-3, -0x1.0e40960000000p-3, 0x1.b1179c0000000p-3, 0x1.46a9bc0000000p-3, 0x1.0218080000000p-3, 0x1.a3a77c0000000p-6, 0x1.f88f3c0000000p-5, -0x1.01a74c0000000p-3, -0x1.80e50a0000000p-5, -0x1.468eee0000000p-4, 0x1.bbe3d00000000p-5, -0x1.a418a40000000p-4, -0x1.ab922e0000000p-4, 0x1.1bbc320000000p-6, -0x1.35b5b40000000p-4, 0x1.c042be0000000p-3}
, {0x1.2ece5e0000000p-3, -0x1.e13ac60000000p-4, 0x1.eda26c0000000p-4, 0x1.e695cc0000000p-4, -0x1.d19c8e0000000p-4, 0x1.29425e0000000p-5, 0x1.b491ec0000000p-4, 0x1.90e1640000000p-3, 0x1.504d700000000p-4, 0x1.ffc34a0000000p-3, -0x1.d756880000000p-8, -0x1.4fd9e80000000p-3, -0x1.b666160000000p-4, 0x1.5bf5540000000p-5, -0x1.b9ce9a0000000p-12, 0x1.407c200000000p-3}
, {-0x1.9940ea0000000p-4, 0x1.0027720000000p-4, 0x1.0a49b40000000p-3, 0x1.8800680000000p-3, -0x1.ce310c0000000p-4, 0x1.9a739c0000000p-6, -0x1.693e8c0000000p-5, 0x1.b2d5d20000000p-4, -0x1.1ff1480000000p-4, 0x1.8de9340000000p-6, 0x1.b648ae0000000p-3, 0x1.3f8d100000000p-3, 0x1.4723d40000000p-4, -0x1.48d83c0000000p-5, 0x1.53882e0000000p-3, 0x1.c5dba20000000p-5}
, {0x1.0b9e1c0000000p-3, 0x1.da6a7c0000000p-4, 0x1.1a38fa0000000p-5, -0x1.5b29800000000p-4, -0x1.5ee90c0000000p-6, -0x1.207ea40000000p-3, -0x1.7108140000000p-3, -0x1.1644bc0000000p-3, -0x1.073c420000000p-4, 0x1.faf2920000000p-3, -0x1.1a641a0000000p-3, 0x1.00c9660000000p-3, -0x1.1beb520000000p-3, -0x1.ed08d00000000p-5, -0x1.b886b00000000p-4, 0x1.b9f16c0000000p-4}
}
, {{-0x1.751d0c0000000p-5, -0x1.d574c80000000p-5, 0x1.b955e20000000p-4, 0x1.810cbe0000000p-3, 0x1.2c58f60000000p-3, 0x1.493fb00000000p-3, -0x1.683e820000000p-4, 0x1.8e9d860000000p-6, 0x1.073daa0000000p-5, -0x1.9ca7da0000000p-6, -0x1.a663340000000p-3, 0x1.0f37a00000000p-3, -0x1.cf3e0c0000000p-4, -0x1.026ab00000000p-3, 0x1.2566200000000p-4, 0x1.5e98020000000p-3}
, {-0x1.bb4e460000000p-5, 0x1.7896ba0000000p-3, 0x1.6610d20000000p-5, 0x1.482f060000000p-3, 0x1.45e0f40000000p-4, 0x1.10d5660000000p-4, 0x1.0c5fb20000000p-3, -0x1.4814ae0000000p-4, -0x1.8eeab20000000p-5, -0x1.bf68d40000000p-4, -0x1.3776ce0000000p-6, -0x1.c786540000000p-4, -0x1.318fc80000000p-4, -0x1.8e85f20000000p-3, 0x1.1adf7a0000000p-2, -0x1.5bd2760000000p-4}
, {-0x1.eb8f840000000p-4, 0x1.1ec67c0000000p-3, 0x1.5251140000000p-3, -0x1.9a41bc0000000p-4, 0x1.29f4260000000p-2, 0x1.7b3aaa0000000p-4, -0x1.310b300000000p-4, 0x1.c5ec260000000p-7, 0x1.8aa6600000000p-3, -0x1.81b1520000000p-3, -0x1.10f36c0000000p-3, 0x1.ac4cda0000000p-4, 0x1.08cafe0000000p-4, 0x1.9140e40000000p-5, 0x1.029d320000000p-4, 0x1.657ef60000000p-3}
, {-0x1.865c940000000p-3, 0x1.86a8b80000000p-4, 0x1.3327120000000p-3, 0x1.c46f480000000p-9, 0x1.a39e1c0000000p-4, 0x1.c6da0e0000000p-4, -0x1.05fb1c0000000p-3, 0x1.2352760000000p-4, -0x1.24f8e20000000p-3, -0x1.dc588c0000000p-4, -0x1.3014bc0000000p-5, -0x1.ebec840000000p-5, -0x1.2b2e400000000p-7, -0x1.99d4e60000000p-3, 0x1.eac0ae0000000p-4, 0x1.28d2ee0000000p-6}
}
, {{0x1.f5ac8c0000000p-6, 0x1.0633ee0000000p-4, -0x1.51727e0000000p-6, -0x1.2e5d1c0000000p-3, -0x1.fea9260000000p-6, -0x1.45d4d00000000p-3, 0x1.4dec860000000p-3, -0x1.28380c0000000p-3, 0x1.376f780000000p-4, 0x1.421e480000000p-3, -0x1.0c1f2a0000000p-3, -0x1.31e3300000000p-4, -0x1.ede4480000000p-5, 0x1.5fc17e0000000p-3, -0x1.141b980000000p-3, 0x1.82da760000000p-3}
, {-0x1.b4756e0000000p-4, 0x1.5a63fc0000000p-3, -0x1.81709e0000000p-3, -0x1.ff44420000000p-7, 0x1.b1bbbc0000000p-4, 0x1.745c700000000p-5, -0x1.f96e340000000p-9, -0x1.fad1ee0000000p-4, 0x1.8f53120000000p-4, -0x1.5a4c1a0000000p-8, -0x1.1ebc020000000p-3, -0x1.24f8800000000p-4, 0x1.ba079e0000000p-3, -0x1.e093900000000p-4, -0x1.c14be20000000p-3, -0x1.eb05b20000000p-5}
, {0x1.5fa1cc0000000p-3, 0x1.3c737e0000000p-4, -0x1.391bc00000000p-3, -0x1.7c4d6e0000000p-4, -0x1.73f8720000000p-3, 0x1.aa3a020000000p-3, 0x1.7d99240000000p-4, 0x1.003e7e0000000p-3, -0x1.0584640000000p-5, 0x1.9be9960000000p-5, 0x1.76cdc80000000p-3, 0x1.6418e20000000p-4, 0x1.2133ea0000000p-6, 0x1.13d3ee0000000p-2, -0x1.555b7e0000000p-3, 0x1.1524040000000p-6}
, {0x1.28e0760000000p-5, -0x1.019bd60000000p-3, -0x1.c487da0000000p-8, -0x1.a1cae00000000p-4, -0x1.5e1dc00000000p-7, 0x1.4370f60000000p-4, -0x1.92bf8c0000000p-7, 0x1.c6a03c0000000p-4, 0x1.7022a40000000p-3, -0x1.07d2000000000p-3, -0x1.488c340000000p-4, 0x1.6479ce0000000p-3, 0x1.86cf660000000p-7, -0x1.17eab60000000p-4, -0x1.dfda5c0000000p-4, 0x1.6f6b240000000p-4}
}
}
;

#undef INPUT_CHANNELS
#undef CONV_FILTERS
#undef CONV_KERNEL_SIZE
#undef CONV_GROUPS