/**
  ******************************************************************************
  * @file    weights/conv1d.cc
  * @author  Pierre-Emmanuel Novac <penovac@unice.fr>, LEAT, CNRS, Université Côte d'Azur, France
  * @version 1.0.0
  * @date    24 march 2020
  * @brief   Template generating plain C code for the implementation of Convolutional Neural Networks on MCU
  */

#include <stdint.h>

#define INPUT_CHANNELS    16
#define CONV_FILTERS      32
#define CONV_KERNEL_SIZE  4
#define CONV_GROUPS       1


const float  conv1d_42_bias[CONV_FILTERS] = {0x1.106ee20000000p-7, 0x1.6f2eb80000000p-7, 0x1.da30da0000000p-7, 0x1.180eac0000000p-10, -0x1.a1a65a0000000p-6, 0x1.d183280000000p-7, -0x1.be77180000000p-7, -0x1.45e19a0000000p-10, 0x1.3780320000000p-10, 0x1.1fa1960000000p-7, 0x1.47a84e0000000p-9, 0x1.12a1040000000p-7, 0x1.c9ea400000000p-6, 0x1.8c18340000000p-7, 0x1.c62e840000000p-8, -0x1.0c860c0000000p-14, 0x1.3bcdb40000000p-7, 0x1.b297f60000000p-10, 0x1.e992b60000000p-6, -0x1.f762920000000p-8, -0x1.acaff60000000p-6, -0x1.3f018a0000000p-7, 0x1.edcd420000000p-8, 0x1.b8d13e0000000p-8, 0x1.0e879a0000000p-8, 0x1.f8f3940000000p-6, -0x1.946f020000000p-8, -0x1.c0980e0000000p-7, 0x1.afdad60000000p-7, 0x1.10f8840000000p-7, 0x1.0945920000000p-8, -0x1.78fea80000000p-13}
;

const float  conv1d_42_kernel[CONV_FILTERS][CONV_KERNEL_SIZE][INPUT_CHANNELS / CONV_GROUPS] = {{{-0x1.9725ee0000000p-5, 0x1.3811860000000p-4, 0x1.ccb4fe0000000p-4, 0x1.44e8280000000p-3, 0x1.ba7e8e0000000p-4, 0x1.13b33c0000000p-3, -0x1.b237ca0000000p-4, 0x1.08a58c0000000p-10, -0x1.e6ab620000000p-5, 0x1.22b32c0000000p-3, -0x1.23cc100000000p-3, -0x1.cbfe800000000p-4, 0x1.950bf20000000p-4, -0x1.26bb9e0000000p-3, 0x1.73ff360000000p-4, -0x1.1c86ea0000000p-3}
, {-0x1.4946cc0000000p-9, 0x1.2fe84c0000000p-4, 0x1.07c5020000000p-5, -0x1.6e4c5a0000000p-4, 0x1.d9bbe60000000p-7, 0x1.70d2760000000p-3, 0x1.845f1a0000000p-4, 0x1.1c515a0000000p-5, 0x1.2dc7100000000p-5, 0x1.02e88c0000000p-5, -0x1.a84d540000000p-4, 0x1.07a19a0000000p-3, -0x1.5cd1360000000p-3, -0x1.4cf29c0000000p-5, 0x1.e26e7c0000000p-6, -0x1.46eccc0000000p-4}
, {0x1.fb78ec0000000p-4, 0x1.0a09fa0000000p-4, 0x1.8006500000000p-5, 0x1.5f33780000000p-5, 0x1.dc3aa60000000p-5, 0x1.e4b5c60000000p-6, 0x1.9a94740000000p-5, -0x1.033cda0000000p-3, 0x1.467e620000000p-6, -0x1.4dfd400000000p-3, 0x1.8cc7b40000000p-7, -0x1.ad27280000000p-4, -0x1.0eb61a0000000p-4, 0x1.1bedea0000000p-3, -0x1.0a69720000000p-4, -0x1.f9ebfc0000000p-5}
, {0x1.3168ca0000000p-3, -0x1.10d10e0000000p-4, 0x1.34806e0000000p-3, 0x1.c9981c0000000p-4, 0x1.fe1a640000000p-5, 0x1.d7b2960000000p-4, 0x1.b3bb380000000p-4, -0x1.c507420000000p-4, -0x1.8800160000000p-8, 0x1.2936160000000p-3, -0x1.35b1a60000000p-3, -0x1.0e89460000000p-3, 0x1.234fca0000000p-5, -0x1.4a3fd60000000p-3, 0x1.36c48e0000000p-3, 0x1.c47d140000000p-6}
}
, {{0x1.92f7be0000000p-5, -0x1.b4a6d20000000p-5, -0x1.b695ee0000000p-4, -0x1.56f1020000000p-3, 0x1.79ec9a0000000p-3, 0x1.7cc7ba0000000p-8, -0x1.030a500000000p-3, -0x1.3521ea0000000p-3, -0x1.4082ac0000000p-4, 0x1.1a59a20000000p-5, 0x1.5808ee0000000p-3, -0x1.c1a5640000000p-6, 0x1.a1dfae0000000p-5, 0x1.2737400000000p-3, 0x1.918acc0000000p-4, 0x1.a077e20000000p-5}
, {-0x1.08bccc0000000p-3, -0x1.9e08d80000000p-4, 0x1.ff70640000000p-5, -0x1.a1a1f80000000p-4, 0x1.659ae20000000p-3, 0x1.5de1fa0000000p-4, 0x1.4c974e0000000p-4, 0x1.a8f4d00000000p-5, -0x1.d65f5c0000000p-5, 0x1.5af4ce0000000p-5, -0x1.b01c0c0000000p-4, 0x1.fc1f1a0000000p-4, -0x1.62b1500000000p-3, 0x1.ecc98a0000000p-4, 0x1.74099c0000000p-6, -0x1.024abc0000000p-5}
, {0x1.21e4f00000000p-3, -0x1.635d4c0000000p-3, -0x1.0766380000000p-3, -0x1.04481c0000000p-9, 0x1.ab54360000000p-5, -0x1.24f90e0000000p-4, 0x1.c211860000000p-4, 0x1.4128960000000p-4, 0x1.4564f40000000p-4, 0x1.34af1a0000000p-3, 0x1.22fca60000000p-5, -0x1.5c15d60000000p-3, -0x1.4f99c80000000p-4, 0x1.14eb580000000p-3, -0x1.2381de0000000p-4, -0x1.62eb8a0000000p-5}
, {0x1.3bd33c0000000p-6, -0x1.933cfa0000000p-4, -0x1.f031c60000000p-5, 0x1.1003c20000000p-6, 0x1.e3cf420000000p-4, 0x1.ffbc040000000p-6, 0x1.d6928c0000000p-5, -0x1.1265060000000p-5, 0x1.6f6f9a0000000p-8, -0x1.d295860000000p-5, 0x1.1a496c0000000p-5, -0x1.c703020000000p-6, -0x1.6605960000000p-3, -0x1.735a620000000p-6, 0x1.06d97c0000000p-4, -0x1.4d4ada0000000p-4}
}
, {{-0x1.6843440000000p-4, -0x1.48c9e00000000p-4, 0x1.d3e4180000000p-4, -0x1.14cbca0000000p-4, 0x1.46531c0000000p-4, -0x1.38ed200000000p-4, -0x1.23acba0000000p-3, -0x1.32e37e0000000p-5, -0x1.40d3cc0000000p-5, 0x1.a7a6e60000000p-4, -0x1.0c43600000000p-5, -0x1.a8bcb60000000p-6, 0x1.14e1fc0000000p-4, -0x1.41d2000000000p-3, -0x1.18c22e0000000p-3, -0x1.1340140000000p-5}
, {0x1.0501020000000p-4, -0x1.2e90b00000000p-4, -0x1.ebcbd40000000p-6, 0x1.8afb840000000p-4, -0x1.56335a0000000p-3, 0x1.1029b80000000p-3, -0x1.b19e1c0000000p-4, 0x1.2da2a40000000p-4, -0x1.67a71e0000000p-7, -0x1.35f0c80000000p-4, 0x1.8670ec0000000p-7, 0x1.28a66c0000000p-3, 0x1.21dbbc0000000p-5, -0x1.3735040000000p-8, 0x1.5e832e0000000p-4, 0x1.9226ec0000000p-4}
, {0x1.347d720000000p-4, -0x1.da6e400000000p-5, 0x1.c051840000000p-6, 0x1.7ab1ec0000000p-3, -0x1.5132da0000000p-3, 0x1.83dff40000000p-4, 0x1.8eb67a0000000p-6, 0x1.1a487a0000000p-4, 0x1.bfed4a0000000p-5, 0x1.f431120000000p-5, 0x1.0b24740000000p-4, -0x1.0adbea0000000p-4, 0x1.f712ec0000000p-7, -0x1.f0fcb00000000p-5, 0x1.4995d20000000p-5, 0x1.3b54820000000p-4}
, {0x1.ef54c20000000p-5, 0x1.f63afe0000000p-5, -0x1.29dc160000000p-3, 0x1.5d598e0000000p-3, -0x1.0eb20e0000000p-3, 0x1.133efe0000000p-4, -0x1.135e7c0000000p-4, -0x1.bf74620000000p-5, -0x1.dfbac20000000p-4, 0x1.9613560000000p-4, 0x1.1a1b940000000p-7, 0x1.f41b9c0000000p-4, -0x1.73c5c60000000p-7, -0x1.0a02320000000p-4, -0x1.c2f0660000000p-4, 0x1.09c3fa0000000p-4}
}
, {{0x1.19e8480000000p-3, -0x1.5422360000000p-3, 0x1.81b5400000000p-4, -0x1.66c30e0000000p-5, -0x1.d703ea0000000p-4, -0x1.8a75700000000p-4, -0x1.7f4d160000000p-12, 0x1.1548d60000000p-4, 0x1.b7486e0000000p-4, -0x1.a8667e0000000p-6, -0x1.6b4fec0000000p-5, -0x1.784e9a0000000p-4, 0x1.5efb9c0000000p-3, 0x1.5dd80e0000000p-5, 0x1.afee540000000p-5, 0x1.c78f020000000p-6}
, {0x1.48c3de0000000p-3, 0x1.4c16e40000000p-3, 0x1.38f8da0000000p-3, 0x1.6088b40000000p-3, -0x1.6608980000000p-4, -0x1.7fc44e0000000p-4, 0x1.3c40bc0000000p-3, -0x1.1930440000000p-3, 0x1.17b86e0000000p-4, 0x1.379da40000000p-5, 0x1.d67e020000000p-4, -0x1.504a9a0000000p-3, -0x1.9ca1680000000p-4, 0x1.9158c80000000p-4, 0x1.0ac7dc0000000p-3, -0x1.390ef20000000p-3}
, {-0x1.0e7f220000000p-4, -0x1.b7f84a0000000p-4, 0x1.7fe8f20000000p-5, 0x1.59ca780000000p-4, 0x1.6273c40000000p-3, -0x1.bfa7ac0000000p-5, 0x1.c493500000000p-6, -0x1.c5e8200000000p-8, -0x1.6db49e0000000p-4, 0x1.a842020000000p-7, -0x1.43e6960000000p-5, -0x1.9d22d80000000p-4, 0x1.7981380000000p-3, 0x1.9038e60000000p-4, 0x1.3971e40000000p-4, -0x1.7caf760000000p-6}
, {0x1.1f43380000000p-10, -0x1.93244e0000000p-4, 0x1.597a5e0000000p-5, 0x1.7a55580000000p-4, 0x1.79dc180000000p-5, -0x1.a216240000000p-6, 0x1.4858720000000p-3, -0x1.52e2660000000p-8, -0x1.ed75c60000000p-4, 0x1.094cd60000000p-4, 0x1.840d5e0000000p-5, 0x1.28b6b20000000p-3, 0x1.0519860000000p-3, 0x1.0c94940000000p-4, -0x1.57b4d60000000p-3, -0x1.35b43e0000000p-3}
}
, {{0x1.c3b3740000000p-4, 0x1.51fa020000000p-3, 0x1.26c3240000000p-4, 0x1.61163c0000000p-3, -0x1.1034240000000p-3, -0x1.8ae29a0000000p-4, 0x1.b4935a0000000p-6, -0x1.09c3ce0000000p-4, -0x1.a98df80000000p-4, 0x1.61e2b40000000p-5, 0x1.db7ff60000000p-5, -0x1.2d0c2e0000000p-5, -0x1.9451300000000p-4, -0x1.37d53e0000000p-3, 0x1.2abe2e0000000p-4, 0x1.4d128a0000000p-5}
, {0x1.533b1a0000000p-3, -0x1.9970540000000p-5, 0x1.531a1a0000000p-3, -0x1.2b47880000000p-4, -0x1.befe600000000p-8, 0x1.29dbc60000000p-7, 0x1.9c667c0000000p-4, -0x1.6574440000000p-4, 0x1.c3bc220000000p-4, 0x1.0937360000000p-7, 0x1.01d5380000000p-4, -0x1.54f1c20000000p-3, 0x1.ff8baa0000000p-4, 0x1.29dd260000000p-3, -0x1.c9b04a0000000p-6, -0x1.4a13780000000p-4}
, {0x1.32e2b60000000p-7, 0x1.d698c00000000p-4, -0x1.48f10a0000000p-3, -0x1.85fd980000000p-5, -0x1.55130c0000000p-13, -0x1.239e4e0000000p-7, -0x1.e7e6f40000000p-6, 0x1.7def4c0000000p-5, -0x1.4253180000000p-4, -0x1.55bdbc0000000p-6, 0x1.7ccb120000000p-3, -0x1.16005a0000000p-3, 0x1.476d720000000p-3, 0x1.e3d4cc0000000p-5, 0x1.24f9560000000p-3, 0x1.46978c0000000p-4}
, {0x1.40d3d20000000p-3, -0x1.4bea540000000p-4, -0x1.97b5100000000p-4, 0x1.b2bfda0000000p-4, 0x1.6c767c0000000p-3, 0x1.5f04120000000p-3, 0x1.75bbe60000000p-7, 0x1.460d000000000p-3, 0x1.96d9fe0000000p-5, -0x1.4e099a0000000p-3, -0x1.8d728e0000000p-6, -0x1.10e7b00000000p-5, 0x1.1644360000000p-3, -0x1.38ff5a0000000p-3, 0x1.149b5c0000000p-3, -0x1.2ecaa40000000p-5}
}
, {{-0x1.f848ba0000000p-5, -0x1.25472e0000000p-7, 0x1.c7a4a20000000p-5, -0x1.343b2e0000000p-3, -0x1.186f260000000p-3, -0x1.4bc47c0000000p-3, -0x1.727cb20000000p-4, -0x1.23faf00000000p-3, 0x1.9f42fa0000000p-4, 0x1.56f9d80000000p-3, -0x1.3778860000000p-4, 0x1.4981b80000000p-3, -0x1.544a6c0000000p-8, 0x1.f4f3620000000p-4, 0x1.1f3c5e0000000p-5, 0x1.4b91b20000000p-4}
, {0x1.db80ee0000000p-4, -0x1.cd0fee0000000p-4, 0x1.4349360000000p-3, 0x1.6e9c160000000p-3, -0x1.7c7f500000000p-5, 0x1.e148340000000p-5, 0x1.1896820000000p-4, -0x1.3a50360000000p-5, -0x1.6134b60000000p-4, 0x1.4b3e420000000p-4, 0x1.81be2a0000000p-3, 0x1.0033440000000p-3, -0x1.5fb7560000000p-6, 0x1.354f7c0000000p-4, 0x1.06b3180000000p-5, -0x1.8b06ce0000000p-4}
, {-0x1.e4c1760000000p-4, -0x1.30601e0000000p-3, -0x1.e406f80000000p-10, -0x1.5ed42c0000000p-4, 0x1.95da020000000p-8, 0x1.28857e0000000p-4, -0x1.7446dc0000000p-3, -0x1.d7d8d60000000p-9, -0x1.a316e20000000p-6, -0x1.2463a40000000p-5, 0x1.89ce1a0000000p-5, 0x1.3ee43c0000000p-6, 0x1.a4dc640000000p-9, -0x1.61908e0000000p-3, -0x1.4ce7160000000p-3, 0x1.46b2a40000000p-3}
, {0x1.b522340000000p-4, -0x1.341e000000000p-10, 0x1.74b82c0000000p-3, 0x1.d85fea0000000p-8, -0x1.0278a20000000p-3, 0x1.0b930a0000000p-3, -0x1.6577260000000p-4, 0x1.d807640000000p-4, -0x1.ded73a0000000p-6, -0x1.510f360000000p-3, -0x1.62c17e0000000p-4, 0x1.2206420000000p-4, 0x1.09d8200000000p-3, -0x1.01f0000000000p-4, -0x1.d569fa0000000p-4, 0x1.7e78240000000p-4}
}
, {{-0x1.4ecc460000000p-3, 0x1.37a17c0000000p-4, 0x1.1e6e060000000p-3, 0x1.1165d80000000p-3, -0x1.c5aeda0000000p-4, 0x1.4d3d3a0000000p-5, 0x1.52464c0000000p-3, -0x1.b090a60000000p-4, -0x1.3b5e620000000p-3, 0x1.12e25c0000000p-3, -0x1.5463420000000p-3, 0x1.5072900000000p-4, 0x1.682dfa0000000p-10, -0x1.2aafd40000000p-3, 0x1.0fdd400000000p-3, 0x1.4fa9600000000p-3}
, {0x1.57ad3a0000000p-4, 0x1.f848380000000p-4, -0x1.c4bc820000000p-4, 0x1.806bee0000000p-4, -0x1.a895680000000p-5, 0x1.72a5e00000000p-9, -0x1.3c6e8e0000000p-3, -0x1.454f140000000p-3, 0x1.411ebe0000000p-3, -0x1.5a80380000000p-3, 0x1.5f7d000000000p-7, -0x1.21f95e0000000p-3, 0x1.6a95ce0000000p-3, -0x1.d4d7420000000p-4, 0x1.14ee700000000p-5, -0x1.50e64a0000000p-5}
, {-0x1.917bc40000000p-9, 0x1.6deb800000000p-4, -0x1.2e90b40000000p-3, -0x1.2b99c60000000p-3, -0x1.539d6a0000000p-3, 0x1.a9364c0000000p-4, 0x1.e80b3c0000000p-6, -0x1.a347a20000000p-4, 0x1.a667ae0000000p-5, 0x1.df70fe0000000p-4, -0x1.2cb1040000000p-3, 0x1.f1b0520000000p-5, -0x1.4098860000000p-4, -0x1.b02f9c0000000p-4, -0x1.0ac3960000000p-3, 0x1.a505740000000p-5}
, {-0x1.d341b80000000p-5, 0x1.90094e0000000p-4, 0x1.4174680000000p-4, -0x1.3dd38c0000000p-3, 0x1.f8911a0000000p-4, 0x1.0fc1480000000p-3, -0x1.d8667e0000000p-8, 0x1.5217840000000p-3, 0x1.501afe0000000p-4, -0x1.d9c8380000000p-4, 0x1.39995c0000000p-4, 0x1.33fff20000000p-3, 0x1.4b1b280000000p-5, -0x1.948c480000000p-6, 0x1.6e00ae0000000p-5, 0x1.7c77b20000000p-5}
}
, {{-0x1.2a01c60000000p-5, 0x1.0d0a120000000p-3, -0x1.e917c00000000p-4, -0x1.92a3a80000000p-4, -0x1.dcaac40000000p-6, -0x1.6c267c0000000p-5, 0x1.9049f20000000p-5, -0x1.63d4c60000000p-4, 0x1.247d260000000p-12, -0x1.16f4640000000p-5, -0x1.d90b0c0000000p-5, 0x1.25440e0000000p-4, -0x1.14cd580000000p-3, 0x1.61568c0000000p-3, 0x1.0cf0760000000p-3, -0x1.3e29980000000p-3}
, {-0x1.da27f00000000p-5, 0x1.65b7700000000p-5, 0x1.6068340000000p-3, 0x1.f279d20000000p-4, 0x1.0a0ac60000000p-3, 0x1.30cd280000000p-4, -0x1.1eb3fa0000000p-4, -0x1.96d1d40000000p-4, 0x1.c93c560000000p-5, -0x1.352c060000000p-3, 0x1.22e65a0000000p-5, 0x1.157cc00000000p-10, -0x1.aa11700000000p-4, -0x1.0670220000000p-3, -0x1.1496440000000p-5, -0x1.404e380000000p-3}
, {-0x1.5b6e020000000p-5, -0x1.3630960000000p-3, 0x1.e5014c0000000p-4, 0x1.0e3c040000000p-3, 0x1.5684340000000p-3, -0x1.499d980000000p-3, 0x1.17d9ec0000000p-3, 0x1.51f9de0000000p-4, -0x1.74a3ac0000000p-5, 0x1.ca77bc0000000p-5, -0x1.d6b5b40000000p-7, 0x1.f7d20a0000000p-5, 0x1.721f3e0000000p-4, -0x1.1926800000000p-6, 0x1.66916c0000000p-4, -0x1.f255ae0000000p-4}
, {-0x1.131c120000000p-3, 0x1.347fae0000000p-5, -0x1.dfc4d00000000p-4, 0x1.b74c660000000p-4, -0x1.9ebc560000000p-4, 0x1.b5dfd40000000p-4, 0x1.2dd52a0000000p-4, -0x1.542ef40000000p-6, 0x1.a428600000000p-4, 0x1.2835080000000p-3, 0x1.0b6b800000000p-3, 0x1.550be80000000p-8, -0x1.574c000000000p-8, 0x1.c698620000000p-6, -0x1.b436060000000p-4, 0x1.e2a8080000000p-7}
}
, {{-0x1.3bd8460000000p-3, 0x1.226b8c0000000p-6, -0x1.8224f80000000p-5, -0x1.5133fe0000000p-3, 0x1.2febd80000000p-3, 0x1.9cb6240000000p-5, 0x1.728b940000000p-4, 0x1.ff33320000000p-6, -0x1.9f29d40000000p-4, -0x1.95bf280000000p-5, -0x1.379a700000000p-5, 0x1.400d880000000p-3, 0x1.d2308e0000000p-5, -0x1.f710ac0000000p-4, 0x1.3d5d500000000p-3, -0x1.f5420a0000000p-4}
, {0x1.4b8a3a0000000p-4, 0x1.2e56320000000p-3, -0x1.eb31900000000p-6, 0x1.a606ac0000000p-6, -0x1.3afa460000000p-3, 0x1.baad2c0000000p-7, 0x1.430e960000000p-3, 0x1.fa090e0000000p-6, 0x1.377a660000000p-8, -0x1.44a0ae0000000p-3, 0x1.e10bc20000000p-7, 0x1.3bdbb00000000p-4, -0x1.e139aa0000000p-5, 0x1.411d3a0000000p-3, 0x1.66d9d60000000p-3, 0x1.f736a40000000p-5}
, {-0x1.4190680000000p-3, 0x1.75b7b00000000p-5, -0x1.52d74c0000000p-5, 0x1.4ff4700000000p-3, 0x1.25ae400000000p-8, -0x1.11fc5e0000000p-5, 0x1.85f9180000000p-5, -0x1.e59fa20000000p-5, 0x1.1914660000000p-3, 0x1.b43b340000000p-4, -0x1.5904d00000000p-5, 0x1.4bcd600000000p-4, 0x1.409d440000000p-4, 0x1.eade6c0000000p-5, -0x1.39866e0000000p-4, 0x1.72a3360000000p-4}
, {0x1.aa05560000000p-4, -0x1.f42c580000000p-5, 0x1.1babbc0000000p-4, -0x1.5b914c0000000p-11, 0x1.797ff60000000p-3, 0x1.d0771c0000000p-4, 0x1.b798800000000p-5, -0x1.f953d60000000p-5, -0x1.4cdf6c0000000p-4, -0x1.bab1b00000000p-5, 0x1.3389980000000p-8, 0x1.fe9eee0000000p-5, -0x1.7d2d040000000p-4, -0x1.4cde360000000p-4, -0x1.5fb0520000000p-5, -0x1.1753480000000p-3}
}
, {{0x1.3fad800000000p-4, -0x1.1b90720000000p-3, -0x1.68b7360000000p-3, 0x1.66b4b80000000p-3, -0x1.1f5e080000000p-4, 0x1.eabb940000000p-7, -0x1.5ea91e0000000p-3, -0x1.93afae0000000p-7, 0x1.1d37100000000p-4, 0x1.3a62220000000p-3, -0x1.3900e80000000p-4, -0x1.4027400000000p-3, 0x1.2a557a0000000p-3, -0x1.52f32a0000000p-3, 0x1.9b023c0000000p-5, -0x1.9f33c60000000p-4}
, {0x1.95988a0000000p-5, 0x1.651e2e0000000p-8, -0x1.a2b54e0000000p-6, 0x1.3b2f300000000p-4, -0x1.987ba40000000p-5, 0x1.b86c8e0000000p-7, -0x1.27ff9e0000000p-4, -0x1.2f070a0000000p-3, 0x1.fe14ec0000000p-6, 0x1.5d40380000000p-3, 0x1.5023480000000p-3, 0x1.5de7520000000p-4, -0x1.a3f47e0000000p-7, 0x1.9eb5cc0000000p-4, 0x1.672b8e0000000p-3, -0x1.62b6c00000000p-4}
, {-0x1.d91bb00000000p-6, 0x1.462bbc0000000p-7, 0x1.571c9a0000000p-4, -0x1.2576a60000000p-5, -0x1.4163720000000p-3, 0x1.dd84de0000000p-5, 0x1.9790420000000p-5, -0x1.f790720000000p-4, -0x1.7e42c00000000p-4, 0x1.5f9bb00000000p-6, 0x1.95cd3a0000000p-4, 0x1.b69cd20000000p-4, -0x1.3334d40000000p-3, -0x1.0107d60000000p-3, -0x1.ee845c0000000p-4, -0x1.f90fb20000000p-4}
, {0x1.5e789c0000000p-3, 0x1.0404000000000p-3, -0x1.1fc98e0000000p-3, 0x1.199fd40000000p-3, -0x1.9631ec0000000p-4, 0x1.096e9e0000000p-3, 0x1.a3dea40000000p-4, -0x1.40f4620000000p-4, -0x1.9f032a0000000p-4, 0x1.26c1900000000p-4, -0x1.265e600000000p-4, 0x1.462d9e0000000p-3, -0x1.6440fc0000000p-3, 0x1.42773c0000000p-3, -0x1.a95af80000000p-6, 0x1.60dd080000000p-3}
}
, {{0x1.109a480000000p-3, 0x1.3554d80000000p-3, -0x1.8a24620000000p-4, 0x1.7f67040000000p-5, 0x1.ee78040000000p-6, -0x1.2f625a0000000p-4, 0x1.2ee7e40000000p-5, -0x1.b2c16c0000000p-4, 0x1.be4be00000000p-5, -0x1.31bbca0000000p-3, -0x1.3b367e0000000p-5, 0x1.9b538e0000000p-7, 0x1.38d4ac0000000p-4, 0x1.47ad3c0000000p-4, -0x1.d23e120000000p-4, -0x1.51a8c40000000p-3}
, {0x1.21741e0000000p-3, 0x1.4fff940000000p-5, 0x1.fb8b3c0000000p-5, -0x1.0948020000000p-3, 0x1.78cefc0000000p-6, -0x1.bfe2340000000p-6, 0x1.5f452c0000000p-3, -0x1.8e2f4e0000000p-5, 0x1.4e22b40000000p-3, -0x1.4de1820000000p-6, -0x1.5f85880000000p-6, 0x1.89014e0000000p-3, 0x1.4e7ede0000000p-4, -0x1.36dac20000000p-3, 0x1.b332200000000p-4, 0x1.669fb60000000p-3}
, {0x1.040e7a0000000p-4, -0x1.2843400000000p-3, 0x1.7bdb300000000p-4, -0x1.956cb40000000p-4, -0x1.b03bce0000000p-4, 0x1.a47e000000000p-5, 0x1.c9455a0000000p-4, 0x1.0281fe0000000p-3, -0x1.88d7b60000000p-4, 0x1.f335b20000000p-4, 0x1.8e5c680000000p-4, -0x1.18297a0000000p-4, 0x1.257e080000000p-3, -0x1.f34d340000000p-5, -0x1.e532ec0000000p-4, -0x1.76f0620000000p-4}
, {0x1.59b28c0000000p-4, 0x1.671b0c0000000p-5, -0x1.3010a20000000p-6, 0x1.b1606e0000000p-5, 0x1.20db840000000p-9, -0x1.11ea9e0000000p-4, -0x1.81aff20000000p-10, 0x1.34652c0000000p-3, 0x1.a12a020000000p-4, 0x1.0145e40000000p-7, -0x1.1288b60000000p-5, 0x1.1992540000000p-3, 0x1.500fac0000000p-5, 0x1.196a020000000p-3, -0x1.9472a80000000p-5, -0x1.c418bc0000000p-6}
}
, {{0x1.5603140000000p-5, 0x1.08a9020000000p-3, -0x1.d466fe0000000p-6, -0x1.574ab80000000p-4, -0x1.62bae00000000p-4, -0x1.0449520000000p-5, 0x1.0546420000000p-3, -0x1.e80c820000000p-4, 0x1.0005300000000p-3, 0x1.dac66e0000000p-5, 0x1.4394c40000000p-6, 0x1.4ca4920000000p-4, -0x1.a3234c0000000p-4, -0x1.0d67f80000000p-4, -0x1.d587820000000p-4, 0x1.05adf00000000p-3}
, {0x1.341e260000000p-3, -0x1.43599c0000000p-3, -0x1.4f90740000000p-4, -0x1.f77bc60000000p-6, 0x1.70869c0000000p-4, -0x1.da50020000000p-5, 0x1.ba15240000000p-4, 0x1.193a600000000p-3, 0x1.a82b920000000p-4, 0x1.3049060000000p-3, 0x1.4b0fb80000000p-4, 0x1.2cce440000000p-4, 0x1.f95f640000000p-5, 0x1.6d4fac0000000p-3, 0x1.ab78e60000000p-5, 0x1.1aed2c0000000p-4}
, {0x1.8ab8ae0000000p-5, -0x1.8040cc0000000p-7, -0x1.0cc2220000000p-4, 0x1.5143040000000p-9, -0x1.3447660000000p-3, 0x1.cfb3740000000p-6, 0x1.e2972c0000000p-4, -0x1.71e9600000000p-8, -0x1.c2087a0000000p-4, -0x1.6a30b60000000p-4, 0x1.397dfe0000000p-3, 0x1.ab6b5c0000000p-5, 0x1.46c64c0000000p-3, 0x1.68f6fa0000000p-3, 0x1.1c1ed80000000p-3, -0x1.be53160000000p-4}
, {-0x1.5c67920000000p-3, -0x1.f468820000000p-6, 0x1.077c020000000p-3, -0x1.6342800000000p-3, -0x1.0ba1880000000p-5, 0x1.bfee540000000p-4, 0x1.9b689c0000000p-8, -0x1.30abae0000000p-4, 0x1.f6edb80000000p-5, -0x1.02269c0000000p-5, -0x1.11736c0000000p-3, 0x1.d7da7c0000000p-4, 0x1.993c000000000p-4, 0x1.abc6560000000p-5, 0x1.0777b60000000p-4, -0x1.09c1120000000p-5}
}
, {{-0x1.922e940000000p-4, -0x1.2e39160000000p-4, -0x1.122b4c0000000p-3, -0x1.1eb9e80000000p-4, -0x1.748ee80000000p-4, 0x1.9a0c800000000p-3, -0x1.33422a0000000p-9, 0x1.660d060000000p-3, -0x1.d12c9a0000000p-6, -0x1.54d3ec0000000p-4, -0x1.4090020000000p-5, 0x1.01ba260000000p-4, -0x1.ac28ea0000000p-4, 0x1.27074c0000000p-5, 0x1.3a00f80000000p-4, -0x1.d754580000000p-6}
, {-0x1.7fdc480000000p-4, 0x1.b127900000000p-4, -0x1.64ffa00000000p-5, 0x1.2e356c0000000p-3, 0x1.72bf3e0000000p-3, 0x1.8eb4140000000p-3, -0x1.cd492c0000000p-4, 0x1.e64d700000000p-4, 0x1.7a572a0000000p-3, 0x1.429a240000000p-6, 0x1.3930800000000p-3, 0x1.384ccc0000000p-6, -0x1.ca3e4e0000000p-11, 0x1.0a4cec0000000p-3, 0x1.1292060000000p-3, -0x1.261af40000000p-5}
, {0x1.ae56cc0000000p-5, 0x1.0202bc0000000p-3, 0x1.7d20da0000000p-5, 0x1.1877dc0000000p-3, -0x1.49002c0000000p-4, -0x1.6af13c0000000p-4, -0x1.b32fac0000000p-4, 0x1.63fea00000000p-5, -0x1.0470fa0000000p-3, 0x1.9fe1cc0000000p-5, -0x1.edbe6e0000000p-5, 0x1.f07e280000000p-6, -0x1.05e6ee0000000p-3, -0x1.3bf3080000000p-3, -0x1.6da8040000000p-4, 0x1.0b5d0a0000000p-3}
, {0x1.1ea5360000000p-6, -0x1.ea06180000000p-4, -0x1.b40f6e0000000p-5, -0x1.ff6e0e0000000p-4, -0x1.17b7f40000000p-3, -0x1.e505b20000000p-4, 0x1.76aa060000000p-3, 0x1.da43000000000p-6, -0x1.2568d20000000p-3, 0x1.8a19360000000p-5, -0x1.db9eba0000000p-8, 0x1.4f95c60000000p-3, 0x1.1ef3f40000000p-5, 0x1.154b1c0000000p-4, -0x1.37b2fc0000000p-3, 0x1.0e79ea0000000p-4}
}
, {{-0x1.66e4ca0000000p-3, 0x1.0d000e0000000p-4, 0x1.8cac420000000p-5, -0x1.0fd5a20000000p-3, 0x1.41eeca0000000p-4, 0x1.cea2520000000p-4, -0x1.525ed60000000p-3, 0x1.dde1400000000p-5, -0x1.7d038a0000000p-6, 0x1.1f5f3a0000000p-4, -0x1.4fd9f20000000p-8, -0x1.3568520000000p-4, -0x1.2e88d80000000p-3, 0x1.c940100000000p-4, -0x1.1662400000000p-7, 0x1.161f8a0000000p-4}
, {-0x1.084e480000000p-3, -0x1.c8e92c0000000p-7, 0x1.0054ec0000000p-3, 0x1.3025a40000000p-3, -0x1.d232700000000p-5, -0x1.dd8bea0000000p-4, -0x1.9850260000000p-4, 0x1.5214e80000000p-3, 0x1.03f8d40000000p-3, 0x1.2861880000000p-6, -0x1.5ad9a60000000p-3, 0x1.4447be0000000p-3, -0x1.63060a0000000p-3, 0x1.7858440000000p-4, -0x1.fe0d760000000p-4, -0x1.0e887c0000000p-3}
, {-0x1.057bfa0000000p-5, 0x1.deb3ae0000000p-4, -0x1.5e61f60000000p-3, 0x1.aa6ec00000000p-4, 0x1.b3b05a0000000p-8, -0x1.3c160e0000000p-3, -0x1.bc94d00000000p-4, 0x1.f33aea0000000p-4, -0x1.1998b00000000p-3, -0x1.e58cce0000000p-4, -0x1.714ff80000000p-5, 0x1.0e67880000000p-5, 0x1.e615180000000p-4, 0x1.728b960000000p-4, 0x1.145e1c0000000p-4, 0x1.8059900000000p-5}
, {-0x1.4c03f40000000p-4, 0x1.7043e60000000p-4, -0x1.3d9bfc0000000p-5, 0x1.c0912c0000000p-4, -0x1.696d2c0000000p-4, -0x1.c1c3ee0000000p-4, 0x1.9224660000000p-5, 0x1.c0a71e0000000p-4, 0x1.0e6a800000000p-4, 0x1.4d15b60000000p-4, -0x1.ea6cb20000000p-4, 0x1.a122dc0000000p-4, -0x1.83a5780000000p-4, 0x1.1e7ef40000000p-4, 0x1.361f4e0000000p-4, -0x1.5c98240000000p-5}
}
, {{-0x1.05aac60000000p-3, 0x1.b10f5e0000000p-4, -0x1.13b6080000000p-5, -0x1.11a3560000000p-3, -0x1.5bb49c0000000p-3, 0x1.e669340000000p-4, 0x1.fdd2120000000p-6, 0x1.7812e60000000p-4, 0x1.b73b780000000p-4, 0x1.ccbd480000000p-4, 0x1.6234c40000000p-3, 0x1.0294720000000p-3, 0x1.40c0280000000p-3, -0x1.5751420000000p-4, -0x1.556a100000000p-4, 0x1.0b50da0000000p-3}
, {0x1.6e34ec0000000p-4, 0x1.ae6da20000000p-5, 0x1.5f0f240000000p-4, -0x1.c5feb80000000p-6, -0x1.c037660000000p-4, -0x1.45f6760000000p-4, 0x1.b5fadc0000000p-4, -0x1.d8f8a00000000p-4, 0x1.e4a1ae0000000p-4, -0x1.439d3a0000000p-3, -0x1.0c84f60000000p-4, 0x1.8a9e5e0000000p-4, 0x1.ad0a4a0000000p-6, -0x1.b0bbf60000000p-5, -0x1.db8c660000000p-4, 0x1.fa85900000000p-4}
, {-0x1.8783980000000p-4, -0x1.5204860000000p-4, -0x1.268c5a0000000p-5, 0x1.315bf80000000p-3, -0x1.12fd5a0000000p-4, 0x1.43c7ee0000000p-6, -0x1.adb0e40000000p-7, -0x1.a011aa0000000p-5, 0x1.7cd98c0000000p-3, -0x1.09147a0000000p-3, -0x1.1c3e880000000p-3, -0x1.1340640000000p-4, 0x1.381e740000000p-3, -0x1.f855320000000p-4, -0x1.0b3dea0000000p-3, -0x1.473f800000000p-4}
, {0x1.5005aa0000000p-3, 0x1.1a6c360000000p-3, -0x1.cf7a920000000p-5, -0x1.43d1bc0000000p-3, -0x1.44b7b80000000p-3, 0x1.68173a0000000p-3, -0x1.44569c0000000p-4, -0x1.db41ca0000000p-4, 0x1.3a33fa0000000p-3, 0x1.1d7a760000000p-5, 0x1.cd33ca0000000p-5, -0x1.6ac86e0000000p-4, -0x1.25751e0000000p-5, 0x1.0f32780000000p-4, 0x1.9cefb60000000p-5, 0x1.00945a0000000p-3}
}
, {{-0x1.2c8b4a0000000p-3, -0x1.8d4f600000000p-4, -0x1.51e7140000000p-5, -0x1.7f38760000000p-5, -0x1.30d47a0000000p-3, 0x1.3cd5aa0000000p-3, -0x1.573e320000000p-3, 0x1.ac5c900000000p-4, 0x1.2742ac0000000p-4, -0x1.6997420000000p-6, 0x1.7896080000000p-3, -0x1.3a87460000000p-3, -0x1.f565580000000p-6, 0x1.24dbbe0000000p-3, 0x1.78d5940000000p-4, 0x1.8494c40000000p-10}
, {-0x1.edfa0e0000000p-4, 0x1.d3884a0000000p-4, -0x1.de6dd20000000p-4, 0x1.4a47280000000p-3, -0x1.e08e1c0000000p-7, -0x1.5762cc0000000p-3, -0x1.4395500000000p-4, -0x1.41dcc00000000p-3, -0x1.2443500000000p-5, -0x1.a555f60000000p-4, -0x1.74a9360000000p-4, 0x1.2700d60000000p-3, -0x1.c27e140000000p-5, 0x1.5976f40000000p-5, -0x1.a6a4680000000p-5, 0x1.60c7ce0000000p-5}
, {-0x1.8d80e00000000p-11, 0x1.c13fd00000000p-6, -0x1.112d400000000p-3, -0x1.9f1d240000000p-4, -0x1.a35f920000000p-4, -0x1.16f1140000000p-3, -0x1.f43e8a0000000p-5, 0x1.affe780000000p-4, -0x1.456b620000000p-4, -0x1.c95aa60000000p-6, -0x1.64d4a00000000p-6, 0x1.1768ca0000000p-3, -0x1.bccc7a0000000p-5, 0x1.353af80000000p-5, -0x1.88d5680000000p-5, -0x1.30531e0000000p-4}
, {-0x1.cc3bd00000000p-5, 0x1.18f6cc0000000p-5, 0x1.0e8dd20000000p-4, 0x1.e44a8c0000000p-4, 0x1.0076c40000000p-4, -0x1.6605040000000p-5, 0x1.25e9a60000000p-3, 0x1.850ae40000000p-4, -0x1.16631a0000000p-3, 0x1.05f23e0000000p-4, 0x1.4a7f480000000p-9, 0x1.08e6a20000000p-4, -0x1.2c67de0000000p-4, 0x1.3bdd560000000p-4, -0x1.77bc8c0000000p-4, -0x1.530b9e0000000p-3}
}
, {{-0x1.b4b9560000000p-5, 0x1.6912de0000000p-6, -0x1.48b5300000000p-3, 0x1.90d80a0000000p-5, 0x1.72a2000000000p-4, -0x1.dd5c560000000p-4, 0x1.dcd4900000000p-5, 0x1.55e32c0000000p-8, 0x1.86eeb80000000p-4, 0x1.06c7f00000000p-3, -0x1.30303c0000000p-3, 0x1.3af4180000000p-7, 0x1.091e040000000p-5, 0x1.b0a5bc0000000p-5, 0x1.c57d600000000p-4, -0x1.c02b640000000p-4}
, {0x1.dd12ca0000000p-5, 0x1.7087820000000p-4, -0x1.749e720000000p-4, 0x1.24ffbe0000000p-8, -0x1.0663480000000p-3, 0x1.690b7a0000000p-6, 0x1.cd564e0000000p-5, 0x1.7018620000000p-3, -0x1.73d1ee0000000p-3, 0x1.1eb5d40000000p-3, -0x1.3995740000000p-4, -0x1.3b6e740000000p-3, 0x1.5bcc8a0000000p-7, -0x1.9438680000000p-4, -0x1.e909a80000000p-4, -0x1.55594e0000000p-4}
, {-0x1.2a57620000000p-3, -0x1.fd9aa60000000p-4, -0x1.e304140000000p-7, 0x1.0a9ac40000000p-3, 0x1.52788e0000000p-3, 0x1.fadb320000000p-4, -0x1.39143a0000000p-4, 0x1.6f4f080000000p-4, -0x1.b121520000000p-4, 0x1.dbe6600000000p-4, 0x1.7c85500000000p-4, -0x1.c781500000000p-4, 0x1.5304c60000000p-4, 0x1.bbefd60000000p-5, -0x1.6436b60000000p-4, 0x1.0f0b120000000p-5}
, {0x1.742b780000000p-3, -0x1.e97dda0000000p-6, -0x1.72b2440000000p-4, 0x1.251fe60000000p-6, -0x1.2bd7700000000p-4, -0x1.244bb00000000p-4, -0x1.595f120000000p-4, 0x1.945db60000000p-7, -0x1.4675680000000p-3, 0x1.6176e00000000p-3, -0x1.3421240000000p-3, 0x1.4555920000000p-6, 0x1.4e7f480000000p-4, 0x1.37ae5e0000000p-3, 0x1.0836600000000p-3, 0x1.0f17460000000p-4}
}
, {{0x1.7497180000000p-4, 0x1.05ef260000000p-3, -0x1.042c9e0000000p-4, 0x1.7167180000000p-4, -0x1.e37ef20000000p-13, -0x1.4b342a0000000p-3, -0x1.0fa26e0000000p-3, 0x1.7746ce0000000p-3, -0x1.3b2b380000000p-4, 0x1.2e9a320000000p-4, 0x1.9995660000000p-5, -0x1.57e4660000000p-4, 0x1.a3f0b60000000p-5, 0x1.278c520000000p-4, 0x1.e5d6c80000000p-4, -0x1.2c23cc0000000p-4}
, {0x1.df14980000000p-9, -0x1.029e6e0000000p-3, -0x1.a9aa040000000p-4, -0x1.64ef5a0000000p-3, 0x1.25bb360000000p-3, -0x1.35dca20000000p-3, 0x1.351e440000000p-3, -0x1.3893600000000p-5, -0x1.7124f60000000p-4, -0x1.29855e0000000p-3, -0x1.ae25920000000p-8, -0x1.37f9380000000p-4, 0x1.fe39900000000p-4, 0x1.3a23240000000p-4, 0x1.743daa0000000p-6, 0x1.2165940000000p-3}
, {0x1.ede2080000000p-4, -0x1.db6a1e0000000p-6, 0x1.81760c0000000p-3, 0x1.fd4fac0000000p-4, -0x1.2f600e0000000p-4, -0x1.15af2c0000000p-3, 0x1.0824460000000p-4, -0x1.aa144e0000000p-5, -0x1.cf536c0000000p-5, -0x1.3c149a0000000p-4, 0x1.753c4c0000000p-7, 0x1.99c8180000000p-4, -0x1.0eddae0000000p-3, -0x1.84787c0000000p-4, -0x1.3cc32c0000000p-4, 0x1.0b59940000000p-3}
, {-0x1.4ad7f20000000p-8, 0x1.461fa60000000p-4, 0x1.2407980000000p-3, 0x1.14ba760000000p-3, -0x1.01e4260000000p-3, 0x1.fe6e7a0000000p-4, 0x1.6ef3900000000p-4, 0x1.46fd520000000p-4, 0x1.03aafa0000000p-3, 0x1.9c45e60000000p-9, -0x1.6144140000000p-7, 0x1.f900540000000p-4, 0x1.5e7e7c0000000p-3, -0x1.fa85e60000000p-4, -0x1.ce1c120000000p-10, 0x1.3e6fa40000000p-7}
}
, {{0x1.c391a80000000p-4, -0x1.8a51440000000p-4, 0x1.1adcba0000000p-3, 0x1.4240940000000p-3, -0x1.c07fac0000000p-4, 0x1.8178ae0000000p-3, -0x1.149d460000000p-5, -0x1.259a440000000p-3, -0x1.04da4e0000000p-8, 0x1.cd4f220000000p-4, -0x1.7e5ec00000000p-4, 0x1.096c580000000p-3, 0x1.230a4a0000000p-4, 0x1.467a0a0000000p-3, -0x1.26a23e0000000p-5, 0x1.a1fee80000000p-7}
, {-0x1.4031aa0000000p-7, 0x1.63e9ba0000000p-3, 0x1.b2030e0000000p-6, 0x1.a3b4a20000000p-11, -0x1.816fae0000000p-4, 0x1.9ce1660000000p-9, -0x1.669d620000000p-3, 0x1.4d2b900000000p-7, 0x1.283b7c0000000p-3, 0x1.1f823a0000000p-7, -0x1.47cb920000000p-3, 0x1.0858a40000000p-4, -0x1.d87c600000000p-4, 0x1.1a460e0000000p-3, 0x1.577db00000000p-4, 0x1.866b340000000p-6}
, {0x1.44b4de0000000p-3, -0x1.4c2d460000000p-3, -0x1.0a1cf60000000p-6, 0x1.fce9400000000p-4, -0x1.4bccae0000000p-4, 0x1.bdfb5a0000000p-4, 0x1.3afc7a0000000p-3, -0x1.44c9100000000p-3, 0x1.d52f140000000p-4, 0x1.61c3ca0000000p-3, 0x1.4f5a900000000p-3, 0x1.6a93000000000p-3, -0x1.09e3000000000p-3, -0x1.3da8ba0000000p-3, 0x1.fec8b00000000p-4, 0x1.0d69fa0000000p-5}
, {0x1.63f3600000000p-3, 0x1.6d077e0000000p-3, -0x1.28f8620000000p-3, -0x1.2b60de0000000p-7, 0x1.479e4e0000000p-3, -0x1.62e3be0000000p-5, -0x1.54d56e0000000p-3, -0x1.100d160000000p-3, 0x1.8b49c40000000p-8, 0x1.ed08ca0000000p-4, 0x1.65e0160000000p-3, -0x1.b776340000000p-4, 0x1.abacb20000000p-7, -0x1.bbe28e0000000p-4, -0x1.c4b06c0000000p-7, 0x1.a2b5900000000p-7}
}
, {{-0x1.17e8e60000000p-6, 0x1.e510260000000p-6, -0x1.5b55d00000000p-4, 0x1.824dea0000000p-11, -0x1.671bca0000000p-5, -0x1.d254bc0000000p-5, 0x1.6e4ddc0000000p-3, 0x1.1633800000000p-3, 0x1.df82b40000000p-4, 0x1.227cca0000000p-3, 0x1.0f4cc20000000p-3, -0x1.47ecc00000000p-5, 0x1.c3eeb80000000p-5, -0x1.87bcf00000000p-4, 0x1.455b2c0000000p-3, -0x1.152c400000000p-3}
, {0x1.4fa05e0000000p-4, -0x1.339b8c0000000p-6, 0x1.b3656e0000000p-4, 0x1.a7aa140000000p-8, -0x1.25b4120000000p-8, 0x1.f51b1c0000000p-4, 0x1.6d04240000000p-4, 0x1.04f3380000000p-3, 0x1.abdd5c0000000p-6, 0x1.6d9a380000000p-3, -0x1.b5667a0000000p-5, 0x1.c7cf8a0000000p-4, 0x1.33a68a0000000p-3, 0x1.6c4ad40000000p-3, -0x1.2c9e820000000p-4, -0x1.5556da0000000p-3}
, {-0x1.536dd00000000p-4, 0x1.5b03400000000p-5, -0x1.14538e0000000p-4, 0x1.3691700000000p-5, 0x1.e52ef00000000p-4, 0x1.8479fc0000000p-3, 0x1.226b840000000p-6, 0x1.a7e4360000000p-4, -0x1.0b7f520000000p-6, -0x1.b06cd20000000p-4, 0x1.0d93f20000000p-5, -0x1.e0efba0000000p-5, 0x1.8858020000000p-5, 0x1.030f980000000p-4, -0x1.1165800000000p-5, 0x1.37622c0000000p-4}
, {-0x1.0661520000000p-3, 0x1.29ee560000000p-3, 0x1.2871100000000p-3, 0x1.4128780000000p-4, -0x1.ff5c800000000p-4, -0x1.03d4420000000p-4, -0x1.932c160000000p-4, -0x1.f170a00000000p-5, -0x1.f8dcd60000000p-4, -0x1.483e3e0000000p-3, 0x1.162b3c0000000p-4, -0x1.36238e0000000p-4, -0x1.35a43a0000000p-4, -0x1.67085e0000000p-4, 0x1.9c37a60000000p-5, 0x1.d76f860000000p-4}
}
, {{-0x1.01f9bc0000000p-5, 0x1.4637200000000p-8, 0x1.4a4d020000000p-4, -0x1.0286b40000000p-4, 0x1.ca60700000000p-4, -0x1.91a0c20000000p-6, -0x1.3d76400000000p-3, 0x1.ea498a0000000p-7, 0x1.1cf1300000000p-3, 0x1.f6829c0000000p-4, -0x1.ecf60a0000000p-4, -0x1.b864ba0000000p-5, 0x1.1343000000000p-4, 0x1.44fce80000000p-3, 0x1.0be7940000000p-7, -0x1.57aaba0000000p-4}
, {-0x1.6dcca00000000p-3, 0x1.f22ae00000000p-15, -0x1.c9682e0000000p-4, 0x1.2767140000000p-3, 0x1.49006a0000000p-5, -0x1.fcf96a0000000p-4, -0x1.56e9d40000000p-6, -0x1.57d8020000000p-4, 0x1.b36d200000000p-4, -0x1.e700760000000p-6, 0x1.7b19e80000000p-5, 0x1.1dce4e0000000p-4, -0x1.da92700000000p-5, 0x1.19f18e0000000p-3, 0x1.a188160000000p-7, -0x1.62f5f40000000p-3}
, {0x1.7fbb7c0000000p-5, 0x1.7c42c00000000p-5, 0x1.13ee420000000p-3, -0x1.0419da0000000p-4, 0x1.8c58ec0000000p-4, 0x1.4cd2180000000p-4, 0x1.3d414c0000000p-8, 0x1.187cd80000000p-4, 0x1.87660c0000000p-4, 0x1.df3b720000000p-4, -0x1.02885e0000000p-4, -0x1.2614da0000000p-4, 0x1.4badd20000000p-3, 0x1.53a20a0000000p-3, 0x1.2a72840000000p-4, 0x1.3f66f40000000p-3}
, {0x1.2352ce0000000p-3, -0x1.9bed6e0000000p-4, 0x1.bd1a000000000p-4, 0x1.5748d80000000p-5, 0x1.41923c0000000p-3, 0x1.da7f400000000p-8, -0x1.fcec5e0000000p-5, -0x1.d838e40000000p-6, 0x1.6335740000000p-5, 0x1.fb016e0000000p-4, 0x1.83a6340000000p-4, -0x1.43d7200000000p-3, -0x1.c43b500000000p-5, -0x1.3016ea0000000p-4, -0x1.a30cf20000000p-13, -0x1.4889520000000p-3}
}
, {{0x1.2c43880000000p-4, 0x1.b3316e0000000p-4, 0x1.00955c0000000p-4, -0x1.155fb20000000p-3, -0x1.bde3360000000p-4, 0x1.8caf060000000p-4, -0x1.7c951a0000000p-4, 0x1.1b95540000000p-6, -0x1.a00fe40000000p-4, -0x1.f687200000000p-4, 0x1.42e70a0000000p-4, 0x1.495c460000000p-4, -0x1.71d2980000000p-6, 0x1.ba50f20000000p-5, -0x1.3ab5300000000p-3, -0x1.e76f7c0000000p-4}
, {-0x1.fe49620000000p-6, -0x1.45102c0000000p-4, -0x1.7d37900000000p-3, -0x1.9d63680000000p-4, -0x1.0541540000000p-5, -0x1.5dea940000000p-4, -0x1.3815980000000p-6, 0x1.3e3d7a0000000p-3, 0x1.2941a60000000p-4, 0x1.7a80320000000p-5, 0x1.6fd7220000000p-5, 0x1.e29c8e0000000p-4, 0x1.2722a60000000p-3, 0x1.63f17e0000000p-3, -0x1.23d5c00000000p-5, 0x1.7fa96a0000000p-4}
, {-0x1.28215c0000000p-5, -0x1.1bfeae0000000p-3, -0x1.5a711e0000000p-3, 0x1.18662c0000000p-3, -0x1.b9acc00000000p-4, 0x1.68110e0000000p-5, 0x1.3049da0000000p-3, 0x1.b35fb60000000p-4, 0x1.7875740000000p-4, -0x1.1067f20000000p-4, 0x1.0191fe0000000p-3, -0x1.940cf00000000p-7, -0x1.eb6f3a0000000p-4, 0x1.feac4c0000000p-4, -0x1.aaa3520000000p-5, 0x1.0902c20000000p-4}
, {-0x1.07fd720000000p-4, 0x1.7888560000000p-4, -0x1.ca75b00000000p-4, -0x1.155f320000000p-4, 0x1.579b700000000p-3, 0x1.14cbfc0000000p-3, 0x1.0562aa0000000p-6, 0x1.67ff240000000p-4, 0x1.65c3b00000000p-3, -0x1.654c600000000p-4, 0x1.3025140000000p-3, 0x1.6738680000000p-6, 0x1.e8389e0000000p-4, 0x1.8ddfe00000000p-5, 0x1.73efaa0000000p-4, -0x1.3abe360000000p-4}
}
, {{-0x1.857bb80000000p-4, -0x1.8a47fe0000000p-4, 0x1.2800e00000000p-4, 0x1.4386de0000000p-4, 0x1.0f4e740000000p-8, 0x1.4ee2b60000000p-4, -0x1.faaf0e0000000p-4, 0x1.6b91e00000000p-4, 0x1.4986c40000000p-3, -0x1.6cec2e0000000p-4, 0x1.1b79380000000p-5, 0x1.0389dc0000000p-4, 0x1.f6fd1a0000000p-4, 0x1.34ecc20000000p-3, 0x1.d305460000000p-4, -0x1.4e3e880000000p-7}
, {-0x1.547cc80000000p-3, -0x1.6ea5f40000000p-5, -0x1.3adbd20000000p-3, 0x1.3c289c0000000p-3, 0x1.45a7080000000p-3, 0x1.4414a40000000p-4, 0x1.1dac700000000p-4, -0x1.ef7b100000000p-7, 0x1.b70d2e0000000p-4, 0x1.d078f00000000p-6, 0x1.53fc2e0000000p-5, 0x1.3cb4700000000p-3, 0x1.528d1c0000000p-4, -0x1.56f9340000000p-4, -0x1.4e38160000000p-3, 0x1.a0b39c0000000p-6}
, {0x1.0732940000000p-3, 0x1.90222e0000000p-4, -0x1.b759ec0000000p-4, 0x1.c5f60e0000000p-5, 0x1.e2d9cc0000000p-5, -0x1.1915020000000p-3, -0x1.0bae740000000p-3, 0x1.9589f00000000p-4, 0x1.8085ee0000000p-4, -0x1.69016e0000000p-5, -0x1.5aece60000000p-7, -0x1.97521c0000000p-4, -0x1.e049a40000000p-4, -0x1.0eb6960000000p-5, 0x1.7b7d8a0000000p-4, 0x1.a06cb80000000p-6}
, {-0x1.5d6b5c0000000p-3, 0x1.bd68820000000p-4, 0x1.5e71b80000000p-6, 0x1.158d0e0000000p-3, -0x1.2382580000000p-3, -0x1.035bce0000000p-3, -0x1.45abec0000000p-5, -0x1.048c0c0000000p-3, -0x1.192a3e0000000p-3, 0x1.6152bc0000000p-3, -0x1.c3ddc40000000p-4, 0x1.1455c00000000p-7, -0x1.e524240000000p-4, 0x1.b727920000000p-5, -0x1.71112a0000000p-4, 0x1.0514600000000p-8}
}
, {{0x1.05d90c0000000p-5, -0x1.4455f60000000p-3, -0x1.15861a0000000p-5, -0x1.0bd2c00000000p-6, 0x1.46fe940000000p-4, -0x1.803e420000000p-5, 0x1.1c84200000000p-4, 0x1.c738920000000p-5, 0x1.3ed5920000000p-9, 0x1.8ec4c00000000p-4, -0x1.88f8700000000p-4, -0x1.55ae8a0000000p-3, 0x1.9f045a0000000p-7, 0x1.63ce880000000p-4, -0x1.53f54c0000000p-3, -0x1.19a3ba0000000p-9}
, {-0x1.f7a81e0000000p-4, -0x1.bf72f20000000p-4, -0x1.52634e0000000p-3, 0x1.4325d20000000p-3, 0x1.6d09040000000p-4, -0x1.54ce0e0000000p-4, 0x1.0def2c0000000p-4, -0x1.206ad20000000p-3, -0x1.97b4160000000p-5, -0x1.8c0d5e0000000p-5, -0x1.ce3e900000000p-6, -0x1.3db7ca0000000p-3, 0x1.11893c0000000p-3, -0x1.932ef20000000p-5, 0x1.5062a60000000p-4, 0x1.4e308a0000000p-3}
, {0x1.516ea80000000p-3, -0x1.23eea00000000p-3, -0x1.787ff60000000p-5, -0x1.0fc8660000000p-3, -0x1.2051c60000000p-4, 0x1.5c23980000000p-4, -0x1.9e65180000000p-6, 0x1.e77e9c0000000p-6, -0x1.507d280000000p-3, -0x1.a5596e0000000p-4, 0x1.550ffc0000000p-3, 0x1.9116240000000p-4, 0x1.7635940000000p-10, 0x1.db750e0000000p-5, 0x1.5bfb200000000p-3, 0x1.c6af100000000p-4}
, {-0x1.fea8e20000000p-5, 0x1.3eb17c0000000p-3, -0x1.25df3a0000000p-6, -0x1.0080a80000000p-4, -0x1.159d520000000p-3, -0x1.f78d720000000p-4, 0x1.533d100000000p-3, -0x1.50a2de0000000p-5, 0x1.109da00000000p-4, -0x1.1c73140000000p-4, -0x1.8d35da0000000p-4, 0x1.7606580000000p-4, -0x1.4a31c20000000p-5, 0x1.5590140000000p-5, 0x1.322ad00000000p-5, -0x1.1c4c8a0000000p-3}
}
, {{-0x1.439efc0000000p-3, 0x1.517a4a0000000p-3, -0x1.ac644c0000000p-4, 0x1.f25f720000000p-4, -0x1.072c000000000p-3, 0x1.2295380000000p-3, 0x1.df72280000000p-7, 0x1.0d8a7a0000000p-4, 0x1.65ce080000000p-3, -0x1.9b19e80000000p-4, 0x1.ec36b00000000p-4, -0x1.63e05c0000000p-4, -0x1.e862400000000p-5, 0x1.7ce9320000000p-6, -0x1.f0a3f40000000p-4, 0x1.6973100000000p-5}
, {-0x1.bdd1660000000p-4, 0x1.61b8c20000000p-3, -0x1.36cdaa0000000p-4, 0x1.04ad480000000p-8, 0x1.4fb3aa0000000p-3, -0x1.e33c5c0000000p-4, -0x1.e3cc360000000p-5, 0x1.0749e80000000p-3, -0x1.bee0a80000000p-5, 0x1.e5d9420000000p-4, 0x1.e3a3380000000p-5, 0x1.14e91e0000000p-3, -0x1.578b220000000p-4, -0x1.257aae0000000p-4, 0x1.2880840000000p-3, 0x1.4180e20000000p-6}
, {-0x1.d08e180000000p-4, 0x1.1006420000000p-7, 0x1.9c13460000000p-4, -0x1.6ebc260000000p-5, -0x1.1d98720000000p-3, 0x1.2dfbe20000000p-3, -0x1.4c72240000000p-3, -0x1.4441400000000p-6, 0x1.0dd44c0000000p-3, -0x1.006fea0000000p-5, 0x1.7d777c0000000p-5, 0x1.5a1cf60000000p-3, 0x1.71142a0000000p-4, 0x1.58061c0000000p-3, 0x1.d8cebc0000000p-6, 0x1.5de0ec0000000p-8}
, {0x1.2363f60000000p-4, 0x1.351f7a0000000p-5, 0x1.1d96060000000p-6, 0x1.383cf20000000p-4, 0x1.1225740000000p-3, -0x1.0f1f640000000p-3, -0x1.2ae5660000000p-3, -0x1.e9507a0000000p-4, 0x1.353f7a0000000p-3, 0x1.49f82a0000000p-4, 0x1.91c7000000000p-5, -0x1.0f95d40000000p-3, -0x1.f425be0000000p-4, 0x1.15d6980000000p-4, -0x1.e1b5aa0000000p-5, 0x1.89c2de0000000p-5}
}
, {{-0x1.35b2020000000p-5, 0x1.b6d1b40000000p-5, 0x1.f1f8800000000p-4, 0x1.e4f23c0000000p-5, 0x1.f9394e0000000p-5, -0x1.b7236c0000000p-4, -0x1.7a582e0000000p-4, -0x1.ad899c0000000p-6, -0x1.7b16820000000p-7, -0x1.b747c60000000p-4, -0x1.2c2df00000000p-7, -0x1.1f85b40000000p-5, -0x1.852b280000000p-4, -0x1.038e6a0000000p-4, 0x1.fb21fe0000000p-4, -0x1.20b3340000000p-4}
, {-0x1.dd6fd60000000p-4, 0x1.23263e0000000p-3, 0x1.718e7e0000000p-5, -0x1.20b5ec0000000p-3, -0x1.6363100000000p-4, 0x1.9ce4820000000p-4, 0x1.00387e0000000p-3, -0x1.43f6d20000000p-3, -0x1.859a0c0000000p-4, 0x1.0afd120000000p-4, 0x1.4028140000000p-3, -0x1.42ae3e0000000p-4, -0x1.6bbd600000000p-8, 0x1.0db6a60000000p-4, -0x1.1a49360000000p-3, -0x1.af1b0a0000000p-4}
, {0x1.6dbbb20000000p-6, 0x1.1e43c20000000p-4, -0x1.f6ddc60000000p-4, 0x1.d70ffa0000000p-4, 0x1.d841480000000p-5, -0x1.129e260000000p-4, -0x1.9e204e0000000p-4, 0x1.34b64a0000000p-3, 0x1.e083a60000000p-4, -0x1.9fd9820000000p-5, -0x1.544cba0000000p-4, -0x1.65a4f00000000p-4, 0x1.288cc20000000p-3, 0x1.e940440000000p-5, 0x1.a847e40000000p-4, 0x1.5c581a0000000p-3}
, {-0x1.88d7b00000000p-6, 0x1.538b0c0000000p-5, -0x1.68e7b00000000p-4, -0x1.0ffad00000000p-5, 0x1.43c61a0000000p-3, -0x1.4a5e400000000p-4, 0x1.c7196e0000000p-4, 0x1.57600c0000000p-4, -0x1.bea6ba0000000p-4, 0x1.491f920000000p-4, -0x1.2f186a0000000p-4, -0x1.16d92c0000000p-3, 0x1.890f8a0000000p-8, -0x1.4b0b620000000p-3, -0x1.2d715c0000000p-3, -0x1.9caee60000000p-5}
}
, {{0x1.de840a0000000p-4, -0x1.63e28a0000000p-5, -0x1.06289c0000000p-5, -0x1.bf07aa0000000p-4, 0x1.7d2a000000000p-5, -0x1.0fd6f20000000p-3, -0x1.5701420000000p-3, 0x1.63b7060000000p-5, -0x1.cbf46a0000000p-4, -0x1.0907640000000p-4, 0x1.015eec0000000p-4, -0x1.1db7ae0000000p-3, -0x1.3064c40000000p-5, -0x1.71871c0000000p-5, -0x1.61b1a20000000p-3, -0x1.38d1800000000p-4}
, {0x1.4e40160000000p-5, 0x1.d03caa0000000p-4, 0x1.5c67920000000p-3, -0x1.2a01500000000p-5, 0x1.4a60840000000p-3, 0x1.76439c0000000p-9, -0x1.4a5f440000000p-3, -0x1.22c4940000000p-3, -0x1.357f340000000p-3, -0x1.6142e60000000p-4, 0x1.2c33000000000p-3, 0x1.4f17cc0000000p-4, 0x1.70be600000000p-6, -0x1.c579200000000p-4, 0x1.4c6f440000000p-3, -0x1.4fd5180000000p-3}
, {0x1.872fe20000000p-4, 0x1.9554c20000000p-5, -0x1.3515ec0000000p-5, -0x1.68e5600000000p-7, 0x1.52c09e0000000p-6, -0x1.005eb40000000p-3, -0x1.8742e60000000p-5, 0x1.24f2240000000p-8, 0x1.dd07b60000000p-4, -0x1.d8a9520000000p-5, 0x1.075d540000000p-7, -0x1.4da48c0000000p-7, -0x1.9980000000000p-4, -0x1.28b9560000000p-3, -0x1.16d7960000000p-4, -0x1.69416a0000000p-4}
, {0x1.7b98de0000000p-6, -0x1.241eb40000000p-4, 0x1.10aa780000000p-3, 0x1.cf38c80000000p-7, -0x1.5efb600000000p-4, 0x1.fbd7c20000000p-4, -0x1.71cb9a0000000p-5, -0x1.c56cf60000000p-6, -0x1.57ec120000000p-4, -0x1.0370780000000p-4, -0x1.4c7a280000000p-3, 0x1.2f61d20000000p-6, -0x1.5aaca60000000p-5, -0x1.94b6060000000p-5, 0x1.0402260000000p-4, 0x1.1543980000000p-3}
}
, {{-0x1.b776b00000000p-4, -0x1.c2ccac0000000p-4, 0x1.b05fe60000000p-7, 0x1.e06e500000000p-6, 0x1.cb2cba0000000p-4, 0x1.ea83580000000p-7, 0x1.0778180000000p-3, 0x1.de9caa0000000p-5, 0x1.0e1a340000000p-3, -0x1.eba6fc0000000p-4, 0x1.8ace2a0000000p-5, -0x1.314ee60000000p-3, 0x1.2194500000000p-4, 0x1.6173a80000000p-3, 0x1.1393280000000p-3, -0x1.ef93a60000000p-4}
, {0x1.7877340000000p-4, 0x1.bd01480000000p-6, -0x1.e129c00000000p-6, -0x1.43eed00000000p-5, 0x1.b82a220000000p-4, -0x1.a1a31a0000000p-5, -0x1.070e260000000p-6, 0x1.8ef26c0000000p-4, -0x1.49c5a60000000p-6, 0x1.e8c6560000000p-4, 0x1.de871e0000000p-7, 0x1.53d78e0000000p-3, 0x1.5a2e060000000p-4, -0x1.55bc080000000p-7, -0x1.e9ae140000000p-4, 0x1.3829800000000p-3}
, {0x1.6eb8ca0000000p-4, -0x1.28888e0000000p-4, -0x1.abb81e0000000p-5, 0x1.7ae2260000000p-8, -0x1.895cde0000000p-12, -0x1.c716460000000p-4, -0x1.9f938c0000000p-4, 0x1.52b9ce0000000p-4, 0x1.b622980000000p-7, 0x1.0a1c8a0000000p-3, -0x1.2b05340000000p-4, -0x1.3bc2620000000p-3, -0x1.64ba1c0000000p-3, 0x1.babcb00000000p-14, -0x1.32b9460000000p-4, 0x1.6af02c0000000p-3}
, {-0x1.d413d80000000p-4, 0x1.7a2e040000000p-6, 0x1.adaabc0000000p-4, -0x1.48c6ca0000000p-4, -0x1.90dac20000000p-4, -0x1.ff1eb00000000p-4, -0x1.d0e98c0000000p-4, -0x1.0aaf380000000p-8, 0x1.16bc1e0000000p-9, -0x1.6212680000000p-3, -0x1.3bc7c40000000p-3, 0x1.fc65de0000000p-4, 0x1.9acb260000000p-4, 0x1.61bebe0000000p-4, -0x1.4c583e0000000p-3, -0x1.14e8760000000p-4}
}
, {{0x1.35ae5e0000000p-4, -0x1.402ff80000000p-7, -0x1.d2fa3e0000000p-5, 0x1.0d2db00000000p-4, -0x1.3586b20000000p-3, -0x1.99f59c0000000p-4, 0x1.b760c00000000p-6, 0x1.babd040000000p-10, -0x1.c976bc0000000p-5, 0x1.13e4380000000p-4, 0x1.41fd640000000p-3, -0x1.2da3a40000000p-4, 0x1.2e4f140000000p-6, -0x1.2c3b120000000p-4, -0x1.24c7ec0000000p-3, -0x1.18dc580000000p-4}
, {-0x1.5fb1d00000000p-3, -0x1.fc87180000000p-5, 0x1.ac3ca40000000p-4, 0x1.19497e0000000p-3, -0x1.61c6400000000p-3, 0x1.95dce60000000p-4, 0x1.0b3e500000000p-8, -0x1.bd627e0000000p-5, 0x1.ae74be0000000p-4, -0x1.e13a580000000p-4, 0x1.b16b8a0000000p-4, 0x1.680fa40000000p-4, -0x1.5489940000000p-6, 0x1.f927e00000000p-4, 0x1.d96cda0000000p-4, 0x1.aeb86a0000000p-5}
, {0x1.5f12900000000p-4, -0x1.b3fb0e0000000p-5, -0x1.7c98b40000000p-5, 0x1.6694c00000000p-3, 0x1.84ce700000000p-4, -0x1.af17ea0000000p-5, 0x1.fc9d5c0000000p-5, 0x1.ffc5d00000000p-4, 0x1.810fbe0000000p-4, 0x1.0120a20000000p-3, -0x1.d9d1c00000000p-5, -0x1.31d2760000000p-3, 0x1.3c848a0000000p-9, 0x1.0991e80000000p-4, -0x1.6385cc0000000p-4, -0x1.b423d20000000p-4}
, {0x1.6889160000000p-5, -0x1.5d1b6e0000000p-3, -0x1.9fbf3c0000000p-4, 0x1.12222e0000000p-4, 0x1.892ec60000000p-5, 0x1.8054900000000p-3, 0x1.225f540000000p-5, 0x1.efe8160000000p-6, 0x1.5d03d40000000p-5, -0x1.75f0240000000p-4, 0x1.0728180000000p-3, -0x1.234e560000000p-4, 0x1.b173dc0000000p-5, 0x1.1681500000000p-3, -0x1.6f0af60000000p-3, 0x1.10788e0000000p-4}
}
, {{0x1.52a4ae0000000p-4, 0x1.10fd0c0000000p-4, 0x1.72f1220000000p-4, -0x1.2fdc780000000p-3, -0x1.4202780000000p-4, 0x1.6ce7ac0000000p-4, -0x1.9cc60c0000000p-6, 0x1.a034160000000p-6, 0x1.7971840000000p-4, -0x1.7a51fa0000000p-6, -0x1.c5ddce0000000p-4, 0x1.63f8aa0000000p-3, -0x1.ad76740000000p-4, -0x1.1c4f100000000p-4, -0x1.7832460000000p-4, 0x1.53f50a0000000p-3}
, {0x1.aa6b8e0000000p-6, -0x1.d632780000000p-4, 0x1.873eba0000000p-4, -0x1.0cf1980000000p-3, 0x1.1d675e0000000p-3, -0x1.43f3ae0000000p-3, 0x1.10d0ca0000000p-3, -0x1.2608020000000p-3, 0x1.19dbb40000000p-3, 0x1.a2c8660000000p-5, 0x1.10f0fa0000000p-3, 0x1.e3b5f80000000p-6, 0x1.d927b00000000p-5, 0x1.57aee40000000p-3, -0x1.06e8420000000p-5, 0x1.4e9eb80000000p-4}
, {0x1.0c93840000000p-3, -0x1.d46d860000000p-9, 0x1.d4174c0000000p-5, 0x1.539da20000000p-5, -0x1.2854160000000p-3, 0x1.0e8e940000000p-3, 0x1.bde84c0000000p-4, 0x1.56d4c00000000p-4, 0x1.e663580000000p-8, -0x1.6f41960000000p-7, -0x1.a6ce760000000p-4, 0x1.5cc8a40000000p-3, -0x1.3febc40000000p-3, 0x1.08f9660000000p-3, 0x1.6f46de0000000p-3, -0x1.4bf6360000000p-5}
, {0x1.6ce28c0000000p-3, -0x1.cc76be0000000p-4, -0x1.eee6e20000000p-7, 0x1.4befa80000000p-3, 0x1.f50f900000000p-5, -0x1.a01b720000000p-5, 0x1.e76f460000000p-4, 0x1.3eff220000000p-3, -0x1.f30bcc0000000p-6, 0x1.e2348a0000000p-4, 0x1.07110a0000000p-5, 0x1.b028ba0000000p-4, -0x1.08802c0000000p-3, 0x1.3f39fc0000000p-4, 0x1.60e56a0000000p-7, -0x1.5ae8c60000000p-6}
}
, {{0x1.77f1f60000000p-5, -0x1.2f17840000000p-7, 0x1.53cb460000000p-3, -0x1.6bba700000000p-4, 0x1.e0c0be0000000p-6, -0x1.41dde40000000p-5, 0x1.5d53b40000000p-3, 0x1.0c81320000000p-9, 0x1.621a0e0000000p-4, 0x1.164aa80000000p-6, -0x1.042e120000000p-3, -0x1.11a9be0000000p-7, -0x1.22bf460000000p-4, -0x1.8084600000000p-6, 0x1.79e82e0000000p-6, -0x1.2ea1560000000p-4}
, {0x1.35fcfa0000000p-3, -0x1.2da2ea0000000p-4, 0x1.f6f1c40000000p-4, -0x1.973d7e0000000p-4, 0x1.2c86600000000p-7, -0x1.9139a00000000p-5, -0x1.5880220000000p-4, 0x1.7fcb260000000p-5, -0x1.d4f29c0000000p-5, 0x1.0cef4a0000000p-5, -0x1.3fe3360000000p-4, 0x1.496d2e0000000p-3, 0x1.a5b0500000000p-4, -0x1.453bf00000000p-6, 0x1.b1a6460000000p-5, 0x1.032aec0000000p-4}
, {0x1.3547000000000p-7, 0x1.e630f60000000p-4, -0x1.30cfa80000000p-7, 0x1.6404aa0000000p-3, -0x1.0d35000000000p-3, -0x1.6cff960000000p-7, 0x1.0ab7c20000000p-4, 0x1.2511960000000p-8, 0x1.ae5ffa0000000p-4, -0x1.cb6d7c0000000p-4, -0x1.c82b6e0000000p-4, -0x1.f8895e0000000p-6, -0x1.d902640000000p-4, -0x1.0e4c340000000p-9, 0x1.2d33ee0000000p-3, -0x1.4f0e100000000p-4}
, {0x1.2e7c7e0000000p-3, 0x1.8c2e860000000p-4, 0x1.5309cc0000000p-4, -0x1.41dcde0000000p-4, 0x1.3c25a20000000p-3, -0x1.e121820000000p-5, -0x1.27f45e0000000p-4, 0x1.46849e0000000p-5, 0x1.c768520000000p-7, -0x1.ed08000000000p-6, 0x1.42f1460000000p-3, 0x1.1ef3ee0000000p-5, -0x1.19298e0000000p-4, 0x1.20d8b40000000p-3, 0x1.0082a80000000p-4, 0x1.0b2bce0000000p-7}
}
, {{-0x1.4989860000000p-3, -0x1.ca64ee0000000p-5, 0x1.0e148a0000000p-5, 0x1.3ac0b00000000p-4, 0x1.2c6d540000000p-3, -0x1.b884340000000p-4, 0x1.d8abdc0000000p-4, 0x1.218a820000000p-4, -0x1.c57a700000000p-4, 0x1.2128a00000000p-7, -0x1.bccc440000000p-5, 0x1.8490a00000000p-4, 0x1.4207d60000000p-3, 0x1.f3f0980000000p-4, 0x1.8da2440000000p-5, 0x1.b2beec0000000p-4}
, {-0x1.da39c40000000p-5, 0x1.2fbe740000000p-4, -0x1.d2453e0000000p-4, 0x1.1f989e0000000p-6, -0x1.c30e4e0000000p-4, 0x1.a790e00000000p-5, -0x1.c814260000000p-4, 0x1.2f3ad20000000p-3, 0x1.9654a20000000p-4, 0x1.8afeba0000000p-5, 0x1.f7f2080000000p-7, -0x1.6c51b20000000p-4, 0x1.159dbc0000000p-3, 0x1.b48c5c0000000p-4, -0x1.cbcdf40000000p-5, 0x1.0c5cd80000000p-3}
, {-0x1.3b17280000000p-3, -0x1.95579a0000000p-4, -0x1.0280e60000000p-4, -0x1.19ca3e0000000p-4, 0x1.339f260000000p-3, -0x1.fd51480000000p-5, -0x1.3fafe20000000p-4, 0x1.0bb6300000000p-3, -0x1.de6e220000000p-4, -0x1.2ee9220000000p-3, 0x1.5116c40000000p-7, 0x1.7f1aaa0000000p-3, 0x1.c51d0e0000000p-5, 0x1.5b474e0000000p-3, -0x1.c9b7280000000p-4, -0x1.1688d60000000p-3}
, {0x1.22658c0000000p-3, -0x1.b955340000000p-7, -0x1.5dff660000000p-5, -0x1.59867e0000000p-4, 0x1.2142060000000p-3, -0x1.bf32f00000000p-4, -0x1.1c0acc0000000p-4, -0x1.4622520000000p-5, -0x1.0558180000000p-5, -0x1.5e8e2c0000000p-4, -0x1.ed59040000000p-5, 0x1.3411680000000p-7, 0x1.28149e0000000p-4, 0x1.6177140000000p-4, 0x1.447b6c0000000p-3, -0x1.1ea2700000000p-4}
}
}
;

#undef INPUT_CHANNELS
#undef CONV_FILTERS
#undef CONV_KERNEL_SIZE
#undef CONV_GROUPS