/**
  ******************************************************************************
  * @file    weights/conv1d.cc
  * @author  Pierre-Emmanuel Novac <penovac@unice.fr>, LEAT, CNRS, Université Côte d'Azur, France
  * @version 1.0.0
  * @date    24 march 2020
  * @brief   Template generating plain C code for the implementation of Convolutional Neural Networks on MCU
  */

#include <stdint.h>

#define INPUT_CHANNELS    32
#define CONV_FILTERS      64
#define CONV_KERNEL_SIZE  2
#define CONV_GROUPS       1


const float  conv1d_31_bias[CONV_FILTERS] = {0x1.6213600000000p-4, 0x1.2d5d500000000p-4, -0x1.2cb0c20000000p-3, 0x1.70905a0000000p-6, 0x1.0a6ca00000000p-5, -0x1.4000840000000p-4, 0x1.152c3a0000000p-4, -0x1.6139bc0000000p-5, 0x1.a215e40000000p-6, -0x1.4f92200000000p-3, 0x1.8b5bfe0000000p-4, 0x1.bb888c0000000p-5, -0x1.0314ae0000000p-7, 0x1.736ab40000000p-4, 0x1.33009e0000000p-4, 0x1.1748640000000p-4, 0x1.df95700000000p-5, 0x1.c078460000000p-5, 0x1.58c6600000000p-4, 0x1.f5af220000000p-5, -0x1.e92b920000000p-5, 0x1.1eece40000000p-4, 0x1.2c05980000000p-4, -0x1.46e11e0000000p-3, 0x1.faf0380000000p-6, -0x1.f3a90a0000000p-6, 0x1.072f440000000p-9, -0x1.12f9a60000000p-4, 0x1.c6b5de0000000p-5, -0x1.2753e20000000p-6, 0x1.3069c40000000p-5, 0x1.bc69720000000p-5, -0x1.06fc3e0000000p-6, -0x1.7345ae0000000p-5, -0x1.4568640000000p-8, 0x1.9efbc40000000p-8, -0x1.72ba900000000p-5, -0x1.5f1a100000000p-5, 0x1.2e5e5a0000000p-5, 0x1.d620080000000p-6, -0x1.f682e00000000p-6, -0x1.4041640000000p-6, -0x1.9c83720000000p-7, 0x1.46d4a00000000p-5, -0x1.197c3e0000000p-6, 0x1.26bc360000000p-4, 0x1.baecf80000000p-18, 0x1.9c8d2e0000000p-4, -0x1.43fd5e0000000p-4, 0x1.eb69cc0000000p-7, 0x1.c8af440000000p-6, 0x1.e286bc0000000p-5, 0x1.2414e40000000p-4, -0x1.08fa7c0000000p-5, 0x1.b4d6a00000000p-10, 0x1.92bdd80000000p-4, 0x1.2bfe260000000p-5, 0x1.304b420000000p-5, 0x1.159a1e0000000p-5, 0x1.38a5f00000000p-4, -0x1.2c83740000000p-2, -0x1.1fef920000000p-2, 0x1.58d3f60000000p-5, 0x1.948b540000000p-8}
;

const float  conv1d_31_kernel[CONV_FILTERS][CONV_KERNEL_SIZE][INPUT_CHANNELS / CONV_GROUPS] = {{{-0x1.24cf260000000p-4, 0x1.7e76e80000000p-3, 0x1.0399320000000p-4, -0x1.0208160000000p-3, 0x1.07381c0000000p-6, 0x1.1b8c960000000p-3, 0x1.18f2420000000p-3, -0x1.f254240000000p-6, -0x1.629e0e0000000p-3, 0x1.0805a80000000p-3, -0x1.57eaae0000000p-3, 0x1.32dd9a0000000p-3, -0x1.71d87c0000000p-3, 0x1.76a8d20000000p-3, 0x1.5b3a4a0000000p-4, -0x1.debdce0000000p-8, 0x1.8364f60000000p-5, 0x1.11bebc0000000p-5, -0x1.2563760000000p-3, -0x1.0cef380000000p-3, -0x1.0b39860000000p-5, -0x1.a391ce0000000p-4, 0x1.a94cb00000000p-3, 0x1.b8f3480000000p-4, 0x1.011a7e0000000p-4, -0x1.dfa8060000000p-5, 0x1.ecd4a40000000p-6, 0x1.fab4120000000p-5, -0x1.011e500000000p-4, 0x1.5fc6b00000000p-7, 0x1.14b9b00000000p-5, 0x1.68f9d00000000p-6}
, {0x1.a7d1460000000p-4, -0x1.2913a00000000p-4, 0x1.b252a40000000p-4, 0x1.a9b5380000000p-5, 0x1.6daf140000000p-3, 0x1.3dd0e00000000p-4, 0x1.602f140000000p-4, -0x1.d60c320000000p-4, 0x1.316f4c0000000p-4, 0x1.b23c800000000p-4, 0x1.bf03840000000p-5, 0x1.0f3e3a0000000p-7, -0x1.1459e80000000p-4, 0x1.2aed8c0000000p-5, -0x1.64768e0000000p-3, -0x1.add1120000000p-5, 0x1.547a340000000p-3, 0x1.038fc80000000p-3, -0x1.01d3f60000000p-4, -0x1.8ca3b00000000p-3, 0x1.55aab80000000p-5, -0x1.c13c120000000p-3, 0x1.a1b4460000000p-4, -0x1.b059420000000p-3, -0x1.a74cd40000000p-5, 0x1.d558b40000000p-3, 0x1.f4918a0000000p-6, -0x1.e79b820000000p-6, -0x1.16e7700000000p-4, 0x1.26d3ea0000000p-4, 0x1.0b6a620000000p-3, -0x1.00a98c0000000p-4}
}
, {{0x1.8888980000000p-3, 0x1.d377980000000p-4, 0x1.ae148a0000000p-3, -0x1.349bf60000000p-4, -0x1.d792a60000000p-5, 0x1.c5ac5e0000000p-7, 0x1.1551340000000p-4, 0x1.f933b60000000p-7, 0x1.b443ca0000000p-6, 0x1.c6c2de0000000p-4, 0x1.88eff60000000p-3, 0x1.4b4a080000000p-3, 0x1.26cc000000000p-7, 0x1.1456940000000p-4, 0x1.3bb4900000000p-6, -0x1.d08fb80000000p-3, -0x1.e9a0160000000p-4, -0x1.1ae9c80000000p-3, -0x1.83afe80000000p-3, 0x1.7855b60000000p-6, 0x1.6776c80000000p-4, 0x1.e2c36a0000000p-4, 0x1.184eb80000000p-3, -0x1.2236580000000p-3, -0x1.c174d00000000p-7, 0x1.48327c0000000p-4, 0x1.6eea4c0000000p-4, -0x1.1de20c0000000p-2, 0x1.1e5cc40000000p-6, 0x1.6c8df60000000p-3, 0x1.3eafea0000000p-5, -0x1.2feca00000000p-2}
, {0x1.d4b0d20000000p-4, 0x1.4c95140000000p-3, 0x1.cafdc00000000p-8, -0x1.a78e180000000p-4, -0x1.0c492a0000000p-4, 0x1.b2678a0000000p-4, -0x1.8138fa0000000p-6, -0x1.eb4e080000000p-5, -0x1.88c8100000000p-5, 0x1.39a0d40000000p-4, 0x1.a2b3f20000000p-3, -0x1.c8df9e0000000p-5, 0x1.4458840000000p-5, 0x1.3ace520000000p-2, -0x1.7fcd920000000p-4, 0x1.9c405c0000000p-6, 0x1.966d780000000p-4, -0x1.9038240000000p-3, 0x1.b2b8080000000p-9, 0x1.ba1fc60000000p-4, 0x1.3c00ee0000000p-4, 0x1.97ebd20000000p-4, 0x1.098c8c0000000p-3, -0x1.6fb43e0000000p-4, 0x1.168acc0000000p-3, -0x1.6a4d800000000p-4, -0x1.8252160000000p-4, -0x1.707e780000000p-4, -0x1.d7589c0000000p-4, 0x1.7ab4f40000000p-3, -0x1.5287cc0000000p-4, -0x1.402b460000000p-3}
}
, {{-0x1.3c8c980000000p-3, 0x1.5381ac0000000p-5, 0x1.4c46020000000p-5, 0x1.864d860000000p-3, -0x1.019ebe0000000p-4, -0x1.a830f40000000p-6, 0x1.2046100000000p-2, 0x1.560b4a0000000p-3, -0x1.03b58c0000000p-10, -0x1.8ee3540000000p-3, -0x1.3085da0000000p-6, -0x1.4374520000000p-4, 0x1.2ad45a0000000p-4, 0x1.729b760000000p-6, -0x1.87a1c60000000p-3, 0x1.3694ac0000000p-2, -0x1.26c1a20000000p-3, 0x1.52674c0000000p-4, 0x1.8b1e000000000p-4, 0x1.64250e0000000p-3, -0x1.fd94ac0000000p-9, 0x1.dd2eae0000000p-4, -0x1.467a700000000p-6, -0x1.08361e0000000p-5, 0x1.7845980000000p-5, -0x1.09bc8c0000000p-3, 0x1.b08b620000000p-3, 0x1.c209b40000000p-5, 0x1.e542fa0000000p-4, 0x1.dd616c0000000p-4, -0x1.4cbe100000000p-3, 0x1.df968a0000000p-3}
, {-0x1.03fe5c0000000p-3, -0x1.88cf9e0000000p-6, -0x1.5a89240000000p-3, 0x1.f762c80000000p-7, 0x1.a001a20000000p-4, 0x1.2f6f260000000p-9, 0x1.b9f6c40000000p-3, 0x1.f0fb080000000p-4, -0x1.1d13620000000p-3, -0x1.987eae0000000p-3, 0x1.01ad520000000p-3, -0x1.d700a80000000p-3, -0x1.a5b75a0000000p-4, -0x1.aaae3c0000000p-4, -0x1.f836520000000p-4, 0x1.13e0560000000p-3, -0x1.32183e0000000p-6, 0x1.8c98b00000000p-4, 0x1.1fdd7e0000000p-3, 0x1.29d8f80000000p-5, 0x1.8cb05c0000000p-4, -0x1.3cf2d60000000p-4, -0x1.a6a0a00000000p-4, -0x1.841fb40000000p-3, 0x1.7410be0000000p-4, -0x1.0027640000000p-2, 0x1.861d960000000p-3, -0x1.10f5760000000p-5, -0x1.a463740000000p-5, 0x1.183fda0000000p-3, -0x1.5b18c80000000p-6, 0x1.6b18ac0000000p-3}
}
, {{-0x1.b342f60000000p-3, -0x1.78475a0000000p-5, 0x1.00fbce0000000p-3, 0x1.8fac4e0000000p-3, -0x1.f653f40000000p-4, 0x1.17b7e80000000p-4, 0x1.e137680000000p-6, 0x1.0c6b500000000p-5, -0x1.a8739c0000000p-3, -0x1.c5e8f00000000p-3, -0x1.668ee80000000p-4, 0x1.1007f80000000p-4, 0x1.007fa00000000p-5, 0x1.8a51c20000000p-8, 0x1.61f82e0000000p-3, -0x1.7c8c6a0000000p-3, 0x1.45eaf60000000p-3, 0x1.8b873e0000000p-5, -0x1.76cb7c0000000p-3, -0x1.de451a0000000p-3, -0x1.153ad00000000p-5, 0x1.15f6580000000p-2, 0x1.00a8520000000p-3, -0x1.9e44640000000p-3, 0x1.fb03a40000000p-4, 0x1.244b820000000p-5, 0x1.a9c9d00000000p-4, 0x1.1eadf00000000p-3, 0x1.992f380000000p-5, 0x1.b7b4c80000000p-5, 0x1.468cb60000000p-5, 0x1.90d1660000000p-4}
, {-0x1.f3a5aa0000000p-7, 0x1.29af600000000p-6, 0x1.56d4f40000000p-3, -0x1.48de220000000p-3, 0x1.d3ccd80000000p-6, 0x1.8c7bf60000000p-5, 0x1.b3bafa0000000p-3, -0x1.47700e0000000p-3, 0x1.62052a0000000p-6, -0x1.b8bcd00000000p-3, -0x1.3a9ca40000000p-3, 0x1.4774dc0000000p-4, 0x1.0119400000000p-3, 0x1.1785ec0000000p-4, 0x1.8b8af40000000p-5, -0x1.d004480000000p-3, 0x1.2b92f00000000p-4, 0x1.1beed20000000p-4, 0x1.9df03c0000000p-5, -0x1.1cb3700000000p-3, -0x1.3914d80000000p-4, 0x1.5b30080000000p-3, 0x1.3b7fec0000000p-3, 0x1.a9e1fc0000000p-4, -0x1.2cd7100000000p-12, 0x1.2b0af80000000p-3, 0x1.8a55180000000p-5, 0x1.0552ba0000000p-2, 0x1.8686de0000000p-9, -0x1.10ffa40000000p-6, -0x1.b8095e0000000p-4, 0x1.dd6b020000000p-4}
}
, {{-0x1.f3083a0000000p-4, -0x1.b4a5e40000000p-4, 0x1.544db40000000p-2, -0x1.ecefe00000000p-4, 0x1.4c2e780000000p-4, 0x1.fb3b800000000p-3, -0x1.1daf840000000p-6, -0x1.f031c60000000p-3, 0x1.65cfa40000000p-5, -0x1.a984960000000p-3, 0x1.4893040000000p-4, -0x1.9a6c680000000p-3, -0x1.4981600000000p-3, 0x1.8e1c980000000p-2, 0x1.e7752a0000000p-7, -0x1.1207500000000p-2, -0x1.1f7e5e0000000p-3, -0x1.ca39ba0000000p-4, -0x1.90902e0000000p-5, -0x1.7548f60000000p-8, 0x1.1540420000000p-4, -0x1.3b70460000000p-6, 0x1.75c9f80000000p-3, 0x1.b8eecc0000000p-4, 0x1.c9e4ca0000000p-4, -0x1.0bc9a20000000p-4, 0x1.d4248e0000000p-3, -0x1.a0fca00000000p-8, 0x1.e6d24c0000000p-5, 0x1.9110600000000p-3, 0x1.d896e00000000p-3, 0x1.5a3d2c0000000p-3}
, {-0x1.da40800000000p-4, -0x1.c57bf20000000p-4, 0x1.009b460000000p-2, 0x1.b253620000000p-8, -0x1.96e1020000000p-5, 0x1.fddad20000000p-4, 0x1.3812440000000p-3, -0x1.2c91ca0000000p-2, -0x1.f3e5c80000000p-4, -0x1.b746e20000000p-3, 0x1.2135a00000000p-3, 0x1.d2d2ce0000000p-4, -0x1.ed88fe0000000p-5, 0x1.0d739e0000000p-2, 0x1.2d1ae40000000p-5, -0x1.3f98920000000p-3, -0x1.39efd00000000p-4, 0x1.268aee0000000p-3, -0x1.3677340000000p-6, -0x1.a1183c0000000p-3, 0x1.66a05a0000000p-3, 0x1.84f66e0000000p-5, 0x1.00e1b80000000p-3, -0x1.fd88e80000000p-3, -0x1.2ba11c0000000p-5, -0x1.cc61e60000000p-5, 0x1.7d88440000000p-4, 0x1.4cecb80000000p-3, 0x1.49ec3c0000000p-5, -0x1.97b8c00000000p-4, -0x1.abfb560000000p-5, 0x1.a831700000000p-6}
}
, {{0x1.ee7a000000000p-4, 0x1.98a3f20000000p-4, -0x1.c7adb40000000p-3, 0x1.1f56c60000000p-4, 0x1.581f800000000p-3, -0x1.a1585e0000000p-3, 0x1.9dfbf40000000p-4, 0x1.d8091e0000000p-3, 0x1.22ad120000000p-3, -0x1.0d47ae0000000p-3, 0x1.99b3620000000p-5, 0x1.58155e0000000p-5, 0x1.6ef3f40000000p-3, -0x1.16d6bc0000000p-3, -0x1.e7b9680000000p-4, -0x1.5a85100000000p-3, -0x1.e4d2fc0000000p-4, 0x1.bc45320000000p-3, 0x1.9042760000000p-3, 0x1.b29dc40000000p-8, -0x1.a24e440000000p-4, 0x1.c9b7400000000p-4, 0x1.358aa80000000p-3, -0x1.7cf95e0000000p-3, 0x1.f8be580000000p-3, -0x1.26889a0000000p-3, -0x1.8f2d360000000p-3, 0x1.0fd40a0000000p-3, 0x1.08948e0000000p-5, 0x1.13bda60000000p-3, 0x1.93cfca0000000p-4, -0x1.720f420000000p-6}
, {0x1.d667920000000p-4, 0x1.bd64320000000p-5, -0x1.d79e4c0000000p-4, -0x1.0482500000000p-3, -0x1.2520580000000p-4, -0x1.b5d9320000000p-4, -0x1.649fc80000000p-3, 0x1.0640e80000000p-7, -0x1.34b2bc0000000p-4, -0x1.b97a420000000p-4, -0x1.7c840a0000000p-4, 0x1.3192f20000000p-5, 0x1.b14c040000000p-3, -0x1.2d05f00000000p-3, -0x1.96bbc60000000p-4, -0x1.c8d0c20000000p-4, 0x1.b942160000000p-4, 0x1.78e2980000000p-3, 0x1.439fca0000000p-3, -0x1.ccc01a0000000p-5, -0x1.d682700000000p-4, 0x1.9680c20000000p-4, -0x1.998bf40000000p-4, -0x1.08fc2e0000000p-2, 0x1.184f500000000p-3, -0x1.9a358c0000000p-5, 0x1.1d28f20000000p-3, -0x1.8361780000000p-4, 0x1.5d6bbe0000000p-4, 0x1.bb497e0000000p-4, 0x1.0867000000000p-3, 0x1.fcca180000000p-4}
}
, {{0x1.5d2d700000000p-5, -0x1.6b953c0000000p-5, -0x1.c1489e0000000p-5, 0x1.3ca8b40000000p-4, -0x1.13a6740000000p-4, -0x1.e8dbfe0000000p-4, -0x1.5b52a00000000p-2, 0x1.149f180000000p-3, -0x1.3448500000000p-2, 0x1.48cac40000000p-2, 0x1.8defa20000000p-3, -0x1.3cf8500000000p-3, 0x1.bf708c0000000p-4, 0x1.039ca60000000p-3, -0x1.c5e6800000000p-4, -0x1.8ed5ca0000000p-5, -0x1.8a818e0000000p-5, 0x1.13eef00000000p-3, 0x1.dbe6bc0000000p-4, -0x1.bbe2f60000000p-7, -0x1.18b92a0000000p-2, -0x1.0d35880000000p-6, 0x1.7122f40000000p-6, -0x1.e7d2f20000000p-3, -0x1.20fdba0000000p-4, 0x1.d8190c0000000p-5, -0x1.8a00d00000000p-2, -0x1.b4989e0000000p-3, -0x1.38e8be0000000p-4, 0x1.e55eee0000000p-3, 0x1.e0bd940000000p-4, -0x1.08a2ec0000000p-4}
, {-0x1.5831180000000p-3, 0x1.e3c79a0000000p-4, 0x1.8f7ca60000000p-7, 0x1.48a40a0000000p-7, 0x1.e53c160000000p-7, 0x1.96afda0000000p-8, -0x1.cf34bc0000000p-4, -0x1.25b8b20000000p-4, -0x1.4424700000000p-5, 0x1.1bcdc20000000p-2, -0x1.cb2d0c0000000p-5, 0x1.8f75c20000000p-10, -0x1.83ddf80000000p-4, 0x1.97d93e0000000p-2, -0x1.ee0a2c0000000p-4, -0x1.17bdcc0000000p-2, 0x1.48da320000000p-5, -0x1.7eab160000000p-3, 0x1.7c7c000000000p-4, 0x1.2ebaec0000000p-3, -0x1.488abe0000000p-4, -0x1.0e36140000000p-5, -0x1.b01bf80000000p-4, -0x1.55cb9c0000000p-4, -0x1.0df9a40000000p-5, -0x1.3c0ab20000000p-5, -0x1.caa4720000000p-2, 0x1.60d1200000000p-6, 0x1.103bfe0000000p-3, 0x1.bed6340000000p-7, -0x1.a791420000000p-3, 0x1.0669620000000p-3}
}
, {{0x1.6127600000000p-5, 0x1.6fd1c80000000p-3, -0x1.b20c500000000p-3, 0x1.779c8a0000000p-4, -0x1.d741b60000000p-4, 0x1.178f0a0000000p-4, -0x1.4b3d7e0000000p-2, -0x1.2d23600000000p-2, 0x1.a3bbe00000000p-3, -0x1.ed433c0000000p-5, 0x1.8699820000000p-3, -0x1.520ec00000000p-3, 0x1.0dcea00000000p-7, -0x1.ad7e1e0000000p-3, -0x1.01a1480000000p-4, -0x1.5123640000000p-3, -0x1.e29d840000000p-9, 0x1.96ed420000000p-3, 0x1.2bbb1c0000000p-3, -0x1.69fffc0000000p-5, -0x1.4f40220000000p-3, -0x1.108da60000000p-3, -0x1.4e84da0000000p-7, -0x1.7a9d720000000p-6, -0x1.2260d40000000p-3, -0x1.5bbdfc0000000p-4, 0x1.efb9fe0000000p-6, 0x1.aac4c20000000p-3, 0x1.0188b20000000p-3, 0x1.d04c140000000p-8, 0x1.3c99be0000000p-3, -0x1.34530a0000000p-3}
, {0x1.568d880000000p-4, 0x1.9f8bcc0000000p-3, 0x1.8e86f80000000p-4, -0x1.8ba6120000000p-3, 0x1.2961520000000p-3, -0x1.5dcd580000000p-5, -0x1.0648620000000p-3, -0x1.24acd40000000p-6, 0x1.0ac8f40000000p-2, -0x1.013bb60000000p-5, 0x1.2098940000000p-7, 0x1.42ac380000000p-3, 0x1.0d69ba0000000p-4, -0x1.7965f60000000p-4, -0x1.396f240000000p-5, -0x1.de26100000000p-4, -0x1.49ea4a0000000p-8, 0x1.bf76d20000000p-3, -0x1.586a160000000p-4, 0x1.46b8fe0000000p-4, -0x1.57527c0000000p-4, -0x1.d8d3ba0000000p-3, 0x1.76850e0000000p-5, -0x1.c3ff700000000p-4, 0x1.0fcdae0000000p-4, 0x1.d533700000000p-3, 0x1.a6cc4c0000000p-5, -0x1.9cbab00000000p-3, -0x1.4d83960000000p-5, -0x1.8aca300000000p-3, 0x1.3bba360000000p-3, -0x1.b312460000000p-3}
}
, {{-0x1.02fef20000000p-2, -0x1.2372920000000p-5, 0x1.0424400000000p-3, -0x1.f31f360000000p-3, -0x1.90eb340000000p-4, -0x1.16168c0000000p-3, 0x1.1a364e0000000p-2, 0x1.f7fe800000000p-4, 0x1.b825ee0000000p-4, 0x1.4d3c7e0000000p-7, -0x1.e8a9a40000000p-5, -0x1.3f0caa0000000p-6, 0x1.14c4020000000p-4, -0x1.d97f840000000p-2, -0x1.139d6a0000000p-2, 0x1.c01f7a0000000p-5, 0x1.f3f7fc0000000p-3, -0x1.29a7440000000p-4, -0x1.6d79540000000p-5, -0x1.45ea8a0000000p-3, 0x1.2e07d00000000p-4, 0x1.8204420000000p-5, -0x1.0bbb940000000p-2, -0x1.f3daee0000000p-4, -0x1.969ed80000000p-4, 0x1.26e79e0000000p-5, 0x1.0919b80000000p-3, -0x1.2521f00000000p-6, 0x1.596af80000000p-3, 0x1.d6319c0000000p-4, 0x1.5f77d40000000p-4, -0x1.9977e60000000p-7}
, {0x1.2f7dce0000000p-6, -0x1.787f380000000p-10, 0x1.ea17be0000000p-4, 0x1.2064ae0000000p-4, 0x1.dafa3a0000000p-4, 0x1.87d17c0000000p-3, -0x1.72d3420000000p-3, -0x1.78ba8e0000000p-5, 0x1.33b2620000000p-2, -0x1.4109fc0000000p-2, 0x1.5878020000000p-3, 0x1.2022a40000000p-3, 0x1.d0cb9a0000000p-8, -0x1.e32b800000000p-3, -0x1.091f000000000p-3, -0x1.f4efce0000000p-4, -0x1.36bd060000000p-5, -0x1.957e2c0000000p-4, 0x1.49a3800000000p-5, 0x1.f7c0080000000p-8, 0x1.50a4120000000p-4, -0x1.10f1ea0000000p-3, -0x1.9947f00000000p-3, -0x1.a020c20000000p-3, -0x1.c892c60000000p-5, -0x1.93ca300000000p-3, 0x1.56573a0000000p-2, 0x1.5241680000000p-3, 0x1.589f680000000p-3, 0x1.260c8c0000000p-3, -0x1.2e48920000000p-3, 0x1.86acd60000000p-3}
}
, {{-0x1.2118f60000000p-5, -0x1.2c157e0000000p-3, -0x1.9a720e0000000p-3, 0x1.01eb400000000p-2, 0x1.78d3ae0000000p-3, 0x1.1566380000000p-2, -0x1.43bb360000000p-4, -0x1.df9c140000000p-5, 0x1.08395c0000000p-4, -0x1.5fc6d60000000p-4, 0x1.b8ef940000000p-3, 0x1.7ea4ec0000000p-3, -0x1.222ccc0000000p-4, 0x1.0563c40000000p-4, -0x1.17c6d40000000p-5, 0x1.0655de0000000p-6, -0x1.33c7780000000p-5, -0x1.2682f20000000p-4, -0x1.1572220000000p-4, -0x1.5e463e0000000p-4, -0x1.ffdbfe0000000p-5, -0x1.ec8f060000000p-5, -0x1.4f85c40000000p-3, -0x1.0983980000000p-4, -0x1.1a101e0000000p-3, 0x1.58a1ce0000000p-3, -0x1.3e8a8c0000000p-5, -0x1.4773720000000p-5, 0x1.1baf1e0000000p-4, -0x1.9f8c100000000p-5, 0x1.08c9e00000000p-3, -0x1.1cf73a0000000p-3}
, {-0x1.74068c0000000p-6, -0x1.35737e0000000p-3, -0x1.23b4ca0000000p-3, -0x1.3f89240000000p-5, -0x1.2504a80000000p-3, 0x1.b201ac0000000p-3, -0x1.0e9b5e0000000p-2, -0x1.522f200000000p-3, -0x1.839af40000000p-7, 0x1.3fce7a0000000p-4, -0x1.5e1d460000000p-5, 0x1.54aa960000000p-3, -0x1.cac7780000000p-5, -0x1.8aa2040000000p-4, -0x1.a1e1300000000p-3, 0x1.aff87e0000000p-5, 0x1.cb39340000000p-5, -0x1.dd16da0000000p-7, -0x1.91c4920000000p-6, 0x1.519ae00000000p-4, -0x1.a4f8980000000p-4, -0x1.ae20a40000000p-4, -0x1.e9ccd00000000p-3, -0x1.a56cec0000000p-4, -0x1.3700ca0000000p-3, 0x1.30753e0000000p-3, -0x1.4d49100000000p-5, -0x1.47b5d00000000p-3, 0x1.3d123e0000000p-3, -0x1.76a1080000000p-5, 0x1.9ec5780000000p-3, -0x1.22c5660000000p-3}
}
, {{0x1.8064440000000p-3, -0x1.611cd00000000p-4, 0x1.0695680000000p-3, -0x1.35ca5c0000000p-2, -0x1.5eabd40000000p-3, -0x1.c40f4c0000000p-4, -0x1.e49df00000000p-5, 0x1.da0dd60000000p-5, 0x1.124eca0000000p-3, -0x1.2404560000000p-7, 0x1.e17db00000000p-4, 0x1.86a78e0000000p-3, 0x1.4671900000000p-3, 0x1.49271a0000000p-3, 0x1.320b120000000p-6, -0x1.98a3ea0000000p-6, -0x1.6307840000000p-4, 0x1.31af320000000p-12, -0x1.9408160000000p-3, -0x1.1bc6f00000000p-6, -0x1.aaffd40000000p-4, -0x1.4804f80000000p-6, -0x1.bd34980000000p-4, 0x1.8c08460000000p-4, 0x1.b6cd040000000p-4, 0x1.fc21e20000000p-3, -0x1.12a9040000000p-3, -0x1.e865400000000p-5, 0x1.89e8800000000p-3, 0x1.311fa40000000p-5, -0x1.31399c0000000p-8, -0x1.24ae240000000p-3}
, {0x1.46dc2c0000000p-3, 0x1.ce5ea60000000p-4, 0x1.c9d8a00000000p-5, -0x1.32ab360000000p-2, -0x1.19cf8e0000000p-2, -0x1.27875a0000000p-2, 0x1.f295880000000p-7, 0x1.75c3ee0000000p-3, -0x1.320f500000000p-5, -0x1.2e241c0000000p-4, -0x1.b8ddb20000000p-5, -0x1.4900d60000000p-5, 0x1.0e5eaa0000000p-3, 0x1.c15fde0000000p-4, 0x1.aec2b00000000p-5, -0x1.1a1c3c0000000p-3, -0x1.45ad300000000p-3, -0x1.eb01e00000000p-4, -0x1.730cca0000000p-3, -0x1.f6c43a0000000p-4, 0x1.6257740000000p-3, -0x1.1297040000000p-4, -0x1.6eec040000000p-3, 0x1.b844840000000p-5, -0x1.cd44240000000p-4, 0x1.ee86dc0000000p-3, -0x1.2486ae0000000p-2, -0x1.52c5280000000p-4, 0x1.9128e80000000p-7, -0x1.56e1400000000p-4, -0x1.cbc18e0000000p-4, -0x1.b568ae0000000p-3}
}
, {{-0x1.3069fe0000000p-5, 0x1.8ded240000000p-4, 0x1.88c2b00000000p-3, -0x1.0faf840000000p-4, -0x1.debcce0000000p-6, -0x1.dc03a60000000p-3, 0x1.6469720000000p-3, 0x1.4caf340000000p-3, -0x1.dfca280000000p-6, 0x1.b36b240000000p-4, -0x1.d72c180000000p-5, 0x1.d356720000000p-4, 0x1.af9f4c0000000p-4, -0x1.1eb8100000000p-4, 0x1.d09f580000000p-5, 0x1.7575300000000p-5, 0x1.31a66e0000000p-3, 0x1.6649820000000p-3, 0x1.4c2c060000000p-4, -0x1.2789a20000000p-3, 0x1.261d6e0000000p-3, 0x1.6f08d20000000p-5, 0x1.8a53520000000p-6, -0x1.c28b160000000p-4, 0x1.12af4e0000000p-2, -0x1.7144960000000p-5, -0x1.418f4a0000000p-3, 0x1.0ffb040000000p-2, -0x1.6fb2560000000p-6, 0x1.7f08820000000p-3, 0x1.0c8a620000000p-4, -0x1.5c3ce80000000p-6}
, {0x1.00b0e20000000p-3, -0x1.0171580000000p-3, 0x1.3f413c0000000p-8, -0x1.243f280000000p-3, -0x1.3b01680000000p-7, -0x1.cef1000000000p-5, 0x1.6e7fb40000000p-2, 0x1.07e0fc0000000p-4, 0x1.44e5140000000p-7, -0x1.486cbe0000000p-4, 0x1.a037560000000p-4, -0x1.0d2f7e0000000p-4, 0x1.3f17b40000000p-3, 0x1.971ad00000000p-6, -0x1.de63200000000p-4, -0x1.b7c7180000000p-4, -0x1.8340600000000p-4, -0x1.9469120000000p-4, -0x1.55dc760000000p-3, -0x1.7ffce40000000p-5, 0x1.c8a2e80000000p-7, -0x1.0466420000000p-4, 0x1.56cfa20000000p-6, -0x1.c7539c0000000p-4, 0x1.318dbe0000000p-3, -0x1.5aa92a0000000p-5, 0x1.8143640000000p-6, 0x1.3538de0000000p-3, 0x1.7ce5780000000p-4, 0x1.2a2db80000000p-7, 0x1.359a640000000p-3, -0x1.60fa8e0000000p-2}
}
, {{0x1.7ca7500000000p-6, -0x1.b96f740000000p-3, 0x1.6398220000000p-3, 0x1.f056600000000p-5, 0x1.b137840000000p-4, -0x1.c234540000000p-5, -0x1.c771460000000p-7, 0x1.54a26e0000000p-3, 0x1.fdf0ce0000000p-4, 0x1.013e3c0000000p-4, -0x1.5735d20000000p-3, 0x1.f3be360000000p-6, 0x1.aedd3a0000000p-4, -0x1.b949460000000p-3, -0x1.038c640000000p-4, 0x1.5a49d60000000p-3, 0x1.2aef540000000p-4, -0x1.a4a1b40000000p-4, 0x1.489d5a0000000p-7, -0x1.f06ea20000000p-4, 0x1.0143800000000p-2, -0x1.250b140000000p-11, 0x1.0b6c9e0000000p-3, 0x1.53da360000000p-4, -0x1.08bed80000000p-6, -0x1.cda6ce0000000p-5, 0x1.1352220000000p-3, 0x1.f2c9da0000000p-7, 0x1.73b7a40000000p-4, -0x1.225e660000000p-2, -0x1.0e03960000000p-2, -0x1.5049020000000p-4}
, {0x1.322e3e0000000p-4, 0x1.0efa460000000p-3, -0x1.2613640000000p-4, -0x1.a706ba0000000p-5, 0x1.d4c6020000000p-4, -0x1.3c3dd00000000p-4, 0x1.eac6840000000p-4, 0x1.9998300000000p-3, -0x1.71e7ea0000000p-3, 0x1.09c7820000000p-3, -0x1.e634140000000p-6, 0x1.07477e0000000p-4, 0x1.5292880000000p-4, 0x1.b2a6620000000p-4, 0x1.afa8940000000p-5, -0x1.b3461c0000000p-4, 0x1.daff560000000p-4, 0x1.da3e860000000p-4, 0x1.4387a40000000p-3, 0x1.babae00000000p-10, 0x1.b922200000000p-4, -0x1.40249a0000000p-2, 0x1.f898300000000p-3, 0x1.be73ba0000000p-4, 0x1.a3e4780000000p-5, 0x1.5f89a60000000p-4, -0x1.65b9e20000000p-2, -0x1.6d14e40000000p-3, -0x1.81236c0000000p-3, -0x1.978ab00000000p-3, -0x1.ac119e0000000p-3, 0x1.afd3f20000000p-6}
}
, {{0x1.d0dff00000000p-6, -0x1.cac1440000000p-4, 0x1.abb9040000000p-3, -0x1.1a473e0000000p-3, -0x1.92321e0000000p-3, 0x1.30f69e0000000p-4, 0x1.8653000000000p-3, 0x1.6bbd100000000p-4, 0x1.c8e67c0000000p-4, -0x1.693cfc0000000p-4, 0x1.14db660000000p-3, -0x1.0503820000000p-4, -0x1.afcfd00000000p-4, 0x1.2feda80000000p-2, -0x1.4c245a0000000p-3, 0x1.028b800000000p-5, -0x1.8f69440000000p-4, -0x1.b46b260000000p-6, -0x1.445de20000000p-3, -0x1.bdc5000000000p-4, 0x1.49f5c40000000p-3, 0x1.f213f80000000p-3, 0x1.2c40200000000p-3, -0x1.1104fa0000000p-2, 0x1.6464820000000p-2, -0x1.c2ccb00000000p-4, 0x1.a7fc280000000p-6, 0x1.caadc20000000p-5, -0x1.ebd5040000000p-4, 0x1.652c6a0000000p-4, -0x1.37df980000000p-3, -0x1.9627640000000p-7}
, {0x1.c9465a0000000p-4, 0x1.91fd3a0000000p-3, -0x1.56713c0000000p-4, -0x1.4d17140000000p-3, 0x1.7c705a0000000p-6, 0x1.159f720000000p-9, 0x1.baf8680000000p-3, 0x1.373cd80000000p-4, -0x1.767dca0000000p-3, -0x1.49def00000000p-4, 0x1.6725b40000000p-3, 0x1.90d3ec0000000p-4, -0x1.dce3140000000p-5, 0x1.39cc780000000p-3, 0x1.cccd540000000p-6, 0x1.3ed1260000000p-4, -0x1.0cf2140000000p-3, -0x1.1cf3080000000p-5, 0x1.960ce40000000p-4, 0x1.9436ca0000000p-3, 0x1.705f280000000p-8, 0x1.0a09260000000p-4, 0x1.0ee4da0000000p-6, -0x1.41ea580000000p-6, -0x1.4760b40000000p-6, 0x1.aaadde0000000p-3, 0x1.9628c40000000p-3, -0x1.1c42d00000000p-7, -0x1.de0f520000000p-5, 0x1.655fd80000000p-4, -0x1.3d8bf00000000p-9, 0x1.b169080000000p-4}
}
, {{-0x1.05f4ce0000000p-3, -0x1.2089800000000p-3, -0x1.df49200000000p-6, -0x1.4e1ef00000000p-5, 0x1.f705920000000p-4, -0x1.d31ff60000000p-4, -0x1.39c8ee0000000p-3, -0x1.91a4180000000p-4, -0x1.4449aa0000000p-5, 0x1.ca60a00000000p-5, 0x1.c895ce0000000p-4, -0x1.4148240000000p-3, -0x1.1085b40000000p-3, 0x1.019d6e0000000p-4, -0x1.11b5540000000p-4, 0x1.64c2fe0000000p-3, 0x1.1d25c40000000p-4, -0x1.e71d1e0000000p-6, 0x1.d9a2ba0000000p-5, 0x1.eaf8ea0000000p-6, -0x1.fffac40000000p-4, -0x1.749c580000000p-3, 0x1.97b1980000000p-3, -0x1.4817b80000000p-5, -0x1.0e15020000000p-3, 0x1.551e540000000p-4, -0x1.52cc5c0000000p-5, 0x1.9029aa0000000p-6, 0x1.fb8fb20000000p-6, 0x1.4e6dae0000000p-7, 0x1.8fbcc80000000p-4, 0x1.3929ca0000000p-3}
, {-0x1.6c67f00000000p-5, 0x1.e0b62c0000000p-7, 0x1.a5612e0000000p-3, -0x1.cf0b2a0000000p-4, 0x1.1905b00000000p-5, -0x1.9ce47e0000000p-4, -0x1.b825f00000000p-4, -0x1.e6e5a20000000p-4, -0x1.1f161a0000000p-2, 0x1.ae38f80000000p-3, 0x1.82bfd40000000p-3, 0x1.0cbe440000000p-4, -0x1.01a8860000000p-4, -0x1.675b060000000p-4, 0x1.06bc960000000p-4, 0x1.ead0dc0000000p-4, 0x1.015ad20000000p-2, -0x1.b5aa580000000p-3, -0x1.72ac940000000p-5, 0x1.14c8b00000000p-3, 0x1.d751e40000000p-4, -0x1.22860c0000000p-6, -0x1.49c1ac0000000p-3, -0x1.5868b80000000p-3, -0x1.7737260000000p-3, -0x1.89b5100000000p-3, 0x1.a891020000000p-6, -0x1.c03b9c0000000p-5, 0x1.7328f60000000p-3, -0x1.f1c50e0000000p-3, -0x1.16e3180000000p-4, 0x1.24af880000000p-4}
}
, {{0x1.4147fa0000000p-3, -0x1.55ada80000000p-4, -0x1.dbc5560000000p-5, 0x1.b0d8660000000p-10, -0x1.937a540000000p-4, 0x1.9fc48e0000000p-5, -0x1.96b8740000000p-6, 0x1.dd113c0000000p-4, -0x1.1481aa0000000p-3, -0x1.3d091a0000000p-7, -0x1.1a4a2c0000000p-3, 0x1.61a7060000000p-4, -0x1.2e38b80000000p-7, -0x1.3998c20000000p-2, 0x1.582af00000000p-3, 0x1.f680b00000000p-6, 0x1.4157640000000p-4, 0x1.88fc320000000p-4, 0x1.46c0c60000000p-4, -0x1.2345460000000p-5, 0x1.eb10d80000000p-4, -0x1.0265720000000p-3, 0x1.2975600000000p-3, 0x1.8ad1d00000000p-5, 0x1.ea951c0000000p-4, 0x1.6c478e0000000p-5, -0x1.58c2d60000000p-4, 0x1.80e17e0000000p-4, 0x1.8446e40000000p-4, 0x1.2360360000000p-7, 0x1.ca01900000000p-5, -0x1.82a4ac0000000p-3}
, {-0x1.6d57d20000000p-7, 0x1.908db80000000p-4, -0x1.96408a0000000p-3, -0x1.b042de0000000p-4, -0x1.b2a93e0000000p-4, -0x1.1db6400000000p-3, 0x1.68793e0000000p-4, -0x1.aa00520000000p-4, -0x1.a80b480000000p-4, 0x1.2b2c440000000p-5, 0x1.1b49980000000p-3, -0x1.fad9420000000p-4, 0x1.3ce42a0000000p-4, -0x1.8c1cde0000000p-2, 0x1.d1fa7c0000000p-5, -0x1.c3c7720000000p-5, -0x1.97ffee0000000p-4, -0x1.352ffc0000000p-3, -0x1.3a05800000000p-3, -0x1.7fe9ae0000000p-5, -0x1.4660700000000p-3, -0x1.36bf7a0000000p-4, 0x1.89f0cc0000000p-4, 0x1.7473dc0000000p-4, 0x1.0da3080000000p-3, -0x1.fa88f60000000p-4, -0x1.0e5f420000000p-4, 0x1.32e81a0000000p-6, 0x1.fa864e0000000p-4, -0x1.51317e0000000p-4, -0x1.f91c4c0000000p-4, 0x1.59b3c40000000p-5}
}
, {{-0x1.92b6cc0000000p-4, 0x1.d042cc0000000p-5, -0x1.ad65a80000000p-5, -0x1.8c2b640000000p-4, -0x1.0fae6a0000000p-2, 0x1.b7f4d00000000p-6, -0x1.645c5c0000000p-4, -0x1.4247320000000p-3, -0x1.fa10ea0000000p-5, -0x1.3339900000000p-3, -0x1.1195f00000000p-7, -0x1.3465940000000p-3, -0x1.01c8f00000000p-2, 0x1.2c36820000000p-3, -0x1.e199060000000p-6, -0x1.13aebc0000000p-3, -0x1.7bb9f60000000p-4, -0x1.9e21680000000p-3, -0x1.f793f00000000p-3, -0x1.2d2d380000000p-5, 0x1.27fc640000000p-2, -0x1.1b207c0000000p-6, 0x1.019c6c0000000p-8, -0x1.a58dac0000000p-3, 0x1.07edae0000000p-3, 0x1.0df9640000000p-3, -0x1.19748a0000000p-2, 0x1.eb37420000000p-3, -0x1.0cad480000000p-3, 0x1.54f65e0000000p-6, -0x1.ad49060000000p-4, 0x1.0abf100000000p-3}
, {0x1.f2a6980000000p-6, 0x1.d8df000000000p-3, 0x1.632f300000000p-3, -0x1.09fb400000000p-5, 0x1.55b1d00000000p-3, -0x1.8b63300000000p-5, -0x1.79db000000000p-6, -0x1.10772e0000000p-4, 0x1.2024360000000p-2, -0x1.db6acc0000000p-4, -0x1.23c0340000000p-3, -0x1.b32d200000000p-5, -0x1.1866420000000p-4, -0x1.479e280000000p-5, 0x1.ed29b40000000p-3, 0x1.c2b45a0000000p-4, 0x1.9e72e00000000p-15, 0x1.7f007a0000000p-5, -0x1.4d96720000000p-3, 0x1.3c504e0000000p-2, 0x1.c9b8880000000p-4, 0x1.dfeb520000000p-3, 0x1.0d5d940000000p-3, 0x1.4983f20000000p-4, 0x1.0257400000000p-2, 0x1.6318a20000000p-3, -0x1.06caf60000000p-2, 0x1.7d29060000000p-3, 0x1.462baa0000000p-3, -0x1.943c3e0000000p-5, -0x1.c202a80000000p-3, -0x1.019c6a0000000p-3}
}
, {{0x1.8e19d40000000p-3, 0x1.3318740000000p-4, 0x1.e5dd040000000p-3, -0x1.4f4e520000000p-3, -0x1.51bec40000000p-3, -0x1.f52dde0000000p-6, -0x1.ff153c0000000p-4, 0x1.716dc80000000p-4, -0x1.5f36d00000000p-4, 0x1.0100980000000p-5, 0x1.9d32c60000000p-5, -0x1.2465100000000p-4, -0x1.5bdcde0000000p-6, 0x1.6542720000000p-4, 0x1.72345e0000000p-9, 0x1.73cae60000000p-3, -0x1.9583460000000p-4, -0x1.57e7400000000p-4, -0x1.ec1f680000000p-3, 0x1.a9e19c0000000p-4, 0x1.ce19020000000p-4, 0x1.a7bb080000000p-3, -0x1.b5a1cc0000000p-3, 0x1.225a9c0000000p-4, -0x1.a787080000000p-3, -0x1.8db58a0000000p-10, 0x1.c659b20000000p-6, -0x1.32f0060000000p-2, -0x1.c499f80000000p-4, -0x1.6be5200000000p-3, -0x1.7da5b80000000p-5, -0x1.9c20560000000p-3}
, {0x1.3b238a0000000p-3, 0x1.adb7a60000000p-7, -0x1.927b620000000p-6, 0x1.ee6fd60000000p-3, 0x1.d1b7760000000p-3, 0x1.3bf2e60000000p-4, -0x1.01ff920000000p-6, -0x1.dc1aac0000000p-3, 0x1.2144160000000p-3, -0x1.223a6e0000000p-4, 0x1.bfb5240000000p-3, -0x1.1cca340000000p-3, -0x1.0c51c60000000p-3, 0x1.dd1c620000000p-5, 0x1.c6a0a80000000p-8, 0x1.a663000000000p-3, -0x1.275e8a0000000p-6, -0x1.03d04c0000000p-5, -0x1.5bfe8c0000000p-5, -0x1.12fe720000000p-3, -0x1.d208fe0000000p-8, -0x1.2c2b840000000p-4, -0x1.280b060000000p-3, -0x1.3c6c740000000p-5, 0x1.e7161c0000000p-4, -0x1.0992e60000000p-4, -0x1.51d7900000000p-5, -0x1.0a47960000000p-3, 0x1.577c360000000p-4, -0x1.0120620000000p-2, 0x1.ee702a0000000p-3, 0x1.afa0380000000p-4}
}
, {{-0x1.26330e0000000p-3, 0x1.5d0c4e0000000p-3, -0x1.b996c20000000p-4, -0x1.1460a60000000p-3, 0x1.9000560000000p-6, -0x1.930cd60000000p-3, -0x1.43231e0000000p-4, -0x1.7143d40000000p-7, -0x1.de96480000000p-4, 0x1.59451a0000000p-6, -0x1.021c500000000p-3, 0x1.dd11740000000p-4, 0x1.72159c0000000p-4, 0x1.74e1b60000000p-2, 0x1.b3f2540000000p-3, 0x1.9cca1c0000000p-8, -0x1.3cefb20000000p-3, -0x1.9dcb360000000p-3, -0x1.2609800000000p-2, -0x1.e249da0000000p-3, 0x1.d68db20000000p-3, -0x1.b99bd00000000p-3, 0x1.5b35620000000p-4, 0x1.b892840000000p-5, 0x1.b7678c0000000p-4, 0x1.30d3400000000p-3, -0x1.009dd80000000p-6, -0x1.021c460000000p-2, -0x1.00c4d60000000p-5, -0x1.72e1140000000p-6, -0x1.60120e0000000p-3, -0x1.89d9f00000000p-4}
, {-0x1.f734b40000000p-11, 0x1.7f3a180000000p-3, 0x1.cf38ae0000000p-4, -0x1.d593e60000000p-4, 0x1.3040de0000000p-5, -0x1.a097120000000p-6, 0x1.ae38300000000p-3, 0x1.8fcd9e0000000p-3, -0x1.cd9f860000000p-3, 0x1.16b83a0000000p-3, 0x1.c4f2d20000000p-5, -0x1.cbe5500000000p-9, -0x1.c22d260000000p-4, -0x1.0943920000000p-5, 0x1.7481640000000p-3, -0x1.0928c40000000p-3, 0x1.5fec740000000p-5, -0x1.f824460000000p-5, -0x1.d6e11a0000000p-3, 0x1.7ded460000000p-5, -0x1.4d78e00000000p-4, -0x1.5d64dc0000000p-8, 0x1.a990bc0000000p-3, 0x1.107e540000000p-3, -0x1.cacc460000000p-5, -0x1.19cfb00000000p-4, 0x1.fcb1aa0000000p-4, 0x1.a836420000000p-4, -0x1.e980ae0000000p-5, 0x1.632f1c0000000p-4, 0x1.8255000000000p-3, 0x1.9be5740000000p-4}
}
, {{0x1.37ca940000000p-5, 0x1.0506a60000000p-5, -0x1.bd4e4c0000000p-4, 0x1.343eee0000000p-6, 0x1.477d360000000p-4, 0x1.214a120000000p-5, 0x1.da22520000000p-3, 0x1.43a4e40000000p-3, 0x1.d6bf8a0000000p-4, 0x1.56ef840000000p-3, -0x1.32f2540000000p-3, -0x1.ebac800000000p-7, 0x1.2c47600000000p-3, 0x1.0284e80000000p-5, -0x1.419f740000000p-5, -0x1.ec9a980000000p-7, 0x1.d7c4f20000000p-4, -0x1.3aaada0000000p-3, -0x1.9cd8cc0000000p-5, -0x1.0a4b2c0000000p-4, -0x1.f5ae620000000p-4, 0x1.40feb00000000p-4, 0x1.6c5b920000000p-3, -0x1.7776500000000p-7, 0x1.7700d20000000p-3, -0x1.ccd3be0000000p-7, 0x1.1cf1080000000p-4, -0x1.7942900000000p-5, 0x1.786ac20000000p-7, -0x1.ba1de80000000p-5, -0x1.76630a0000000p-4, -0x1.a5cb640000000p-7}
, {0x1.4bbec20000000p-7, -0x1.8e38180000000p-4, -0x1.9f643e0000000p-3, 0x1.0ccfde0000000p-3, 0x1.ea36640000000p-4, 0x1.7ad7b40000000p-4, 0x1.b9b6f40000000p-3, -0x1.a7cac60000000p-6, 0x1.42928e0000000p-7, 0x1.d9e2ee0000000p-3, -0x1.06396e0000000p-5, -0x1.1995500000000p-3, 0x1.680c220000000p-4, 0x1.0560320000000p-3, -0x1.262cc60000000p-3, 0x1.b88ca00000000p-4, -0x1.2561660000000p-3, 0x1.8fa2180000000p-4, -0x1.1ba6280000000p-3, 0x1.df88be0000000p-5, 0x1.5abe460000000p-6, -0x1.fa7ce80000000p-4, -0x1.feba040000000p-4, 0x1.3e6d9c0000000p-6, -0x1.7a8ba60000000p-4, -0x1.4ce89a0000000p-3, 0x1.7cbbb60000000p-4, -0x1.ce0f820000000p-5, 0x1.bef7a00000000p-5, -0x1.f85bde0000000p-4, -0x1.e3890e0000000p-3, 0x1.4997ae0000000p-8}
}
, {{-0x1.55794c0000000p-3, -0x1.4c5ff80000000p-3, -0x1.9189a20000000p-4, 0x1.15cdec0000000p-4, -0x1.2409120000000p-3, -0x1.e89f900000000p-4, 0x1.fe4f100000000p-8, -0x1.f44dcc0000000p-4, -0x1.6c14980000000p-7, 0x1.4edc260000000p-3, 0x1.28155a0000000p-4, 0x1.9e1ac20000000p-4, -0x1.8645d80000000p-6, -0x1.1b071a0000000p-3, 0x1.d591fc0000000p-4, -0x1.851cc00000000p-3, 0x1.6a58220000000p-5, 0x1.397ec20000000p-6, 0x1.fe7ede0000000p-5, 0x1.a441200000000p-3, -0x1.369c7c0000000p-5, 0x1.8b868a0000000p-8, -0x1.de7abc0000000p-4, -0x1.2b17460000000p-3, 0x1.235a960000000p-3, -0x1.93649e0000000p-3, -0x1.1bff1c0000000p-3, 0x1.a98eda0000000p-3, 0x1.e4106a0000000p-5, 0x1.30622a0000000p-4, -0x1.1b583a0000000p-3, 0x1.9b9c4e0000000p-6}
, {-0x1.0a12c60000000p-3, 0x1.91a0de0000000p-4, 0x1.c4c7e20000000p-5, 0x1.11ab180000000p-3, 0x1.b560a20000000p-5, -0x1.a411f20000000p-5, -0x1.e6721c0000000p-4, 0x1.4ac25a0000000p-3, -0x1.0a03040000000p-4, 0x1.31dc360000000p-3, 0x1.73a2c00000000p-7, -0x1.5a841e0000000p-4, -0x1.9c32bc0000000p-7, -0x1.ef52480000000p-3, 0x1.2b953e0000000p-3, 0x1.f7a3a60000000p-4, -0x1.ee65f80000000p-6, 0x1.fcc3b40000000p-4, 0x1.2f4baa0000000p-5, 0x1.a6012e0000000p-5, -0x1.9f32520000000p-6, -0x1.a121940000000p-4, 0x1.5d27460000000p-4, -0x1.96826c0000000p-5, 0x1.b457e60000000p-3, 0x1.6ef81a0000000p-4, 0x1.d493400000000p-4, 0x1.5324d40000000p-4, 0x1.74043e0000000p-4, 0x1.4081000000000p-5, -0x1.58f61e0000000p-3, -0x1.2930ce0000000p-4}
}
, {{0x1.c0ff2a0000000p-6, 0x1.c2509e0000000p-4, -0x1.66c1e60000000p-4, 0x1.95a5760000000p-7, -0x1.fd8a540000000p-4, 0x1.4e22140000000p-6, 0x1.270c240000000p-3, -0x1.93b7800000000p-5, 0x1.7671140000000p-3, -0x1.d4f5820000000p-3, 0x1.d4721e0000000p-4, -0x1.15e9b80000000p-3, -0x1.4abff40000000p-4, -0x1.f5bb1c0000000p-3, -0x1.eaece60000000p-7, 0x1.bdd3c20000000p-4, -0x1.15a6c60000000p-4, 0x1.c2e2e20000000p-4, 0x1.8e76d00000000p-4, 0x1.4706520000000p-3, -0x1.3593a80000000p-5, 0x1.8a378a0000000p-4, 0x1.77d73c0000000p-3, 0x1.57db340000000p-6, 0x1.6779740000000p-3, 0x1.39de900000000p-5, 0x1.a569860000000p-3, -0x1.5203400000000p-12, 0x1.825efa0000000p-7, 0x1.734ee80000000p-3, 0x1.1603500000000p-2, 0x1.312b640000000p-4}
, {-0x1.7b7dfa0000000p-3, 0x1.2f0f8a0000000p-3, -0x1.3824fa0000000p-3, -0x1.910eea0000000p-4, -0x1.8386c40000000p-3, -0x1.5802840000000p-4, 0x1.e2796a0000000p-3, 0x1.1fb2960000000p-3, -0x1.7ce38c0000000p-3, -0x1.aa6a260000000p-3, 0x1.e3a2bc0000000p-4, -0x1.63f96c0000000p-4, -0x1.6bd2640000000p-6, -0x1.5356a00000000p-4, -0x1.705c700000000p-5, 0x1.61081a0000000p-3, 0x1.e8f76a0000000p-4, -0x1.8b2c640000000p-3, -0x1.0d7ab80000000p-5, -0x1.a093980000000p-3, -0x1.ed93ca0000000p-6, -0x1.5b13ea0000000p-4, 0x1.5ac27c0000000p-3, -0x1.d63dee0000000p-3, 0x1.53c38a0000000p-3, 0x1.3c8dd80000000p-3, 0x1.5bc0740000000p-6, -0x1.deeaa60000000p-4, 0x1.8327060000000p-4, 0x1.7af2940000000p-8, -0x1.75e6160000000p-5, -0x1.70b26e0000000p-3}
}
, {{-0x1.6e9bb00000000p-5, -0x1.203ce80000000p-3, -0x1.859f7c0000000p-3, -0x1.06b9640000000p-3, 0x1.57b8060000000p-4, 0x1.b14d460000000p-6, 0x1.82a3620000000p-4, -0x1.bfbcfe0000000p-3, 0x1.747dc00000000p-3, -0x1.58d48e0000000p-3, -0x1.a9e1180000000p-5, 0x1.e2f1880000000p-5, 0x1.b2c9f20000000p-4, -0x1.6ce6dc0000000p-2, 0x1.03d9420000000p-4, 0x1.45dbf60000000p-6, 0x1.12241e0000000p-3, 0x1.849b980000000p-5, 0x1.85d4680000000p-4, -0x1.abb5e00000000p-3, -0x1.76b15a0000000p-5, -0x1.60e2dc0000000p-3, 0x1.c3cbc00000000p-8, -0x1.9a2d9a0000000p-3, 0x1.daceda0000000p-3, -0x1.8380c80000000p-4, 0x1.21f2240000000p-5, 0x1.0e9a720000000p-3, 0x1.0fdc720000000p-3, 0x1.6c4c5a0000000p-3, 0x1.a5d6760000000p-5, 0x1.1f6dca0000000p-8}
, {-0x1.4602f80000000p-5, 0x1.5464720000000p-3, -0x1.a9f37e0000000p-3, 0x1.a98c980000000p-5, -0x1.861cc60000000p-4, -0x1.4c58160000000p-3, -0x1.928b460000000p-3, 0x1.d4e0440000000p-4, 0x1.5a4bd20000000p-3, -0x1.be4cd40000000p-9, 0x1.affa8a0000000p-4, 0x1.27afc80000000p-3, 0x1.5fc3e80000000p-3, -0x1.d4c09a0000000p-4, -0x1.a5d21c0000000p-5, 0x1.aa0d820000000p-4, -0x1.2ad4b00000000p-7, -0x1.8fbec80000000p-3, -0x1.bae3640000000p-3, 0x1.02ad220000000p-5, -0x1.68d7bc0000000p-3, 0x1.b9f8140000000p-5, -0x1.6913000000000p-4, -0x1.4827980000000p-7, -0x1.1d81000000000p-7, 0x1.48d7020000000p-3, -0x1.d3014e0000000p-3, 0x1.3751ba0000000p-4, 0x1.b4c6a00000000p-4, 0x1.c78e280000000p-5, -0x1.5d9a900000000p-3, -0x1.3ac4380000000p-2}
}
, {{0x1.4558240000000p-6, 0x1.d890a60000000p-7, -0x1.e7146e0000000p-4, 0x1.dd1b920000000p-3, -0x1.ccf6b20000000p-6, 0x1.d2875c0000000p-5, -0x1.6c9afe0000000p-4, 0x1.9cdd600000000p-3, 0x1.0b11240000000p-3, -0x1.8d15cc0000000p-4, -0x1.036a680000000p-4, -0x1.2038080000000p-5, 0x1.abd5280000000p-9, -0x1.93dc820000000p-4, -0x1.13bb520000000p-2, 0x1.1e289e0000000p-5, 0x1.3de17a0000000p-3, -0x1.e7c39a0000000p-9, -0x1.8f28620000000p-8, 0x1.7909420000000p-3, 0x1.9160c80000000p-4, 0x1.010d960000000p-4, -0x1.a9f17a0000000p-4, -0x1.cb19e20000000p-4, -0x1.3e84200000000p-3, 0x1.7854fa0000000p-8, -0x1.84301a0000000p-4, 0x1.3bf0f40000000p-3, 0x1.0d32c40000000p-3, -0x1.9a077e0000000p-5, -0x1.aa263a0000000p-5, -0x1.6a65100000000p-6}
, {-0x1.461c9e0000000p-5, -0x1.1fc8f20000000p-3, -0x1.9a07120000000p-3, 0x1.1388e00000000p-6, 0x1.b4364e0000000p-4, 0x1.85c6c00000000p-3, 0x1.1edbf40000000p-5, 0x1.ea78fe0000000p-3, -0x1.4fb2e80000000p-7, 0x1.f7e0880000000p-4, 0x1.64c7d20000000p-6, -0x1.49e1500000000p-3, -0x1.be65200000000p-3, -0x1.094cfe0000000p-3, -0x1.d1a89c0000000p-4, 0x1.36ad3c0000000p-3, -0x1.e4eef20000000p-5, 0x1.41ef200000000p-4, -0x1.186a3a0000000p-3, 0x1.233d860000000p-4, 0x1.3d78160000000p-4, -0x1.1e29780000000p-4, -0x1.6103860000000p-4, 0x1.16e7ca0000000p-3, 0x1.bee9cc0000000p-4, -0x1.fd31a20000000p-4, -0x1.30200a0000000p-5, 0x1.0d19d20000000p-2, -0x1.add2340000000p-4, -0x1.d35f3c0000000p-7, 0x1.1004980000000p-6, -0x1.1d66860000000p-4}
}
, {{-0x1.6a11020000000p-5, 0x1.46b0480000000p-9, -0x1.0d96940000000p-5, 0x1.483f880000000p-4, 0x1.7b0b520000000p-3, -0x1.fc91d20000000p-3, -0x1.6120f20000000p-5, 0x1.6aef460000000p-4, 0x1.83f3500000000p-4, -0x1.02d1a60000000p-3, -0x1.8f48b00000000p-5, 0x1.62be720000000p-6, 0x1.85592e0000000p-3, -0x1.c2ba400000000p-3, -0x1.14fb5c0000000p-7, -0x1.f634340000000p-3, 0x1.a8a43e0000000p-4, -0x1.966f2e0000000p-7, -0x1.17d09c0000000p-11, 0x1.25293c0000000p-3, -0x1.18412c0000000p-6, -0x1.906e700000000p-5, -0x1.e2101a0000000p-4, 0x1.415f260000000p-4, -0x1.63f09c0000000p-5, 0x1.78f6a40000000p-5, -0x1.3dd3ae0000000p-3, -0x1.9cb2540000000p-3, 0x1.195a120000000p-4, -0x1.d9ca300000000p-5, 0x1.4f044e0000000p-5, 0x1.9a13460000000p-3}
, {0x1.31f0b00000000p-6, 0x1.9836960000000p-3, -0x1.28a0dc0000000p-4, -0x1.66966a0000000p-6, 0x1.244dc80000000p-3, -0x1.499fd20000000p-3, -0x1.e226600000000p-8, 0x1.5264ba0000000p-4, -0x1.a8611e0000000p-4, -0x1.cc26320000000p-5, 0x1.bcc7040000000p-6, 0x1.8183d00000000p-3, 0x1.f111d40000000p-5, -0x1.dc807e0000000p-3, 0x1.8cfd960000000p-4, -0x1.2c5a4e0000000p-4, 0x1.ce6dec0000000p-4, -0x1.6546160000000p-6, -0x1.8dc3ec0000000p-3, 0x1.af241c0000000p-3, 0x1.1005140000000p-3, 0x1.3d36180000000p-4, -0x1.cc2ab60000000p-4, -0x1.d82f2e0000000p-4, 0x1.4ee5ba0000000p-6, 0x1.9c06d80000000p-3, -0x1.163f720000000p-3, -0x1.354bb00000000p-2, -0x1.9ba93a0000000p-5, 0x1.e569040000000p-4, -0x1.92f1360000000p-3, -0x1.6ffae20000000p-5}
}
, {{-0x1.1ca9960000000p-4, 0x1.94800e0000000p-6, -0x1.380f300000000p-3, 0x1.4acdb40000000p-3, 0x1.42c8960000000p-5, -0x1.e8f0940000000p-4, 0x1.b862220000000p-3, -0x1.284d3a0000000p-3, -0x1.74f2e20000000p-12, -0x1.a140100000000p-6, 0x1.096b0e0000000p-4, -0x1.47f9920000000p-4, -0x1.24c5660000000p-3, -0x1.4bb71a0000000p-5, -0x1.1e06aa0000000p-5, -0x1.b41d080000000p-3, -0x1.b92ef40000000p-4, 0x1.90bac00000000p-3, -0x1.1481e80000000p-7, 0x1.ff9fd60000000p-4, -0x1.889d960000000p-3, 0x1.fcab880000000p-6, -0x1.99eb940000000p-4, 0x1.20c5000000000p-7, -0x1.8b7b3e0000000p-3, -0x1.df7d560000000p-3, 0x1.1aebe40000000p-4, 0x1.7ba2020000000p-5, 0x1.fd0b920000000p-4, 0x1.bb951e0000000p-3, 0x1.3db0100000000p-3, -0x1.420fca0000000p-5}
, {-0x1.fe91900000000p-4, -0x1.ec30100000000p-5, -0x1.92579a0000000p-6, -0x1.c8fdc00000000p-4, 0x1.05d2580000000p-3, 0x1.dd2e240000000p-4, -0x1.13c7940000000p-6, -0x1.ed1dfc0000000p-3, 0x1.6100d60000000p-8, 0x1.4e64740000000p-3, 0x1.91f4b40000000p-4, 0x1.5c11a80000000p-3, -0x1.55d5260000000p-5, -0x1.56bfb20000000p-3, 0x1.9e8a720000000p-3, 0x1.9aae960000000p-3, -0x1.f8af180000000p-3, 0x1.9977b60000000p-5, 0x1.341ee20000000p-3, 0x1.cd34c60000000p-6, -0x1.02c8ee0000000p-2, 0x1.677fa20000000p-3, -0x1.c9789c0000000p-5, -0x1.5cdeba0000000p-5, 0x1.499c9e0000000p-5, -0x1.0190900000000p-3, 0x1.0f8dc60000000p-3, 0x1.e5bd900000000p-5, -0x1.a613560000000p-7, 0x1.f461040000000p-3, 0x1.b8e1fc0000000p-6, -0x1.7f71bc0000000p-3}
}
, {{0x1.2922280000000p-4, -0x1.5058e40000000p-3, 0x1.757fa40000000p-3, 0x1.ac08f80000000p-4, -0x1.a3c55e0000000p-4, -0x1.731ac20000000p-4, 0x1.8926020000000p-8, -0x1.904f9e0000000p-8, -0x1.09ec080000000p-4, 0x1.0fcac00000000p-4, -0x1.7a0dae0000000p-4, 0x1.3c21260000000p-3, 0x1.66a5440000000p-3, 0x1.24362c0000000p-5, -0x1.0c59b20000000p-3, -0x1.e2bd700000000p-4, -0x1.7a035e0000000p-3, 0x1.f2cc260000000p-4, -0x1.bc83360000000p-3, -0x1.556dd40000000p-6, 0x1.cdc8ee0000000p-4, 0x1.0985680000000p-3, -0x1.12a01a0000000p-4, -0x1.42a4900000000p-5, 0x1.c46cb60000000p-3, 0x1.53a7b00000000p-5, -0x1.6179c40000000p-6, -0x1.57b8ca0000000p-4, -0x1.2067f00000000p-4, -0x1.e0ee320000000p-4, 0x1.96d3140000000p-4, -0x1.6b14920000000p-4}
, {-0x1.9422040000000p-4, 0x1.355c360000000p-9, 0x1.290be20000000p-3, 0x1.3a8c200000000p-3, 0x1.19dada0000000p-6, -0x1.353af80000000p-3, 0x1.1cf20e0000000p-2, -0x1.9b96f20000000p-10, 0x1.9736d60000000p-3, 0x1.97727a0000000p-3, -0x1.2c501c0000000p-3, 0x1.36c42c0000000p-4, -0x1.444a540000000p-3, -0x1.a1ef3c0000000p-5, 0x1.e5fb900000000p-3, -0x1.e9c90c0000000p-7, -0x1.02dee20000000p-2, -0x1.6ffe8c0000000p-6, -0x1.535cb20000000p-4, 0x1.e74cea0000000p-7, -0x1.7f9d900000000p-6, 0x1.4afacc0000000p-2, 0x1.81398e0000000p-3, 0x1.2040760000000p-3, 0x1.0739400000000p-2, 0x1.3d85a20000000p-4, -0x1.b5fda00000000p-4, -0x1.5efd380000000p-4, 0x1.f0aa5c0000000p-4, -0x1.0d00500000000p-3, -0x1.67e2960000000p-5, 0x1.0da2420000000p-5}
}
, {{0x1.e914360000000p-9, -0x1.fb1cea0000000p-4, -0x1.28fbe00000000p-7, 0x1.a94fc00000000p-4, 0x1.31a7dc0000000p-10, 0x1.521e3a0000000p-4, 0x1.a6b6420000000p-3, -0x1.34ee4a0000000p-4, -0x1.ba5ad60000000p-4, 0x1.ebaece0000000p-7, 0x1.288a260000000p-9, 0x1.d848d60000000p-8, 0x1.19f6200000000p-4, 0x1.9eb7460000000p-3, 0x1.bbf2560000000p-6, -0x1.d297560000000p-4, 0x1.8226700000000p-4, -0x1.958cb60000000p-4, 0x1.c3ee040000000p-3, 0x1.3dce800000000p-5, 0x1.9be55a0000000p-3, -0x1.b6d1280000000p-5, 0x1.41ae1c0000000p-5, 0x1.6dacc40000000p-4, 0x1.0225340000000p-2, -0x1.da634a0000000p-3, 0x1.8b91460000000p-4, 0x1.6c72660000000p-5, 0x1.3ee0a80000000p-6, -0x1.1dc73c0000000p-6, -0x1.55f64c0000000p-6, 0x1.7a04600000000p-5}
, {0x1.b205500000000p-4, -0x1.2d87b00000000p-5, -0x1.aaec660000000p-6, 0x1.ae27c20000000p-4, -0x1.8a5b260000000p-5, -0x1.10543a0000000p-3, 0x1.bae7040000000p-5, -0x1.6ce7920000000p-5, -0x1.9556340000000p-5, 0x1.5119c20000000p-5, 0x1.8098c80000000p-9, 0x1.d6b3d80000000p-4, -0x1.adbd5a0000000p-5, 0x1.1493780000000p-2, -0x1.1c7c780000000p-4, -0x1.e18da40000000p-4, -0x1.e967ec0000000p-5, -0x1.5266600000000p-3, 0x1.7b55e40000000p-3, -0x1.7ea3680000000p-5, 0x1.1afbf60000000p-9, -0x1.e0ee360000000p-3, 0x1.6f09be0000000p-3, 0x1.14820c0000000p-6, 0x1.5f83400000000p-3, -0x1.9555e20000000p-3, 0x1.d5512a0000000p-4, 0x1.1e7fe80000000p-3, -0x1.ee99bc0000000p-4, 0x1.3767c80000000p-3, 0x1.3e63c00000000p-6, 0x1.6284360000000p-3}
}
, {{0x1.f546220000000p-4, -0x1.b040e00000000p-4, 0x1.a1b99c0000000p-4, -0x1.30e1560000000p-10, -0x1.453afe0000000p-3, 0x1.6402b40000000p-5, -0x1.f8a95a0000000p-6, -0x1.cee9080000000p-4, 0x1.56ce3a0000000p-4, -0x1.2d18da0000000p-3, 0x1.9541ba0000000p-4, -0x1.0e03e60000000p-3, -0x1.46677e0000000p-3, -0x1.6609e00000000p-3, 0x1.e369a20000000p-4, -0x1.1284660000000p-3, -0x1.3c60820000000p-6, 0x1.ea6b640000000p-4, -0x1.f7e3b40000000p-3, -0x1.86b1a80000000p-4, -0x1.d31d9a0000000p-4, -0x1.fd3ba20000000p-7, -0x1.61e42a0000000p-3, -0x1.4c73900000000p-6, -0x1.6d6ae40000000p-4, -0x1.760c6c0000000p-6, -0x1.5546e80000000p-6, -0x1.6b3b660000000p-5, 0x1.23d0060000000p-3, -0x1.df492e0000000p-4, -0x1.86905c0000000p-4, 0x1.7baaa60000000p-8}
, {0x1.c1cd760000000p-3, 0x1.19550a0000000p-4, -0x1.c695980000000p-3, 0x1.e2ed9c0000000p-5, -0x1.7af3960000000p-4, -0x1.a1e1de0000000p-8, -0x1.a7e6240000000p-3, 0x1.a8008a0000000p-4, -0x1.6af46c0000000p-3, -0x1.4239ce0000000p-6, 0x1.7dc19c0000000p-4, 0x1.25193c0000000p-4, 0x1.bd8b1c0000000p-4, 0x1.c7a97a0000000p-4, -0x1.c0365a0000000p-4, 0x1.2b91be0000000p-4, -0x1.00e12a0000000p-5, 0x1.68a3dc0000000p-4, -0x1.b7de000000000p-5, -0x1.4a67dc0000000p-3, -0x1.af951c0000000p-3, -0x1.55badc0000000p-3, 0x1.0511be0000000p-4, -0x1.55917a0000000p-5, -0x1.8a9f040000000p-3, 0x1.4965700000000p-3, 0x1.5264460000000p-6, -0x1.ef9d8c0000000p-6, 0x1.0a93200000000p-3, 0x1.14e0bc0000000p-3, 0x1.c7abd80000000p-3, 0x1.892b000000000p-3}
}
, {{-0x1.4ac3380000000p-3, 0x1.dedce00000000p-4, 0x1.a4e39e0000000p-6, -0x1.e2e9540000000p-5, -0x1.f2735e0000000p-4, -0x1.8e279a0000000p-4, -0x1.7e4ac60000000p-5, -0x1.d9936a0000000p-4, -0x1.7ccb3c0000000p-4, 0x1.2473a20000000p-3, -0x1.88e9e00000000p-4, 0x1.8112a80000000p-5, -0x1.2741e00000000p-3, -0x1.cf4c0a0000000p-4, 0x1.510a720000000p-5, 0x1.97887e0000000p-4, -0x1.88a9280000000p-3, 0x1.5ea0740000000p-3, -0x1.0b8f720000000p-3, -0x1.a8a72e0000000p-4, 0x1.23f88e0000000p-5, -0x1.457fa00000000p-6, -0x1.2d7bc00000000p-3, -0x1.26c1600000000p-4, -0x1.3332c80000000p-3, -0x1.48e9b60000000p-3, -0x1.50fa740000000p-3, -0x1.36e7240000000p-3, -0x1.244c160000000p-3, -0x1.6015340000000p-3, 0x1.d07de20000000p-5, 0x1.db74ae0000000p-4}
, {0x1.4857540000000p-7, 0x1.47533c0000000p-5, 0x1.9ed9cc0000000p-4, -0x1.5b9b360000000p-3, -0x1.d6904a0000000p-4, 0x1.c67c9a0000000p-5, -0x1.9835720000000p-5, -0x1.50a0740000000p-3, 0x1.f3cbba0000000p-6, 0x1.8523380000000p-5, -0x1.d5c6740000000p-6, 0x1.fb8bb00000000p-6, -0x1.18d8300000000p-3, -0x1.3e92840000000p-4, -0x1.8976860000000p-4, -0x1.9ccf160000000p-7, -0x1.d036760000000p-4, -0x1.798a3e0000000p-4, -0x1.00132a0000000p-3, -0x1.784e920000000p-4, -0x1.4ec4140000000p-4, -0x1.2235a60000000p-4, -0x1.8d07ec0000000p-5, -0x1.28126c0000000p-3, 0x1.bfc1820000000p-4, 0x1.cc6c780000000p-6, -0x1.b07db20000000p-4, -0x1.1ac6e60000000p-3, -0x1.a66cfa0000000p-5, -0x1.783a440000000p-8, 0x1.153c900000000p-4, 0x1.fa8c320000000p-4}
}
, {{-0x1.35be740000000p-3, 0x1.70e11a0000000p-4, -0x1.9f4f460000000p-4, -0x1.65b7000000000p-4, -0x1.f67bfa0000000p-5, -0x1.9565040000000p-8, 0x1.9f39d80000000p-4, -0x1.372a640000000p-4, 0x1.d3e2320000000p-3, -0x1.7ccae80000000p-4, 0x1.828a200000000p-4, 0x1.0eee0a0000000p-4, -0x1.4e86800000000p-5, 0x1.c99a300000000p-3, -0x1.3195a60000000p-3, -0x1.a91b680000000p-5, -0x1.169a0c0000000p-3, 0x1.4391ee0000000p-4, 0x1.4bace40000000p-4, 0x1.0cbac60000000p-3, 0x1.be95ca0000000p-3, 0x1.3dda1c0000000p-3, 0x1.4d596e0000000p-5, -0x1.312f180000000p-5, 0x1.03609a0000000p-4, 0x1.f889ba0000000p-6, -0x1.2bf38c0000000p-6, 0x1.8a4ab80000000p-3, -0x1.fb8ce60000000p-4, 0x1.5af6600000000p-4, -0x1.cc5bf60000000p-5, -0x1.b2112e0000000p-3}
, {-0x1.48941c0000000p-3, -0x1.50418c0000000p-5, 0x1.b1ab200000000p-4, 0x1.22a1ce0000000p-3, -0x1.7d6a1e0000000p-3, 0x1.3a6b660000000p-3, -0x1.082d620000000p-8, -0x1.8d985e0000000p-4, -0x1.6415940000000p-4, 0x1.6f30b00000000p-3, -0x1.51ac780000000p-4, -0x1.0a8be40000000p-3, 0x1.118b620000000p-3, 0x1.b644100000000p-6, -0x1.d628920000000p-3, 0x1.3a7d860000000p-4, 0x1.21e4220000000p-2, 0x1.403d460000000p-3, -0x1.0095ea0000000p-3, 0x1.9bfd0a0000000p-9, 0x1.26651e0000000p-2, -0x1.7959a20000000p-3, 0x1.57e8aa0000000p-4, 0x1.59730e0000000p-3, 0x1.3e43d20000000p-5, -0x1.dab5420000000p-5, 0x1.539eb40000000p-3, -0x1.c38ff00000000p-4, 0x1.427a700000000p-4, -0x1.3263f60000000p-3, -0x1.2f9f7a0000000p-6, -0x1.0b2d1e0000000p-3}
}
, {{-0x1.65a51e0000000p-3, 0x1.6417520000000p-3, -0x1.4070fe0000000p-4, -0x1.1ca99c0000000p-5, 0x1.51ec480000000p-4, 0x1.1713520000000p-3, -0x1.7091de0000000p-3, -0x1.fe96860000000p-4, -0x1.0e76580000000p-3, 0x1.511b620000000p-4, -0x1.0b10a60000000p-3, -0x1.79c8a00000000p-3, -0x1.21dc0c0000000p-4, 0x1.5c566c0000000p-4, 0x1.bb5a2e0000000p-3, 0x1.99887c0000000p-3, -0x1.3ff5160000000p-4, 0x1.549f020000000p-4, -0x1.db2eb80000000p-4, -0x1.2288c20000000p-3, 0x1.3062b80000000p-6, -0x1.fed96a0000000p-6, 0x1.0b7ed00000000p-5, 0x1.5dd1d60000000p-3, 0x1.b4031a0000000p-3, -0x1.6a08280000000p-4, 0x1.ac059e0000000p-5, 0x1.38bf3a0000000p-3, 0x1.a5d8c00000000p-5, -0x1.acb2040000000p-5, 0x1.9835220000000p-4, -0x1.3b4e9c0000000p-4}
, {-0x1.8182d60000000p-3, 0x1.1e05dc0000000p-3, -0x1.3b97d00000000p-4, 0x1.9f0b9c0000000p-5, 0x1.76a0860000000p-3, -0x1.5b8dc60000000p-4, -0x1.0b65420000000p-4, -0x1.19e9ea0000000p-3, -0x1.d228280000000p-4, 0x1.c176ca0000000p-5, 0x1.85df180000000p-7, 0x1.9e77a80000000p-4, -0x1.b590040000000p-3, 0x1.3e16460000000p-5, 0x1.2cf7420000000p-4, 0x1.0567de0000000p-5, -0x1.0a3e520000000p-7, -0x1.0cdb3a0000000p-3, -0x1.38ad120000000p-3, -0x1.c6770c0000000p-3, -0x1.f3bc5c0000000p-5, 0x1.79e9da0000000p-5, 0x1.dda8720000000p-3, 0x1.2a91400000000p-4, 0x1.88001a0000000p-3, -0x1.b108160000000p-4, -0x1.4899bc0000000p-3, 0x1.204d160000000p-4, -0x1.d637240000000p-7, 0x1.12a82e0000000p-3, 0x1.0771cc0000000p-3, -0x1.5045c80000000p-4}
}
, {{-0x1.35f61a0000000p-4, -0x1.2498d00000000p-5, 0x1.51cc3c0000000p-3, -0x1.0c1ed40000000p-7, 0x1.5d8e740000000p-3, -0x1.3a2bac0000000p-4, 0x1.bd7f400000000p-3, -0x1.a38c300000000p-4, -0x1.176aa40000000p-11, 0x1.000e900000000p-2, -0x1.899cb00000000p-3, -0x1.1160ba0000000p-3, 0x1.8a75e80000000p-4, 0x1.f93b480000000p-3, 0x1.045d0a0000000p-4, 0x1.4e11360000000p-4, 0x1.794f6c0000000p-7, 0x1.1ef8e40000000p-3, 0x1.9f6a920000000p-4, 0x1.2086d00000000p-3, 0x1.175d080000000p-3, -0x1.312a1e0000000p-2, 0x1.233fea0000000p-4, -0x1.408ebc0000000p-4, -0x1.82f2e60000000p-4, 0x1.0d90a20000000p-3, 0x1.7c552c0000000p-4, -0x1.122ad60000000p-3, -0x1.61a8f60000000p-3, -0x1.f527800000000p-8, 0x1.54d7e80000000p-4, -0x1.252f700000000p-4}
, {-0x1.2bfb340000000p-7, -0x1.1d5d900000000p-4, 0x1.fb8a9e0000000p-3, 0x1.bf1b6a0000000p-4, -0x1.d74f0a0000000p-6, 0x1.d40b620000000p-8, 0x1.7052d80000000p-2, -0x1.4f0c860000000p-3, 0x1.c62ba00000000p-8, 0x1.c1df880000000p-4, 0x1.51c96c0000000p-6, 0x1.26f1b20000000p-6, 0x1.7bf4920000000p-5, 0x1.283c180000000p-2, -0x1.caca900000000p-5, -0x1.8336760000000p-10, 0x1.f221320000000p-4, -0x1.17d66e0000000p-3, -0x1.524bf80000000p-3, -0x1.9c21180000000p-3, 0x1.8aeea60000000p-4, -0x1.26d0ac0000000p-3, 0x1.7573b20000000p-4, -0x1.b2e43c0000000p-5, -0x1.61d5460000000p-4, 0x1.c3b5240000000p-6, 0x1.0879a20000000p-2, 0x1.3e17240000000p-3, -0x1.e45b6a0000000p-5, 0x1.cfaf700000000p-4, -0x1.4092ae0000000p-3, -0x1.1038920000000p-10}
}
, {{0x1.d8ea800000000p-4, -0x1.b3cade0000000p-3, 0x1.5481840000000p-3, 0x1.b4a2580000000p-5, -0x1.ec272a0000000p-5, 0x1.3bc7ea0000000p-4, -0x1.1302a60000000p-2, -0x1.8dfcf20000000p-2, 0x1.c30a780000000p-5, 0x1.91c9d00000000p-7, -0x1.13645a0000000p-3, 0x1.074d980000000p-4, 0x1.c36d0e0000000p-4, -0x1.eab26e0000000p-6, 0x1.e963ee0000000p-4, -0x1.f79c660000000p-4, -0x1.2ace7c0000000p-3, -0x1.f211380000000p-4, 0x1.4ff3240000000p-6, 0x1.ea25400000000p-3, 0x1.19cc120000000p-4, -0x1.c9e5cc0000000p-5, 0x1.070c460000000p-3, 0x1.6358560000000p-4, -0x1.6ac9de0000000p-4, -0x1.0111720000000p-2, -0x1.c06cc40000000p-2, -0x1.6c698c0000000p-3, 0x1.9b6d4a0000000p-8, 0x1.4ff29a0000000p-6, -0x1.01d5020000000p-2, -0x1.5b5eb00000000p-5}
, {-0x1.82e8200000000p-4, 0x1.a41cd40000000p-4, 0x1.adfeea0000000p-4, 0x1.6f2e860000000p-10, 0x1.67b3d00000000p-3, 0x1.5083e40000000p-5, -0x1.05ee220000000p-3, -0x1.a307e60000000p-2, -0x1.6319c60000000p-6, -0x1.d868040000000p-5, -0x1.0d9f5a0000000p-3, 0x1.4d94ee0000000p-4, 0x1.2841900000000p-4, -0x1.006f440000000p-3, 0x1.6824f80000000p-3, 0x1.afc7bc0000000p-4, 0x1.3cbc880000000p-7, 0x1.0d57f60000000p-6, 0x1.d90e400000000p-4, 0x1.9b4f760000000p-6, 0x1.1380080000000p-3, 0x1.54d1160000000p-5, 0x1.b240a60000000p-4, -0x1.d4f76c0000000p-3, -0x1.fcdfac0000000p-5, -0x1.3ac57c0000000p-2, -0x1.dbfe6a0000000p-3, 0x1.0c64000000000p-3, 0x1.9c41460000000p-4, 0x1.a369840000000p-3, 0x1.a0b7700000000p-4, -0x1.40810e0000000p-3}
}
, {{-0x1.bf10ae0000000p-8, 0x1.a58ad20000000p-6, 0x1.f787680000000p-3, 0x1.58fcd60000000p-3, 0x1.d909c80000000p-7, 0x1.55f01e0000000p-11, 0x1.edf4620000000p-3, 0x1.67edc60000000p-3, -0x1.221ae20000000p-2, 0x1.7d42960000000p-3, -0x1.ee1b3e0000000p-4, 0x1.5bdd2a0000000p-5, -0x1.33a8940000000p-6, 0x1.1649d00000000p-1, 0x1.57ed920000000p-3, -0x1.50341c0000000p-4, -0x1.6071160000000p-6, -0x1.381bb00000000p-3, -0x1.55532a0000000p-4, -0x1.ff58d40000000p-4, -0x1.41c5e40000000p-3, -0x1.5e727e0000000p-5, -0x1.50782c0000000p-3, 0x1.f343c20000000p-5, 0x1.d014ba0000000p-4, -0x1.861f640000000p-4, 0x1.8b3aae0000000p-4, -0x1.2c33800000000p-5, -0x1.3f8b660000000p-3, 0x1.4f601a0000000p-4, 0x1.0aee840000000p-3, 0x1.02f64c0000000p-2}
, {-0x1.a0ac7a0000000p-4, -0x1.a979fc0000000p-4, -0x1.0aea8a0000000p-4, -0x1.4a185c0000000p-3, 0x1.b344560000000p-4, -0x1.0f7a300000000p-5, 0x1.88596c0000000p-2, 0x1.fa4a420000000p-5, -0x1.1df1ba0000000p-3, 0x1.b6f9620000000p-3, 0x1.3690920000000p-3, -0x1.be55f80000000p-5, 0x1.96ed4a0000000p-3, 0x1.763ae80000000p-1, 0x1.d027940000000p-7, -0x1.1482380000000p-3, -0x1.5012f60000000p-3, 0x1.7f28a60000000p-3, 0x1.25eec80000000p-4, 0x1.ae71ec0000000p-4, -0x1.f35c520000000p-4, -0x1.c56dd40000000p-3, -0x1.beec0e0000000p-8, 0x1.193e8a0000000p-5, 0x1.3fb5aa0000000p-5, 0x1.0b2cca0000000p-3, 0x1.30f0a60000000p-4, 0x1.d0626e0000000p-4, -0x1.5a20580000000p-3, 0x1.9009da0000000p-3, 0x1.4496920000000p-4, -0x1.0181a40000000p-3}
}
, {{-0x1.622a1c0000000p-4, -0x1.8eedd20000000p-4, -0x1.f2e2d00000000p-5, 0x1.df42780000000p-11, 0x1.ca65040000000p-3, -0x1.52660c0000000p-5, -0x1.da9e800000000p-5, 0x1.4b564e0000000p-6, 0x1.78008c0000000p-5, 0x1.41a0200000000p-4, -0x1.52eba00000000p-3, -0x1.14b75e0000000p-3, -0x1.24e0ae0000000p-7, 0x1.4aff400000000p-5, 0x1.1beff20000000p-6, -0x1.6d88460000000p-4, -0x1.06c1760000000p-3, -0x1.4e83900000000p-3, -0x1.a6817c0000000p-5, -0x1.307b920000000p-3, -0x1.06d5e60000000p-3, -0x1.322e800000000p-2, 0x1.8a4a520000000p-4, -0x1.0e71780000000p-3, 0x1.95eaae0000000p-4, -0x1.fb63d20000000p-3, -0x1.2c24fa0000000p-3, -0x1.a67e320000000p-3, 0x1.28f3f40000000p-3, -0x1.ebcf480000000p-3, -0x1.a58a780000000p-3, 0x1.1293c40000000p-5}
, {0x1.be73060000000p-3, 0x1.72a0c20000000p-5, 0x1.82085c0000000p-4, 0x1.3670d80000000p-5, 0x1.ca86300000000p-3, 0x1.3226040000000p-4, -0x1.85c0fa0000000p-3, 0x1.e761280000000p-4, 0x1.46b7dc0000000p-7, -0x1.51713a0000000p-4, 0x1.88ae520000000p-3, 0x1.92eff40000000p-6, 0x1.88d2a20000000p-5, 0x1.5400560000000p-2, 0x1.4b13080000000p-3, -0x1.a99ee80000000p-4, -0x1.56ea000000000p-4, 0x1.aee6320000000p-4, 0x1.7afcf60000000p-5, -0x1.e554d60000000p-4, -0x1.69fd320000000p-4, 0x1.2b43960000000p-4, 0x1.ea41e80000000p-5, -0x1.30cf280000000p-3, 0x1.3d611c0000000p-3, -0x1.f3b0320000000p-3, 0x1.0363000000000p-2, 0x1.60802e0000000p-5, 0x1.242a020000000p-3, -0x1.95b21a0000000p-6, -0x1.7af11a0000000p-3, -0x1.cb48360000000p-4}
}
, {{0x1.82588c0000000p-4, -0x1.c3b6460000000p-6, -0x1.4d02700000000p-4, 0x1.563fd40000000p-3, -0x1.400b600000000p-3, -0x1.9f5b420000000p-3, 0x1.12d5a80000000p-2, 0x1.4f567c0000000p-3, 0x1.f60c300000000p-4, 0x1.85b8360000000p-4, -0x1.a8a64e0000000p-3, 0x1.b602a80000000p-5, -0x1.b735cc0000000p-4, -0x1.05ebec0000000p-3, -0x1.54f2f20000000p-3, -0x1.040d420000000p-3, 0x1.9acf1a0000000p-5, -0x1.1da69e0000000p-3, 0x1.1ad8640000000p-5, -0x1.b3f70a0000000p-5, 0x1.56d7700000000p-3, 0x1.0b27bc0000000p-3, -0x1.7f89320000000p-5, -0x1.ca5f640000000p-4, 0x1.3beefe0000000p-5, 0x1.6fe8600000000p-4, 0x1.267ee20000000p-5, -0x1.99dc380000000p-4, 0x1.1d3a460000000p-6, -0x1.9f72600000000p-4, 0x1.3d0a880000000p-3, 0x1.e875d60000000p-4}
, {0x1.aeb77a0000000p-8, -0x1.1450980000000p-3, -0x1.16e3c80000000p-5, 0x1.fe64cc0000000p-5, 0x1.ed3e3c0000000p-5, 0x1.e607360000000p-7, 0x1.1185ee0000000p-2, 0x1.0fd87c0000000p-3, 0x1.7d5b280000000p-5, -0x1.40ffc80000000p-4, -0x1.b0f1d80000000p-3, 0x1.cec00c0000000p-5, 0x1.6ee0280000000p-4, 0x1.36e19e0000000p-5, 0x1.83a46c0000000p-3, 0x1.c730ac0000000p-6, 0x1.5462920000000p-3, -0x1.53f00e0000000p-5, 0x1.05ef740000000p-3, 0x1.39c53e0000000p-7, 0x1.1729640000000p-2, 0x1.0b95d80000000p-6, 0x1.4994080000000p-3, 0x1.3ea4480000000p-3, -0x1.f38c980000000p-3, -0x1.fc06940000000p-5, -0x1.25b9ac0000000p-7, 0x1.a5a0780000000p-6, 0x1.4618e60000000p-4, 0x1.ff88960000000p-7, 0x1.64f3ee0000000p-4, 0x1.2198b20000000p-8}
}
, {{0x1.e1e1ea0000000p-3, 0x1.8beb480000000p-3, 0x1.5ec6a40000000p-3, -0x1.0dce380000000p-3, 0x1.e311e00000000p-6, 0x1.9a40220000000p-7, 0x1.c1b3440000000p-3, -0x1.17f5fe0000000p-3, 0x1.cb32d00000000p-4, 0x1.2d0f460000000p-4, 0x1.cd054e0000000p-8, 0x1.ede9060000000p-4, 0x1.da566c0000000p-4, -0x1.37ca840000000p-3, -0x1.f32cb60000000p-4, -0x1.0f2bc40000000p-3, 0x1.f8b5da0000000p-5, 0x1.fbe16c0000000p-8, 0x1.13c7580000000p-4, 0x1.9b0fa60000000p-9, -0x1.c4e8060000000p-4, 0x1.ec0aba0000000p-5, 0x1.5fb5900000000p-4, -0x1.0d1f880000000p-2, 0x1.a5c8020000000p-8, -0x1.55a5980000000p-4, 0x1.0b815e0000000p-4, -0x1.ca73120000000p-3, -0x1.7927740000000p-5, -0x1.47378e0000000p-3, -0x1.d48d3c0000000p-4, -0x1.35f3f00000000p-3}
, {0x1.a05c940000000p-3, 0x1.8847760000000p-3, -0x1.ab46da0000000p-4, 0x1.76c2da0000000p-5, -0x1.3b6e240000000p-3, -0x1.f727740000000p-5, -0x1.ec53b80000000p-5, 0x1.5a7fc00000000p-3, -0x1.42436e0000000p-3, 0x1.6cba6e0000000p-5, -0x1.05b4160000000p-3, -0x1.4627900000000p-5, -0x1.3f11e40000000p-6, -0x1.c88f200000000p-4, 0x1.5bf6960000000p-3, -0x1.8feb340000000p-3, -0x1.4682e60000000p-4, 0x1.125c7a0000000p-3, -0x1.32a6ba0000000p-4, 0x1.a074e20000000p-3, 0x1.033f800000000p-3, 0x1.decdd60000000p-4, 0x1.ddaf320000000p-8, -0x1.161a7c0000000p-3, 0x1.7841c40000000p-4, -0x1.f2f5fa0000000p-5, 0x1.43dece0000000p-6, -0x1.6fbe840000000p-3, 0x1.b36c1c0000000p-3, 0x1.6312c00000000p-8, -0x1.8bc13e0000000p-3, -0x1.42f2620000000p-3}
}
, {{-0x1.f08cda0000000p-8, 0x1.9372d40000000p-3, -0x1.e2a2120000000p-4, -0x1.3ec4e80000000p-6, 0x1.1ac27e0000000p-5, -0x1.f8fd900000000p-4, 0x1.58862e0000000p-3, 0x1.c5e9ae0000000p-3, -0x1.183d580000000p-3, 0x1.0c7afc0000000p-3, 0x1.c6d6960000000p-5, -0x1.ed8cfe0000000p-5, -0x1.7460920000000p-5, 0x1.6cbc7e0000000p-2, -0x1.28a8f00000000p-4, -0x1.6035320000000p-4, 0x1.a2a1320000000p-3, 0x1.3ffb520000000p-4, -0x1.61ec000000000p-5, -0x1.0433920000000p-3, 0x1.10c7440000000p-3, 0x1.81c9f20000000p-2, 0x1.ea56e60000000p-4, -0x1.2a8cec0000000p-2, -0x1.8ef4d00000000p-4, -0x1.1daf720000000p-3, 0x1.8f1aae0000000p-2, -0x1.3f83fc0000000p-4, -0x1.910cce0000000p-3, -0x1.0130ac0000000p-7, -0x1.240cf40000000p-4, -0x1.eb3f7e0000000p-5}
, {0x1.3fb0380000000p-3, -0x1.52017e0000000p-5, 0x1.6b0b500000000p-3, -0x1.c42cf40000000p-4, -0x1.243f7e0000000p-3, 0x1.54ba040000000p-4, 0x1.84df2e0000000p-2, 0x1.3560540000000p-2, 0x1.47f5320000000p-2, -0x1.a3d5da0000000p-4, -0x1.d80b620000000p-5, 0x1.d0c0740000000p-3, 0x1.4e30c60000000p-4, -0x1.9d14780000000p-5, 0x1.4c36ac0000000p-3, -0x1.661b3c0000000p-3, 0x1.b1f6380000000p-5, 0x1.940af40000000p-4, -0x1.9fbd540000000p-3, 0x1.1b10760000000p-6, -0x1.b0e0060000000p-5, 0x1.5ba0360000000p-2, -0x1.82e9aa0000000p-5, 0x1.7d2dec0000000p-3, -0x1.b431be0000000p-4, -0x1.8028fa0000000p-4, 0x1.18ed160000000p-2, 0x1.0ddfae0000000p-6, -0x1.f3984a0000000p-5, 0x1.99d2ce0000000p-3, 0x1.1c40cc0000000p-6, 0x1.eef1660000000p-4}
}
, {{-0x1.ad44800000000p-4, 0x1.b5f8240000000p-4, 0x1.8293bc0000000p-4, -0x1.67d4a00000000p-5, 0x1.4dca800000000p-4, 0x1.d647aa0000000p-7, -0x1.52cd8a0000000p-4, 0x1.330fcc0000000p-3, -0x1.1dfdf20000000p-4, 0x1.21fdf40000000p-2, -0x1.2188580000000p-3, 0x1.de09cc0000000p-6, 0x1.82dd740000000p-4, 0x1.3b8bb80000000p-3, 0x1.16ff060000000p-4, 0x1.117f960000000p-5, 0x1.91a3800000000p-5, 0x1.06a75e0000000p-4, 0x1.6b385a0000000p-3, 0x1.2656620000000p-4, -0x1.9ee5200000000p-4, -0x1.5b5ae20000000p-3, -0x1.8ce93c0000000p-4, -0x1.c1904a0000000p-5, -0x1.08759a0000000p-4, -0x1.623b9e0000000p-8, -0x1.60ddac0000000p-4, 0x1.7be97e0000000p-3, -0x1.182d8e0000000p-4, 0x1.0bb5a40000000p-2, 0x1.ac61ec0000000p-4, -0x1.aedc280000000p-3}
, {-0x1.3454e80000000p-4, -0x1.2575800000000p-7, 0x1.ed31c40000000p-8, 0x1.beb12e0000000p-6, 0x1.00a3e00000000p-2, -0x1.83cf8e0000000p-2, -0x1.56c75c0000000p-2, 0x1.54ba340000000p-6, -0x1.0058fc0000000p-3, -0x1.b47b4a0000000p-4, -0x1.7214b00000000p-3, 0x1.b1bdea0000000p-3, -0x1.06fc0e0000000p-4, 0x1.3701c20000000p-3, 0x1.ab29440000000p-3, -0x1.0cd5820000000p-3, -0x1.ca5b020000000p-5, -0x1.7305d20000000p-5, 0x1.9d227c0000000p-3, -0x1.fa67c20000000p-5, -0x1.045ad00000000p-3, -0x1.3c848c0000000p-2, 0x1.b6c29c0000000p-4, 0x1.63440c0000000p-3, 0x1.a713560000000p-3, -0x1.19e6c80000000p-3, 0x1.79950c0000000p-3, -0x1.06ae5a0000000p-4, -0x1.764eee0000000p-6, -0x1.33b92a0000000p-5, -0x1.c72c2c0000000p-3, -0x1.01f2ae0000000p-5}
}
, {{-0x1.fc1c560000000p-4, 0x1.2dfbc60000000p-2, 0x1.abf21c0000000p-6, -0x1.7a46860000000p-4, 0x1.7342020000000p-4, 0x1.2cf20a0000000p-5, 0x1.34faee0000000p-5, -0x1.be21a80000000p-4, -0x1.0b36980000000p-2, 0x1.b1562c0000000p-3, -0x1.d352a60000000p-5, 0x1.1ce1f80000000p-4, -0x1.1724420000000p-4, -0x1.7b37340000000p-4, 0x1.c1d4400000000p-5, 0x1.606ed40000000p-4, -0x1.3543960000000p-6, -0x1.51913c0000000p-4, -0x1.c2ba4e0000000p-3, 0x1.0723f80000000p-3, 0x1.23deb80000000p-3, 0x1.96cb040000000p-3, -0x1.cf1d6e0000000p-3, -0x1.f384800000000p-3, -0x1.989d960000000p-3, 0x1.5b34660000000p-4, -0x1.72f7a60000000p-6, 0x1.af5e9c0000000p-8, 0x1.652a5c0000000p-7, -0x1.4395c20000000p-4, 0x1.1bd9660000000p-4, 0x1.b94f500000000p-3}
, {-0x1.c5e60e0000000p-6, 0x1.353e260000000p-4, -0x1.21a0320000000p-3, -0x1.8e903a0000000p-5, 0x1.fbf1c60000000p-3, -0x1.88a86a0000000p-3, 0x1.1bcdc00000000p-2, -0x1.ed0a320000000p-3, 0x1.f992600000000p-3, 0x1.a865f60000000p-4, -0x1.bfdb540000000p-4, -0x1.4ddd0e0000000p-3, -0x1.3b07a00000000p-8, -0x1.bf6e040000000p-8, 0x1.264e5a0000000p-8, -0x1.abc99c0000000p-6, -0x1.66b5080000000p-8, -0x1.27bc8a0000000p-5, 0x1.41b0300000000p-3, -0x1.25ccce0000000p-4, -0x1.7579800000000p-5, -0x1.fb895c0000000p-3, 0x1.9f21f60000000p-3, 0x1.1bea340000000p-2, -0x1.106c420000000p-2, -0x1.b838020000000p-3, 0x1.d6d5920000000p-3, -0x1.4280f00000000p-3, -0x1.8766680000000p-4, -0x1.54cfc00000000p-4, 0x1.c856a40000000p-3, -0x1.1366d80000000p-8}
}
, {{0x1.22bd7a0000000p-8, 0x1.79320c0000000p-5, 0x1.f3ead80000000p-6, -0x1.9136f20000000p-5, 0x1.a1edde0000000p-3, -0x1.b3315c0000000p-7, 0x1.6829780000000p-4, 0x1.bf03780000000p-5, 0x1.33b4840000000p-4, 0x1.c1e9980000000p-3, -0x1.72f51e0000000p-4, 0x1.aabc240000000p-3, -0x1.bb6ba20000000p-5, -0x1.2d3c1e0000000p-5, 0x1.b1b5700000000p-4, 0x1.b3bf180000000p-5, 0x1.7a003c0000000p-4, 0x1.05e6c20000000p-2, 0x1.1a6b3c0000000p-4, -0x1.e485100000000p-10, -0x1.4702740000000p-5, 0x1.baa20e0000000p-3, 0x1.2ef91a0000000p-3, -0x1.7cbade0000000p-4, 0x1.bf1b520000000p-4, 0x1.6cc7600000000p-3, -0x1.7455080000000p-7, 0x1.2cd7f60000000p-6, 0x1.a4c9900000000p-6, -0x1.89df1e0000000p-4, 0x1.304ca00000000p-3, -0x1.65424c0000000p-4}
, {-0x1.e878960000000p-5, 0x1.cfac2a0000000p-4, 0x1.c7bbc20000000p-4, -0x1.fad8420000000p-3, -0x1.b22aca0000000p-3, 0x1.ef3c5e0000000p-5, 0x1.26b4740000000p-4, 0x1.ee29000000000p-7, 0x1.913d4c0000000p-4, -0x1.b933f20000000p-3, -0x1.52bdf00000000p-3, -0x1.dc65e40000000p-4, -0x1.b1ccd60000000p-4, -0x1.15f4b00000000p-4, -0x1.40069c0000000p-3, -0x1.87046a0000000p-6, -0x1.7553940000000p-4, 0x1.fa273a0000000p-4, -0x1.36cf280000000p-4, 0x1.9a9abe0000000p-4, 0x1.cb98220000000p-5, 0x1.89b33a0000000p-6, 0x1.b3536c0000000p-3, -0x1.4c31fc0000000p-5, -0x1.a252100000000p-5, -0x1.39f46c0000000p-3, -0x1.0673340000000p-2, 0x1.302f2a0000000p-5, 0x1.027ece0000000p-8, 0x1.645ed60000000p-4, 0x1.f51b440000000p-5, 0x1.172c460000000p-3}
}
, {{0x1.adcf240000000p-3, -0x1.38cd660000000p-4, -0x1.50593a0000000p-3, -0x1.07e32c0000000p-3, 0x1.66b7d40000000p-3, -0x1.2828960000000p-3, 0x1.8263c20000000p-3, -0x1.6fad480000000p-3, 0x1.f3f8380000000p-4, 0x1.5fe33e0000000p-8, -0x1.29a8100000000p-3, 0x1.05ca140000000p-4, 0x1.7f36280000000p-3, -0x1.f6a7ea0000000p-3, 0x1.44dc5a0000000p-4, -0x1.0f514c0000000p-4, -0x1.b54e940000000p-4, -0x1.9b4f6c0000000p-3, 0x1.7a8b580000000p-3, 0x1.8a124a0000000p-4, -0x1.0645d60000000p-3, 0x1.3b4e2a0000000p-4, -0x1.d2b1a20000000p-5, -0x1.06a8860000000p-4, 0x1.70c2ac0000000p-3, -0x1.9708540000000p-3, -0x1.85eb540000000p-5, -0x1.9585b20000000p-5, 0x1.7b67aa0000000p-5, -0x1.e5ba640000000p-5, -0x1.5062680000000p-4, 0x1.c8ca2a0000000p-8}
, {0x1.675c3a0000000p-3, -0x1.5a1dc40000000p-3, 0x1.7c77200000000p-5, -0x1.f4f2bc0000000p-4, 0x1.5c84440000000p-4, -0x1.a636e40000000p-5, 0x1.e574520000000p-3, 0x1.37496a0000000p-6, -0x1.a502d80000000p-7, 0x1.5db5340000000p-3, 0x1.62a9680000000p-3, -0x1.632c460000000p-5, 0x1.f234960000000p-3, -0x1.96e4680000000p-4, -0x1.c4f1f20000000p-5, 0x1.4345920000000p-4, -0x1.fdad1a0000000p-5, -0x1.c69cb00000000p-4, -0x1.1423c80000000p-4, 0x1.a586c80000000p-7, 0x1.48960c0000000p-5, -0x1.19fdae0000000p-6, 0x1.b2ce060000000p-4, 0x1.6fdaca0000000p-4, -0x1.16f5dc0000000p-4, -0x1.9590780000000p-6, -0x1.b0f5460000000p-3, 0x1.2ebc9c0000000p-2, -0x1.96419e0000000p-7, 0x1.e2b6920000000p-3, -0x1.271bf20000000p-4, -0x1.9002c60000000p-6}
}
, {{-0x1.a8da580000000p-3, -0x1.0a477e0000000p-7, -0x1.e133e80000000p-3, 0x1.6963c80000000p-3, 0x1.3b1b1c0000000p-4, -0x1.d299420000000p-7, -0x1.7987a80000000p-3, -0x1.b357d80000000p-7, -0x1.2a02480000000p-3, 0x1.13e39c0000000p-4, 0x1.af12700000000p-8, 0x1.63d3e80000000p-3, 0x1.30237e0000000p-3, -0x1.51d4700000000p-3, -0x1.8fdd7a0000000p-4, 0x1.bf54b60000000p-5, 0x1.240c900000000p-4, -0x1.46bf0c0000000p-4, 0x1.ca89620000000p-3, -0x1.b75ac40000000p-4, -0x1.74a6380000000p-5, -0x1.0b05b60000000p-2, 0x1.cf7f960000000p-4, -0x1.175e8c0000000p-4, -0x1.b108c60000000p-3, 0x1.0ac9420000000p-6, 0x1.5cd34a0000000p-3, -0x1.b56f1e0000000p-4, -0x1.8248e00000000p-6, -0x1.a5c0780000000p-5, 0x1.66e9cc0000000p-3, -0x1.8222400000000p-6}
, {-0x1.7e6cf00000000p-7, 0x1.7fe60a0000000p-3, -0x1.9cb6280000000p-3, 0x1.656a300000000p-4, 0x1.11fce20000000p-4, -0x1.bf634c0000000p-4, -0x1.3ffeac0000000p-4, 0x1.fc8d560000000p-8, -0x1.39a0a40000000p-2, 0x1.2d00d80000000p-2, 0x1.5ca3b80000000p-3, -0x1.5986f40000000p-3, 0x1.5566140000000p-4, 0x1.3470bc0000000p-4, 0x1.b2b4a00000000p-4, 0x1.58a7680000000p-9, 0x1.c389cc0000000p-3, -0x1.f7ab900000000p-6, -0x1.2a22420000000p-3, 0x1.a84ca20000000p-3, 0x1.6884a20000000p-7, 0x1.5e4bea0000000p-4, 0x1.59971e0000000p-4, -0x1.4995e20000000p-4, -0x1.2bbcde0000000p-3, -0x1.3534820000000p-4, -0x1.24ab920000000p-2, -0x1.84f8780000000p-3, -0x1.e2900c0000000p-5, 0x1.1c72820000000p-4, 0x1.8319b60000000p-4, 0x1.aaf4b60000000p-3}
}
, {{-0x1.2f9e540000000p-4, -0x1.ffb5f40000000p-4, 0x1.b750e00000000p-4, -0x1.4f0ce80000000p-3, 0x1.1c13760000000p-4, 0x1.6e47e60000000p-5, -0x1.9be17e0000000p-4, 0x1.b644160000000p-7, -0x1.745ada0000000p-3, 0x1.489ee00000000p-3, -0x1.1697c80000000p-5, 0x1.aa21aa0000000p-3, 0x1.6c84480000000p-3, -0x1.cbf76e0000000p-3, -0x1.ac1c0a0000000p-3, 0x1.1e9e140000000p-3, 0x1.1431900000000p-4, 0x1.025eb00000000p-6, 0x1.37a73c0000000p-2, -0x1.9eba500000000p-3, -0x1.e153b80000000p-4, -0x1.20f8300000000p-2, -0x1.9559b00000000p-7, -0x1.a97f6a0000000p-3, -0x1.1425140000000p-5, -0x1.7b4bb20000000p-7, 0x1.4c06a00000000p-8, 0x1.e7f27c0000000p-3, 0x1.a36f760000000p-3, 0x1.7a0f5c0000000p-3, 0x1.58038a0000000p-3, 0x1.0745620000000p-4}
, {-0x1.6b39fa0000000p-4, 0x1.3c1b780000000p-4, -0x1.9dd68c0000000p-7, -0x1.9745160000000p-3, 0x1.ba4bf00000000p-4, -0x1.b7d6d00000000p-3, 0x1.2d1d4c0000000p-4, 0x1.01afc80000000p-3, 0x1.94f0060000000p-4, 0x1.a60db60000000p-5, -0x1.368ac20000000p-3, 0x1.ab47020000000p-3, 0x1.f95a700000000p-4, -0x1.41b8fe0000000p-5, -0x1.bf534e0000000p-3, 0x1.3218260000000p-3, -0x1.89a3d80000000p-4, 0x1.2994600000000p-4, 0x1.c6572c0000000p-4, 0x1.0956500000000p-7, 0x1.bd77d00000000p-6, 0x1.2696200000000p-3, 0x1.f31cba0000000p-3, -0x1.97615a0000000p-4, -0x1.4c806c0000000p-4, -0x1.7eef400000000p-4, -0x1.98c7f20000000p-3, -0x1.ae5e440000000p-4, -0x1.7c97340000000p-4, 0x1.96a4b40000000p-3, 0x1.10b6360000000p-3, -0x1.38f6740000000p-4}
}
, {{-0x1.54218e0000000p-4, -0x1.ad8cb00000000p-6, 0x1.6429220000000p-3, 0x1.ac04880000000p-3, -0x1.0838060000000p-3, -0x1.1948340000000p-6, 0x1.db2fa40000000p-4, -0x1.50f2f00000000p-7, -0x1.a6a27c0000000p-6, -0x1.0b44ee0000000p-3, -0x1.0d69140000000p-3, 0x1.985cec0000000p-5, 0x1.04cca60000000p-3, -0x1.bbf10c0000000p-5, -0x1.1f526a0000000p-5, -0x1.32f5cc0000000p-4, 0x1.673e060000000p-3, -0x1.04dfec0000000p-6, -0x1.fe2f540000000p-5, -0x1.7629260000000p-4, -0x1.b44ed40000000p-4, -0x1.0e7f940000000p-2, -0x1.ea380a0000000p-4, 0x1.eee5240000000p-3, -0x1.6a80080000000p-3, -0x1.5af9e80000000p-3, -0x1.1040360000000p-4, -0x1.0d97040000000p-4, 0x1.fca8d00000000p-4, 0x1.4b9c8c0000000p-3, 0x1.cba54c0000000p-3, -0x1.6c7b460000000p-5}
, {0x1.45ce220000000p-3, 0x1.f2852e0000000p-5, 0x1.6122240000000p-3, -0x1.39fea00000000p-4, -0x1.27db520000000p-3, 0x1.5146280000000p-3, 0x1.2152520000000p-4, -0x1.da5ed40000000p-3, 0x1.1ccd980000000p-4, 0x1.5ecc860000000p-5, 0x1.f4ed900000000p-4, -0x1.0593dc0000000p-3, 0x1.f1d9720000000p-4, -0x1.43e0c40000000p-3, 0x1.a9a1f00000000p-4, -0x1.b4dd9a0000000p-4, -0x1.7477480000000p-9, -0x1.a3ccd20000000p-3, -0x1.36ae2a0000000p-3, -0x1.06f5ae0000000p-5, 0x1.d1d1460000000p-6, -0x1.26a3e40000000p-2, 0x1.4927f00000000p-3, 0x1.27f7c40000000p-2, 0x1.7951e60000000p-4, -0x1.53e3860000000p-3, -0x1.03eb060000000p-3, 0x1.70730e0000000p-6, 0x1.12b7f00000000p-4, -0x1.94ca340000000p-5, -0x1.16d85a0000000p-3, 0x1.23fa5c0000000p-3}
}
, {{-0x1.044ffc0000000p-5, 0x1.636c4c0000000p-5, 0x1.7a4c0c0000000p-3, -0x1.26d4dc0000000p-5, -0x1.a8f8820000000p-3, 0x1.a00cc00000000p-3, 0x1.e9dce40000000p-3, -0x1.017f5e0000000p-3, 0x1.3233500000000p-3, -0x1.77eb720000000p-5, 0x1.56f55c0000000p-6, 0x1.62f07a0000000p-3, 0x1.edde9e0000000p-7, 0x1.ddcb3c0000000p-4, -0x1.3d07600000000p-3, -0x1.a692160000000p-6, -0x1.9969980000000p-3, -0x1.718a440000000p-3, -0x1.542f960000000p-3, -0x1.d512c80000000p-3, -0x1.dc40f20000000p-4, -0x1.1af2760000000p-2, 0x1.9b9be20000000p-3, 0x1.0c3a1e0000000p-2, 0x1.9edbcc0000000p-3, 0x1.a8de1c0000000p-6, 0x1.bba83c0000000p-3, 0x1.2daec60000000p-3, 0x1.b32a560000000p-7, -0x1.9486ac0000000p-4, -0x1.e3401e0000000p-4, -0x1.4671b80000000p-3}
, {-0x1.11887e0000000p-3, -0x1.de36320000000p-3, 0x1.23f0960000000p-3, -0x1.df64800000000p-6, -0x1.ecbd8c0000000p-6, 0x1.970d840000000p-8, 0x1.7dbd300000000p-4, 0x1.c02ce60000000p-3, -0x1.b5b3f20000000p-4, 0x1.208db20000000p-2, 0x1.63493e0000000p-8, -0x1.0d7d4e0000000p-4, -0x1.4d03280000000p-6, 0x1.6e029c0000000p-5, -0x1.7a7e260000000p-5, 0x1.0783120000000p-6, -0x1.2da00e0000000p-3, 0x1.3c963e0000000p-3, -0x1.a2257c0000000p-3, 0x1.a798600000000p-5, 0x1.1044ec0000000p-3, 0x1.73c7920000000p-6, -0x1.921b5c0000000p-3, 0x1.6d4a760000000p-3, -0x1.330a520000000p-4, -0x1.e30e2c0000000p-4, 0x1.14bf620000000p-4, 0x1.3c656c0000000p-3, 0x1.e52b700000000p-4, -0x1.a7f2f60000000p-4, 0x1.924ae80000000p-3, 0x1.011dba0000000p-5}
}
, {{-0x1.66609a0000000p-4, 0x1.154c5e0000000p-4, 0x1.42e5c60000000p-2, 0x1.7530560000000p-3, -0x1.41cad80000000p-5, -0x1.b9466a0000000p-4, 0x1.b543020000000p-4, 0x1.e872760000000p-5, -0x1.42fd5e0000000p-3, -0x1.23b1300000000p-3, 0x1.48ea760000000p-7, -0x1.2f4eb00000000p-5, -0x1.e544140000000p-4, 0x1.31309c0000000p-3, 0x1.a73f4e0000000p-4, 0x1.1a916e0000000p-3, 0x1.0ca7040000000p-3, -0x1.5308f80000000p-7, -0x1.4da3840000000p-3, -0x1.0bcb6a0000000p-3, -0x1.3b52c00000000p-3, -0x1.8a0f680000000p-6, 0x1.85ba4c0000000p-4, 0x1.658e700000000p-6, -0x1.c6c1600000000p-3, 0x1.db40840000000p-5, -0x1.262a560000000p-2, 0x1.5bd77c0000000p-4, 0x1.6efe820000000p-7, 0x1.04928e0000000p-6, 0x1.27e0ba0000000p-3, 0x1.b08d6c0000000p-8}
, {0x1.4975b40000000p-4, 0x1.852d220000000p-3, 0x1.6f19fc0000000p-6, 0x1.11d9480000000p-4, 0x1.b4fc3a0000000p-6, -0x1.fa4b5a0000000p-4, -0x1.8d11e20000000p-3, 0x1.8932560000000p-4, 0x1.7a6eb20000000p-7, -0x1.1873ba0000000p-3, 0x1.21978a0000000p-10, 0x1.8d70960000000p-3, -0x1.bc2dfc0000000p-4, -0x1.6783ae0000000p-5, 0x1.28f7d80000000p-5, -0x1.a95f340000000p-3, 0x1.60123a0000000p-5, 0x1.28f8fc0000000p-3, 0x1.9916d00000000p-8, -0x1.83c6ea0000000p-3, -0x1.2cb5340000000p-5, -0x1.bb459c0000000p-3, 0x1.06ab9a0000000p-2, 0x1.0e26aa0000000p-2, 0x1.b1dcc80000000p-4, 0x1.b8c7440000000p-10, -0x1.931b020000000p-4, 0x1.c7ccbc0000000p-4, -0x1.854b100000000p-4, 0x1.6e00040000000p-3, 0x1.3931880000000p-4, -0x1.64b3f00000000p-4}
}
, {{0x1.37f1020000000p-5, 0x1.5cf1520000000p-3, 0x1.bed0ac0000000p-3, 0x1.1e98320000000p-3, -0x1.099fc00000000p-5, 0x1.b824a20000000p-5, -0x1.903f0e0000000p-5, 0x1.fd9b140000000p-4, 0x1.a622e20000000p-5, 0x1.ec9af00000000p-3, -0x1.60dec00000000p-6, -0x1.1f179e0000000p-5, 0x1.dc68a20000000p-5, 0x1.d84dde0000000p-7, 0x1.4b053e0000000p-5, -0x1.2b314e0000000p-3, 0x1.8740960000000p-6, 0x1.fb32300000000p-4, -0x1.3037b40000000p-3, -0x1.1f6aae0000000p-6, 0x1.8ef5420000000p-5, 0x1.5f47240000000p-3, -0x1.a654980000000p-6, -0x1.4436e60000000p-4, -0x1.1ba8600000000p-3, 0x1.1cbf040000000p-6, 0x1.bf188c0000000p-8, -0x1.ba67ac0000000p-3, -0x1.4829560000000p-3, 0x1.c73c4a0000000p-3, 0x1.338b860000000p-9, 0x1.e56fe20000000p-3}
, {0x1.7658d60000000p-4, 0x1.c346420000000p-3, 0x1.82d53c0000000p-3, 0x1.8bc5460000000p-4, 0x1.001c4c0000000p-3, -0x1.84b7920000000p-3, 0x1.593c240000000p-3, 0x1.0871660000000p-3, 0x1.4e77800000000p-3, -0x1.3650680000000p-4, -0x1.7aa42c0000000p-9, 0x1.99b3460000000p-8, 0x1.3261780000000p-3, -0x1.27638c0000000p-2, -0x1.89304c0000000p-5, 0x1.bc74360000000p-4, -0x1.b8f9840000000p-7, 0x1.4736ec0000000p-5, -0x1.158f840000000p-3, -0x1.6be1ea0000000p-4, 0x1.b60fee0000000p-8, 0x1.3339360000000p-3, 0x1.1b36520000000p-4, -0x1.52d9680000000p-9, 0x1.e5056c0000000p-4, -0x1.21d0d80000000p-3, 0x1.b1a2ac0000000p-3, -0x1.ad3e240000000p-9, -0x1.29cede0000000p-3, -0x1.349f0e0000000p-3, -0x1.0a48c20000000p-3, 0x1.2d30840000000p-2}
}
, {{-0x1.6d448a0000000p-4, 0x1.4f42780000000p-3, -0x1.53977c0000000p-3, 0x1.1310420000000p-4, 0x1.c0f4bc0000000p-3, 0x1.b38d540000000p-3, 0x1.1b92fa0000000p-4, -0x1.0f7af40000000p-3, -0x1.db0d220000000p-4, -0x1.4f11b20000000p-2, -0x1.9ba5b80000000p-3, 0x1.204ba00000000p-4, -0x1.c472e00000000p-3, 0x1.3f1f060000000p-3, 0x1.8809300000000p-8, -0x1.ff97420000000p-8, 0x1.f08df40000000p-11, -0x1.6981f20000000p-3, 0x1.cb4a5e0000000p-8, -0x1.a04d280000000p-4, -0x1.7a3ae20000000p-3, 0x1.95ed000000000p-5, 0x1.b8d6ea0000000p-3, -0x1.17f9020000000p-3, -0x1.443ad00000000p-4, -0x1.9cbd000000000p-7, 0x1.ec0a200000000p-4, -0x1.3a87040000000p-6, -0x1.95ec7e0000000p-4, -0x1.cdb0fa0000000p-3, 0x1.7672c20000000p-3, -0x1.a37d300000000p-3}
, {0x1.849e2a0000000p-3, 0x1.7616c20000000p-3, 0x1.c52c980000000p-4, 0x1.3960320000000p-3, 0x1.1ba8c40000000p-3, 0x1.49f3a80000000p-4, 0x1.e6c2bc0000000p-10, -0x1.8b5f1c0000000p-4, 0x1.2417b00000000p-3, -0x1.ad592c0000000p-3, 0x1.6672b20000000p-4, 0x1.9680a60000000p-4, -0x1.e4f9160000000p-7, 0x1.b0018c0000000p-5, -0x1.14417a0000000p-3, 0x1.3a28ee0000000p-3, 0x1.98b0be0000000p-4, 0x1.9b5a720000000p-5, -0x1.7dd3280000000p-3, 0x1.122ca40000000p-6, -0x1.7922ae0000000p-4, -0x1.ac5f640000000p-5, 0x1.330d4a0000000p-4, 0x1.becb4e0000000p-3, 0x1.03d4ac0000000p-4, -0x1.a273060000000p-6, 0x1.a135a40000000p-4, -0x1.f802060000000p-4, -0x1.4fcefa0000000p-8, -0x1.1dba920000000p-3, 0x1.83de600000000p-4, 0x1.9964720000000p-4}
}
, {{0x1.e82fdc0000000p-8, 0x1.03a0fa0000000p-3, 0x1.cc1b860000000p-3, 0x1.0087c00000000p-3, 0x1.a137d80000000p-4, -0x1.16d8500000000p-5, 0x1.a480440000000p-3, -0x1.2893c60000000p-11, -0x1.6214420000000p-3, -0x1.7993ae0000000p-4, -0x1.f6243c0000000p-4, -0x1.63b0f60000000p-8, 0x1.678f5c0000000p-4, 0x1.909b180000000p-4, -0x1.92720e0000000p-3, 0x1.f8e2c80000000p-7, 0x1.be8f380000000p-4, -0x1.ef5bb40000000p-4, -0x1.fd73f80000000p-5, -0x1.18273e0000000p-6, -0x1.0903d00000000p-4, 0x1.4998360000000p-4, -0x1.f75b080000000p-4, 0x1.a911e00000000p-3, 0x1.410b9c0000000p-4, -0x1.35d8540000000p-4, 0x1.704d160000000p-7, 0x1.1211240000000p-3, 0x1.87d4620000000p-10, -0x1.982fa00000000p-3, 0x1.ebea040000000p-5, -0x1.1edfe60000000p-2}
, {-0x1.3f932a0000000p-3, -0x1.8f59c40000000p-6, -0x1.c349bc0000000p-4, 0x1.59a91a0000000p-3, 0x1.3d7c5e0000000p-3, 0x1.6b1c9a0000000p-5, 0x1.1d569a0000000p-2, 0x1.1353da0000000p-4, -0x1.a310000000000p-4, 0x1.c5628c0000000p-4, 0x1.d3dd160000000p-4, -0x1.1af7a20000000p-5, 0x1.35b3ca0000000p-5, 0x1.401e480000000p-3, -0x1.846e340000000p-3, -0x1.3662be0000000p-6, -0x1.ff3bdc0000000p-4, -0x1.01f78a0000000p-4, -0x1.ac424e0000000p-5, 0x1.799ff40000000p-6, -0x1.9e50060000000p-4, 0x1.4eb9a80000000p-3, -0x1.ceb8660000000p-9, 0x1.681dce0000000p-3, -0x1.16bdc20000000p-4, 0x1.105ae40000000p-4, 0x1.08db320000000p-3, 0x1.46fde60000000p-4, 0x1.23dc320000000p-4, -0x1.82dbac0000000p-5, 0x1.a0d2360000000p-5, -0x1.a43a860000000p-6}
}
, {{-0x1.314aa40000000p-3, -0x1.98398a0000000p-5, 0x1.e859ae0000000p-5, -0x1.669a3a0000000p-4, 0x1.60b81a0000000p-5, 0x1.97c9b20000000p-7, 0x1.eb57840000000p-5, -0x1.6f43c60000000p-7, -0x1.8a64b00000000p-4, 0x1.f56e520000000p-4, -0x1.ec943a0000000p-4, -0x1.0e6cc40000000p-2, -0x1.2d1c860000000p-5, 0x1.a9c4a80000000p-3, -0x1.93d97e0000000p-4, -0x1.767c460000000p-4, 0x1.8ea2440000000p-5, -0x1.560bee0000000p-3, 0x1.bf10040000000p-5, -0x1.443aa20000000p-4, 0x1.042ea40000000p-2, 0x1.23d5e20000000p-4, -0x1.2004d80000000p-3, 0x1.4163120000000p-3, 0x1.ebccee0000000p-3, 0x1.d2630e0000000p-6, 0x1.e92ab80000000p-3, 0x1.01176c0000000p-3, -0x1.3db3fc0000000p-3, -0x1.f93c8e0000000p-7, 0x1.4c06620000000p-3, 0x1.a1ade60000000p-3}
, {0x1.c337240000000p-4, -0x1.cf7e2e0000000p-3, 0x1.8c62c60000000p-4, 0x1.f74af80000000p-5, 0x1.5c56820000000p-7, -0x1.5036ba0000000p-5, 0x1.3fc3ce0000000p-3, -0x1.c166140000000p-4, -0x1.1581e40000000p-2, 0x1.59e1920000000p-3, 0x1.4cd7640000000p-4, -0x1.ca0aaa0000000p-3, 0x1.4c6e380000000p-5, 0x1.268c760000000p-2, 0x1.3828720000000p-8, -0x1.166ece0000000p-3, 0x1.6a57da0000000p-4, 0x1.418d880000000p-3, -0x1.3218980000000p-3, -0x1.b3dc8a0000000p-5, -0x1.b3cda60000000p-5, -0x1.1e449c0000000p-2, -0x1.173e780000000p-5, 0x1.12145a0000000p-4, 0x1.77a5700000000p-4, -0x1.70296e0000000p-4, -0x1.61f9360000000p-4, 0x1.8da4fa0000000p-3, -0x1.eec2de0000000p-9, 0x1.3312300000000p-6, 0x1.dfe7140000000p-3, 0x1.cd983e0000000p-3}
}
, {{-0x1.8a75ce0000000p-4, -0x1.f3cb040000000p-4, 0x1.bc0f900000000p-3, -0x1.94e71e0000000p-3, 0x1.2118ac0000000p-6, 0x1.85dbe40000000p-4, -0x1.783b340000000p-4, 0x1.1cc9f20000000p-3, 0x1.c6cf340000000p-4, -0x1.ebf3760000000p-4, 0x1.ad1bb20000000p-4, 0x1.366f340000000p-3, -0x1.58164c0000000p-7, 0x1.9018320000000p-6, 0x1.e0b0f00000000p-4, 0x1.4c5dde0000000p-3, -0x1.97f2760000000p-5, -0x1.068df80000000p-3, -0x1.62d7e00000000p-5, -0x1.c5f52a0000000p-4, 0x1.32b29c0000000p-3, -0x1.2858a80000000p-3, -0x1.79ac2a0000000p-4, 0x1.06073a0000000p-5, 0x1.c920fe0000000p-4, 0x1.4c87260000000p-6, -0x1.16f4320000000p-3, -0x1.63226c0000000p-3, 0x1.746e720000000p-5, 0x1.060e520000000p-2, -0x1.cd572e0000000p-3, -0x1.5d00400000000p-3}
, {-0x1.d781600000000p-5, 0x1.4b589a0000000p-3, -0x1.1db96e0000000p-4, -0x1.b1a01a0000000p-3, 0x1.a058e20000000p-5, 0x1.e5558a0000000p-5, -0x1.1fab7a0000000p-3, 0x1.251c600000000p-3, -0x1.39c5820000000p-5, 0x1.772b400000000p-4, -0x1.14e8420000000p-3, 0x1.3d4c2a0000000p-3, 0x1.fce3100000000p-4, -0x1.4681260000000p-9, 0x1.b340860000000p-3, 0x1.4066c80000000p-4, -0x1.271d600000000p-6, -0x1.7292640000000p-5, -0x1.841e060000000p-4, 0x1.133a8c0000000p-3, 0x1.6f0b380000000p-3, -0x1.e4dd8a0000000p-4, -0x1.341e160000000p-3, -0x1.1b1c600000000p-7, 0x1.0d395a0000000p-6, 0x1.324c060000000p-6, 0x1.31c7700000000p-3, 0x1.c783720000000p-7, 0x1.394fde0000000p-7, -0x1.0b51ce0000000p-6, -0x1.b627ac0000000p-3, -0x1.4531120000000p-6}
}
, {{-0x1.12a40e0000000p-2, -0x1.2168880000000p-3, 0x1.67a15c0000000p-6, -0x1.292c9c0000000p-6, -0x1.213bc40000000p-3, 0x1.2ea89c0000000p-5, -0x1.2e31d60000000p-2, -0x1.469c6c0000000p-2, -0x1.b280be0000000p-3, -0x1.fc745a0000000p-3, 0x1.52476c0000000p-5, -0x1.164dc60000000p-2, -0x1.c40ec60000000p-3, 0x1.2892200000000p-5, -0x1.4dbb500000000p-5, -0x1.42f2240000000p-3, 0x1.1c8d320000000p-6, -0x1.4e68f20000000p-2, -0x1.f64e180000000p-3, 0x1.3a5b2a0000000p-4, -0x1.359c940000000p-4, 0x1.aea5ba0000000p-4, -0x1.4bcc680000000p-2, -0x1.04288e0000000p-2, -0x1.2c007e0000000p-4, -0x1.5212640000000p-3, -0x1.8468240000000p-3, -0x1.4fdf260000000p-2, -0x1.b3433a0000000p-3, -0x1.b900200000000p-3, 0x1.bb20d00000000p-5, 0x1.862ae20000000p-3}
, {0x1.05864a0000000p-3, 0x1.3c008e0000000p-3, 0x1.79d4de0000000p-3, 0x1.5f4d660000000p-4, 0x1.f9283e0000000p-4, 0x1.d1e3700000000p-4, 0x1.456a2a0000000p-3, 0x1.cb40260000000p-3, 0x1.6e193e0000000p-4, 0x1.f730180000000p-3, 0x1.ac6c0e0000000p-12, -0x1.9157a00000000p-5, 0x1.8ba3360000000p-3, 0x1.0881e00000000p-2, 0x1.7258fc0000000p-3, 0x1.6f024a0000000p-3, 0x1.25ccfc0000000p-3, 0x1.9061380000000p-4, -0x1.3a0f060000000p-5, 0x1.54c7660000000p-5, 0x1.eb673c0000000p-5, 0x1.fef2380000000p-5, 0x1.6447ae0000000p-3, 0x1.3e9ec00000000p-3, 0x1.64fa100000000p-4, 0x1.e100440000000p-4, 0x1.5f8d7c0000000p-3, 0x1.1ca78c0000000p-3, 0x1.04dd4c0000000p-3, 0x1.5996ae0000000p-5, -0x1.4660a80000000p-5, -0x1.d51f780000000p-14}
}
, {{0x1.f757a20000000p-4, -0x1.617a500000000p-4, -0x1.7a2e6e0000000p-3, 0x1.04a13c0000000p-4, 0x1.24efd40000000p-4, -0x1.90ea1a0000000p-4, 0x1.6910fc0000000p-6, -0x1.536c280000000p-4, 0x1.9cbf000000000p-3, 0x1.5304340000000p-3, -0x1.bb124e0000000p-6, 0x1.7dab620000000p-4, -0x1.0d89f20000000p-4, -0x1.ea988c0000000p-4, 0x1.3462b00000000p-3, 0x1.aae7d80000000p-4, -0x1.3f5bce0000000p-3, 0x1.ac98360000000p-3, -0x1.5865760000000p-4, 0x1.992df60000000p-4, 0x1.aa56120000000p-4, 0x1.5389da0000000p-4, 0x1.1639480000000p-7, 0x1.24bd620000000p-8, -0x1.85e7da0000000p-6, 0x1.1961ae0000000p-9, -0x1.7b87080000000p-3, -0x1.8ad0880000000p-3, 0x1.9c11ee0000000p-6, -0x1.70ae9c0000000p-6, -0x1.9e4e660000000p-4, 0x1.262c740000000p-4}
, {-0x1.8ed3200000000p-4, -0x1.68d99c0000000p-4, -0x1.e0d8dc0000000p-3, 0x1.7a5e320000000p-6, -0x1.68c1c40000000p-3, -0x1.01360a0000000p-2, -0x1.c30e4c0000000p-3, -0x1.9482ca0000000p-5, 0x1.2b12f40000000p-3, 0x1.a879d60000000p-3, -0x1.d372c40000000p-5, 0x1.10c12c0000000p-4, 0x1.deb5cc0000000p-6, -0x1.402c4c0000000p-4, 0x1.5cdcd40000000p-4, 0x1.5c0dfa0000000p-3, 0x1.a8d4e40000000p-4, -0x1.d8aebe0000000p-5, -0x1.5d07060000000p-3, 0x1.8bc95a0000000p-3, 0x1.849b520000000p-4, 0x1.94451e0000000p-3, -0x1.cb99040000000p-4, -0x1.1508780000000p-3, 0x1.54af4c0000000p-3, 0x1.a86f8a0000000p-3, -0x1.e48b5a0000000p-3, -0x1.73852e0000000p-4, -0x1.28173a0000000p-8, 0x1.19a1f60000000p-3, -0x1.d66a380000000p-3, 0x1.62d6a80000000p-3}
}
, {{0x1.4794ba0000000p-3, 0x1.4248b80000000p-8, 0x1.6e6a300000000p-5, 0x1.4cf4860000000p-5, 0x1.4f0db00000000p-4, -0x1.96d90a0000000p-6, -0x1.8109740000000p-4, 0x1.87a9a20000000p-3, 0x1.32341c0000000p-4, 0x1.7a556a0000000p-3, 0x1.c51a560000000p-3, -0x1.7bbc180000000p-5, -0x1.55d6260000000p-7, 0x1.15a46c0000000p-2, -0x1.ae4d660000000p-4, -0x1.bacd020000000p-6, 0x1.bb39740000000p-4, -0x1.42cd4e0000000p-3, -0x1.c2e1b00000000p-3, -0x1.e9df560000000p-3, 0x1.10cc620000000p-2, 0x1.a9de020000000p-5, 0x1.efdbf00000000p-5, 0x1.fd2a860000000p-5, 0x1.3357740000000p-2, 0x1.4a40100000000p-4, 0x1.9218400000000p-4, -0x1.62f22a0000000p-4, -0x1.3924ac0000000p-3, 0x1.5d72100000000p-3, 0x1.00dc5e0000000p-3, -0x1.31d3dc0000000p-6}
, {0x1.718e380000000p-4, 0x1.a99fb00000000p-4, 0x1.f71f7c0000000p-4, -0x1.732bdc0000000p-4, 0x1.40fe6c0000000p-3, 0x1.86b4860000000p-5, -0x1.b8e20a0000000p-3, 0x1.6d953e0000000p-3, 0x1.371a8a0000000p-3, 0x1.00ad4a0000000p-7, 0x1.82b3a60000000p-3, -0x1.07b8600000000p-5, -0x1.9b55580000000p-6, 0x1.1417640000000p-4, 0x1.cd7d6c0000000p-3, -0x1.1966920000000p-3, -0x1.a0dd3c0000000p-4, -0x1.13255e0000000p-4, -0x1.cbd9520000000p-3, 0x1.63eb9a0000000p-4, 0x1.c7811e0000000p-5, 0x1.08d98e0000000p-4, 0x1.372dae0000000p-7, -0x1.d7483a0000000p-9, 0x1.8751200000000p-6, -0x1.2e447c0000000p-3, -0x1.02f8180000000p-3, -0x1.8abff80000000p-3, -0x1.81dfdc0000000p-4, 0x1.65716e0000000p-3, -0x1.80a30e0000000p-5, -0x1.ffb4500000000p-5}
}
, {{0x1.56997e0000000p-3, -0x1.9060d60000000p-4, 0x1.0f11120000000p-5, -0x1.c7374a0000000p-3, -0x1.763d100000000p-3, -0x1.016ac00000000p-6, -0x1.95a7fa0000000p-4, 0x1.e93ba40000000p-4, 0x1.57a15e0000000p-5, 0x1.885dd40000000p-4, 0x1.c2ff460000000p-4, 0x1.82577e0000000p-9, 0x1.9d70080000000p-3, 0x1.a753000000000p-4, 0x1.78ff5a0000000p-6, -0x1.cf6cc20000000p-5, 0x1.fa8b580000000p-6, 0x1.f100860000000p-4, -0x1.8e437e0000000p-4, -0x1.8cd6f40000000p-3, 0x1.8891da0000000p-3, -0x1.9b7a7c0000000p-7, 0x1.7e8b5e0000000p-4, -0x1.374f1c0000000p-6, 0x1.02ef3a0000000p-3, 0x1.0b17f00000000p-7, -0x1.1ea65c0000000p-6, -0x1.92050a0000000p-4, 0x1.2a3b0e0000000p-3, -0x1.9cbefe0000000p-5, -0x1.352cfc0000000p-7, -0x1.6e5fe40000000p-3}
, {-0x1.53ea2c0000000p-5, -0x1.99e6b40000000p-7, -0x1.6adb580000000p-3, -0x1.3a8bc80000000p-6, 0x1.f8b71a0000000p-5, 0x1.bbd3300000000p-8, -0x1.5929ea0000000p-3, 0x1.2526880000000p-4, -0x1.5fbcaa0000000p-3, 0x1.efe3f00000000p-4, 0x1.23c4ea0000000p-7, 0x1.e053060000000p-5, 0x1.9ab8d80000000p-3, -0x1.9b35f00000000p-3, 0x1.570cc20000000p-5, 0x1.95cfac0000000p-4, -0x1.a36dc80000000p-5, 0x1.e0f2e60000000p-4, -0x1.f027640000000p-3, -0x1.99e6c80000000p-5, -0x1.067aa40000000p-3, 0x1.0ef6c60000000p-5, 0x1.035a920000000p-6, 0x1.1a10be0000000p-4, 0x1.c20fd40000000p-3, 0x1.9975660000000p-7, -0x1.b8329c0000000p-3, 0x1.68c80e0000000p-5, -0x1.0fa5ea0000000p-6, 0x1.d25eac0000000p-4, 0x1.0b2cee0000000p-3, -0x1.0977a40000000p-3}
}
, {{0x1.00fb360000000p-3, 0x1.21292a0000000p-3, 0x1.4bfdb00000000p-5, -0x1.b2f43e0000000p-3, -0x1.0791760000000p-3, -0x1.ee93720000000p-4, -0x1.0a972a0000000p-3, -0x1.5ba63e0000000p-7, -0x1.06bfa40000000p-4, -0x1.5e25440000000p-3, 0x1.1d0b540000000p-4, -0x1.0c0f360000000p-4, 0x1.0d85c80000000p-3, -0x1.479f260000000p-2, -0x1.7311960000000p-4, 0x1.558a3c0000000p-7, -0x1.4e4c320000000p-3, 0x1.aec89e0000000p-5, -0x1.b9638c0000000p-3, -0x1.cff1d40000000p-4, -0x1.90ba980000000p-3, 0x1.8dc93c0000000p-4, 0x1.448ae40000000p-5, -0x1.2d50980000000p-5, -0x1.23eb860000000p-4, 0x1.6e32e80000000p-3, -0x1.86e5e40000000p-3, -0x1.1c9a580000000p-4, -0x1.8859b60000000p-6, 0x1.6511080000000p-4, -0x1.f36c320000000p-3, 0x1.322ca40000000p-5}
, {0x1.272bea0000000p-3, 0x1.cbe7c80000000p-4, 0x1.dcd5d00000000p-7, 0x1.034d940000000p-4, 0x1.9df14a0000000p-4, -0x1.12cd700000000p-3, 0x1.8492ca0000000p-6, 0x1.230a400000000p-4, 0x1.a25d760000000p-4, 0x1.6a9d1e0000000p-3, 0x1.849d760000000p-6, 0x1.05d35a0000000p-3, -0x1.901f880000000p-7, 0x1.3404b60000000p-5, 0x1.d6a1b00000000p-3, -0x1.ea34ce0000000p-5, 0x1.ab518a0000000p-4, 0x1.ef12180000000p-3, -0x1.23be0e0000000p-4, -0x1.1f69ba0000000p-3, -0x1.045de80000000p-3, 0x1.2227d60000000p-6, -0x1.7015480000000p-3, 0x1.44fb2e0000000p-3, 0x1.bd87e40000000p-4, 0x1.a4ff020000000p-4, -0x1.86c8240000000p-4, -0x1.ab4bdc0000000p-4, 0x1.5714760000000p-4, 0x1.a614a40000000p-3, -0x1.09ace40000000p-3, -0x1.3040b40000000p-3}
}
, {{0x1.04cf8e0000000p-3, 0x1.712c5e0000000p-4, -0x1.141a020000000p-2, -0x1.3bce0e0000000p-5, 0x1.3c5d4e0000000p-3, 0x1.9a7caa0000000p-3, 0x1.3a6ed40000000p-3, -0x1.2111b00000000p-8, 0x1.fddeec0000000p-3, -0x1.ac49040000000p-4, 0x1.11eee80000000p-4, 0x1.8c7ca20000000p-5, 0x1.b672f80000000p-3, 0x1.f940c60000000p-2, -0x1.291f7e0000000p-4, 0x1.4c27280000000p-6, 0x1.3cf6980000000p-4, 0x1.276d940000000p-2, 0x1.1601e20000000p-2, 0x1.68a18c0000000p-6, 0x1.1b6ca40000000p-2, 0x1.8a6b2e0000000p-4, 0x1.d0a2f40000000p-3, 0x1.5ee37a0000000p-2, 0x1.941dee0000000p-3, 0x1.8a020c0000000p-3, 0x1.e3a1780000000p-3, 0x1.98ae140000000p-3, 0x1.95b9aa0000000p-5, 0x1.105b4c0000000p-3, 0x1.59548e0000000p-3, 0x1.5958d20000000p-7}
, {-0x1.8782840000000p-5, 0x1.1056580000000p-4, -0x1.9396cc0000000p-3, -0x1.f8be900000000p-4, -0x1.5207680000000p-2, -0x1.32316a0000000p-3, -0x1.1e635e0000000p-3, 0x1.e8322c0000000p-6, 0x1.98bec60000000p-9, 0x1.4267580000000p-7, -0x1.279a660000000p-3, -0x1.346dbc0000000p-3, 0x1.cfde140000000p-10, -0x1.17a2460000000p-5, -0x1.fdba420000000p-3, -0x1.e324fa0000000p-5, 0x1.323f1e0000000p-5, -0x1.5ce9fa0000000p-6, -0x1.16ef760000000p-2, -0x1.4003760000000p-2, -0x1.555cb00000000p-2, -0x1.ea346c0000000p-3, 0x1.94c54a0000000p-5, 0x1.8ef20e0000000p-4, -0x1.c5b8f60000000p-3, -0x1.ac49180000000p-6, -0x1.39219a0000000p-4, -0x1.2571fa0000000p-2, -0x1.0650240000000p-2, -0x1.0d9f360000000p-3, -0x1.0362f00000000p-2, -0x1.b95dbc0000000p-5}
}
, {{-0x1.8737220000000p-4, 0x1.9a449a0000000p-8, 0x1.f2786a0000000p-5, -0x1.4a484c0000000p-3, -0x1.a2a71e0000000p-4, -0x1.a802400000000p-4, 0x1.c4e6b80000000p-4, 0x1.e8305a0000000p-4, 0x1.47af780000000p-6, 0x1.85a3a80000000p-4, 0x1.99fcf60000000p-6, -0x1.0bbe460000000p-3, -0x1.ffa26a0000000p-4, 0x1.8ff1500000000p-2, -0x1.b398fe0000000p-5, 0x1.9056140000000p-3, 0x1.5f1c2a0000000p-3, 0x1.0098100000000p-5, -0x1.3c16160000000p-6, -0x1.bb8a580000000p-4, 0x1.cc72ce0000000p-6, 0x1.5cf2ee0000000p-3, -0x1.c1ad0e0000000p-11, 0x1.07890a0000000p-7, 0x1.4a845a0000000p-2, -0x1.0471000000000p-5, 0x1.3b2ef20000000p-5, -0x1.6102de0000000p-5, 0x1.c319860000000p-5, -0x1.a807360000000p-6, -0x1.d472cc0000000p-5, 0x1.0ef51a0000000p-2}
, {-0x1.688f700000000p-6, -0x1.25ec420000000p-4, -0x1.e95b100000000p-6, 0x1.318fc80000000p-4, -0x1.9c7c9c0000000p-4, -0x1.8802120000000p-4, 0x1.179b620000000p-3, 0x1.7c8abe0000000p-6, -0x1.24561e0000000p-5, -0x1.c32eb20000000p-6, 0x1.a08fac0000000p-5, 0x1.0aced40000000p-5, 0x1.369f580000000p-4, 0x1.7917ba0000000p-3, -0x1.0f1b5e0000000p-3, 0x1.33ff0a0000000p-3, 0x1.de49040000000p-4, 0x1.4d14340000000p-4, -0x1.1ce4a80000000p-3, -0x1.cae9800000000p-5, 0x1.08015a0000000p-2, 0x1.11eff80000000p-4, 0x1.1db6bc0000000p-4, 0x1.2d2f4e0000000p-5, -0x1.2374a20000000p-7, -0x1.1ece140000000p-6, 0x1.d1b3f80000000p-4, -0x1.fee0960000000p-6, -0x1.d198540000000p-5, 0x1.ce787c0000000p-4, -0x1.0c0be00000000p-5, 0x1.67fa9c0000000p-4}
}
, {{-0x1.2933ea0000000p-4, 0x1.8e88320000000p-6, 0x1.4bb3b80000000p-4, -0x1.898a160000000p-6, -0x1.9c97c40000000p-3, -0x1.a560d20000000p-3, 0x1.34ce280000000p-4, -0x1.eb98a60000000p-3, -0x1.633d2c0000000p-5, -0x1.ef7b7c0000000p-6, -0x1.1e62c60000000p-3, -0x1.0a85120000000p-9, 0x1.0fb8b80000000p-6, 0x1.00e3c20000000p-3, -0x1.93d05a0000000p-4, -0x1.b18efa0000000p-4, -0x1.ab69520000000p-2, -0x1.180c7c0000000p-6, -0x1.1d9f660000000p-7, 0x1.b1c3d00000000p-3, 0x1.84bf700000000p-4, 0x1.5f040c0000000p-3, -0x1.dd78560000000p-3, -0x1.8b06ba0000000p-4, 0x1.20b3320000000p-2, 0x1.53485a0000000p-7, -0x1.b4b2740000000p-5, 0x1.fb7fc80000000p-3, -0x1.3da56a0000000p-3, 0x1.2d2b600000000p-6, -0x1.2151560000000p-2, -0x1.24fbc80000000p-8}
, {-0x1.1f00440000000p-4, 0x1.31d5cc0000000p-5, 0x1.dd1cf80000000p-5, 0x1.e2cbd00000000p-6, -0x1.9ff1dc0000000p-8, -0x1.35cea80000000p-4, 0x1.06e2580000000p-2, -0x1.5342b60000000p-3, -0x1.49c3da0000000p-4, 0x1.01f6de0000000p-7, -0x1.21b7ae0000000p-6, -0x1.d661fc0000000p-4, 0x1.f5d3fc0000000p-3, -0x1.c6d1980000000p-4, 0x1.3976400000000p-3, 0x1.bf99ca0000000p-3, -0x1.0864680000000p-2, 0x1.6322940000000p-7, 0x1.beab820000000p-3, 0x1.1eb2580000000p-2, 0x1.e5f9560000000p-3, -0x1.ef3a060000000p-4, 0x1.0257660000000p-3, 0x1.29d0ea0000000p-3, 0x1.ec84700000000p-3, 0x1.ba47d20000000p-6, -0x1.8d0e7a0000000p-5, -0x1.b97a6c0000000p-4, 0x1.34b8a00000000p-5, -0x1.0ffe780000000p-2, -0x1.489f6a0000000p-2, 0x1.36b7c40000000p-5}
}
, {{-0x1.8f7e860000000p-3, 0x1.79adc60000000p-4, 0x1.3d090e0000000p-9, -0x1.2844360000000p-7, 0x1.10a1160000000p-2, 0x1.9f45280000000p-4, 0x1.ef91b00000000p-3, 0x1.f825b40000000p-3, 0x1.8878980000000p-3, 0x1.cd45da0000000p-3, -0x1.3fa70e0000000p-7, 0x1.1e68000000000p-3, -0x1.aaec980000000p-4, -0x1.f7db960000000p-4, 0x1.3ca6ba0000000p-3, 0x1.796fa20000000p-6, 0x1.adff500000000p-3, 0x1.482cd60000000p-2, 0x1.e2ac140000000p-4, -0x1.04271a0000000p-3, -0x1.c7048a0000000p-4, 0x1.2aeb980000000p-5, -0x1.7c65900000000p-4, 0x1.344e580000000p-3, 0x1.12f1ea0000000p-6, 0x1.4baa980000000p-3, -0x1.694eaa0000000p-4, -0x1.0befb40000000p-3, -0x1.a56d3e0000000p-4, -0x1.1e41940000000p-3, 0x1.8db2e60000000p-6, 0x1.5231ec0000000p-3}
, {-0x1.8122f80000000p-4, 0x1.6101a40000000p-4, 0x1.c15c360000000p-4, 0x1.b0c2560000000p-7, -0x1.7c6f100000000p-3, -0x1.22d6780000000p-4, -0x1.0f02120000000p-4, -0x1.57ca680000000p-2, -0x1.24cdb60000000p-5, -0x1.b16d7c0000000p-4, -0x1.0ed4760000000p-3, -0x1.cddc000000000p-4, -0x1.da3cec0000000p-3, 0x1.62a9120000000p-3, -0x1.2c0d4c0000000p-4, -0x1.0e3b5e0000000p-3, -0x1.0aa33a0000000p-3, -0x1.94677a0000000p-3, 0x1.6c5ef80000000p-2, 0x1.d62c400000000p-3, 0x1.c312da0000000p-4, -0x1.b023320000000p-4, -0x1.911d3e0000000p-3, 0x1.a70a360000000p-3, 0x1.0574420000000p-5, -0x1.3a48940000000p-3, -0x1.8e69ca0000000p-3, -0x1.6015ca0000000p-3, 0x1.1c15580000000p-5, 0x1.02f8060000000p-4, -0x1.1cad220000000p-3, -0x1.a78d580000000p-3}
}
, {{0x1.522a8c0000000p-3, -0x1.a578280000000p-3, 0x1.4733f40000000p-3, 0x1.208eb00000000p-3, 0x1.4e90300000000p-3, 0x1.83d0840000000p-3, 0x1.0b32240000000p-3, 0x1.8d7b4c0000000p-3, 0x1.9df90a0000000p-4, -0x1.d9d4040000000p-4, 0x1.ec8ab80000000p-5, 0x1.8dca6a0000000p-3, -0x1.7063720000000p-3, 0x1.2d51360000000p-2, -0x1.3d9e860000000p-6, 0x1.89e64c0000000p-3, -0x1.81130e0000000p-4, -0x1.e655c20000000p-8, -0x1.6e1af20000000p-4, -0x1.3228100000000p-3, 0x1.ee04200000000p-5, -0x1.f003040000000p-6, 0x1.66edd40000000p-3, -0x1.c900a00000000p-3, 0x1.3726a80000000p-6, -0x1.2ee96e0000000p-3, 0x1.5287b20000000p-8, -0x1.126e120000000p-3, -0x1.545d9e0000000p-10, 0x1.cac1de0000000p-5, -0x1.b519aa0000000p-3, 0x1.e477f40000000p-5}
, {0x1.f5bdee0000000p-4, -0x1.174c160000000p-4, 0x1.1bbc6e0000000p-3, -0x1.1d41680000000p-4, -0x1.11901a0000000p-3, 0x1.9e66b60000000p-4, 0x1.25def20000000p-2, -0x1.a9df7a0000000p-3, 0x1.5d3e860000000p-3, -0x1.03d4680000000p-2, -0x1.8950100000000p-3, -0x1.527fdc0000000p-3, 0x1.e2e3b00000000p-6, 0x1.57a5de0000000p-3, -0x1.948a740000000p-4, 0x1.cf58ee0000000p-3, -0x1.0331860000000p-3, 0x1.6074780000000p-5, 0x1.eb14d00000000p-6, -0x1.5015c40000000p-10, 0x1.936c180000000p-3, -0x1.df2e720000000p-3, 0x1.6108c80000000p-6, -0x1.1211d60000000p-3, -0x1.730f360000000p-6, -0x1.b876380000000p-5, -0x1.92a9560000000p-6, 0x1.68d2ec0000000p-3, -0x1.bc37ba0000000p-4, 0x1.df03fe0000000p-7, 0x1.60e7780000000p-5, 0x1.afc4680000000p-4}
}
, {{-0x1.306c080000000p-5, -0x1.45c7620000000p-5, 0x1.7642400000000p-4, 0x1.a8b3740000000p-6, 0x1.29bf300000000p-3, 0x1.6efda00000000p-3, 0x1.04528e0000000p-5, -0x1.7226220000000p-10, -0x1.0ef6140000000p-4, 0x1.b730400000000p-4, 0x1.dbd2220000000p-4, -0x1.51779c0000000p-5, 0x1.d4994c0000000p-4, 0x1.46914e0000000p-4, -0x1.d2f4780000000p-3, -0x1.0d27620000000p-6, 0x1.be805c0000000p-3, 0x1.3b51340000000p-3, -0x1.d23af80000000p-4, -0x1.0b8d920000000p-8, -0x1.2fbe300000000p-3, 0x1.4d28de0000000p-4, 0x1.495a780000000p-3, 0x1.b88bb80000000p-4, -0x1.6ce7500000000p-3, -0x1.a31ddc0000000p-5, -0x1.77f4ea0000000p-5, 0x1.d4eef00000000p-4, -0x1.da58720000000p-4, -0x1.44b4e60000000p-5, -0x1.8f37040000000p-4, 0x1.b26f940000000p-4}
, {0x1.3a89520000000p-4, -0x1.f784b80000000p-4, -0x1.801f120000000p-6, -0x1.73429a0000000p-5, 0x1.d2abd00000000p-4, 0x1.0920aa0000000p-3, 0x1.3e49ba0000000p-2, -0x1.0d710a0000000p-3, 0x1.dcbc1a0000000p-4, -0x1.f095460000000p-4, -0x1.a4640c0000000p-4, -0x1.08744e0000000p-3, -0x1.4ae11c0000000p-9, -0x1.f7528c0000000p-5, -0x1.c3714c0000000p-4, 0x1.3454440000000p-5, -0x1.4834860000000p-5, 0x1.ff46e40000000p-6, -0x1.da2b140000000p-9, 0x1.dabeb20000000p-5, 0x1.380e460000000p-3, -0x1.7623ce0000000p-4, -0x1.bf2b1a0000000p-7, 0x1.fbb5220000000p-3, 0x1.c5c27e0000000p-4, -0x1.5744ea0000000p-4, 0x1.a0c12c0000000p-7, 0x1.9564820000000p-4, 0x1.28b6940000000p-5, -0x1.d76b660000000p-5, -0x1.d85ce60000000p-4, 0x1.ad37f00000000p-5}
}
}
;

#undef INPUT_CHANNELS
#undef CONV_FILTERS
#undef CONV_KERNEL_SIZE
#undef CONV_GROUPS