/**
  ******************************************************************************
  * @file    weights/fc.cc
  * @author  Pierre-Emmanuel Novac <penovac@unice.fr>, LEAT, CNRS, Université Côte d'Azur, France
  * @version 1.0.0
  * @date    24 march 2020
  * @brief   Template generating plain C code for the implementation of Convolutional Neural Networks on MCU
  */

#include <stdint.h>

#define INPUT_SAMPLES 128
#define FC_UNITS 64


const float dense_28_bias[FC_UNITS] = {0x1.d49a9c0000000p-4, 0x1.0c8ee20000000p-1, 0x1.d17be80000000p-3, 0x1.b90b5a0000000p-3, -0x1.48d6fc0000000p-2, -0x1.4bcfa60000000p-2, 0x1.ebf51c0000000p-1, -0x1.0f08980000000p-4, -0x1.4fb9620000000p-2, 0x1.e4ce800000000p-3, 0x1.ad614c0000000p-2, 0x1.160e800000000p+0, 0x1.1951060000000p-2, 0x1.0e68d20000000p-1, 0x1.ce18760000000p-2, -0x1.fb37bc0000000p-2, 0x1.74fbce0000000p-2, -0x1.8ea53a0000000p-4, 0x1.f50fb60000000p-2, -0x1.efbc1c0000000p-3, -0x1.8732460000000p-2, -0x1.f64c3a0000000p-4, 0x1.1c9f260000000p-1, -0x1.70794c0000000p-4, 0x1.dc1be40000000p-1, -0x1.4ec5660000000p-4, 0x1.458df60000000p-1, 0x1.280c1a0000000p-1, 0x1.ba90ca0000000p-3, -0x1.ea5dda0000000p-3, -0x1.9bf9880000000p-6, 0x1.0754d00000000p-1, 0x1.04aa140000000p-5, 0x1.57aec80000000p-2, 0x1.d589280000000p-2, 0x1.09db180000000p-1, 0x1.09bf4a0000000p-3, -0x1.663ec00000000p-4, -0x1.5867280000000p-2, -0x1.68a1ca0000000p-4, -0x1.9773960000000p-2, 0x1.4214060000000p-1, -0x1.d012d60000000p-4, -0x1.5235d80000000p-3, 0x1.99109e0000000p-1, 0x1.1c2d8e0000000p-4, -0x1.4ebd080000000p-2, -0x1.1e72500000000p-4, -0x1.e261520000000p-3, 0x1.6476060000000p-5, -0x1.4fabd00000000p-1, -0x1.62feb20000000p-3, 0x1.76efac0000000p-1, 0x1.1957b20000000p-1, -0x1.8406b80000000p-2, 0x1.a21e580000000p-2, 0x1.b20a080000000p-2, -0x1.8047b20000000p-2, 0x1.0175c60000000p-6, 0x1.3d66220000000p-1, 0x1.7d9e280000000p-3, -0x1.22a9340000000p-6, 0x1.0dfdce0000000p-2, 0x1.9dd2ba0000000p-2}
;

const float dense_28_kernel[FC_UNITS][INPUT_SAMPLES] = {{0x1.485eac0000000p-4, 0x1.3f90220000000p-2, 0x1.9063e00000000p-6, -0x1.79da200000000p-2, -0x1.2bb78e0000000p-3, 0x1.1c302c0000000p-4, 0x1.a686a00000000p-6, -0x1.2486c40000000p-5, 0x1.3afb600000000p-2, -0x1.0ca08c0000000p-2, -0x1.b1ed0a0000000p-4, 0x1.0f1dda0000000p-1, 0x1.088d860000000p-2, -0x1.373bc40000000p-1, -0x1.4cd5600000000p-2, -0x1.2966f20000000p-5, -0x1.93993a0000000p-3, 0x1.005fd40000000p-3, -0x1.71e88e0000000p-5, 0x1.37def40000000p-3, 0x1.e30ce80000000p-3, 0x1.808a940000000p-4, -0x1.2a217c0000000p-4, -0x1.5ce4ac0000000p-2, -0x1.6106980000000p-3, 0x1.2fc7340000000p-2, 0x1.6e27b80000000p-2, -0x1.28ce700000000p-4, 0x1.bda4b40000000p-5, -0x1.d876880000000p-6, -0x1.4ac35e0000000p-6, 0x1.4d06160000000p-1, -0x1.458be40000000p-2, -0x1.81c4ea0000000p-4, -0x1.ee93b80000000p-3, 0x1.dd46a80000000p-3, -0x1.46d0860000000p-4, -0x1.1808c60000000p-2, -0x1.e846f40000000p-4, -0x1.398f0a0000000p-2, 0x1.6fd68a0000000p-2, 0x1.2aa0440000000p-3, 0x1.4c97060000000p-4, 0x1.760f180000000p-4, -0x1.13bfa40000000p-2, 0x1.ad745a0000000p-2, -0x1.075df40000000p-7, 0x1.0391100000000p-2, 0x1.2f89920000000p-3, -0x1.2dd7500000000p-3, 0x1.1ee7480000000p-3, 0x1.bda4de0000000p-3, -0x1.5d13120000000p-4, -0x1.d4d8a40000000p-5, 0x1.e5c8840000000p-4, 0x1.9988900000000p-6, 0x1.a63cb40000000p-1, 0x1.c692fa0000000p-3, -0x1.08269c0000000p-1, 0x1.78a32a0000000p-3, -0x1.8a3c680000000p-4, -0x1.13362a0000000p-3, -0x1.6c71c60000000p-3, -0x1.d103de0000000p-4, -0x1.1c15120000000p-3, 0x1.b115560000000p-4, 0x1.7a43e80000000p-5, -0x1.20b0240000000p-1, 0x1.badc0e0000000p-5, 0x1.3936ea0000000p-4, 0x1.9715260000000p-5, 0x1.2306680000000p-6, -0x1.9333e00000000p-2, -0x1.625a6e0000000p-4, -0x1.7e41c20000000p-5, -0x1.bf98dc0000000p-1, 0x1.c1f56c0000000p-3, -0x1.5804820000000p-4, 0x1.002e520000000p-1, 0x1.3832f80000000p-4, -0x1.dce6f00000000p-2, 0x1.6a8cfa0000000p-3, -0x1.2d39be0000000p-3, -0x1.d742200000000p-3, 0x1.cb9eca0000000p-3, -0x1.fe14c80000000p-5, 0x1.33eb9a0000000p-4, 0x1.7764f00000000p-5, -0x1.0c19ac0000000p-5, -0x1.81032e0000000p-2, 0x1.f886d80000000p-4, 0x1.f17fe40000000p-3, 0x1.be3f060000000p-3, 0x1.0e43ae0000000p-5, 0x1.e2b8040000000p-7, 0x1.64d6c80000000p-2, 0x1.dac3ca0000000p-4, -0x1.cf4f760000000p-3, -0x1.3697e40000000p-1, -0x1.83a0760000000p-1, 0x1.8048cc0000000p-5, -0x1.e4869c0000000p-4, -0x1.1b0a200000000p-2, 0x1.8a69d40000000p-4, -0x1.9208bc0000000p-6, 0x1.bebdca0000000p-3, 0x1.01c69e0000000p-7, 0x1.9f532a0000000p-3, -0x1.531f1c0000000p-2, -0x1.08e0120000000p-2, 0x1.0eb1280000000p-4, 0x1.afc14a0000000p-1, 0x1.a5ddc60000000p-3, 0x1.dd6dcc0000000p-3, 0x1.c9eca20000000p-4, 0x1.84d6ce0000000p-3, 0x1.969a640000000p-1, 0x1.60fd520000000p-5, -0x1.8436f00000000p+0, -0x1.27e2940000000p-3, -0x1.7859520000000p-7, -0x1.333d380000000p-3, 0x1.ec7d200000000p-1, -0x1.c3d3280000000p-3, -0x1.4f8ef80000000p+0, 0x1.53cec80000000p-5, 0x1.628d160000000p-4, -0x1.887e340000000p-4}
, {0x1.91414c0000000p-3, -0x1.8cf0c20000000p-3, -0x1.d7b3120000000p-2, 0x1.a69ad60000000p-5, 0x1.25e7e20000000p-2, 0x1.4986f20000000p-2, -0x1.88e1020000000p-6, -0x1.8a5dca0000000p-1, 0x1.8361420000000p-4, -0x1.bb01bc0000000p-1, 0x1.24a3c80000000p-3, -0x1.4d8ce00000000p-2, 0x1.942dd80000000p-2, 0x1.4caad20000000p-2, -0x1.29b97c0000000p-4, 0x1.3206300000000p-6, -0x1.fed98c0000000p-3, -0x1.1a1efe0000000p-5, -0x1.8970fa0000000p-1, -0x1.1335520000000p-1, 0x1.a2cdcc0000000p-3, 0x1.80bb2a0000000p-7, -0x1.819d980000000p-3, 0x1.e0da060000000p-8, 0x1.1814a20000000p-5, -0x1.c23ca60000000p-7, -0x1.e5cd520000000p-3, 0x1.3cf4740000000p-4, 0x1.048fb80000000p-2, -0x1.e5d5fa0000000p-6, 0x1.5ffda80000000p-3, -0x1.814e300000000p-3, -0x1.04dccc0000000p-1, 0x1.6198320000000p-3, -0x1.77e3900000000p-5, 0x1.bbd2960000000p-7, -0x1.628c1c0000000p-2, -0x1.5d0ebe0000000p-5, 0x1.898f200000000p-4, 0x1.eba69e0000000p-3, 0x1.0c96fe0000000p-1, 0x1.3d6d740000000p-3, -0x1.9eb7d60000000p-3, 0x1.aab5fa0000000p-3, -0x1.48af080000000p-4, 0x1.8ee70a0000000p-2, 0x1.af5f620000000p-3, 0x1.fc0ea80000000p-4, -0x1.35cb300000000p-3, -0x1.bf43f00000000p-2, -0x1.60b3560000000p-7, 0x1.f6b2de0000000p-3, 0x1.3188cc0000000p-5, -0x1.bd7aa40000000p-4, 0x1.686a860000000p-4, 0x1.1033000000000p-2, -0x1.bf54380000000p-4, 0x1.f2f7ac0000000p-4, 0x1.62a0160000000p-4, 0x1.c5df6c0000000p-3, 0x1.063c3c0000000p-3, -0x1.10d7120000000p-3, -0x1.6b05260000000p-3, -0x1.6047bc0000000p-5, 0x1.0d35440000000p-3, -0x1.40d2420000000p-3, 0x1.9e977c0000000p-2, 0x1.159df00000000p+0, 0x1.07fb1e0000000p-3, 0x1.9767260000000p-4, 0x1.0152180000000p-1, -0x1.bf694a0000000p-6, -0x1.4ca5180000000p-6, -0x1.7918700000000p-4, 0x1.d5e28c0000000p-5, -0x1.527f600000000p-2, 0x1.feef020000000p-4, -0x1.c859240000000p-2, 0x1.c1f0840000000p-2, -0x1.f2baf40000000p-3, -0x1.b311fc0000000p-4, 0x1.d7ac4e0000000p-3, -0x1.96f7880000000p-3, 0x1.8d9a8c0000000p-4, 0x1.121e300000000p-1, 0x1.6953f20000000p-5, -0x1.e96f3e0000000p-5, 0x1.7a1b2c0000000p-4, -0x1.040f7e0000000p-4, -0x1.c840160000000p-3, 0x1.62aa700000000p-3, -0x1.ed4c0a0000000p-9, 0x1.13e84e0000000p-1, -0x1.be8c5a0000000p-3, 0x1.9676e40000000p-5, 0x1.559bb80000000p-2, -0x1.42159a0000000p-5, 0x1.44614a0000000p-3, -0x1.8656040000000p-2, -0x1.f22e920000000p-1, 0x1.b814660000000p-3, 0x1.530d480000000p-4, 0x1.bd95b20000000p-2, -0x1.226b0e0000000p-2, 0x1.1057d60000000p-4, 0x1.d37ede0000000p-4, -0x1.5f808e0000000p-2, 0x1.1c9a120000000p-5, -0x1.9786ca0000000p-2, -0x1.1f007a0000000p+0, -0x1.04ba220000000p-1, 0x1.c06f400000000p-3, 0x1.31e96e0000000p-9, -0x1.3355160000000p-3, 0x1.3fd6040000000p-2, -0x1.0e4a620000000p-4, 0x1.753a380000000p-3, -0x1.e759b80000000p-3, -0x1.8bad1c0000000p-3, 0x1.81d04c0000000p-7, 0x1.cf92300000000p-3, 0x1.42c9fc0000000p-4, 0x1.0793580000000p-1, 0x1.44827a0000000p-2, -0x1.4516fa0000000p+0, -0x1.8c21620000000p-4, -0x1.dce6e20000000p-4, -0x1.2fd4720000000p-3}
, {-0x1.53e21e0000000p-5, -0x1.8f5c6c0000000p-4, 0x1.c1f50c0000000p-4, 0x1.d6ecac0000000p-4, -0x1.53c0420000000p-2, 0x1.2266c80000000p-5, 0x1.655fc40000000p-3, -0x1.df1a960000000p-8, 0x1.a1189c0000000p-3, 0x1.2b0a520000000p-1, -0x1.65bd1a0000000p-4, -0x1.75f3240000000p-2, -0x1.620b320000000p-4, -0x1.d305940000000p-3, 0x1.5135220000000p-2, 0x1.9292700000000p-4, 0x1.96c0060000000p-3, 0x1.dc06280000000p-3, 0x1.e489cc0000000p-4, -0x1.dc9a6e0000000p-3, -0x1.c668f20000000p-5, 0x1.fdab480000000p-8, -0x1.cdef420000000p-1, 0x1.4a51800000000p-3, -0x1.3cd8720000000p-1, 0x1.9eb7f60000000p-3, -0x1.e230360000000p-3, 0x1.1e9af40000000p-5, 0x1.64f1640000000p-3, -0x1.7dea040000000p-1, 0x1.0301940000000p-4, 0x1.29a31c0000000p-3, -0x1.f9030a0000000p-3, -0x1.15bdc20000000p-3, 0x1.f3d9f00000000p-4, 0x1.45df5a0000000p-4, -0x1.26beb00000000p-1, -0x1.44efae0000000p-2, 0x1.d1d3400000000p-6, -0x1.84aafa0000000p-3, 0x1.7630b40000000p-3, 0x1.bcd6e80000000p-4, 0x1.46ff040000000p-2, -0x1.763f9c0000000p-6, 0x1.15ddd40000000p-3, -0x1.a916960000000p-2, -0x1.1ac7920000000p-6, 0x1.1c962c0000000p-4, 0x1.2410400000000p-5, -0x1.6664c40000000p-2, 0x1.e97f3e0000000p-5, 0x1.7b97600000000p-1, -0x1.3045d20000000p-4, -0x1.48cca00000000p-4, -0x1.c0718e0000000p-4, -0x1.4c0a040000000p-3, 0x1.5f119a0000000p-2, 0x1.9ec8ca0000000p-3, 0x1.55b37e0000000p-3, 0x1.30467c0000000p-2, -0x1.c0c0c80000000p-4, -0x1.6321640000000p-3, -0x1.36e43c0000000p-3, -0x1.d5fdd80000000p-4, -0x1.7856600000000p-2, -0x1.c0121a0000000p-7, -0x1.4134600000000p-3, -0x1.617cac0000000p-7, 0x1.51c3d80000000p-4, -0x1.9a567c0000000p-4, -0x1.7eb3860000000p-4, 0x1.7c24a40000000p-4, 0x1.66db4e0000000p-2, 0x1.b623f80000000p-3, 0x1.1a7e0e0000000p-4, -0x1.df7e7a0000000p-2, 0x1.3525800000000p-3, -0x1.2a4a2e0000000p-2, -0x1.4d1c0a0000000p-3, 0x1.6c6a260000000p-5, -0x1.09d7160000000p-2, -0x1.cf08aa0000000p-5, -0x1.10527a0000000p-2, -0x1.077bb40000000p-1, 0x1.9bb81e0000000p-4, -0x1.f69d200000000p-6, 0x1.5c2e8c0000000p-3, 0x1.617c840000000p-3, 0x1.7882a40000000p-4, -0x1.9a37dc0000000p-2, -0x1.92f8160000000p-7, -0x1.9569be0000000p-1, 0x1.21d83e0000000p-2, -0x1.9188300000000p-1, -0x1.2fed140000000p-8, -0x1.2b69e60000000p-2, -0x1.9e6bb80000000p-11, 0x1.4eb4a80000000p-1, -0x1.d208f80000000p-3, 0x1.cff1100000000p-3, 0x1.1008fe0000000p-2, -0x1.ffcdb20000000p-4, -0x1.57b5700000000p-2, 0x1.60eef80000000p-3, 0x1.fdb8a60000000p-4, 0x1.4dfc440000000p-4, 0x1.d7911c0000000p-8, 0x1.b830180000000p-3, 0x1.ef77d80000000p-6, -0x1.7c219c0000000p-2, -0x1.96cb820000000p-2, -0x1.088ee80000000p-2, 0x1.d021be0000000p-4, -0x1.5ca8920000000p-2, -0x1.84f7fa0000000p-5, 0x1.5f6e480000000p-4, -0x1.acfb460000000p-1, 0x1.473d300000000p-2, -0x1.7376400000000p-1, -0x1.b944620000000p-3, 0x1.7b6f800000000p-4, -0x1.52481c0000000p-3, 0x1.8863b40000000p-2, -0x1.1cdb620000000p-3, 0x1.ad14320000000p-3, 0x1.91a94e0000000p-3, 0x1.6d53240000000p-3, -0x1.7001680000000p-3}
, {-0x1.1740700000000p-3, 0x1.0441f60000000p-2, 0x1.a871e60000000p-6, 0x1.11902e0000000p-4, 0x1.73a4600000000p-4, 0x1.b2dfc00000000p-4, 0x1.cc36200000000p-4, -0x1.e7d0300000000p-3, 0x1.e4e5ca0000000p-1, -0x1.37c56e0000000p-1, -0x1.77e2640000000p-5, 0x1.e5d4da0000000p-5, -0x1.3a000e0000000p-6, -0x1.30175e0000000p-1, -0x1.cb83860000000p-2, -0x1.9d48c40000000p-8, 0x1.7279720000000p-2, 0x1.0f72a80000000p-3, 0x1.658ee20000000p-3, -0x1.a6b3b60000000p-2, -0x1.be47120000000p-4, -0x1.2701a40000000p-4, -0x1.9863e00000000p-1, 0x1.6858220000000p-2, -0x1.d2eb020000000p-3, 0x1.821e880000000p-3, 0x1.f9eb500000000p-3, 0x1.e8f1d80000000p-5, -0x1.8c20d20000000p-2, 0x1.d884340000000p-5, -0x1.fd43700000000p-6, 0x1.6607a20000000p-2, 0x1.4c4d460000000p-1, 0x1.108c300000000p-4, 0x1.4783240000000p-2, -0x1.5d268e0000000p-4, -0x1.401e360000000p-2, -0x1.491b500000000p-1, 0x1.94c1fc0000000p-3, 0x1.32dbcc0000000p-4, 0x1.3d3d000000000p-4, 0x1.e39df80000000p-4, -0x1.5ab8140000000p-1, 0x1.d9075e0000000p-4, 0x1.4cc2ea0000000p-2, -0x1.23dbfe0000000p-5, 0x1.8770480000000p-3, -0x1.488de80000000p-2, 0x1.aa42a20000000p-7, -0x1.2e2c2c0000000p-3, 0x1.55614e0000000p-5, 0x1.11692a0000000p-1, 0x1.111e820000000p-7, 0x1.34696e0000000p-4, 0x1.8630c00000000p-3, 0x1.57917e0000000p-6, 0x1.2cc42c0000000p-4, -0x1.653d6e0000000p-4, -0x1.00cb7a0000000p-3, 0x1.3b3e880000000p-3, -0x1.64acd80000000p-4, 0x1.7b5c080000000p-5, -0x1.28f18e0000000p-2, -0x1.9ee79a0000000p-5, 0x1.96d8c60000000p-3, 0x1.41a2a60000000p-3, 0x1.06a2500000000p-1, -0x1.9819c40000000p-1, 0x1.459aba0000000p-3, 0x1.5bb2b40000000p-3, 0x1.2c80340000000p-1, 0x1.47e87a0000000p-6, 0x1.16887e0000000p-2, -0x1.7310900000000p-5, -0x1.df67680000000p-3, -0x1.d1723e0000000p-2, 0x1.06f5980000000p-6, -0x1.b00c880000000p-3, 0x1.88ed300000000p-3, -0x1.1955d40000000p-4, -0x1.cf83660000000p-2, 0x1.dd50ec0000000p-4, 0x1.2fe4da0000000p-2, -0x1.db81b60000000p-3, 0x1.aa55c60000000p-6, -0x1.2076600000000p-6, 0x1.7489c60000000p-3, -0x1.a703fe0000000p-5, 0x1.903a540000000p-3, 0x1.caf54e0000000p-10, 0x1.fd95a80000000p-7, -0x1.f499700000000p-4, 0x1.8f4a820000000p-3, 0x1.5fee240000000p-2, -0x1.20a5b00000000p-3, -0x1.46f86e0000000p-2, 0x1.8a39940000000p-5, -0x1.c271f20000000p-4, -0x1.a868260000000p-2, -0x1.9d15da0000000p-3, -0x1.6c9a420000000p-3, -0x1.3ab39c0000000p-3, 0x1.c4292a0000000p-3, -0x1.f4383e0000000p-4, 0x1.004f200000000p-2, -0x1.6a3b0e0000000p-8, -0x1.48b8980000000p-2, 0x1.5446b40000000p-4, -0x1.20843c0000000p-3, -0x1.8a7f7e0000000p-2, -0x1.d0708a0000000p-5, 0x1.4096fe0000000p-2, 0x1.07b0120000000p-3, -0x1.b8e4f40000000p-1, 0x1.e5a84a0000000p-5, -0x1.88467a0000000p-5, -0x1.f249ac0000000p-4, -0x1.56aac60000000p-3, -0x1.a693f00000000p-2, 0x1.0827fc0000000p-7, -0x1.fb765a0000000p-6, 0x1.80b1540000000p-2, 0x1.0fafba0000000p-2, 0x1.a4a5080000000p-10, 0x1.76908c0000000p-1, 0x1.409e120000000p-8, 0x1.9fc59a0000000p-3, -0x1.c958200000000p-2}
, {0x1.2d27320000000p-6, -0x1.57ea360000000p-4, -0x1.9ef2ae0000000p-1, -0x1.4399ce0000000p-2, -0x1.38a2480000000p-2, -0x1.55df140000000p-4, -0x1.37b6a60000000p-3, -0x1.b65a340000000p-2, -0x1.d1ed080000000p-2, 0x1.30bc740000000p-4, -0x1.73e1020000000p-3, -0x1.1fcda60000000p-2, -0x1.511d540000000p-3, -0x1.93cd280000000p-1, -0x1.0543a00000000p-3, 0x1.6a202c0000000p-4, 0x1.221d9e0000000p-2, -0x1.d0e9520000000p-5, 0x1.754db20000000p-2, -0x1.b989540000000p-2, 0x1.7607180000000p-8, 0x1.3f038c0000000p-4, -0x1.fbd9a80000000p-5, -0x1.00a7d00000000p-1, 0x1.9334460000000p-3, 0x1.d363f00000000p-5, -0x1.e6585c0000000p-4, -0x1.a480540000000p-4, -0x1.218bee0000000p-2, -0x1.97054c0000000p-2, -0x1.bf2aa20000000p-3, -0x1.a3fc000000000p-4, -0x1.d587300000000p-3, -0x1.91ce440000000p-2, -0x1.372e920000000p-2, -0x1.0eeed40000000p-5, -0x1.5f20d60000000p-2, -0x1.071e120000000p-1, 0x1.17b57a0000000p-6, -0x1.84b2560000000p-3, -0x1.4d17620000000p+0, -0x1.068ea40000000p-4, 0x1.2b9bda0000000p-1, 0x1.5e0e920000000p-5, -0x1.f410900000000p-2, 0x1.028c8c0000000p-2, -0x1.d22f2e0000000p-3, 0x1.890e680000000p-6, -0x1.d731220000000p-6, -0x1.60e0940000000p-2, 0x1.40b75a0000000p-5, 0x1.b5cf240000000p-4, 0x1.97ecda0000000p-6, 0x1.ede7980000000p-5, -0x1.be39660000000p-7, 0x1.4f17140000000p-4, 0x1.4ad2f80000000p-5, -0x1.1d108c0000000p-4, -0x1.95e0ae0000000p-5, -0x1.7d8c500000000p-2, 0x1.423efa0000000p-4, 0x1.a051ba0000000p-4, -0x1.00182a0000000p-1, 0x1.c01c880000000p-4, 0x1.a0b9e40000000p-3, -0x1.befcbc0000000p-3, -0x1.8dc5dc0000000p-1, 0x1.a827b00000000p-2, -0x1.5a1e5c0000000p-5, -0x1.79dae80000000p-5, -0x1.ee3f080000000p-2, 0x1.87dd260000000p-3, -0x1.e5886e0000000p-2, 0x1.7c3a2a0000000p-6, -0x1.3cfcd80000000p-8, -0x1.1331e80000000p-1, 0x1.60e7840000000p-5, -0x1.016f360000000p-4, -0x1.0ccd580000000p-3, 0x1.e7aa720000000p-2, -0x1.2bb9ea0000000p-2, 0x1.7947600000000p-4, -0x1.5c1fe40000000p-3, -0x1.3ae5ee0000000p-2, 0x1.37951a0000000p-4, -0x1.f462a40000000p-6, -0x1.1926960000000p-3, -0x1.51d7fe0000000p-3, 0x1.d0c17e0000000p-4, -0x1.77e1420000000p-2, -0x1.4a12ac0000000p-5, -0x1.35468e0000000p+0, -0x1.6c77fe0000000p-2, -0x1.c121a20000000p-1, -0x1.0bd4fc0000000p-3, -0x1.9885e20000000p-1, -0x1.5e273a0000000p-7, 0x1.c832300000000p-2, -0x1.4d0f7c0000000p-2, -0x1.75ad4c0000000p-3, -0x1.1964be0000000p-4, -0x1.3533400000000p-8, -0x1.55aa360000000p-3, -0x1.b59c280000000p-3, -0x1.cc46a80000000p-3, -0x1.4b9ba00000000p-5, -0x1.25212c0000000p-2, -0x1.b48c6e0000000p-5, -0x1.7efd400000000p-4, -0x1.da45760000000p-3, -0x1.10c5720000000p-1, -0x1.ecf6620000000p-2, 0x1.a635720000000p-4, -0x1.2f94cc0000000p-1, -0x1.821e1e0000000p-4, 0x1.028c700000000p-5, 0x1.19b1fc0000000p-3, 0x1.aabb9c0000000p-5, 0x1.d5e57e0000000p-2, 0x1.75a2620000000p-5, 0x1.3f7ddc0000000p-5, -0x1.816f860000000p-1, 0x1.3322460000000p-5, -0x1.e39fe60000000p-3, -0x1.d9a2700000000p-5, 0x1.31a8540000000p-6, -0x1.fce4ae0000000p-5, -0x1.165b7c0000000p-6}
, {-0x1.8917d80000000p-3, -0x1.6d2bf80000000p-5, -0x1.5f4a140000000p-2, -0x1.bba3600000000p-3, -0x1.6dc3e60000000p-2, 0x1.08774c0000000p-8, -0x1.2353120000000p-5, -0x1.b55bd00000000p-8, -0x1.6b34c80000000p-2, -0x1.b0ed9a0000000p-3, 0x1.0ecdea0000000p-3, -0x1.84ead80000000p-2, -0x1.ac69000000000p-4, -0x1.359c780000000p-3, -0x1.09127e0000000p-2, 0x1.14c02c0000000p-4, 0x1.f8a66a0000000p-3, 0x1.1b743c0000000p-4, 0x1.db62420000000p-3, -0x1.3048580000000p-1, 0x1.cbeac00000000p-7, -0x1.145cfc0000000p-4, -0x1.332bc80000000p-3, -0x1.2b776c0000000p-1, 0x1.3530840000000p-7, 0x1.5fca9a0000000p-4, -0x1.749dbe0000000p-1, 0x1.da637e0000000p-4, 0x1.9beab20000000p-6, 0x1.3701b00000000p-4, 0x1.36289e0000000p-4, -0x1.c9132c0000000p-2, -0x1.05299a0000000p-3, -0x1.46387e0000000p-3, -0x1.c43b1c0000000p-6, -0x1.ca0b840000000p-6, -0x1.e5ab400000000p-4, -0x1.ce65740000000p-2, -0x1.8f270e0000000p-3, -0x1.2223960000000p-4, -0x1.b6711e0000000p-3, -0x1.522b160000000p-3, -0x1.d2433a0000000p-5, 0x1.d2f81c0000000p-5, -0x1.aae0ca0000000p-3, 0x1.f21ece0000000p-4, 0x1.b9ae000000000p-4, -0x1.4d39660000000p-4, -0x1.8d3e100000000p-4, -0x1.4158a60000000p-6, -0x1.e415b20000000p-3, 0x1.7855ea0000000p-7, -0x1.33b6bc0000000p-3, -0x1.1fdc3e0000000p-5, 0x1.89ac100000000p-5, -0x1.ac974c0000000p-2, -0x1.bda3960000000p-2, -0x1.808bdc0000000p-3, -0x1.4aa6920000000p-1, -0x1.3319f60000000p-3, 0x1.8f520e0000000p-4, -0x1.b6916a0000000p-3, -0x1.5804060000000p-3, -0x1.16d5c40000000p-5, -0x1.a5a3ba0000000p-3, 0x1.b32f500000000p-7, 0x1.3de65a0000000p-5, -0x1.badb200000000p-4, -0x1.5536ca0000000p-3, 0x1.848a800000000p-8, 0x1.cee1a00000000p-7, 0x1.0d50980000000p-5, -0x1.0ce7000000000p-2, 0x1.cd2c620000000p-5, -0x1.1541ae0000000p-6, 0x1.d178d00000000p-4, -0x1.ae1b4a0000000p-4, -0x1.dbc25a0000000p-3, -0x1.167dc60000000p-4, -0x1.8366c00000000p-2, 0x1.3607440000000p-4, -0x1.3714b80000000p-4, -0x1.50f7200000000p-2, -0x1.26fd120000000p-4, 0x1.9b5ccc0000000p-6, -0x1.629ad20000000p-8, -0x1.cab38a0000000p-5, 0x1.ce7da40000000p-4, 0x1.58f2ec0000000p-5, -0x1.1f01520000000p-3, -0x1.8e06ca0000000p-3, -0x1.60fdd80000000p-4, -0x1.b963220000000p-3, -0x1.f876440000000p-2, -0x1.88cd6e0000000p-4, -0x1.344bd60000000p-2, -0x1.6e79000000000p-3, 0x1.56c68e0000000p-2, -0x1.c092ac0000000p-3, -0x1.1124600000000p-1, -0x1.2499480000000p-4, 0x1.fec34c0000000p-7, 0x1.834eb00000000p-3, -0x1.325d220000000p-3, -0x1.4ce77c0000000p-4, 0x1.57880e0000000p-4, -0x1.f750f00000000p-5, 0x1.5565520000000p-5, -0x1.5725ba0000000p-2, -0x1.fefd220000000p-3, -0x1.04c22e0000000p-2, -0x1.29d2ba0000000p-4, -0x1.3d0a880000000p-3, -0x1.662a180000000p-5, -0x1.947ab40000000p-8, -0x1.a4e04c0000000p-4, -0x1.5add420000000p-2, -0x1.e24b3c0000000p-2, -0x1.d0dc1c0000000p-5, -0x1.57e8040000000p-8, -0x1.8304b60000000p-4, -0x1.02bf2c0000000p-2, -0x1.6a08e00000000p-5, -0x1.a7d9f80000000p-3, 0x1.189f9e0000000p-7, -0x1.1c2a760000000p-4, -0x1.7e60b00000000p-4, -0x1.70dd5e0000000p-5}
, {0x1.e76d320000000p-2, -0x1.ef31fa0000000p-4, -0x1.5462140000000p-3, 0x1.2ad1c80000000p-3, 0x1.0707a00000000p-3, -0x1.0e0f080000000p-2, -0x1.1de83a0000000p-2, -0x1.18769a0000000p-4, -0x1.211ea20000000p+0, -0x1.2116f20000000p-2, 0x1.05d31c0000000p-2, 0x1.4368e00000000p-3, 0x1.d5d3860000000p-2, 0x1.b879e80000000p-3, 0x1.618dee0000000p-1, -0x1.ed03940000000p-4, 0x1.790d140000000p-3, 0x1.61fb380000000p-3, -0x1.3cddc40000000p-6, -0x1.5d24380000000p+0, -0x1.bc68700000000p-4, -0x1.3cd4480000000p-3, -0x1.a13bb60000000p-1, 0x1.4b1e360000000p-1, -0x1.afa1fc0000000p-1, 0x1.c6f26c0000000p-4, 0x1.bcf8520000000p-4, -0x1.d1effe0000000p-4, 0x1.785ae40000000p-4, 0x1.430d160000000p-1, -0x1.3e3b800000000p-3, -0x1.7341100000000p-2, -0x1.4241ba0000000p-1, -0x1.dcb7680000000p-4, -0x1.329c0e0000000p+0, 0x1.dfd1020000000p-4, -0x1.2ac81a0000000p-3, -0x1.d6c88a0000000p-3, -0x1.0eb5c00000000p-10, -0x1.53a4080000000p-6, -0x1.2d56e00000000p-6, -0x1.0def4c0000000p-2, -0x1.d2780e0000000p-3, -0x1.3b847a0000000p-3, -0x1.7b25a80000000p-2, -0x1.3f44320000000p-2, -0x1.2240ae0000000p-3, -0x1.a98b780000000p-3, 0x1.124b860000000p-5, -0x1.1d97400000000p+0, 0x1.0d651a0000000p-3, -0x1.f9f7be0000000p-1, 0x1.225f0a0000000p-7, 0x1.667bf40000000p-4, -0x1.020d020000000p-4, 0x1.3eaef40000000p-3, -0x1.615fee0000000p-3, -0x1.4a916e0000000p-3, 0x1.14fd1a0000000p-2, 0x1.1a70c40000000p-4, 0x1.966b000000000p-8, 0x1.7cd4040000000p-2, -0x1.0bb3640000000p-4, -0x1.85cc800000000p-5, -0x1.b013240000000p-2, -0x1.847db00000000p-5, -0x1.1d0e060000000p-4, 0x1.2adc2a0000000p-5, -0x1.8b167a0000000p-4, -0x1.b1bfd60000000p-5, -0x1.2f85420000000p-1, -0x1.b9b1460000000p-4, 0x1.29fd540000000p-6, -0x1.e81b0c0000000p-5, 0x1.3d2d1e0000000p-1, 0x1.4a73880000000p-2, 0x1.176cb00000000p-5, -0x1.9d14ec0000000p-8, 0x1.9ccdd40000000p-2, -0x1.538f540000000p-1, 0x1.38489e0000000p-3, -0x1.29afa80000000p-3, 0x1.6e4bf40000000p-2, -0x1.03fd2a0000000p-2, -0x1.ffb66a0000000p-5, 0x1.c759ec0000000p-3, -0x1.58b5980000000p-5, -0x1.45c9e80000000p-5, 0x1.4f199e0000000p-3, 0x1.367bc80000000p-2, 0x1.442efc0000000p-5, -0x1.461df00000000p-3, -0x1.d6a44a0000000p-3, 0x1.dbdcfa0000000p-3, 0x1.9fdc8c0000000p-4, 0x1.7c41a80000000p-4, 0x1.ddf80c0000000p-4, 0x1.9c5c2c0000000p-2, -0x1.56e8d80000000p-1, -0x1.1f71ac0000000p+0, -0x1.11d8120000000p-3, -0x1.8ead360000000p-4, 0x1.0d8afa0000000p-2, -0x1.b17e380000000p-3, 0x1.a618a40000000p-2, -0x1.18bbd80000000p-5, -0x1.dd3d7e0000000p-2, 0x1.86f1640000000p-4, 0x1.92e4540000000p-4, -0x1.f373f20000000p-3, 0x1.befc0a0000000p-5, -0x1.41005e0000000p-1, -0x1.8cd8400000000p-8, -0x1.e01bee0000000p-2, -0x1.c29ad00000000p-2, 0x1.971a2c0000000p-4, 0x1.a4d1780000000p-2, -0x1.3932a60000000p-3, -0x1.1b173c0000000p-1, -0x1.1cfd1e0000000p-2, -0x1.c640f80000000p-4, 0x1.47d8fc0000000p-2, 0x1.bcf9580000000p-2, -0x1.7e294c0000000p-4, -0x1.7c5c8a0000000p-2, 0x1.efd0320000000p-10, -0x1.0835860000000p-3, -0x1.15e69c0000000p+0}
, {-0x1.7b871a0000000p-4, -0x1.8ea1540000000p-4, -0x1.d151a80000000p-3, 0x1.0781ce0000000p-6, -0x1.3970580000000p-2, 0x1.6e48340000000p-5, 0x1.a7fcba0000000p-4, -0x1.f4fe5c0000000p-3, -0x1.10f92e0000000p-3, 0x1.fe40b40000000p-4, 0x1.4e6df00000000p-8, 0x1.2f8e3e0000000p-5, 0x1.0e9f3a0000000p-4, -0x1.2f446e0000000p-4, -0x1.55c3180000000p-3, -0x1.d14d3c0000000p-6, -0x1.1e1b060000000p-3, -0x1.66fdf40000000p-3, -0x1.dfd4be0000000p-3, -0x1.d4892c0000000p-5, 0x1.bf84880000000p-4, -0x1.10f2de0000000p-3, -0x1.6335a40000000p-3, -0x1.c946e80000000p-3, -0x1.069f980000000p-3, -0x1.61cec20000000p-10, 0x1.e5ed800000000p-6, 0x1.3ddee20000000p-4, -0x1.b6764a0000000p-4, -0x1.6801220000000p-4, 0x1.58338a0000000p-3, -0x1.0917f80000000p-3, -0x1.e119a40000000p-5, -0x1.39029c0000000p-4, -0x1.7182420000000p-3, -0x1.b7d58a0000000p-4, -0x1.72981c0000000p-2, -0x1.f276e80000000p-3, -0x1.7036300000000p-4, -0x1.1399e40000000p-5, -0x1.453da60000000p-3, -0x1.f10af60000000p-5, -0x1.34df340000000p-3, 0x1.1830d80000000p-6, -0x1.b1ac800000000p-3, -0x1.d20bf00000000p-4, -0x1.abfdf00000000p-3, 0x1.3fff8c0000000p-4, 0x1.1c978a0000000p-3, -0x1.15b5940000000p-4, 0x1.47308c0000000p-5, 0x1.0729500000000p-6, 0x1.e8e22a0000000p-5, -0x1.afa6620000000p-3, 0x1.8dbaca0000000p-6, -0x1.a06ef60000000p-3, -0x1.cc35360000000p-4, -0x1.a902f00000000p-3, -0x1.6cb6860000000p-2, -0x1.9325960000000p-3, -0x1.5d3bb00000000p-3, 0x1.a891780000000p-4, -0x1.f0a3a20000000p-3, -0x1.0ae44c0000000p-5, -0x1.95d8840000000p-3, -0x1.04f3120000000p-5, -0x1.9cae2c0000000p-4, 0x1.b71d000000000p-8, 0x1.0be2780000000p-4, -0x1.a57d160000000p-3, 0x1.f95f3c0000000p-5, 0x1.f2d4de0000000p-3, 0x1.0d41460000000p-10, 0x1.84c6c40000000p-4, 0x1.ad9dd00000000p-4, -0x1.81eadc0000000p-3, -0x1.52e47a0000000p-4, -0x1.ee8d480000000p-4, 0x1.2b63d20000000p-4, -0x1.02037a0000000p-2, -0x1.20c4360000000p-2, -0x1.c6e33a0000000p-6, -0x1.4e83320000000p-3, -0x1.0558420000000p-3, -0x1.7fe0fe0000000p-3, -0x1.38601e0000000p-3, 0x1.85ed000000000p-4, 0x1.62b5b60000000p-5, -0x1.7e678a0000000p-4, -0x1.d4eb3c0000000p-3, 0x1.61f0e40000000p-4, -0x1.a204dc0000000p-6, -0x1.bcea8c0000000p-8, -0x1.61ae6c0000000p-3, -0x1.a85c180000000p-4, -0x1.9a33500000000p-4, -0x1.0ca0260000000p-6, -0x1.03cfb40000000p-4, -0x1.ee23f60000000p-4, 0x1.f9b1560000000p-5, -0x1.d6830e0000000p-6, -0x1.9370000000000p-4, 0x1.4640000000000p-4, -0x1.7235bc0000000p-3, -0x1.31191c0000000p-5, 0x1.a53e260000000p-3, -0x1.354c320000000p-3, 0x1.7a8c1a0000000p-4, -0x1.0fd2180000000p-7, -0x1.32e2840000000p-3, -0x1.009f4a0000000p-4, 0x1.1b5fd40000000p-4, 0x1.63be6e0000000p-4, -0x1.51f0f20000000p-2, 0x1.09b85e0000000p-9, -0x1.1ef75c0000000p-4, -0x1.a4d8de0000000p-3, -0x1.8836780000000p-3, -0x1.955e4e0000000p-3, 0x1.dd1a2a0000000p-7, -0x1.43d8ae0000000p-3, -0x1.9983ea0000000p-3, -0x1.739e1c0000000p-3, -0x1.1d20280000000p-4, 0x1.69010c0000000p-3, 0x1.6b134a0000000p-7, 0x1.a384720000000p-4, -0x1.3866800000000p-2}
, {-0x1.1bf9840000000p-6, -0x1.b0f3500000000p-4, -0x1.010ab20000000p-3, -0x1.22936a0000000p-3, -0x1.3f47140000000p-3, -0x1.72fb880000000p-4, 0x1.d36ac20000000p-4, -0x1.35456e0000000p-1, 0x1.0deb1e0000000p-2, 0x1.490f0a0000000p-2, 0x1.3423320000000p-5, 0x1.97ca440000000p-4, -0x1.58e2e80000000p-6, -0x1.87338a0000000p-3, -0x1.82f9220000000p-2, 0x1.6ad2540000000p-6, -0x1.a0b3da0000000p-3, -0x1.969f0c0000000p-4, -0x1.77def00000000p-1, -0x1.573d880000000p-2, -0x1.304ed60000000p-7, 0x1.a0edcc0000000p-5, -0x1.127a520000000p-1, -0x1.80f78a0000000p-1, -0x1.f12e940000000p-2, -0x1.6d9ef40000000p-3, -0x1.aacc3a0000000p-7, -0x1.a72b500000000p-3, -0x1.3d08460000000p-4, -0x1.251ee60000000p-2, -0x1.75c8220000000p-3, -0x1.10bc2e0000000p-1, -0x1.2e62ae0000000p-1, 0x1.98633c0000000p-2, -0x1.77db600000000p-2, 0x1.5e66220000000p-4, -0x1.67c2dc0000000p-5, -0x1.f32dea0000000p-3, 0x1.f1a32e0000000p-6, -0x1.d169560000000p-3, -0x1.057f9a0000000p-1, -0x1.da6f880000000p-3, -0x1.466ce40000000p-3, 0x1.c9218c0000000p-4, -0x1.810c6c0000000p-2, 0x1.3e79f60000000p-3, -0x1.2ea5be0000000p-3, 0x1.9b14860000000p-4, -0x1.c569940000000p-3, 0x1.e809a20000000p-5, 0x1.d82aa40000000p-4, -0x1.3b617e0000000p-2, -0x1.df67fa0000000p-2, -0x1.8ad8f20000000p-3, -0x1.1e2b620000000p-3, -0x1.e8564e0000000p-2, 0x1.41d2da0000000p-3, 0x1.ccdf300000000p-5, -0x1.7d07800000000p-2, -0x1.8a00cc0000000p-8, -0x1.4ba6880000000p-5, 0x1.48f6c80000000p-5, -0x1.d87c6a0000000p-1, -0x1.2f46980000000p-3, -0x1.62ff680000000p-2, -0x1.4597fe0000000p-8, -0x1.9cf07e0000000p-3, 0x1.2729440000000p-1, -0x1.2b35a20000000p-3, 0x1.a7352a0000000p-4, 0x1.23f82e0000000p-2, 0x1.7746cc0000000p-3, -0x1.449cf60000000p-2, -0x1.3c334e0000000p-3, -0x1.3855d40000000p-2, -0x1.4635d40000000p-4, 0x1.1dc0520000000p-5, -0x1.7b22600000000p-3, -0x1.c0476a0000000p-3, -0x1.3a02be0000000p-2, -0x1.af41da0000000p-2, -0x1.3511400000000p-4, 0x1.15a8220000000p-6, -0x1.aadb500000000p-2, -0x1.964ce40000000p-2, 0x1.4ca3240000000p-5, -0x1.fa4f760000000p-4, -0x1.10b4700000000p-3, 0x1.513e0c0000000p-4, -0x1.3b8b100000000p-3, 0x1.6fdb7a0000000p-5, -0x1.0a0ca80000000p-1, 0x1.3817c80000000p-5, -0x1.a00a9c0000000p-3, -0x1.9f88b40000000p-4, -0x1.782d6c0000000p-2, 0x1.fb21de0000000p-5, -0x1.27e3380000000p-2, -0x1.48bd580000000p-1, -0x1.37f1380000000p-2, -0x1.c5a0580000000p-8, -0x1.5582d20000000p-5, -0x1.9887f20000000p-6, 0x1.cbe6900000000p-4, -0x1.a070ee0000000p-3, -0x1.fde8d40000000p-5, 0x1.362be80000000p-2, -0x1.3228180000000p-3, -0x1.57d3d60000000p-3, -0x1.dd69660000000p-2, -0x1.31e0f80000000p-3, -0x1.01a90c0000000p-2, -0x1.a70e8a0000000p-6, -0x1.d375560000000p-2, 0x1.08563e0000000p-4, -0x1.2ced920000000p-3, -0x1.511e080000000p-2, -0x1.c6712c0000000p-1, -0x1.52d17a0000000p-3, 0x1.2432a80000000p-5, 0x1.0638ba0000000p-4, 0x1.2741ca0000000p-3, 0x1.8382780000000p-2, -0x1.567eca0000000p-2, -0x1.b8be460000000p-6, -0x1.6e6c160000000p-3, -0x1.8a48c60000000p-5, -0x1.4b3b940000000p-3}
, {0x1.00bcae0000000p-4, -0x1.85354c0000000p-4, -0x1.2ca8ba0000000p-2, 0x1.59a89e0000000p-1, 0x1.1d01a60000000p-3, 0x1.c4fab00000000p-3, 0x1.6047840000000p-2, -0x1.b41b900000000p-4, -0x1.0252d80000000p-5, -0x1.615a840000000p-1, 0x1.33cc3a0000000p-4, -0x1.f044c80000000p-2, -0x1.07f1200000000p-4, -0x1.2b99400000000p+0, 0x1.1b761e0000000p-1, 0x1.4fe14c0000000p-4, -0x1.c0a6160000000p-1, 0x1.200bb00000000p-3, 0x1.c85de60000000p-5, -0x1.7a52b40000000p-4, -0x1.63c3220000000p-5, 0x1.03b0c00000000p-4, -0x1.7d3e280000000p-3, 0x1.2bf0980000000p-1, 0x1.cf60440000000p-6, -0x1.170b1c0000000p-7, 0x1.4dc3da0000000p-3, -0x1.469f8a0000000p-9, 0x1.d19aa20000000p-4, -0x1.88ca220000000p-2, 0x1.55d9920000000p-5, 0x1.28a45c0000000p-3, -0x1.2e05640000000p-3, 0x1.ad93ae0000000p-3, -0x1.ee8a680000000p-3, 0x1.deeb280000000p-3, -0x1.7c4ec60000000p-3, 0x1.40d5a20000000p-3, -0x1.be82220000000p-5, 0x1.644f7c0000000p-11, -0x1.e8f5fa0000000p-2, 0x1.9bfd960000000p-4, -0x1.b36cea0000000p-2, 0x1.79a5260000000p-5, 0x1.f302120000000p-2, 0x1.014d040000000p-2, 0x1.22fe540000000p-4, 0x1.f032280000000p-5, -0x1.6d511c0000000p-5, 0x1.77f6ce0000000p-4, 0x1.9936380000000p-5, -0x1.b478300000000p+0, -0x1.2c09880000000p+0, 0x1.2689120000000p-3, 0x1.c27a260000000p-4, -0x1.3411e60000000p-1, 0x1.a0a7660000000p-5, 0x1.00776a0000000p-5, -0x1.2319360000000p-1, 0x1.16ef5a0000000p-1, 0x1.2e9ae60000000p-3, -0x1.1023d20000000p-3, -0x1.a7a1060000000p-3, -0x1.20ae7c0000000p-4, -0x1.88ef540000000p-2, 0x1.53fd480000000p-3, -0x1.f6e7600000000p-2, -0x1.16cad80000000p-2, 0x1.fdca5e0000000p-4, 0x1.a9ce7a0000000p-4, 0x1.4e29e60000000p-4, 0x1.3efd000000000p-1, -0x1.720b580000000p-3, 0x1.2cb3660000000p-4, 0x1.9438620000000p-3, 0x1.1f257e0000000p-4, -0x1.8482400000000p-3, -0x1.f830ce0000000p-4, -0x1.40ed980000000p-1, 0x1.c0245e0000000p-3, 0x1.5cddac0000000p-2, 0x1.5b9f3c0000000p-3, -0x1.ab0d160000000p-2, -0x1.7d87a80000000p-4, -0x1.55fe840000000p-2, -0x1.bd6f1e0000000p-5, 0x1.c753fc0000000p-4, 0x1.e0be0e0000000p-4, 0x1.5b34ae0000000p-7, -0x1.72e3f20000000p-1, 0x1.e3b4720000000p-4, -0x1.ac19420000000p-2, 0x1.a82cba0000000p-3, -0x1.7841620000000p-2, -0x1.7ae7b00000000p-3, -0x1.03bc6e0000000p-1, -0x1.74eb480000000p-5, 0x1.245bce0000000p-2, 0x1.2e48340000000p-4, -0x1.42340c0000000p-1, -0x1.0430240000000p-1, -0x1.1ffb900000000p-3, -0x1.342d800000000p-2, 0x1.b249420000000p-3, -0x1.f5a84c0000000p-6, 0x1.686c4e0000000p-5, -0x1.25be920000000p-5, 0x1.399a440000000p-3, 0x1.27c0b20000000p-3, 0x1.ef4a9a0000000p-3, -0x1.0d03600000000p-1, -0x1.26eb360000000p-1, -0x1.41814a0000000p-6, 0x1.c7d15c0000000p-3, 0x1.93425a0000000p-3, 0x1.95b4e00000000p-3, -0x1.898af20000000p-2, 0x1.1de57c0000000p-3, -0x1.c421380000000p-1, -0x1.746f060000000p-8, -0x1.c6fc700000000p-5, -0x1.150b380000000p-1, -0x1.9e66fe0000000p-5, 0x1.1b5d660000000p-3, 0x1.e9a0a40000000p-8, 0x1.7b6ab40000000p-3, 0x1.1b7f240000000p-5, 0x1.150a4a0000000p-2}
, {0x1.a6a37c0000000p-2, 0x1.c4afda0000000p-2, 0x1.b7cbe80000000p-5, -0x1.1f5fda0000000p-2, 0x1.57fd3a0000000p-3, -0x1.13538a0000000p-2, -0x1.2976420000000p-2, -0x1.a658b60000000p-3, -0x1.4595c60000000p-1, 0x1.fc5a5c0000000p-3, 0x1.1f2ea00000000p-3, -0x1.8d03a60000000p-2, -0x1.fa88280000000p-6, -0x1.a0ad620000000p-1, 0x1.eab79e0000000p-4, 0x1.de2eda0000000p-10, 0x1.b198aa0000000p-3, -0x1.8eaf920000000p-4, 0x1.e717b00000000p-16, 0x1.d5e0a80000000p-3, -0x1.08c4420000000p-3, 0x1.c5a3880000000p-4, -0x1.4e6c580000000p-1, 0x1.68af5c0000000p-2, 0x1.22aa7c0000000p-4, 0x1.1934fa0000000p-3, 0x1.9252aa0000000p-2, 0x1.9c611c0000000p-7, -0x1.2b54d80000000p-1, 0x1.e7ccf60000000p-6, 0x1.6aa5da0000000p-3, 0x1.6d45900000000p-5, -0x1.23ed120000000p-3, -0x1.2765720000000p-1, -0x1.acb9e40000000p-2, 0x1.c215560000000p-6, 0x1.a351e00000000p-6, -0x1.3c71c60000000p-5, -0x1.2f7b920000000p-3, 0x1.01e7140000000p-3, -0x1.264ea20000000p-4, -0x1.1171820000000p-3, 0x1.a99e760000000p-2, 0x1.a63d9a0000000p-4, -0x1.5b7e960000000p-5, -0x1.a4204a0000000p-3, -0x1.6f1b0c0000000p-7, 0x1.6f55aa0000000p-1, 0x1.48ddfc0000000p-5, 0x1.119d940000000p-3, -0x1.8f8e2a0000000p-5, 0x1.7e9abe0000000p-4, 0x1.e3aac60000000p-2, -0x1.2b4e4a0000000p-3, -0x1.0361780000000p-4, 0x1.ff532c0000000p-3, 0x1.2627320000000p-1, -0x1.6d9ca20000000p-8, 0x1.1e32400000000p-5, 0x1.8480c20000000p-5, 0x1.78d5600000000p-6, 0x1.0431040000000p-2, -0x1.0ea2820000000p-6, 0x1.15f5b40000000p-7, -0x1.c0390a0000000p-1, -0x1.d889ac0000000p-5, -0x1.0fbbc60000000p+0, -0x1.e1e41a0000000p-1, -0x1.5b0ce00000000p-3, -0x1.bfbcfa0000000p-4, -0x1.9baaa00000000p-1, -0x1.7870340000000p-4, -0x1.542fd60000000p-1, -0x1.fa628c0000000p-6, 0x1.389b780000000p-6, 0x1.2a9cdc0000000p-3, -0x1.765a5e0000000p-3, -0x1.e094320000000p-3, 0x1.26665c0000000p-2, -0x1.e0784e0000000p-2, 0x1.e7aeb60000000p-7, -0x1.98f1de0000000p-4, 0x1.98ff620000000p-3, -0x1.789e560000000p-5, -0x1.a72f5a0000000p-1, 0x1.4504340000000p-4, -0x1.ad11420000000p-5, 0x1.04918c0000000p-7, -0x1.6702700000000p-4, 0x1.5e9db80000000p-4, -0x1.8449be0000000p-4, -0x1.9d0e840000000p-2, -0x1.4974a00000000p-4, 0x1.3bb2be0000000p-2, 0x1.cfd8480000000p-4, -0x1.b6b5260000000p-1, 0x1.23e6160000000p-5, 0x1.d5d2dc0000000p-4, -0x1.0205720000000p-2, -0x1.14b5da0000000p-4, -0x1.edbb7e0000000p-5, 0x1.b19aa40000000p-4, -0x1.a943b20000000p-2, 0x1.ef5a3c0000000p-4, -0x1.82323c0000000p-4, 0x1.6fc56a0000000p-7, 0x1.680d600000000p-1, -0x1.3ec68c0000000p-3, 0x1.3963120000000p-3, -0x1.23d5960000000p-3, -0x1.64b4ee0000000p-4, -0x1.7c90a60000000p-3, 0x1.a95a320000000p-4, 0x1.1e089c0000000p-4, -0x1.cc04d60000000p-4, -0x1.38ab800000000p-4, 0x1.313d2e0000000p-2, -0x1.8d31d60000000p-6, -0x1.1c282e0000000p-1, 0x1.b6c8e60000000p-4, 0x1.24d7640000000p-3, 0x1.d2d72e0000000p-7, -0x1.ab9c1a0000000p-2, 0x1.5d05300000000p-3, -0x1.4e37400000000p-1, -0x1.90cd780000000p-4, -0x1.b519240000000p-4, -0x1.5b86d40000000p-2}
, {0x1.eb309c0000000p-6, -0x1.00eac40000000p-5, 0x1.a8213e0000000p-3, -0x1.63c6e00000000p+0, -0x1.09288a0000000p-2, -0x1.834d8a0000000p-8, 0x1.b938c00000000p-6, -0x1.159d7e0000000p-1, 0x1.fc43160000000p-6, -0x1.5361c80000000p-1, 0x1.b761140000000p-5, -0x1.514dee0000000p-1, -0x1.d25f120000000p-3, -0x1.4785520000000p-2, 0x1.abdd680000000p-2, -0x1.4455960000000p-4, -0x1.47107a0000000p+0, -0x1.ab5d0a0000000p-3, -0x1.f01bfa0000000p-2, 0x1.2dd0380000000p-6, 0x1.7eb37c0000000p-3, 0x1.b6c6520000000p-4, -0x1.345dbe0000000p-5, -0x1.15e4da0000000p-1, 0x1.55cd380000000p-3, 0x1.1276600000000p-1, -0x1.b3e9b40000000p-6, 0x1.02ddee0000000p-3, 0x1.0255440000000p-3, -0x1.a1c3660000000p-5, -0x1.0ee5480000000p-5, -0x1.5b29120000000p-2, -0x1.450eb40000000p-3, 0x1.2bde720000000p-2, -0x1.5c20100000000p-1, 0x1.53ebb20000000p-6, 0x1.e13f3a0000000p-5, -0x1.60cc0a0000000p-4, 0x1.22246a0000000p-3, 0x1.cc45be0000000p-2, 0x1.8bda620000000p-3, 0x1.57cc780000000p-3, -0x1.0be36e0000000p-2, -0x1.9e75120000000p-3, 0x1.0417be0000000p-1, 0x1.5bcb200000000p-4, -0x1.f5f9100000000p-3, 0x1.4ac6400000000p-2, -0x1.a8225a0000000p-3, 0x1.3ca0cc0000000p-3, 0x1.ba3bda0000000p-3, 0x1.c47bf20000000p-2, -0x1.3fdd8a0000000p-3, 0x1.c82c840000000p-4, 0x1.a1788a0000000p-3, -0x1.6f7bf40000000p-4, -0x1.7ac4e20000000p-1, -0x1.02fa0c0000000p-4, -0x1.159ae20000000p-2, 0x1.5f9ddc0000000p-2, 0x1.048c720000000p-3, 0x1.1a346c0000000p-6, 0x1.057d8c0000000p-2, 0x1.a2f7ba0000000p-7, -0x1.43fcc00000000p-4, -0x1.c522740000000p-3, -0x1.1ef53a0000000p-2, -0x1.35fc4e0000000p-2, 0x1.b02ac00000000p-4, -0x1.198de20000000p-4, -0x1.5665d20000000p-1, -0x1.a532a20000000p-3, -0x1.facf2a0000000p-2, -0x1.7654c00000000p-3, 0x1.7269100000000p-2, -0x1.0664660000000p-10, -0x1.d2e3320000000p-5, 0x1.8f8a7e0000000p-3, -0x1.f2c9c60000000p-2, 0x1.fb5bfa0000000p-3, -0x1.20d4bc0000000p-1, 0x1.3a15a60000000p-3, -0x1.d6e9e60000000p-4, -0x1.c796660000000p-2, -0x1.3843420000000p-3, -0x1.4409980000000p-4, 0x1.a9bdaa0000000p-3, -0x1.788b9c0000000p-5, 0x1.9c8e660000000p-3, -0x1.73a1fa0000000p-2, 0x1.08fdb80000000p-4, -0x1.100cde0000000p-2, -0x1.05811a0000000p-1, -0x1.b4ca380000000p-2, -0x1.02fa6c0000000p-2, -0x1.e4e6440000000p-3, 0x1.b39d200000000p-8, 0x1.0bd87e0000000p-3, 0x1.f6cfca0000000p-5, -0x1.61312c0000000p-1, -0x1.1a436a0000000p-4, 0x1.4d03120000000p-3, 0x1.4f2cde0000000p-2, 0x1.bd35120000000p-3, -0x1.c0d35e0000000p-3, -0x1.79e05a0000000p-3, 0x1.4fb7e60000000p-2, -0x1.45fac20000000p-8, -0x1.112e2c0000000p-3, 0x1.a907100000000p-4, -0x1.b100860000000p-1, -0x1.cb8c220000000p-3, 0x1.7d8eb40000000p-5, 0x1.1568f00000000p-3, 0x1.f62d500000000p-4, 0x1.85f9a00000000p-3, 0x1.22cf000000000p-3, -0x1.6f01040000000p-1, 0x1.be51700000000p-2, -0x1.91f12a0000000p-3, -0x1.b1cfbe0000000p-3, -0x1.b84dce0000000p-2, 0x1.fe2f2a0000000p-4, 0x1.304a7c0000000p-2, -0x1.5960de0000000p-1, 0x1.6e4ed20000000p-4, 0x1.7dbad80000000p-4, 0x1.7664860000000p-3}
, {-0x1.f4a2da0000000p-4, 0x1.a54ffe0000000p-2, -0x1.5fb36e0000000p-1, -0x1.0c2f1a0000000p-1, -0x1.c8be7e0000000p-3, 0x1.4cf5ca0000000p-3, -0x1.d889c00000000p-4, 0x1.88ef6a0000000p-3, -0x1.3541440000000p-2, 0x1.12c3f80000000p-2, 0x1.1b1f220000000p-3, 0x1.ade7d00000000p-2, -0x1.97fe700000000p-2, -0x1.5b49360000000p-1, -0x1.1a69260000000p-2, -0x1.884c3a0000000p-13, -0x1.445b5a0000000p-5, -0x1.47f5980000000p-3, -0x1.2691700000000p-1, -0x1.31ef660000000p-3, -0x1.6efcd80000000p-4, 0x1.6434560000000p-3, -0x1.0cc1d60000000p-2, -0x1.1172460000000p-1, -0x1.fe0b5a0000000p-3, 0x1.6b07b00000000p-3, -0x1.9958b60000000p-5, 0x1.dccbf40000000p-3, 0x1.9eff8e0000000p-2, -0x1.24a0860000000p-1, 0x1.484b740000000p-4, -0x1.8d63c40000000p-6, -0x1.d257b80000000p-2, -0x1.6dcd820000000p-3, -0x1.48f01e0000000p-1, 0x1.658aa20000000p-6, 0x1.0540880000000p-4, -0x1.2249100000000p-2, -0x1.244af80000000p-7, 0x1.4018d00000000p-5, -0x1.aec0460000000p-2, -0x1.80e7e40000000p-4, -0x1.0f1ee40000000p-3, 0x1.4345880000000p-4, -0x1.41f2fc0000000p-1, 0x1.3d0b9a0000000p-2, -0x1.fdce7a0000000p-5, -0x1.26ef200000000p-2, -0x1.f8dffc0000000p-4, 0x1.df7de20000000p-3, 0x1.0393480000000p-4, 0x1.b617800000000p-2, -0x1.cdfb860000000p-1, -0x1.a341cc0000000p-7, -0x1.e7a5400000000p-7, 0x1.7515a60000000p-1, 0x1.1a7d8c0000000p-2, -0x1.0183300000000p-3, -0x1.550c640000000p-1, -0x1.a8c3ba0000000p-3, 0x1.d719400000000p-6, 0x1.f04f8a0000000p-6, 0x1.3068640000000p-3, -0x1.611dfe0000000p-4, -0x1.3247100000000p-2, -0x1.6efb920000000p-4, -0x1.2431280000000p-3, -0x1.2930ce0000000p-4, -0x1.38a2ec0000000p-5, 0x1.28368a0000000p-4, -0x1.c66c560000000p-2, -0x1.79bf7a0000000p-3, 0x1.45361c0000000p-3, 0x1.1bf9ac0000000p-3, -0x1.31a9fa0000000p-2, -0x1.7ff0700000000p-5, 0x1.bd73d00000000p-3, -0x1.359d9c0000000p-1, -0x1.5315da0000000p-1, -0x1.6e2c4a0000000p-1, -0x1.e716160000000p-2, -0x1.1265c00000000p-5, 0x1.74d0f20000000p-3, -0x1.3623d80000000p-2, -0x1.41c61a0000000p-1, -0x1.ba5eec0000000p-5, 0x1.3fe27e0000000p-3, 0x1.d670700000000p-4, -0x1.4cefd20000000p-5, -0x1.05d34e0000000p+0, -0x1.2e61cc0000000p-4, 0x1.c88a160000000p-2, -0x1.043ab60000000p-4, -0x1.3943d00000000p-1, 0x1.e5d0d20000000p-4, -0x1.b0724a0000000p-2, -0x1.9dc9de0000000p-3, 0x1.5687aa0000000p-3, -0x1.44cad40000000p-4, 0x1.0ba5da0000000p-2, 0x1.e5b9660000000p-3, -0x1.5983680000000p-6, 0x1.16b0900000000p-1, -0x1.c452fe0000000p-3, 0x1.1bd6b20000000p-3, 0x1.42d3b60000000p-2, 0x1.3215820000000p-2, 0x1.5338880000000p-4, 0x1.1f53540000000p-4, -0x1.682e160000000p-5, -0x1.c6c1c20000000p-4, 0x1.eb84ac0000000p-2, -0x1.79cfec0000000p-4, 0x1.0c81200000000p-1, 0x1.7658e00000000p-6, -0x1.98496c0000000p-6, -0x1.cd33de0000000p-3, -0x1.238ec60000000p-2, -0x1.22913a0000000p-3, 0x1.c546300000000p-7, 0x1.8ed7a00000000p-3, -0x1.43e2980000000p-5, 0x1.4674720000000p-7, -0x1.09d6680000000p-4, -0x1.36957c0000000p-3, -0x1.553fb80000000p-5, -0x1.1fdcf60000000p-4, 0x1.80a2b60000000p-4}
, {-0x1.ee05cc0000000p-3, 0x1.6060f20000000p-2, -0x1.6036b20000000p-2, -0x1.2659400000000p-3, 0x1.301f920000000p-3, 0x1.3ea8080000000p-3, 0x1.8720ec0000000p-4, 0x1.3cda640000000p-10, -0x1.85e5a60000000p-4, 0x1.e770da0000000p-3, -0x1.f132ec0000000p-5, -0x1.5dc2c60000000p-4, -0x1.1313a60000000p-4, -0x1.b07b180000000p-2, -0x1.f310d40000000p-2, -0x1.304a000000000p-3, -0x1.c7cf9e0000000p-3, -0x1.b513620000000p-2, -0x1.1648520000000p-4, -0x1.476fea0000000p-2, 0x1.a642c00000000p-6, 0x1.9b35900000000p-5, 0x1.30807c0000000p-7, -0x1.aba6e60000000p-1, 0x1.f582ca0000000p-6, 0x1.34da260000000p-1, -0x1.1ecb180000000p-3, 0x1.e71ba60000000p-4, -0x1.fd672c0000000p-3, -0x1.4720c60000000p-2, -0x1.107e800000000p-4, 0x1.54d44e0000000p-2, -0x1.be600c0000000p-2, 0x1.2460000000000p-2, -0x1.3e0b840000000p-6, -0x1.a6066e0000000p-3, 0x1.89ee780000000p-5, -0x1.4da5880000000p-3, 0x1.29def40000000p-3, 0x1.024c100000000p-2, 0x1.5414080000000p-2, -0x1.2d28b80000000p-2, -0x1.0fe3ba0000000p-3, 0x1.15a3d00000000p-4, 0x1.f50f040000000p-3, 0x1.49e3f20000000p-6, -0x1.9596960000000p-4, 0x1.3dbd5a0000000p-3, -0x1.ec37fe0000000p-4, 0x1.186b320000000p-2, -0x1.d27bf40000000p-3, 0x1.7f62e20000000p-3, -0x1.2a7f1e0000000p-2, 0x1.2134a80000000p-5, -0x1.4c3c180000000p-6, -0x1.73ee8e0000000p-2, 0x1.4563660000000p-4, 0x1.f79d440000000p-4, 0x1.92c7560000000p-3, 0x1.9acafa0000000p-3, -0x1.5be0b20000000p-4, 0x1.11651a0000000p-2, 0x1.0439e40000000p-3, -0x1.d962080000000p-4, 0x1.656ee80000000p-2, -0x1.e8c9700000000p-4, -0x1.9b6d720000000p-3, 0x1.0e44120000000p-1, 0x1.edec400000000p-8, -0x1.d154a20000000p-4, -0x1.9402120000000p-1, 0x1.067a980000000p+0, 0x1.2e09240000000p-6, 0x1.5d6b200000000p-5, -0x1.3870fa0000000p-2, -0x1.25e1800000000p-2, -0x1.8237be0000000p-3, -0x1.31465a0000000p-3, 0x1.98fcc60000000p-2, -0x1.0753ca0000000p-4, 0x1.fb6fce0000000p-3, -0x1.0055c40000000p-4, -0x1.0d3b9c0000000p+0, -0x1.84ec1a0000000p-3, -0x1.65feee0000000p-1, -0x1.7c8bc60000000p-3, 0x1.6870620000000p-4, -0x1.32ee2e0000000p-3, 0x1.38c7140000000p-4, 0x1.e93a7a0000000p-5, -0x1.ca5e280000000p-5, -0x1.7501f40000000p-4, 0x1.b974200000000p-4, 0x1.3fd5620000000p-3, 0x1.8185d80000000p-2, 0x1.4cc7140000000p-1, 0x1.0e26000000000p-10, 0x1.d373da0000000p-2, 0x1.3d02e20000000p-2, 0x1.327ffa0000000p-2, 0x1.03269c0000000p-1, -0x1.a71d200000000p-3, 0x1.af2ea60000000p-2, -0x1.0e6b7c0000000p-3, 0x1.0691a80000000p-2, -0x1.cd8f360000000p-5, -0x1.3f793c0000000p-2, -0x1.a902ea0000000p-5, -0x1.092e400000000p-1, -0x1.0886cc0000000p-1, -0x1.82c5000000000p-2, -0x1.4f97fe0000000p-2, 0x1.5e8f9c0000000p-4, -0x1.046b060000000p-1, 0x1.539cae0000000p-3, -0x1.3f75b80000000p-3, 0x1.00bc160000000p-2, 0x1.a058f00000000p-2, 0x1.4ef6860000000p-1, 0x1.ef5faa0000000p-5, -0x1.2bdc220000000p-3, -0x1.44d9fc0000000p-2, 0x1.77f1620000000p-3, 0x1.04d5100000000p-1, 0x1.4504d00000000p-1, -0x1.0507c20000000p-4, -0x1.3f058c0000000p-4, -0x1.36aa7a0000000p-1}
, {0x1.23988c0000000p-1, 0x1.5a27720000000p-2, 0x1.447a280000000p-6, 0x1.3645700000000p-6, 0x1.668dd40000000p-4, 0x1.2992280000000p-9, -0x1.4c2ff60000000p-6, -0x1.1b413c0000000p-3, 0x1.081a580000000p-3, -0x1.51ef4e0000000p-4, -0x1.90f5460000000p-3, -0x1.8fc33e0000000p-7, -0x1.1306540000000p-4, 0x1.6893880000000p-8, -0x1.feea6c0000000p-4, 0x1.092c620000000p-3, -0x1.268d320000000p-1, 0x1.6c35620000000p-4, -0x1.b01d860000000p-3, 0x1.d197ea0000000p-4, 0x1.bf81c60000000p-5, 0x1.a2cef60000000p-6, -0x1.057b5e0000000p-1, 0x1.95c6ba0000000p-6, 0x1.0190a00000000p-1, 0x1.c728d60000000p-4, 0x1.279b3e0000000p-6, 0x1.e2eddc0000000p-3, 0x1.6869900000000p-2, -0x1.dce3200000000p-3, 0x1.c2570a0000000p-4, 0x1.9019140000000p-4, -0x1.3a31260000000p-1, -0x1.8ed96a0000000p-4, 0x1.9d66400000000p-3, -0x1.9aa1280000000p-4, 0x1.dcb6a20000000p-5, -0x1.4e573c0000000p-1, -0x1.1d43220000000p-3, 0x1.bf7d840000000p-5, -0x1.19d3300000000p-3, -0x1.bffd1a0000000p-4, 0x1.66ea980000000p-2, -0x1.59f8900000000p-4, 0x1.8ce2aa0000000p-3, 0x1.09ac120000000p-1, 0x1.05b6ae0000000p-3, -0x1.ba9c0e0000000p-3, -0x1.17ecde0000000p-2, -0x1.9f321c0000000p-2, 0x1.b0c7300000000p-5, 0x1.189ae60000000p-3, -0x1.70cfe80000000p-3, 0x1.3538bc0000000p-3, 0x1.a1fb8c0000000p-9, -0x1.65638a0000000p-2, -0x1.e076680000000p-9, 0x1.6fa7de0000000p-6, 0x1.3b0b020000000p-3, 0x1.dde3140000000p-2, 0x1.1e76760000000p-3, 0x1.3bda060000000p-2, 0x1.1323620000000p-5, -0x1.0986200000000p-4, 0x1.14e13e0000000p-1, 0x1.79d1a60000000p-4, -0x1.80f92a0000000p-2, -0x1.3c64aa0000000p-6, 0x1.91d02c0000000p-3, 0x1.5274c40000000p-3, -0x1.507b080000000p-1, -0x1.9213ae0000000p-2, -0x1.90bde80000000p-3, -0x1.4168720000000p-4, -0x1.1403820000000p-1, -0x1.8e38f60000000p-2, 0x1.16d6c00000000p-3, 0x1.69ceae0000000p-5, -0x1.0ef9580000000p-4, 0x1.8f11980000000p-4, -0x1.3ec9ca0000000p-2, 0x1.f5e59c0000000p-5, 0x1.471e480000000p-3, -0x1.4358ce0000000p-1, -0x1.1f16420000000p+0, 0x1.a202280000000p-5, 0x1.39807e0000000p-3, 0x1.8078ba0000000p-3, -0x1.05e9b80000000p-5, -0x1.400ee00000000p-3, 0x1.667cea0000000p-3, 0x1.e505180000000p-2, 0x1.8cb8e80000000p-3, -0x1.e04b620000000p-5, 0x1.59dbc60000000p-3, -0x1.997ef40000000p-1, -0x1.577e980000000p-5, 0x1.a34d280000000p-5, 0x1.52ea240000000p-3, 0x1.961b9e0000000p-4, -0x1.726d160000000p-4, 0x1.13a1620000000p-3, -0x1.9c7e020000000p-4, -0x1.0ebb3e0000000p-5, -0x1.23038e0000000p-6, -0x1.e57e0a0000000p-4, -0x1.e909a20000000p-2, -0x1.600f000000000p-5, -0x1.b0ccf20000000p-1, -0x1.51a59a0000000p-3, -0x1.381a0e0000000p-2, -0x1.107d180000000p-2, 0x1.b034840000000p-3, -0x1.0c059c0000000p-2, 0x1.385ee80000000p-4, 0x1.0fd8f00000000p-3, -0x1.fac9900000000p-1, -0x1.8489b80000000p-3, 0x1.1b03fc0000000p-9, -0x1.b017ae0000000p-4, -0x1.858d1a0000000p-7, 0x1.7ee0860000000p-2, 0x1.0c029e0000000p-5, -0x1.0e28ae0000000p-2, -0x1.eee1ae0000000p-4, 0x1.0c10ae0000000p-7, -0x1.e09f020000000p-5, 0x1.0ceaec0000000p-4}
, {-0x1.7186da0000000p-3, -0x1.c467120000000p-4, -0x1.60ed500000000p-3, -0x1.33f5a20000000p-4, -0x1.9afdd40000000p-3, 0x1.2535160000000p-3, -0x1.983acc0000000p-4, -0x1.06c4520000000p-1, -0x1.5ba5b20000000p-5, -0x1.8395000000000p-2, 0x1.ed77d20000000p-4, -0x1.8a3db80000000p-3, -0x1.0bc2aa0000000p-3, -0x1.7ca0200000000p-4, -0x1.2a9ed60000000p-3, -0x1.40a7200000000p-3, -0x1.2f0f740000000p-3, -0x1.3ad9a80000000p-3, -0x1.a3a09c0000000p-5, -0x1.0889400000000p-2, -0x1.0390a60000000p-4, 0x1.7560d00000000p-5, -0x1.2df9600000000p-2, -0x1.14dff80000000p-5, -0x1.c99c660000000p-2, 0x1.b679ca0000000p-4, -0x1.91da660000000p-3, -0x1.8cc4000000000p-6, -0x1.4787220000000p-2, -0x1.3887c20000000p-2, -0x1.556b1a0000000p-3, -0x1.56938c0000000p-1, -0x1.9ffc860000000p-4, -0x1.050b1e0000000p-3, -0x1.a537ee0000000p-3, 0x1.fab1640000000p-4, 0x1.13a7b20000000p-6, -0x1.1d47dc0000000p-3, 0x1.b88b860000000p-4, -0x1.8a43fc0000000p-3, -0x1.ca66420000000p-3, 0x1.65d0120000000p-5, -0x1.6dea240000000p-1, 0x1.4809a40000000p-4, -0x1.23ae660000000p-3, -0x1.3e007c0000000p-3, 0x1.b0c85c0000000p-6, 0x1.4243dc0000000p-4, -0x1.b7e6000000000p-4, -0x1.9cf7840000000p-3, -0x1.4660fa0000000p-4, -0x1.8311400000000p-3, 0x1.4824f00000000p-5, -0x1.90c2c00000000p-8, -0x1.697c4c0000000p-3, -0x1.833dd40000000p-3, -0x1.ded4e00000000p-2, -0x1.5339780000000p-4, -0x1.13813c0000000p-2, -0x1.3c3a3c0000000p-3, -0x1.35fa700000000p-4, 0x1.62e76c0000000p-4, -0x1.1badc80000000p-2, 0x1.32ee0c0000000p-4, -0x1.f0e38e0000000p-3, 0x1.e3d5c00000000p-6, -0x1.7910080000000p-2, -0x1.4991de0000000p-4, -0x1.afb7180000000p-3, -0x1.ae2bc00000000p-7, -0x1.abe0100000000p-3, -0x1.23a8d00000000p-3, -0x1.3f03ba0000000p-2, -0x1.4edb780000000p-5, -0x1.82e5a20000000p-3, -0x1.7bbfc80000000p-2, 0x1.eecf460000000p-6, 0x1.b448f80000000p-5, 0x1.cc5d000000000p-5, -0x1.4550da0000000p-2, 0x1.0cef620000000p-6, -0x1.3a13d40000000p-4, -0x1.759b000000000p-4, -0x1.861b0a0000000p-2, -0x1.01f56e0000000p-5, -0x1.4313400000000p-6, 0x1.ac8e180000000p-5, -0x1.742b820000000p-3, 0x1.c4bcd00000000p-6, -0x1.e985ca0000000p-2, 0x1.a971b80000000p-5, -0x1.a805ca0000000p-2, -0x1.5e37a60000000p-6, -0x1.2c855a0000000p-3, -0x1.4de67e0000000p-3, -0x1.148ef40000000p-3, -0x1.3c6da00000000p-4, -0x1.381b9c0000000p-1, -0x1.6ee78a0000000p-3, 0x1.0284a60000000p-4, 0x1.80fa7a0000000p-12, 0x1.32e8a80000000p-5, -0x1.8b17160000000p-3, -0x1.d3ed6c0000000p-7, 0x1.8b2d940000000p-4, 0x1.2475860000000p-3, -0x1.3af96e0000000p-3, -0x1.8620300000000p-3, -0x1.cb9ace0000000p-5, -0x1.fd03580000000p-4, 0x1.ff30940000000p-8, 0x1.9723400000000p-4, 0x1.f513480000000p-5, -0x1.28e29e0000000p-7, -0x1.834e680000000p-4, -0x1.81cd9e0000000p-6, -0x1.0268840000000p-2, -0x1.fec3140000000p-4, 0x1.da26580000000p-9, -0x1.62fe120000000p-4, 0x1.7468de0000000p-5, 0x1.8e76240000000p-5, -0x1.9aed440000000p-3, -0x1.21a1500000000p-2, -0x1.7a75ce0000000p-3, -0x1.4b7cb60000000p-5, 0x1.03d1a20000000p-5, -0x1.a4bd680000000p-3}
, {0x1.4d2adc0000000p-1, -0x1.942db00000000p-3, -0x1.0117cc0000000p-1, 0x1.23fdee0000000p-1, 0x1.a98a1e0000000p-2, 0x1.f178800000000p-3, 0x1.3094c20000000p-2, 0x1.29e7740000000p-3, -0x1.d5d8d20000000p-3, 0x1.6afe160000000p-2, 0x1.6e1fae0000000p-3, -0x1.0deef60000000p-4, 0x1.0d52940000000p-5, -0x1.64ea2a0000000p-2, 0x1.a28ecc0000000p-3, 0x1.a1d1b80000000p-3, 0x1.af580a0000000p-3, 0x1.2094b00000000p-4, 0x1.3939e60000000p-3, 0x1.13cf6e0000000p-3, -0x1.41a6760000000p-4, 0x1.8648180000000p-4, -0x1.f6d1ac0000000p-2, 0x1.14a9a20000000p-1, 0x1.cd38740000000p-6, 0x1.1b8b520000000p-5, -0x1.db37ea0000000p-2, 0x1.8a445e0000000p-4, -0x1.3d9cde0000000p-1, 0x1.88c50c0000000p-8, 0x1.0c9a660000000p-3, 0x1.6b36460000000p-3, -0x1.3141040000000p-2, 0x1.0570a40000000p-6, 0x1.3011dc0000000p-1, 0x1.8fabae0000000p-4, -0x1.0b4e100000000p-3, -0x1.03dd940000000p-3, -0x1.c406740000000p-5, 0x1.6a3ca60000000p-3, -0x1.9fc4960000000p-1, 0x1.90cb9e0000000p-3, -0x1.c85baa0000000p-1, 0x1.3b3fa00000000p-3, -0x1.54d96a0000000p-3, 0x1.5c83dc0000000p-2, 0x1.1c762c0000000p-3, 0x1.78544e0000000p-4, -0x1.fdd3280000000p-3, 0x1.32e6d00000000p-2, 0x1.c156bc0000000p-5, 0x1.484b5a0000000p-1, 0x1.18b6160000000p-2, 0x1.a81ee80000000p-3, -0x1.3853460000000p-6, -0x1.2f52880000000p-1, 0x1.200e8c0000000p-2, -0x1.2992c40000000p-4, -0x1.94fd4a0000000p-2, 0x1.eff9480000000p-2, 0x1.3553ea0000000p-5, 0x1.79c0080000000p-5, -0x1.cc99100000000p-8, 0x1.7ca35a0000000p-3, 0x1.5ddc760000000p-2, 0x1.f0ae6c0000000p-5, -0x1.302d060000000p+0, -0x1.68f9080000000p-12, -0x1.eca2600000000p-5, 0x1.316ff60000000p-3, 0x1.1fb28c0000000p-3, 0x1.efad4a0000000p-6, 0x1.dadcbe0000000p-4, 0x1.310ed20000000p-5, -0x1.e6563e0000000p-2, -0x1.5b34c20000000p-3, 0x1.85d6bc0000000p-3, 0x1.dfae340000000p-4, -0x1.1cdfce0000000p-1, 0x1.7f18f20000000p-2, 0x1.0912100000000p-3, 0x1.4f7eac0000000p-5, -0x1.e44b380000000p-3, 0x1.d6099a0000000p-3, -0x1.5777fe0000000p-1, -0x1.20bd920000000p-5, 0x1.152e6a0000000p-7, -0x1.a238960000000p-4, -0x1.acefec0000000p-4, -0x1.496af40000000p-2, -0x1.67829e0000000p-5, 0x1.9c00d60000000p-3, 0x1.8bd8b80000000p-7, 0x1.a11f040000000p-3, -0x1.0626480000000p-3, -0x1.7de3b40000000p-1, 0x1.2f44880000000p-5, 0x1.b2d1200000000p-1, 0x1.9a2a040000000p-3, 0x1.df08d60000000p-3, 0x1.17c16e0000000p-1, -0x1.a9196a0000000p-4, -0x1.2778720000000p-4, 0x1.5664cc0000000p-2, -0x1.e344620000000p-5, -0x1.0894da0000000p-4, -0x1.bfa2a20000000p-5, 0x1.e7e7e60000000p-7, 0x1.39a9cc0000000p-2, -0x1.2c0e340000000p-2, -0x1.d140160000000p-3, -0x1.5e5cc60000000p-2, 0x1.18408c0000000p-7, 0x1.fb4cc80000000p-7, -0x1.76c1440000000p-4, -0x1.c6bacc0000000p-5, 0x1.3b6a8e0000000p-3, -0x1.dd57da0000000p-4, 0x1.56f2ee0000000p-5, 0x1.e9ed7c0000000p-7, 0x1.7402dc0000000p-3, 0x1.092b280000000p-4, 0x1.2625a20000000p-3, 0x1.f461840000000p-3, 0x1.98f0180000000p-1, -0x1.fb03160000000p-8, 0x1.c2d1840000000p-3, 0x1.4ed1c80000000p-4}
, {-0x1.4e4b8e0000000p-6, 0x1.3af0f20000000p-4, 0x1.e98abc0000000p-6, -0x1.5f907e0000000p-3, 0x1.9575940000000p-5, -0x1.c335da0000000p-3, -0x1.3aa9c00000000p-3, 0x1.3646180000000p-1, 0x1.904dc20000000p-5, 0x1.1ae5fa0000000p-2, 0x1.ca916e0000000p-5, -0x1.098e5a0000000p-2, -0x1.d4378a0000000p-7, -0x1.21c8760000000p-2, -0x1.01f82c0000000p-1, -0x1.8150780000000p-8, 0x1.35eacc0000000p-4, 0x1.e9f7360000000p-5, 0x1.883ac60000000p-4, -0x1.7413300000000p-3, 0x1.ef93940000000p-6, 0x1.2338ce0000000p-6, -0x1.9bb3a80000000p-2, -0x1.7fc6000000000p-3, -0x1.e93f140000000p-2, 0x1.c2a1e80000000p-4, -0x1.390edc0000000p-4, 0x1.91c8ec0000000p-4, 0x1.434ca40000000p-4, -0x1.1cc2c80000000p-3, 0x1.715d0c0000000p-6, -0x1.94caf40000000p-3, -0x1.5846e20000000p-3, -0x1.3950d00000000p-2, 0x1.12410e0000000p-5, 0x1.93b8b00000000p-4, 0x1.b890800000000p-2, -0x1.ea10940000000p-3, 0x1.92cc780000000p-4, 0x1.4c35960000000p-5, 0x1.98b93a0000000p-4, 0x1.d4c8d60000000p-6, 0x1.239d7e0000000p-4, -0x1.dbaba80000000p-3, -0x1.5013060000000p-1, 0x1.395dfa0000000p-5, -0x1.17a0820000000p-4, -0x1.657d0e0000000p-3, -0x1.0ad5aa0000000p-3, -0x1.cc9d440000000p-4, -0x1.7afae00000000p-7, -0x1.f836520000000p-2, -0x1.02d80a0000000p-1, 0x1.afdd980000000p-8, -0x1.cd9d620000000p-3, -0x1.1a30740000000p-1, -0x1.1e801c0000000p-4, 0x1.bc54fe0000000p-5, -0x1.9fb2820000000p-2, 0x1.0e89180000000p-8, 0x1.c7ecd80000000p-4, 0x1.ff42d40000000p-6, -0x1.8f738a0000000p-1, 0x1.cc402a0000000p-4, 0x1.19a8820000000p-3, -0x1.c473260000000p-4, 0x1.e3fae80000000p-5, -0x1.a0b8380000000p-4, -0x1.fe67da0000000p-6, -0x1.f104c20000000p-5, 0x1.5f99e40000000p-3, 0x1.c6220e0000000p-3, 0x1.2ec9ce0000000p-3, -0x1.330ec80000000p-4, -0x1.6969440000000p-2, 0x1.3c6d1c0000000p-2, -0x1.7721e80000000p-8, -0x1.f84f760000000p-2, 0x1.80701e0000000p-2, -0x1.8fed520000000p-2, -0x1.d619b40000000p-4, 0x1.ac9b640000000p-4, -0x1.63272c0000000p-3, 0x1.9e53880000000p-3, -0x1.99e24e0000000p-2, 0x1.389dd40000000p-7, 0x1.e2a7460000000p-5, 0x1.5b94480000000p-8, 0x1.165d280000000p-6, -0x1.4442ee0000000p-2, -0x1.18fcd00000000p-3, -0x1.ea717a0000000p-2, -0x1.3697c60000000p-3, -0x1.1443720000000p-2, -0x1.3cf29a0000000p-5, -0x1.28f95e0000000p-4, -0x1.638a0c0000000p-3, 0x1.fbbe920000000p-2, -0x1.3b58240000000p-1, -0x1.956cb00000000p-5, -0x1.63fe9c0000000p-5, -0x1.127a540000000p-6, -0x1.247cd80000000p-3, 0x1.a687140000000p-4, 0x1.b2be420000000p-4, 0x1.17c5d20000000p-3, -0x1.6e37680000000p-3, 0x1.555e8c0000000p-4, -0x1.4fdd540000000p-2, -0x1.0b2c400000000p-2, -0x1.b49b4c0000000p-1, -0x1.6647aa0000000p-5, 0x1.1cf9660000000p-4, -0x1.ad81cc0000000p-5, 0x1.215fdc0000000p-6, 0x1.30df260000000p-4, 0x1.03e1e00000000p-2, -0x1.fb20dc0000000p-1, -0x1.ebd5be0000000p-2, 0x1.cef89e0000000p-6, 0x1.d7d9fc0000000p-4, -0x1.2fc4140000000p-1, -0x1.c0c8800000000p-5, 0x1.9ff1100000000p-5, 0x1.96fbae0000000p-1, 0x1.59535c0000000p-5, 0x1.3d978e0000000p-4, -0x1.63a2cc0000000p-4}
, {-0x1.e0287c0000000p-7, 0x1.ceda3c0000000p-5, -0x1.db85b80000000p-3, 0x1.676dd00000000p-1, -0x1.73c5180000000p-3, -0x1.b2ca1c0000000p-2, 0x1.1dc3d60000000p-2, 0x1.5f14fa0000000p-4, -0x1.a977a80000000p-4, -0x1.51947a0000000p-2, 0x1.0fff6a0000000p-4, 0x1.93acf60000000p-9, 0x1.7aa92c0000000p-2, -0x1.52727c0000000p-1, 0x1.3ddd7e0000000p-2, -0x1.1122720000000p-4, -0x1.e4a6680000000p-2, 0x1.6970120000000p-8, -0x1.18fcb00000000p-7, -0x1.26d7b00000000p-9, -0x1.5ce0620000000p-4, 0x1.ba50440000000p-4, -0x1.34ac1c0000000p-1, 0x1.54d5400000000p-2, -0x1.21d6ea0000000p-2, 0x1.fa006c0000000p-4, 0x1.bb3b420000000p-4, -0x1.1d55d40000000p-4, -0x1.3775540000000p-5, -0x1.b76f0e0000000p-2, 0x1.852a080000000p-4, 0x1.0289c20000000p-5, 0x1.c975d80000000p-5, -0x1.22a11a0000000p-2, -0x1.1652340000000p-1, 0x1.dd77d40000000p-5, -0x1.84fcde0000000p-2, 0x1.e3f47a0000000p-4, -0x1.4072440000000p-4, 0x1.7abe020000000p-9, 0x1.615e7e0000000p-2, -0x1.94def00000000p-4, -0x1.116ce80000000p-4, 0x1.18aea80000000p-4, -0x1.457e320000000p-4, -0x1.1e05be0000000p-4, 0x1.2fdb7e0000000p-5, 0x1.ed90a20000000p-3, -0x1.a6f05a0000000p-4, 0x1.27533c0000000p-5, -0x1.d7d4180000000p-4, -0x1.df855a0000000p-2, -0x1.44df8e0000000p-2, -0x1.ae6e400000000p-5, -0x1.6085b00000000p-5, 0x1.0df5e00000000p-4, -0x1.9326020000000p-4, 0x1.cc000c0000000p-4, 0x1.4cd3d00000000p-2, 0x1.08081e0000000p-2, 0x1.2beb500000000p-3, 0x1.7f0f240000000p-3, 0x1.fd707a0000000p-3, 0x1.c5e1200000000p-3, -0x1.8a64000000000p-2, 0x1.636fc80000000p-4, -0x1.be5e1c0000000p-3, 0x1.98d10a0000000p-1, 0x1.5163e20000000p-3, 0x1.206b000000000p-3, -0x1.489b700000000p-8, -0x1.f6f4ac0000000p-5, -0x1.3b4d140000000p-6, -0x1.b2555c0000000p-4, -0x1.465ee20000000p-4, 0x1.3a531c0000000p-3, 0x1.dd97940000000p-7, 0x1.7eb3ea0000000p-4, -0x1.6e2c000000000p-3, -0x1.11ea5a0000000p-2, -0x1.51245e0000000p-5, 0x1.78dd400000000p-8, 0x1.ae154a0000000p-2, -0x1.8540ca0000000p-2, 0x1.3ce1b40000000p-2, 0x1.0bc8420000000p-4, -0x1.ba488e0000000p-4, -0x1.9f87e20000000p-6, -0x1.1870fe0000000p-4, 0x1.307ef60000000p-3, 0x1.973c9c0000000p-4, -0x1.c677520000000p-1, -0x1.f4327c0000000p-3, -0x1.bfa4c00000000p-2, -0x1.74e4980000000p-4, 0x1.31cb3a0000000p-3, 0x1.3cd2ca0000000p-3, -0x1.f8e5860000000p-4, 0x1.f609c80000000p-5, -0x1.40b6060000000p-1, -0x1.4af1d40000000p-2, -0x1.8722360000000p-6, -0x1.ff349c0000000p-5, -0x1.d7bde20000000p-8, 0x1.a6d9be0000000p-4, -0x1.0fee820000000p-3, 0x1.5c97a60000000p-2, 0x1.224d5c0000000p-3, 0x1.7e72640000000p-2, 0x1.7fb2c40000000p-5, 0x1.56d9bc0000000p-2, -0x1.115af20000000p-1, 0x1.5dacfe0000000p-3, 0x1.23afe00000000p-4, 0x1.655fd20000000p-3, -0x1.51c4680000000p-5, -0x1.10ad380000000p-1, 0x1.9a0b8e0000000p-3, -0x1.c661ac0000000p-1, 0x1.ab48d20000000p-5, -0x1.cdbb620000000p-4, -0x1.7dfd360000000p-4, 0x1.a339700000000p-4, 0x1.75b6fe0000000p-3, 0x1.2315a80000000p-2, 0x1.3201c40000000p-4, 0x1.c17c680000000p-3, 0x1.ed2f140000000p-5}
, {-0x1.0c02500000000p-3, -0x1.bf4f020000000p-8, -0x1.0326c80000000p-3, -0x1.092ca60000000p-3, -0x1.aa53b80000000p-2, -0x1.4021b20000000p-4, -0x1.940d4e0000000p-5, -0x1.8ce4820000000p-3, -0x1.4df8c20000000p-2, 0x1.c0331a0000000p-4, -0x1.7aacb60000000p-3, -0x1.104cc40000000p-3, -0x1.e0de9a0000000p-4, -0x1.2fd4420000000p-5, -0x1.69fb900000000p-4, -0x1.4ea9f20000000p-12, -0x1.08de600000000p-3, -0x1.40ed560000000p-3, -0x1.11984c0000000p-1, -0x1.0cfaac0000000p-2, -0x1.d2164a0000000p-3, -0x1.f693560000000p-4, -0x1.79c9540000000p-3, 0x1.91f2f80000000p-4, -0x1.65aae60000000p-2, -0x1.0ea3040000000p-3, -0x1.0202580000000p-2, 0x1.84521e0000000p-4, -0x1.a962100000000p-3, -0x1.7762ba0000000p-2, -0x1.20b8b80000000p-3, 0x1.650e560000000p-7, -0x1.44d8f40000000p-7, -0x1.e08dd60000000p-3, -0x1.a8c6cc0000000p-6, 0x1.35815c0000000p-4, -0x1.ac43e20000000p-2, -0x1.9dab240000000p-3, 0x1.b1bd0a0000000p-5, 0x1.24b1b00000000p-8, -0x1.74046c0000000p-3, -0x1.89b3560000000p-5, -0x1.0397500000000p-3, 0x1.e013200000000p-6, -0x1.3b32040000000p-4, 0x1.3d1bea0000000p-4, 0x1.82aaac0000000p-5, -0x1.e94e0a0000000p-4, -0x1.3fd9980000000p-5, 0x1.5a93c40000000p-4, -0x1.324fce0000000p-4, 0x1.e05d7a0000000p-2, -0x1.1335540000000p-1, -0x1.19d2140000000p-7, 0x1.163a720000000p-4, -0x1.5f247a0000000p-2, -0x1.0359120000000p-2, 0x1.e50c7a0000000p-7, -0x1.313ef80000000p-2, -0x1.58e4ee0000000p-5, -0x1.be2fa00000000p-5, -0x1.8177520000000p-3, -0x1.6a3fe20000000p-3, 0x1.044c240000000p-4, -0x1.eb041e0000000p-3, -0x1.2ee8d60000000p-4, -0x1.e23fba0000000p-3, -0x1.fcc5460000000p-5, -0x1.739e080000000p-7, 0x1.176b640000000p-4, 0x1.da47de0000000p-4, -0x1.5ccadc0000000p-4, -0x1.07e4a20000000p-3, 0x1.87f2b40000000p-6, -0x1.65172a0000000p-3, -0x1.6cd54a0000000p-1, 0x1.b7b6b20000000p-6, -0x1.0c24d00000000p-1, -0x1.f3a4360000000p-2, -0x1.c007fe0000000p-4, -0x1.415b780000000p-3, -0x1.bccc080000000p-3, 0x1.3766ca0000000p-5, -0x1.ac2b960000000p-3, -0x1.540aa80000000p-3, -0x1.6447fa0000000p-3, -0x1.7cdf2c0000000p-3, 0x1.a50d7c0000000p-5, -0x1.2640240000000p-3, -0x1.5858720000000p-3, -0x1.033ddc0000000p-3, -0x1.9df1e80000000p-3, 0x1.9cb4c00000000p-4, -0x1.092d560000000p-1, -0x1.43d2fe0000000p-3, -0x1.ccf57c0000000p-3, -0x1.6854680000000p-4, -0x1.e9b8800000000p-3, -0x1.1ee20c0000000p-1, -0x1.722ca80000000p-4, 0x1.785c080000000p-4, -0x1.12135c0000000p-4, 0x1.bdc74e0000000p-4, 0x1.90fc8c0000000p-4, -0x1.760b8a0000000p-3, 0x1.30a6340000000p-4, -0x1.5929a80000000p-2, -0x1.23e1c00000000p-3, -0x1.ad5f4a0000000p-3, -0x1.65e76a0000000p-6, -0x1.76620e0000000p-1, 0x1.9ccb840000000p-4, 0x1.afcf000000000p-5, -0x1.17ff560000000p-4, -0x1.cc312a0000000p-8, -0x1.c1375e0000000p-4, -0x1.f1d66c0000000p-11, -0x1.3207c60000000p-2, -0x1.18c1e20000000p-3, -0x1.74db480000000p-3, 0x1.13d3000000000p-4, -0x1.a8bca20000000p-6, 0x1.cd2e700000000p-5, -0x1.a726080000000p-3, -0x1.7aa7ca0000000p-4, -0x1.7b42ac0000000p-3, -0x1.253cca0000000p-3, -0x1.0a783e0000000p-3}
, {0x1.8690000000000p-4, -0x1.22eed40000000p-4, 0x1.7301340000000p-5, -0x1.963bba0000000p-2, -0x1.1e481e0000000p-2, -0x1.62f84c0000000p-2, -0x1.77525c0000000p-3, -0x1.1531c00000000p-2, 0x1.caece20000000p-3, -0x1.f6041a0000000p-1, 0x1.a2b6040000000p-7, 0x1.58ba1a0000000p-3, -0x1.c42eb20000000p-3, 0x1.0ed6860000000p-2, 0x1.ea7bde0000000p-3, -0x1.3f094a0000000p-7, 0x1.938ad80000000p-2, -0x1.6819fc0000000p-6, -0x1.03e8c00000000p-1, 0x1.447a840000000p-7, 0x1.14af140000000p-5, -0x1.74cd540000000p-3, -0x1.c8ad6a0000000p-3, -0x1.c051180000000p-2, 0x1.cfd3120000000p-4, -0x1.38e3c80000000p-5, -0x1.78e4080000000p-2, 0x1.3a23400000000p-4, -0x1.ee11a60000000p-2, -0x1.1281cc0000000p-4, -0x1.b45ff60000000p-3, -0x1.024e720000000p-2, 0x1.145ff80000000p-4, -0x1.f644340000000p-2, -0x1.af721a0000000p-2, 0x1.48d8f40000000p-5, -0x1.da34ec0000000p-3, -0x1.35cf680000000p-1, -0x1.89d5000000000p-3, 0x1.44e9c60000000p-4, 0x1.b7c1480000000p-2, -0x1.ac7b2c0000000p-3, -0x1.650cc20000000p-2, -0x1.99fa2a0000000p-3, -0x1.45590a0000000p-1, 0x1.0ce7860000000p-9, -0x1.05f2f40000000p-3, 0x1.a03ff40000000p-5, 0x1.1aa17c0000000p-5, -0x1.ad01320000000p-2, -0x1.ee35e60000000p-4, -0x1.85c9ba0000000p-1, 0x1.0b9e980000000p-2, -0x1.d1f7dc0000000p-3, 0x1.b049760000000p-3, -0x1.6295aa0000000p-3, -0x1.2f84ea0000000p-4, 0x1.a8a2580000000p-4, -0x1.d319100000000p-2, 0x1.ca8d700000000p-2, -0x1.3fe6180000000p-5, -0x1.f077420000000p-3, -0x1.4c3cd80000000p-2, 0x1.7e5e120000000p-4, -0x1.d2090a0000000p-2, -0x1.480bf20000000p-5, -0x1.07d1f20000000p-2, -0x1.cb2d2e0000000p-2, -0x1.bd4faa0000000p-3, 0x1.949b920000000p-4, 0x1.dee7b80000000p-4, 0x1.33a4060000000p-4, -0x1.7e77060000000p-2, -0x1.1b4b480000000p-3, -0x1.ecebbe0000000p-2, -0x1.78478e0000000p-1, -0x1.4385920000000p-3, -0x1.8e0f600000000p-1, 0x1.dc43820000000p-4, -0x1.aa6afc0000000p-3, -0x1.aee79e0000000p-4, -0x1.cdf05e0000000p-4, -0x1.320eae0000000p-1, -0x1.62ea080000000p-2, -0x1.f426c60000000p-2, 0x1.611a780000000p-4, -0x1.a4ca400000000p-3, -0x1.8ba10c0000000p-3, -0x1.6615ca0000000p-4, 0x1.e6f26a0000000p-2, -0x1.b088600000000p-7, 0x1.19146e0000000p-4, -0x1.4a82660000000p-3, -0x1.3144b20000000p+0, -0x1.1ea0d60000000p-3, -0x1.b6adbc0000000p-2, 0x1.26ca340000000p-5, 0x1.df09640000000p-2, -0x1.6114ae0000000p-1, 0x1.902a800000000p-2, -0x1.d83de80000000p-3, -0x1.d55a2a0000000p-3, -0x1.c06b880000000p-5, -0x1.23ddf40000000p-3, 0x1.c620940000000p-5, 0x1.8614e60000000p-4, 0x1.91685e0000000p-1, -0x1.a1d8560000000p-4, -0x1.60c0100000000p-2, -0x1.4ad1d60000000p-1, -0x1.0637520000000p-2, 0x1.23c45e0000000p-2, 0x1.3bc1980000000p-5, 0x1.106da20000000p-5, -0x1.ce503a0000000p-4, -0x1.d93d1e0000000p-3, 0x1.38b2d00000000p-2, -0x1.790ee40000000p-1, -0x1.2d4f2a0000000p-1, 0x1.a109120000000p-4, 0x1.57bb120000000p-9, -0x1.1cf38e0000000p-1, 0x1.50b21e0000000p-1, 0x1.d7865a0000000p-2, -0x1.edeb7c0000000p-2, -0x1.78710e0000000p-8, 0x1.3c5e900000000p-4, -0x1.898c340000000p-3}
, {0x1.8234500000000p-5, 0x1.690b9c0000000p-3, -0x1.4163da0000000p-3, -0x1.decfda0000000p-3, -0x1.5e59360000000p-3, -0x1.3a60d20000000p-6, -0x1.b0d0c40000000p-3, -0x1.79b5680000000p-4, -0x1.8982740000000p-6, -0x1.696a3a0000000p-3, -0x1.3169200000000p-6, -0x1.b060a80000000p-6, 0x1.3d9db60000000p-3, 0x1.f935580000000p-8, 0x1.4321de0000000p-4, 0x1.a550180000000p-3, -0x1.b16bbe0000000p-5, -0x1.37ed960000000p-4, -0x1.40df540000000p-7, -0x1.678a6a0000000p-7, -0x1.cde9da0000000p-4, -0x1.17a1520000000p-7, -0x1.15e99a0000000p-4, -0x1.bf816e0000000p-6, -0x1.f808ea0000000p-3, -0x1.48e3f00000000p-4, -0x1.186c880000000p-8, -0x1.0278ea0000000p-4, 0x1.960bcc0000000p-4, -0x1.3f19260000000p-3, -0x1.4a85f40000000p-5, -0x1.6266f40000000p-3, 0x1.bd840e0000000p-8, -0x1.92204c0000000p-6, -0x1.ef83de0000000p-7, -0x1.6f978a0000000p-3, -0x1.6ac31e0000000p-5, -0x1.8bb5500000000p-8, 0x1.7f0e160000000p-6, 0x1.d52c760000000p-3, 0x1.8c9f380000000p-4, 0x1.972a920000000p-3, -0x1.b669740000000p-4, -0x1.b1fc5a0000000p-3, -0x1.9524860000000p-3, 0x1.0d1cfa0000000p-3, -0x1.22bf960000000p-6, 0x1.b9cba20000000p-4, -0x1.bee5b20000000p-3, -0x1.0492120000000p-3, 0x1.8773940000000p-5, -0x1.116e800000000p-3, -0x1.3820880000000p-3, -0x1.c6b1b00000000p-4, 0x1.0282b20000000p-4, -0x1.34054c0000000p-3, 0x1.42f7b60000000p-4, -0x1.67a3580000000p-4, -0x1.3e0db40000000p-3, -0x1.39bd2c0000000p-4, 0x1.f07c0a0000000p-5, 0x1.28780a0000000p-6, -0x1.d8f8360000000p-5, 0x1.094fbc0000000p-4, -0x1.50cdc20000000p-2, 0x1.5229580000000p-6, -0x1.4e87aa0000000p-5, -0x1.60b8b40000000p-4, -0x1.b5a54c0000000p-5, 0x1.7b5be80000000p-4, -0x1.454a4c0000000p-3, 0x1.0cafe60000000p-3, -0x1.2f7caa0000000p-3, -0x1.cc52a40000000p-5, -0x1.9f20520000000p-6, -0x1.3e2b9a0000000p-3, -0x1.cc03c80000000p-3, -0x1.01abb20000000p-5, -0x1.623efc0000000p-3, -0x1.dafd2c0000000p-3, -0x1.171e820000000p-2, 0x1.4eafb00000000p-6, -0x1.80b84e0000000p-5, -0x1.e030da0000000p-6, -0x1.f9815a0000000p-4, -0x1.7360ce0000000p-3, 0x1.cf8a160000000p-4, 0x1.77d0940000000p-4, 0x1.32d5900000000p-5, -0x1.3d7da20000000p-6, -0x1.b0fa760000000p-4, -0x1.24da760000000p-5, -0x1.8539de0000000p-6, -0x1.207ffa0000000p-6, -0x1.aeaf0e0000000p-5, -0x1.ddb8760000000p-4, 0x1.0ad12a0000000p-3, -0x1.0f966e0000000p-3, -0x1.de6e2c0000000p-4, -0x1.15699e0000000p-3, 0x1.fddf1a0000000p-5, 0x1.cfb7f00000000p-5, 0x1.80b56a0000000p-4, -0x1.3fa3840000000p-5, 0x1.5aedf80000000p-4, -0x1.914b4e0000000p-4, -0x1.391c3c0000000p-3, 0x1.ce1d9a0000000p-4, -0x1.812cca0000000p-5, 0x1.c601ae0000000p-5, -0x1.9109a20000000p-2, -0x1.3e90360000000p-3, 0x1.3b1ec60000000p-4, -0x1.e98a780000000p-3, -0x1.3dc9400000000p-5, -0x1.9ab0a40000000p-6, 0x1.84981a0000000p-4, -0x1.cd862e0000000p-3, 0x1.8bece40000000p-5, -0x1.1a1cf80000000p-3, 0x1.119af80000000p-5, -0x1.7cd2960000000p-3, -0x1.9ad8260000000p-3, -0x1.fcb7b60000000p-3, 0x1.b660a20000000p-8, -0x1.7ea6480000000p-3, 0x1.1d8fa80000000p-3, -0x1.b44bd00000000p-3}
, {-0x1.bee6c20000000p-4, 0x1.32cff20000000p-1, -0x1.e7de8a0000000p-7, 0x1.0425880000000p-4, -0x1.1855b20000000p-2, -0x1.4a2d940000000p-4, 0x1.fc8a6a0000000p-5, -0x1.d3ba8a0000000p-3, -0x1.7b529e0000000p-2, -0x1.3d994e0000000p-2, 0x1.b412980000000p-3, -0x1.3e66f20000000p-1, -0x1.0697a40000000p-2, -0x1.bcb2480000000p-1, -0x1.cbe49c0000000p-4, -0x1.9d9f840000000p-5, -0x1.9f45960000000p-1, -0x1.0f71660000000p-3, 0x1.5fb9b00000000p-5, -0x1.3ab90c0000000p-9, 0x1.00d8f20000000p-5, -0x1.a933320000000p-8, 0x1.756f7a0000000p-3, 0x1.9adde20000000p-4, -0x1.4365e00000000p-3, 0x1.46fd060000000p-5, 0x1.f4619e0000000p-3, -0x1.77c7fe0000000p-6, -0x1.bcd8a80000000p-3, -0x1.08a3680000000p-1, 0x1.0ce5ce0000000p-4, -0x1.a5ffa40000000p-3, -0x1.6c79f00000000p-1, 0x1.dfdf8c0000000p-3, 0x1.6058480000000p-2, -0x1.9ab0920000000p-5, -0x1.55d5a40000000p-5, -0x1.1cd4220000000p-2, 0x1.1405dc0000000p-3, 0x1.0bbee20000000p-6, -0x1.b931d80000000p-6, -0x1.86f56a0000000p-5, -0x1.28b3ba0000000p-5, 0x1.ab885c0000000p-4, 0x1.d87aa40000000p-7, 0x1.f634260000000p-3, -0x1.b513cc0000000p-4, -0x1.12832a0000000p-3, -0x1.3925120000000p-8, -0x1.5d2ad20000000p-3, -0x1.1471b20000000p-5, 0x1.89284c0000000p-3, -0x1.ccb3fe0000000p-2, 0x1.a94d5c0000000p-4, -0x1.c6506c0000000p-5, 0x1.72389c0000000p-2, 0x1.c163360000000p-2, -0x1.a1b8380000000p-3, 0x1.212a660000000p-2, 0x1.4e58c60000000p-2, 0x1.9f6bd20000000p-3, -0x1.86475e0000000p-3, 0x1.219e9e0000000p-5, 0x1.74b1fc0000000p-3, 0x1.0a5bce0000000p-3, -0x1.8d11260000000p-5, -0x1.5dd1e40000000p-1, -0x1.271f900000000p-1, 0x1.41b93a0000000p-5, -0x1.ddc25e0000000p-9, 0x1.2b95f20000000p-2, -0x1.01b95c0000000p+0, -0x1.1985c20000000p-2, -0x1.0111e00000000p-5, -0x1.84ee5e0000000p-2, -0x1.e10b720000000p-2, -0x1.d69cc00000000p-6, -0x1.b4eb1a0000000p-4, -0x1.123c5c0000000p-3, -0x1.43b9000000000p-2, -0x1.9db7420000000p-3, -0x1.caf0e40000000p-4, -0x1.8990180000000p-3, -0x1.4edaee0000000p-5, -0x1.49cb9e0000000p-5, -0x1.cbaf660000000p-4, 0x1.b389540000000p-5, 0x1.d118de0000000p-8, -0x1.adea200000000p-5, -0x1.271a480000000p-2, -0x1.41209a0000000p-4, -0x1.5ff1b40000000p-3, 0x1.91410a0000000p-4, -0x1.fe17ec0000000p-3, -0x1.6a6d0e0000000p-3, 0x1.4db42c0000000p-1, 0x1.bacbf20000000p-4, -0x1.3ad9be0000000p-2, 0x1.9ce8e20000000p-3, -0x1.f8c0440000000p-1, 0x1.2b37ec0000000p-3, 0x1.6ef3220000000p-6, -0x1.339dd60000000p-3, -0x1.89af5c0000000p-3, -0x1.096d8c0000000p-3, -0x1.2a25ae0000000p-2, -0x1.75d5360000000p-2, 0x1.956c960000000p-4, -0x1.4fabd80000000p-3, -0x1.1729b80000000p-3, 0x1.a2dfc60000000p-4, -0x1.2c2b7e0000000p-1, -0x1.07f9ca0000000p-3, 0x1.b5f4680000000p-2, -0x1.fba7fa0000000p-4, 0x1.95f0ac0000000p-6, 0x1.c7e29e0000000p-5, 0x1.a45f760000000p-3, -0x1.334ec80000000p-2, -0x1.06c3fe0000000p-3, 0x1.05a9c80000000p-4, 0x1.655a9c0000000p-2, 0x1.1dbd860000000p-2, 0x1.0f36220000000p-5, 0x1.0230d60000000p-4, 0x1.aef3480000000p-5, 0x1.09b05a0000000p-3, 0x1.07249a0000000p-4}
, {0x1.9375120000000p-5, 0x1.00c3ac0000000p-4, -0x1.22a94c0000000p-1, 0x1.8a4faa0000000p-6, -0x1.58bcf00000000p-2, 0x1.7f28d00000000p-6, -0x1.91bcc40000000p-7, -0x1.c20d940000000p-2, -0x1.1a88220000000p-2, 0x1.9450a00000000p-2, 0x1.73df7c0000000p-5, -0x1.6493080000000p-3, 0x1.6a67ae0000000p-4, 0x1.b78c500000000p-1, -0x1.4b4a7c0000000p-2, 0x1.71fb620000000p-3, -0x1.c0aef80000000p-5, 0x1.27b0ec0000000p-4, -0x1.9986220000000p-2, -0x1.badd120000000p-3, 0x1.6150140000000p-3, -0x1.9684fe0000000p-4, -0x1.58e93e0000000p-3, -0x1.f131c20000000p-6, -0x1.a29d420000000p-3, 0x1.8e44c80000000p-3, -0x1.70cecc0000000p-5, -0x1.6deeb40000000p-5, -0x1.4dbe600000000p-2, -0x1.b29c900000000p-2, 0x1.6fae0c0000000p-3, -0x1.30a7bc0000000p-3, -0x1.8d87ee0000000p-3, -0x1.4c770a0000000p-3, -0x1.d61d300000000p-3, 0x1.9dc5e80000000p-3, -0x1.7aa20a0000000p-3, -0x1.0c9c2c0000000p-1, -0x1.81af260000000p-5, 0x1.b20d940000000p-3, -0x1.723b6e0000000p-5, 0x1.7908ac0000000p-3, 0x1.3574640000000p-1, 0x1.6b1b720000000p-8, -0x1.11d0ce0000000p-2, -0x1.79d1220000000p-2, 0x1.00ff3c0000000p-4, -0x1.c6feec0000000p-6, 0x1.db56ac0000000p-4, 0x1.8bd0040000000p-3, -0x1.47fedc0000000p-5, -0x1.c411f20000000p-1, -0x1.9daba40000000p-2, -0x1.0b3c920000000p-7, -0x1.5985520000000p-6, -0x1.072c040000000p-4, 0x1.3e2d940000000p-3, -0x1.fd2ec20000000p-6, 0x1.dfd4a80000000p-10, -0x1.76892a0000000p-4, -0x1.e260660000000p-3, 0x1.30465a0000000p-4, -0x1.89bcf00000000p-3, -0x1.8251b40000000p-5, -0x1.43a4860000000p-6, 0x1.f6632c0000000p-6, 0x1.382e8a0000000p-5, 0x1.f9a0dc0000000p-8, -0x1.38d5d80000000p-5, -0x1.38c4220000000p-5, -0x1.2d806e0000000p-3, 0x1.3ba14a0000000p-4, -0x1.2ebae00000000p-2, 0x1.21f6ec0000000p-3, 0x1.d2fd480000000p-4, 0x1.546b3e0000000p-4, 0x1.21f4340000000p-5, 0x1.bf6ad40000000p-4, -0x1.f441b80000000p-2, 0x1.61045e0000000p-2, -0x1.fb39420000000p-3, 0x1.e1a6e40000000p-3, -0x1.0c45e80000000p-4, -0x1.1f38bc0000000p-4, -0x1.c9a9e80000000p-4, 0x1.0f59cc0000000p-4, -0x1.51f3940000000p-3, 0x1.2b20060000000p-5, 0x1.e3d27c0000000p-5, -0x1.4dde000000000p-7, -0x1.f20a520000000p-5, 0x1.7fc6640000000p-3, 0x1.c6b6ba0000000p-3, -0x1.27c64e0000000p-3, -0x1.2588080000000p-3, -0x1.01c7000000000p-2, 0x1.de78160000000p-4, -0x1.5c03620000000p-2, -0x1.3afbf40000000p-3, -0x1.192da00000000p-1, 0x1.cc9e980000000p-2, 0x1.16e2260000000p-4, 0x1.116e180000000p-3, -0x1.01c3cc0000000p-5, 0x1.2975e40000000p-3, -0x1.105dd40000000p-3, -0x1.cc83440000000p-4, -0x1.33f8880000000p-3, -0x1.2da8f60000000p-3, -0x1.16b4f00000000p-4, 0x1.7a427c0000000p-10, -0x1.8f57e40000000p-4, -0x1.2d5d660000000p-3, -0x1.af1e660000000p-2, -0x1.10cc920000000p-3, -0x1.7521b80000000p-4, 0x1.99e3a40000000p-4, -0x1.3e00ce0000000p-1, -0x1.d485760000000p-1, -0x1.34abae0000000p-3, 0x1.5878b60000000p-4, -0x1.8fb9c40000000p-4, -0x1.49cef40000000p-5, -0x1.847bee0000000p-3, 0x1.20c6240000000p-3, 0x1.2cba920000000p-3, 0x1.da85180000000p-4, -0x1.4ba60c0000000p-1}
, {0x1.93ae620000000p-2, 0x1.8872ee0000000p-2, 0x1.9c10660000000p-3, 0x1.c6f2900000000p-2, -0x1.b915ba0000000p-5, -0x1.b429b00000000p-4, 0x1.c774b20000000p-3, -0x1.96484e0000000p-1, 0x1.3f112e0000000p-2, 0x1.81e7cc0000000p-4, 0x1.3751320000000p-3, -0x1.a818b00000000p-4, 0x1.228de80000000p-3, -0x1.c370960000000p-2, 0x1.2b61ac0000000p-3, 0x1.cf4c720000000p-5, -0x1.4352fa0000000p-1, 0x1.f45b940000000p-2, 0x1.5864c60000000p-3, 0x1.ec20400000000p-2, -0x1.e989220000000p-8, -0x1.398c320000000p-4, 0x1.3c0f060000000p-1, 0x1.17ee560000000p-1, -0x1.279ee00000000p-5, -0x1.b170aa0000000p-3, 0x1.e386080000000p-2, -0x1.562d640000000p-4, -0x1.ef0b880000000p-1, -0x1.650df60000000p-4, -0x1.3d29340000000p-4, 0x1.a490840000000p-3, -0x1.c66ec20000000p-2, 0x1.4bec1a0000000p-4, 0x1.3b5d6c0000000p-3, -0x1.5f17f40000000p-3, 0x1.3d20100000000p-3, -0x1.239ae60000000p-3, -0x1.bf778a0000000p-3, 0x1.5d9e780000000p-2, -0x1.f5c23a0000000p-5, 0x1.55992e0000000p-3, -0x1.1aea400000000p+0, 0x1.4a16940000000p-3, 0x1.c531ea0000000p-6, 0x1.5b67a80000000p-3, 0x1.64a5940000000p-2, -0x1.66370c0000000p-3, -0x1.2dd4480000000p-2, -0x1.4878a20000000p-7, 0x1.12cee40000000p-6, 0x1.19c26a0000000p-1, -0x1.0583d20000000p-1, 0x1.20b2960000000p-4, 0x1.51b1d20000000p-3, 0x1.fd50720000000p-2, 0x1.4c35860000000p-2, -0x1.8919860000000p-4, 0x1.89d6540000000p-4, -0x1.0a44520000000p-3, 0x1.bc85980000000p-5, -0x1.581f720000000p-3, -0x1.aace100000000p-2, 0x1.0d20800000000p-3, -0x1.709c140000000p-2, -0x1.4061ba0000000p-4, -0x1.2e82ce0000000p-1, 0x1.1838ce0000000p-2, 0x1.ae9aec0000000p-4, 0x1.7047460000000p-3, 0x1.42d3a40000000p-1, 0x1.4d5eaa0000000p-3, -0x1.15812e0000000p-1, -0x1.1ee6780000000p-3, -0x1.e25d100000000p-2, 0x1.915be40000000p-3, -0x1.71e9580000000p-4, 0x1.e096d20000000p-5, -0x1.12ce480000000p-2, 0x1.84da9c0000000p-3, -0x1.1619600000000p-9, 0x1.8b9ca80000000p-4, 0x1.0f495e0000000p-2, 0x1.bbad120000000p-3, 0x1.1d901c0000000p-1, -0x1.281f400000000p-4, 0x1.862b680000000p-3, 0x1.a8014e0000000p-3, 0x1.0b45720000000p-3, -0x1.e1d60e0000000p-3, 0x1.eaccd40000000p-6, -0x1.7a7dc80000000p-2, -0x1.04b2260000000p-1, 0x1.4373ac0000000p-4, -0x1.c092c60000000p-6, -0x1.0827ae0000000p-8, 0x1.e344280000000p-4, 0x1.15defc0000000p-4, -0x1.31cc100000000p-5, -0x1.1f826a0000000p-1, -0x1.300c600000000p-3, 0x1.0c16100000000p-4, 0x1.412c6c0000000p-4, 0x1.53f01a0000000p-2, -0x1.cde6760000000p-7, -0x1.a0d4520000000p-4, 0x1.4a42380000000p-2, 0x1.8d0eda0000000p-3, -0x1.aecd340000000p-5, 0x1.fc954e0000000p-2, -0x1.59af180000000p-4, -0x1.68b0b00000000p-2, -0x1.697cce0000000p-8, 0x1.8395840000000p-3, 0x1.45c67a0000000p-3, 0x1.22194a0000000p-3, 0x1.3f60b00000000p-3, 0x1.76aafa0000000p-3, 0x1.7afe5a0000000p-5, -0x1.5848c40000000p-4, 0x1.42d7280000000p-3, 0x1.b2ee760000000p-2, 0x1.1bf7260000000p-3, -0x1.4982e00000000p-3, -0x1.272e120000000p-1, -0x1.43644a0000000p-4, -0x1.9d49ca0000000p-4, 0x1.dd8af20000000p-3}
, {0x1.621c780000000p-4, -0x1.6a63e00000000p-3, -0x1.13e23c0000000p-2, -0x1.47e5880000000p-6, -0x1.ad252e0000000p-1, -0x1.f560660000000p-3, -0x1.f5841a0000000p-4, 0x1.74f9380000000p-2, -0x1.eb33a40000000p-3, 0x1.391b060000000p-4, 0x1.a208560000000p-4, -0x1.79f8080000000p-2, -0x1.5d1df00000000p-4, -0x1.d3c30a0000000p-5, -0x1.0062220000000p-3, 0x1.6438da0000000p-6, -0x1.988fbc0000000p-2, -0x1.b2ad5c0000000p-5, -0x1.e2bcb00000000p-4, 0x1.a17ab80000000p-4, 0x1.42ed2a0000000p-4, 0x1.f8f9ee0000000p-6, 0x1.39dd180000000p-4, 0x1.636f6e0000000p-4, -0x1.9819cc0000000p-2, 0x1.7c9b6a0000000p-5, -0x1.7e96a80000000p-2, -0x1.a432c40000000p-5, -0x1.88ebbe0000000p-4, -0x1.9b78180000000p-2, 0x1.7ff6fa0000000p-4, -0x1.d616cc0000000p-3, -0x1.ffbff00000000p-3, -0x1.53cb9e0000000p-2, 0x1.d6e85e0000000p-10, -0x1.a9a7100000000p-3, -0x1.4191140000000p-1, 0x1.8a083c0000000p-6, -0x1.7c0e020000000p-4, 0x1.37191e0000000p-3, -0x1.b5c6e20000000p-3, 0x1.48ca600000000p-4, -0x1.6720380000000p-3, -0x1.2868d80000000p-3, -0x1.b535900000000p-5, -0x1.2b910a0000000p-7, -0x1.e4fe360000000p-6, -0x1.d2b87c0000000p-5, 0x1.e70ed20000000p-5, 0x1.bb0c900000000p-3, -0x1.007c7a0000000p-3, -0x1.cea1160000000p-4, -0x1.5bedd60000000p-1, -0x1.b517560000000p-6, -0x1.9599400000000p-3, -0x1.360f5c0000000p-2, 0x1.450f5a0000000p-2, -0x1.3988300000000p-8, -0x1.e8dc380000000p-2, -0x1.79d3c00000000p-3, 0x1.d69b340000000p-4, -0x1.1bb4ba0000000p-3, -0x1.5407b80000000p-1, 0x1.3b17a40000000p-5, -0x1.646d540000000p-1, -0x1.8ec3580000000p-4, -0x1.07e4ca0000000p-5, -0x1.75ebba0000000p-1, -0x1.b62f000000000p-7, -0x1.bd5f500000000p-5, -0x1.c1089a0000000p-3, 0x1.9cbc9e0000000p-4, -0x1.69c2e80000000p-3, 0x1.b1a9540000000p-5, -0x1.89bd960000000p-3, 0x1.18ae0e0000000p-3, 0x1.5e52c80000000p-4, -0x1.af43b40000000p-4, -0x1.6630fa0000000p-2, -0x1.6e739e0000000p-5, 0x1.6dc26e0000000p-3, -0x1.39e3020000000p-4, -0x1.8732960000000p-3, 0x1.193c420000000p-6, -0x1.7d680a0000000p-1, -0x1.ac26ee0000000p-4, -0x1.8e2f460000000p-3, 0x1.617ecc0000000p-4, -0x1.f5e2160000000p-7, 0x1.c44e180000000p-3, 0x1.442eb20000000p-4, -0x1.7916340000000p-2, -0x1.071eb40000000p-5, -0x1.8f7f6e0000000p-3, 0x1.563ada0000000p-4, 0x1.3b0cf60000000p-5, 0x1.19a03e0000000p-6, -0x1.1365fc0000000p-2, -0x1.8d19140000000p-3, 0x1.079f400000000p-1, -0x1.3a540c0000000p-6, -0x1.9d10520000000p-3, 0x1.99899c0000000p-4, -0x1.2690f80000000p-3, 0x1.6235a20000000p-5, -0x1.371e540000000p-3, -0x1.20dbd60000000p-2, 0x1.d382c00000000p-8, -0x1.e5d9440000000p-2, -0x1.6e42580000000p-3, 0x1.865d400000000p-3, -0x1.87c7560000000p-2, 0x1.94423a0000000p-4, -0x1.12196e0000000p+0, 0x1.7540520000000p-6, -0x1.ca664a0000000p-4, -0x1.dfc2e00000000p-4, -0x1.2bab480000000p+0, -0x1.592f8a0000000p-3, 0x1.93aace0000000p-4, -0x1.7c5df60000000p-3, -0x1.85c95a0000000p-1, -0x1.ae14a80000000p-6, 0x1.84c48a0000000p-5, 0x1.7da5960000000p-2, 0x1.4172c20000000p-8, -0x1.0a95320000000p-5, -0x1.4b8c560000000p-1}
, {0x1.5d8a9e0000000p-2, 0x1.3be1100000000p-3, -0x1.29c2680000000p-1, 0x1.0b7d200000000p-5, 0x1.f50dec0000000p-4, 0x1.3efc340000000p-1, 0x1.0129240000000p-4, 0x1.243d9a0000000p-1, -0x1.0798bc0000000p-2, 0x1.b1f60a0000000p-1, 0x1.b3aade0000000p-3, 0x1.be61e20000000p-2, 0x1.d9d6f60000000p-3, 0x1.c4d1fe0000000p-1, -0x1.888d0e0000000p-4, -0x1.8a75a80000000p-4, 0x1.f824b60000000p-4, -0x1.6d192a0000000p-3, 0x1.0e6b380000000p-1, -0x1.18211c0000000p-1, 0x1.e37c020000000p-5, 0x1.1404120000000p-3, -0x1.1daacc0000000p-1, -0x1.8039e80000000p-4, 0x1.5748bc0000000p-4, -0x1.33ef8a0000000p-1, -0x1.e471be0000000p-2, -0x1.38ec260000000p-3, 0x1.4015a00000000p-1, -0x1.6d4ed00000000p-5, -0x1.9609cc0000000p-8, -0x1.676e7e0000000p-2, 0x1.3ddf440000000p-2, -0x1.4433fa0000000p-2, -0x1.ea52ea0000000p-3, -0x1.0d14320000000p-4, 0x1.b40c980000000p-5, -0x1.22cd0c0000000p-4, 0x1.0ba64e0000000p-3, 0x1.90e6820000000p-3, -0x1.3c3adc0000000p-2, 0x1.0769a00000000p-4, -0x1.d9329c0000000p-5, 0x1.3e5b700000000p-5, -0x1.6932d00000000p-4, -0x1.a965ae0000000p-2, 0x1.221d2a0000000p-2, 0x1.8628c20000000p-2, 0x1.a7c1800000000p-2, -0x1.ea95900000000p-3, -0x1.00cb0c0000000p-5, -0x1.f9dd800000000p-2, 0x1.7b98580000000p-4, -0x1.b59fe60000000p-4, 0x1.d247840000000p-4, -0x1.5ac7f80000000p-2, -0x1.09c4500000000p-1, -0x1.4b83c00000000p-4, 0x1.c10b2e0000000p-3, 0x1.1964180000000p-1, 0x1.3ebfb40000000p-4, -0x1.6a22fe0000000p-4, 0x1.58effc0000000p-2, 0x1.3775d20000000p-3, 0x1.34e0380000000p-6, 0x1.87379c0000000p-3, -0x1.3e5d4a0000000p-1, -0x1.96390a0000000p-2, 0x1.b6d5260000000p-4, -0x1.bca0400000000p-3, 0x1.84a7740000000p-2, 0x1.1797a00000000p-4, 0x1.c6fc000000000p-4, 0x1.c932040000000p-3, -0x1.1930260000000p-2, -0x1.7063600000000p-3, -0x1.2a69560000000p-2, -0x1.a66cd20000000p-2, 0x1.1bc2ec0000000p-3, 0x1.5b74c60000000p-4, 0x1.d07f1c0000000p-4, 0x1.fe031c0000000p-5, 0x1.75f8960000000p-2, -0x1.5d18040000000p-2, 0x1.f0ae640000000p-4, 0x1.420c1e0000000p-3, 0x1.84a0ec0000000p-5, 0x1.9c1f940000000p-5, 0x1.2536ea0000000p-4, 0x1.b471220000000p-2, -0x1.3bb3ba0000000p-5, 0x1.4ea1ac0000000p-6, 0x1.821d1a0000000p-4, 0x1.92181e0000000p-6, 0x1.456ae40000000p-3, -0x1.d73e440000000p-4, 0x1.651fd00000000p-6, 0x1.cd47cc0000000p-1, 0x1.9beec00000000p-5, 0x1.d833a40000000p-1, 0x1.540f220000000p-2, -0x1.9d0cdc0000000p-7, -0x1.1a9dc20000000p-3, -0x1.1d40980000000p-1, 0x1.b42e060000000p-3, -0x1.6687ae0000000p-4, -0x1.ad3eda0000000p-3, -0x1.de11f00000000p-8, -0x1.3a4cb00000000p-5, -0x1.305f740000000p-1, -0x1.05c4ce0000000p-9, 0x1.86a65e0000000p-2, 0x1.904fb20000000p-4, -0x1.6c89c80000000p-2, -0x1.1515260000000p-3, -0x1.da32080000000p-6, -0x1.2bf37e0000000p-2, 0x1.dcdcc80000000p-4, -0x1.97b8620000000p-2, -0x1.6c7bcc0000000p-4, -0x1.2be0040000000p-4, -0x1.8b93e60000000p-9, -0x1.0592720000000p-2, 0x1.0bebf40000000p-1, 0x1.0292c60000000p+0, 0x1.4b53860000000p-3, 0x1.be9f360000000p-4, -0x1.3fc5fc0000000p-1}
, {0x1.7e4d440000000p-2, 0x1.04b7260000000p-1, -0x1.900c980000000p-2, -0x1.6e02d60000000p-2, 0x1.0778640000000p-2, 0x1.10eacc0000000p-2, 0x1.3045240000000p-3, -0x1.cc99ae0000000p-6, -0x1.afbce60000000p-1, 0x1.676eb40000000p-1, -0x1.e598c80000000p-4, 0x1.8a23820000000p-3, -0x1.fdbe4e0000000p-5, 0x1.4c3d380000000p-2, -0x1.ca12b40000000p-3, -0x1.4237e40000000p-3, 0x1.2e4c040000000p-5, -0x1.068d820000000p-3, -0x1.a52ab40000000p-6, -0x1.159d6e0000000p-2, -0x1.8bfbb20000000p-6, -0x1.081e120000000p-4, -0x1.846be20000000p-1, 0x1.ea641a0000000p-7, -0x1.73c9680000000p-7, 0x1.108dbe0000000p-1, -0x1.5564060000000p-2, -0x1.a170760000000p-3, -0x1.6c2a540000000p-1, 0x1.ba59640000000p-1, -0x1.cd54740000000p-7, -0x1.3714120000000p-4, -0x1.e9c4500000000p-4, 0x1.ba21700000000p-2, -0x1.a38a640000000p-1, 0x1.78f0dc0000000p-5, 0x1.143ad20000000p-4, -0x1.8cfe1c0000000p-3, 0x1.877bf20000000p-6, 0x1.cdb4540000000p-2, -0x1.93f3e40000000p-4, 0x1.8529a00000000p-6, -0x1.729fbc0000000p-2, -0x1.6a9c720000000p-3, 0x1.ea7a460000000p-3, 0x1.0900080000000p-2, -0x1.3e93000000000p-2, 0x1.6166ec0000000p-4, 0x1.a420de0000000p-5, -0x1.73470e0000000p-1, -0x1.20c71e0000000p-3, -0x1.af46c60000000p-2, 0x1.efa1660000000p-2, -0x1.d68a800000000p-3, -0x1.6813920000000p-5, -0x1.88a0fe0000000p-4, -0x1.06b4480000000p-1, -0x1.d39a6c0000000p-4, 0x1.b9e2c00000000p-5, 0x1.915a600000000p-2, -0x1.af08340000000p-3, -0x1.c8fc6a0000000p-3, -0x1.3a7a540000000p-6, 0x1.19955a0000000p-4, -0x1.9613920000000p-5, 0x1.93b8080000000p-5, -0x1.b9332e0000000p-2, -0x1.b815dc0000000p-2, -0x1.8da2880000000p-3, -0x1.893cfe0000000p-4, 0x1.49e98e0000000p-2, -0x1.75991e0000000p-3, -0x1.f8ef700000000p-4, -0x1.5d5d600000000p-5, -0x1.74b3a40000000p-3, -0x1.24197a0000000p-2, -0x1.764ad40000000p-3, -0x1.b9d0f00000000p-4, -0x1.5002f00000000p-5, -0x1.4e3fb60000000p-2, 0x1.64db880000000p-3, -0x1.311b540000000p-3, -0x1.fb81f00000000p-1, 0x1.97e1700000000p-4, -0x1.5a3d900000000p-2, -0x1.336a720000000p-3, -0x1.598f380000000p-4, 0x1.00a7940000000p-4, -0x1.aa867e0000000p-4, 0x1.38408e0000000p-2, -0x1.272b2a0000000p-4, 0x1.0438380000000p-1, 0x1.6a72140000000p-5, 0x1.a09d700000000p-3, -0x1.f67a7a0000000p-5, -0x1.92b3dc0000000p-3, -0x1.9ecbd00000000p-3, 0x1.4636120000000p-2, -0x1.c3d7ec0000000p-4, -0x1.647c600000000p-2, 0x1.38b6020000000p-1, 0x1.0a61e00000000p-5, -0x1.5ee4fa0000000p-3, 0x1.1c2b600000000p-1, -0x1.27fa220000000p-4, -0x1.73e6a20000000p-5, 0x1.a29e560000000p-2, -0x1.baf3960000000p-3, 0x1.2de2160000000p-4, 0x1.27402c0000000p-3, 0x1.aaa7e80000000p-5, 0x1.8750e80000000p-2, -0x1.17708e0000000p-3, -0x1.d46d4c0000000p-2, 0x1.12fdb40000000p-3, -0x1.4f76740000000p-4, -0x1.8c2c1a0000000p-4, -0x1.88f2a60000000p-3, 0x1.0a36f00000000p-2, 0x1.fb54100000000p-4, -0x1.7f360e0000000p-3, -0x1.d866ca0000000p-2, 0x1.54593a0000000p-3, 0x1.69c33c0000000p-3, 0x1.d1a0c00000000p-2, -0x1.8c63180000000p-3, -0x1.20904e0000000p-3, -0x1.dda6ac0000000p-1}
, {0x1.4ab4980000000p-4, 0x1.b836640000000p-4, -0x1.13ea120000000p-1, -0x1.0a8ea00000000p-3, -0x1.6f08c60000000p-1, -0x1.bfd46e0000000p-5, 0x1.5c63a20000000p-3, 0x1.30f15e0000000p-4, -0x1.150e420000000p-1, -0x1.0aea8a0000000p-1, -0x1.d85f7c0000000p-3, -0x1.dddb500000000p-3, -0x1.e52ff00000000p-4, 0x1.47f1c60000000p-4, 0x1.1d50900000000p-5, 0x1.0c84760000000p-4, -0x1.4878d80000000p-2, 0x1.d8f89c0000000p-4, 0x1.d1d6fe0000000p-2, -0x1.9fd9320000000p-2, -0x1.1a047a0000000p-5, -0x1.4f1d5a0000000p-4, -0x1.582fc00000000p-1, 0x1.4d73840000000p-3, -0x1.40c9820000000p-1, 0x1.d33c7e0000000p-4, 0x1.82e6980000000p-3, 0x1.3be1900000000p-6, 0x1.570b880000000p-5, -0x1.aa06620000000p-2, -0x1.83675e0000000p-4, -0x1.c628b60000000p-1, -0x1.393df00000000p-1, -0x1.1fe17e0000000p-3, 0x1.77e0260000000p-6, 0x1.04668a0000000p-4, -0x1.2e89ee0000000p-1, -0x1.2c66000000000p-1, -0x1.8fc1620000000p-3, -0x1.4abfd20000000p-4, -0x1.9107ae0000000p-3, 0x1.71b5180000000p-5, -0x1.ba75d40000000p-2, -0x1.51c84a0000000p-4, -0x1.62dc740000000p-2, -0x1.ca4fd80000000p-3, -0x1.6ab5240000000p-3, 0x1.610d6a0000000p-3, 0x1.421e420000000p-5, -0x1.23ee7e0000000p+0, 0x1.de2a4a0000000p-5, -0x1.734f9e0000000p-2, -0x1.4568720000000p-1, -0x1.6d6e020000000p-3, 0x1.a385020000000p-6, 0x1.ef858a0000000p-5, -0x1.3f8b8e0000000p-1, -0x1.113b9c0000000p-5, -0x1.75c33c0000000p-1, -0x1.ff8cb60000000p-4, 0x1.b1cc7c0000000p-4, -0x1.1648e00000000p-3, -0x1.17e7340000000p-2, -0x1.c20f180000000p-4, -0x1.b318bc0000000p-1, -0x1.602ea20000000p-4, -0x1.3f39aa0000000p-1, 0x1.dd20f60000000p-2, 0x1.55f4060000000p-4, -0x1.0b18760000000p-3, 0x1.0cf0cc0000000p+0, -0x1.edebc60000000p-5, -0x1.89705a0000000p-4, -0x1.4a24720000000p-3, -0x1.6bc5200000000p-1, 0x1.0e26020000000p-2, 0x1.38a0a00000000p-4, -0x1.8c79700000000p-7, -0x1.2b7d940000000p-2, 0x1.698d580000000p-2, 0x1.ce1ed00000000p-2, -0x1.8bb4f60000000p-3, -0x1.3c71080000000p-2, 0x1.6188900000000p-5, -0x1.85cd460000000p-1, -0x1.5d42120000000p-4, 0x1.b7f6540000000p-4, 0x1.5cc75e0000000p-4, 0x1.24a4960000000p-6, -0x1.06a0fa0000000p-6, -0x1.cf0e680000000p-4, 0x1.95b47e0000000p-4, 0x1.2e007a0000000p-3, -0x1.ccb2580000000p-1, -0x1.e229580000000p-5, -0x1.6e14940000000p-1, -0x1.7894f80000000p-7, -0x1.3a9ae00000000p-1, -0x1.e204120000000p-7, 0x1.c0ce820000000p-5, 0x1.440f8a0000000p-5, 0x1.6e8c6c0000000p-3, -0x1.a921320000000p-2, 0x1.6d632a0000000p-3, -0x1.54366e0000000p-4, 0x1.415d480000000p-5, -0x1.fd87c80000000p-3, -0x1.7f646c0000000p-3, -0x1.9bf9c60000000p-1, -0x1.7f796e0000000p-3, -0x1.7d689c0000000p-1, -0x1.159ff60000000p+0, 0x1.8458c00000000p-5, -0x1.703b6a0000000p+0, -0x1.8d57d00000000p-5, 0x1.dabb0a0000000p-4, -0x1.80dcc80000000p-2, -0x1.0365380000000p-1, -0x1.4f36740000000p-3, -0x1.fd6d0a0000000p-3, 0x1.bf34760000000p-5, -0x1.a04e100000000p-2, 0x1.67c76e0000000p-2, 0x1.0aed700000000p-3, -0x1.4a17840000000p-2, -0x1.ba0ec20000000p-3, 0x1.9f328c0000000p-7, -0x1.0b90cc0000000p-3}
, {-0x1.e6c6340000000p-5, -0x1.e4fee60000000p-4, -0x1.96cac60000000p-5, 0x1.a41c980000000p-4, -0x1.47fc6a0000000p-2, -0x1.0054920000000p-2, -0x1.e76ffc0000000p-8, -0x1.1e88c80000000p-4, -0x1.6137a00000000p-3, -0x1.0a76680000000p-3, 0x1.c6aaa20000000p-10, 0x1.0ee5900000000p-1, -0x1.1a1d520000000p-6, -0x1.7d53780000000p-4, 0x1.081cc60000000p-1, -0x1.1b7afe0000000p-4, -0x1.7af7be0000000p-3, -0x1.ee13880000000p-3, 0x1.5cb8a40000000p-3, -0x1.21dec40000000p-2, -0x1.c027320000000p-8, -0x1.7a7ea40000000p-7, -0x1.2abc4e0000000p-3, -0x1.e3d56c0000000p-4, -0x1.dcd4600000000p-3, 0x1.9e3eda0000000p-3, -0x1.7b03ec0000000p-1, -0x1.569bdc0000000p-3, -0x1.6e2b1c0000000p-1, -0x1.cbbcaa0000000p-3, 0x1.3de3900000000p-4, -0x1.ea91360000000p-4, -0x1.b30c700000000p-2, -0x1.ada3e00000000p-2, -0x1.1368940000000p-3, 0x1.1cea7c0000000p-4, -0x1.08f5740000000p-2, -0x1.abbdf00000000p-3, -0x1.047a180000000p-3, -0x1.05c83c0000000p-2, -0x1.4aff640000000p-8, 0x1.5f404a0000000p-4, -0x1.28f9780000000p-1, -0x1.9f13000000000p-4, -0x1.cceb0c0000000p-4, 0x1.cfe2d00000000p-5, 0x1.49453c0000000p-7, -0x1.61bf5c0000000p-3, -0x1.546b700000000p-3, 0x1.7fb0f20000000p-5, 0x1.9e63a60000000p-4, -0x1.3db1800000000p-3, -0x1.d6596e0000000p-8, 0x1.64952c0000000p-4, -0x1.2263720000000p-4, -0x1.5cd7620000000p-2, -0x1.9d71940000000p-2, -0x1.0d36b00000000p-4, -0x1.73a0140000000p-1, -0x1.806e020000000p-3, -0x1.98320a0000000p-4, 0x1.97d2c80000000p-6, -0x1.15637c0000000p-2, -0x1.53275e0000000p-4, -0x1.da1b3c0000000p-4, -0x1.2727ae0000000p-4, -0x1.f392de0000000p-2, 0x1.44e3160000000p-3, 0x1.383c7c0000000p-4, -0x1.e96ccc0000000p-6, -0x1.80fa920000000p-1, -0x1.e93d0c0000000p-4, 0x1.df41e20000000p-6, 0x1.e048d00000000p-9, -0x1.71acb60000000p-3, 0x1.f070940000000p-2, -0x1.4d95520000000p-3, -0x1.4bbeaa0000000p-2, -0x1.344ed80000000p-4, -0x1.033f4a0000000p-1, -0x1.2a90380000000p-1, 0x1.059c7a0000000p-4, -0x1.0194340000000p-3, -0x1.fa39f60000000p-3, -0x1.8f753c0000000p-2, 0x1.d6de5e0000000p-4, 0x1.1a94200000000p-4, 0x1.3a1a9a0000000p-4, -0x1.d669900000000p-5, -0x1.d350740000000p-1, 0x1.6c79380000000p-5, -0x1.75fb400000000p-1, -0x1.2fb8d20000000p-5, -0x1.b33a600000000p-3, -0x1.baab300000000p-3, -0x1.e0a6d00000000p-2, 0x1.6797fa0000000p-4, -0x1.51cfe20000000p-3, -0x1.7a3fac0000000p-2, 0x1.dd55c20000000p-5, 0x1.75c4200000000p-5, -0x1.9766060000000p-7, -0x1.08969a0000000p-7, 0x1.89b5e80000000p-5, -0x1.177c040000000p-3, -0x1.b1e1160000000p-6, -0x1.66350c0000000p-5, -0x1.2c085e0000000p-3, -0x1.4d67460000000p-3, -0x1.3bb9ae0000000p-1, -0x1.1457260000000p-3, -0x1.3e99d60000000p-1, -0x1.1bc47c0000000p-3, -0x1.74b1080000000p-2, -0x1.38abca0000000p-5, 0x1.bf554a0000000p-4, 0x1.80b6cc0000000p-4, 0x1.c1d1960000000p-4, -0x1.caaf180000000p-3, 0x1.73055c0000000p-4, 0x1.4352a00000000p-3, 0x1.f7ea3a0000000p-5, 0x1.982dea0000000p-5, -0x1.13375a0000000p-3, -0x1.9c24500000000p-2, -0x1.5cc2a40000000p-3, 0x1.78529a0000000p-6, -0x1.0f1e220000000p-4}
, {0x1.6b5a260000000p-1, -0x1.ec88720000000p-3, -0x1.7bcc320000000p-2, -0x1.75be340000000p-1, -0x1.08b8d80000000p-4, -0x1.43c3b40000000p-2, 0x1.713e6e0000000p-4, -0x1.c0267a0000000p-2, 0x1.6dd3000000000p-8, -0x1.eb95ee0000000p-2, 0x1.8b9d100000000p-7, 0x1.47f3260000000p-2, -0x1.ec92c80000000p-4, 0x1.b0d1de0000000p-2, -0x1.0c2fb20000000p-4, 0x1.43911e0000000p-3, -0x1.d5c63a0000000p-6, -0x1.0cf4c40000000p-3, 0x1.5993ae0000000p-2, 0x1.401b1c0000000p-2, -0x1.b91fb60000000p-5, -0x1.db3f7e0000000p-5, -0x1.c48dc20000000p-2, -0x1.b054740000000p-6, 0x1.d3fa560000000p-2, -0x1.71bcc60000000p-2, 0x1.ca3f440000000p-3, 0x1.26d4a00000000p-5, -0x1.22a0880000000p-4, 0x1.c443b60000000p-2, -0x1.2f4fb60000000p-5, -0x1.a107980000000p-6, 0x1.83fe2c0000000p-2, -0x1.16ac5c0000000p-2, -0x1.81c2ee0000000p-1, 0x1.8a69960000000p-3, -0x1.6bc0ba0000000p-2, -0x1.1d03ca0000000p-3, -0x1.0bf6980000000p-5, -0x1.75fe460000000p-6, -0x1.6ca1480000000p-2, 0x1.95e5c80000000p-6, -0x1.3ddbb00000000p-2, 0x1.c35c400000000p-3, -0x1.ebbbcc0000000p-4, 0x1.9bea000000000p-6, 0x1.36639e0000000p-5, 0x1.a898c00000000p-8, 0x1.ba1b900000000p-3, -0x1.6880b80000000p-3, -0x1.e4873e0000000p-6, 0x1.67b8500000000p-2, 0x1.d87aca0000000p-4, -0x1.598aa00000000p-4, 0x1.044e880000000p-3, -0x1.b6222c0000000p-4, 0x1.c007100000000p-3, 0x1.d1ceb20000000p-4, -0x1.930a780000000p-3, 0x1.0ec1d00000000p-1, -0x1.5842140000000p-4, -0x1.b6022e0000000p-7, -0x1.44a07a0000000p-2, 0x1.4d5a400000000p-3, -0x1.2c30da0000000p-1, -0x1.41f49e0000000p-4, 0x1.b1eeee0000000p-3, -0x1.1855180000000p-1, 0x1.6875540000000p-3, 0x1.cc164e0000000p-5, -0x1.cac9140000000p-5, 0x1.6306840000000p-5, -0x1.d789040000000p-2, 0x1.068a600000000p-4, -0x1.1034040000000p-5, -0x1.9181d40000000p-2, 0x1.ec2d940000000p-9, -0x1.d8a3cc0000000p-2, 0x1.6484f20000000p-4, -0x1.7319a40000000p-3, 0x1.b454b20000000p-3, 0x1.4440940000000p-6, 0x1.224a340000000p-2, -0x1.0585640000000p-1, 0x1.6344ee0000000p-3, -0x1.8192e80000000p-3, 0x1.6993840000000p-3, 0x1.1339f00000000p-6, -0x1.a83f800000000p-4, 0x1.f94fc20000000p-3, -0x1.2b15780000000p-4, 0x1.962bf00000000p-2, 0x1.03cf4a0000000p-5, -0x1.2105660000000p-5, -0x1.ad48800000000p-4, -0x1.91994c0000000p-1, 0x1.f42afc0000000p-4, 0x1.03dc280000000p-3, -0x1.8dce9a0000000p-3, -0x1.1df37e0000000p-3, 0x1.7f55c00000000p-2, 0x1.3cc8e20000000p-6, 0x1.4e1eec0000000p-3, 0x1.6c45fa0000000p-2, 0x1.18a3fa0000000p-2, -0x1.9274b00000000p-9, 0x1.4c82de0000000p-2, 0x1.209a1e0000000p-3, 0x1.04656a0000000p-4, -0x1.733faa0000000p-3, 0x1.3585780000000p-3, 0x1.c5123e0000000p-2, -0x1.d0e5ca0000000p-8, 0x1.0519160000000p-2, -0x1.2b8e200000000p-5, 0x1.4584360000000p-6, 0x1.71a3420000000p-2, -0x1.4131b80000000p-4, -0x1.1bdb780000000p-1, 0x1.4098940000000p-4, -0x1.7f3e540000000p-4, 0x1.0a6ed00000000p-2, 0x1.053ca40000000p+0, 0x1.ea7cce0000000p-4, -0x1.04f0860000000p-1, 0x1.9087340000000p-3, 0x1.f9c6800000000p-3, 0x1.a342ce0000000p-3}
, {-0x1.19bccc0000000p-5, -0x1.de0b100000000p-3, -0x1.1341140000000p-1, 0x1.489dc60000000p-3, 0x1.501f840000000p-2, 0x1.520c360000000p-2, -0x1.5c7e920000000p-4, 0x1.13390c0000000p-3, -0x1.7c120c0000000p-2, 0x1.2119dc0000000p-1, -0x1.bb09840000000p-4, 0x1.3127f80000000p-1, 0x1.9ea24a0000000p-4, -0x1.d886300000000p-3, -0x1.c048280000000p-2, -0x1.f5550c0000000p-5, 0x1.9476c80000000p-2, -0x1.3c5a760000000p-4, 0x1.4773d40000000p-2, -0x1.29839c0000000p-6, -0x1.7185840000000p-6, 0x1.c72fc20000000p-9, 0x1.e96d4e0000000p-4, 0x1.b6c4660000000p-3, -0x1.9ffcc80000000p-1, 0x1.5030cc0000000p-3, 0x1.69dc340000000p-2, -0x1.913cd00000000p-12, 0x1.fa8cf00000000p-7, 0x1.9602280000000p-2, 0x1.6bd31c0000000p-3, -0x1.9e81ac0000000p-3, 0x1.c7d73e0000000p-4, -0x1.44a3540000000p-1, -0x1.ef57080000000p-1, -0x1.27d5f40000000p-3, 0x1.97b1860000000p-2, -0x1.08380c0000000p-2, 0x1.fcd92c0000000p-4, -0x1.e7b9bc0000000p-3, -0x1.2ea7a80000000p-2, -0x1.afb29a0000000p-3, -0x1.1a70740000000p-1, -0x1.90d8080000000p-5, -0x1.e0ce6e0000000p-4, 0x1.f82f620000000p-3, -0x1.6a6ed40000000p-6, 0x1.c3e8b60000000p-6, -0x1.bea6820000000p-5, 0x1.ac7a920000000p-3, 0x1.8d3c460000000p-4, -0x1.797b4a0000000p-2, 0x1.07dfcc0000000p-6, -0x1.dc3d520000000p-3, -0x1.9ddfe00000000p-5, -0x1.5f39ce0000000p-1, 0x1.6ee03e0000000p-3, -0x1.c1754e0000000p-3, -0x1.8ff8780000000p-3, -0x1.6da73a0000000p-4, 0x1.41d7b60000000p-4, -0x1.2ace560000000p-2, -0x1.e14e4c0000000p-3, -0x1.9c177c0000000p-5, 0x1.6fc6840000000p-4, 0x1.08b7fe0000000p-4, -0x1.68cfa00000000p-2, -0x1.f1d4640000000p-1, -0x1.ddc2e60000000p-3, -0x1.a18b860000000p-4, -0x1.2444360000000p-2, -0x1.78438c0000000p-7, -0x1.4acc740000000p-4, -0x1.b4a0580000000p-5, 0x1.6a9b040000000p-3, -0x1.cccfac0000000p-9, -0x1.5914600000000p-2, -0x1.8235900000000p-4, 0x1.4500120000000p-2, 0x1.b199a80000000p-3, 0x1.efec6a0000000p-3, -0x1.897abe0000000p-5, -0x1.7ac66e0000000p-1, 0x1.352abc0000000p-3, -0x1.8087d20000000p-1, 0x1.0112840000000p-3, 0x1.13c6ca0000000p-3, -0x1.9ee6e40000000p-5, -0x1.79571e0000000p-3, 0x1.9bd2fc0000000p-2, -0x1.6089940000000p-3, 0x1.0e88c80000000p-3, -0x1.e25dbc0000000p-2, 0x1.1b7e680000000p-2, -0x1.09d5180000000p-3, -0x1.235c9e0000000p-3, 0x1.7ae0f40000000p-7, 0x1.2776d60000000p+0, 0x1.31678e0000000p-2, -0x1.d0db1a0000000p-6, 0x1.abdbc00000000p-2, -0x1.1b18e60000000p-5, 0x1.521e1e0000000p-2, 0x1.c77bca0000000p-3, -0x1.4f19d00000000p-2, 0x1.4553b40000000p-4, 0x1.499d140000000p-5, -0x1.7abac00000000p-3, 0x1.cb75320000000p-3, -0x1.bcc9b00000000p-3, 0x1.ea838c0000000p-3, 0x1.188f820000000p-5, -0x1.bebb740000000p-3, -0x1.9058b80000000p-2, -0x1.6ed3be0000000p-6, 0x1.badce20000000p-6, -0x1.f3503c0000000p-4, 0x1.6effc40000000p-3, 0x1.d1e0500000000p-3, -0x1.9b64c60000000p-6, -0x1.a2880c0000000p-6, -0x1.90358a0000000p-5, 0x1.d00c340000000p+0, 0x1.8889fe0000000p-5, 0x1.3052a00000000p-5, -0x1.20c5660000000p-5, -0x1.4f6f8c0000000p-4, -0x1.265c760000000p-1}
, {-0x1.8d85b80000000p-3, -0x1.0863720000000p-3, -0x1.4a569c0000000p-1, 0x1.266c3c0000000p-3, -0x1.8b742e0000000p-2, -0x1.10e2780000000p-3, 0x1.dd7c5c0000000p-5, -0x1.8610160000000p-2, -0x1.b343f80000000p-2, -0x1.546ba60000000p-2, 0x1.fc99b20000000p-3, -0x1.f745d60000000p-2, 0x1.2c78e40000000p-3, -0x1.ada0140000000p-3, -0x1.6e3d180000000p-2, -0x1.0291d20000000p-4, 0x1.38727c0000000p-2, 0x1.98626e0000000p-5, -0x1.2ef6960000000p-4, -0x1.e076520000000p-3, 0x1.8ba8c60000000p-6, -0x1.9dfd020000000p-4, -0x1.d4bc080000000p-2, -0x1.2272180000000p-3, -0x1.f310940000000p-2, -0x1.8500080000000p-9, 0x1.25611a0000000p-4, -0x1.2dbc7c0000000p-8, 0x1.a5fc3c0000000p-5, -0x1.3801b20000000p-1, -0x1.5689e00000000p-3, 0x1.0fdac00000000p-1, -0x1.575ad20000000p-4, -0x1.cd64440000000p-6, -0x1.7f39800000000p-6, -0x1.4c8bf80000000p-4, -0x1.0a3f780000000p-2, -0x1.3a93060000000p-2, -0x1.156ea20000000p-5, -0x1.1709e80000000p-4, -0x1.ba1e720000000p-3, 0x1.ec195e0000000p-4, 0x1.7f9bce0000000p-3, 0x1.23d3940000000p-5, -0x1.9ddd400000000p-4, -0x1.4fe5ba0000000p-2, 0x1.96949e0000000p-4, 0x1.5296d80000000p-5, -0x1.5112360000000p-7, -0x1.182c1e0000000p-3, -0x1.1829960000000p-4, -0x1.b268b60000000p-4, -0x1.3e57980000000p-2, -0x1.8fd9ea0000000p-4, -0x1.6a7e420000000p-4, 0x1.ab3be00000000p-7, 0x1.4aaa4e0000000p-3, 0x1.bd3ac20000000p-4, -0x1.74ed8c0000000p-3, -0x1.4f47480000000p-2, -0x1.12d3ae0000000p-5, -0x1.56b7ca0000000p-3, -0x1.7a9efa0000000p-2, 0x1.c66cda0000000p-3, -0x1.04e3fa0000000p-2, -0x1.ae948e0000000p-3, -0x1.2b28b00000000p-2, 0x1.ff85bc0000000p-4, 0x1.683ae20000000p-4, 0x1.53bdd80000000p-3, -0x1.7d37400000000p-3, 0x1.add81e0000000p-5, -0x1.16b57e0000000p-1, 0x1.abd0d80000000p-6, -0x1.b2bc1a0000000p-4, -0x1.b655e80000000p-3, -0x1.b97b920000000p-4, -0x1.2e21c00000000p-1, 0x1.7875ce0000000p-2, -0x1.2218760000000p-1, -0x1.79b7cc0000000p-2, -0x1.65e9640000000p-6, -0x1.f8766a0000000p-3, -0x1.47aae40000000p-1, 0x1.f08d120000000p-4, 0x1.4935660000000p-5, 0x1.14bb8c0000000p-4, -0x1.ae37600000000p-4, 0x1.9666860000000p-4, -0x1.4239820000000p-2, 0x1.7a05a40000000p-3, -0x1.784c220000000p-3, 0x1.20c9be0000000p-9, -0x1.2300840000000p-1, 0x1.34a83a0000000p-3, -0x1.4a505e0000000p-2, 0x1.d6b4f20000000p-3, -0x1.39e0100000000p-2, -0x1.7388ca0000000p-3, -0x1.19c0820000000p-1, 0x1.bdbfd40000000p-5, -0x1.fd12500000000p-5, 0x1.616b360000000p-3, 0x1.817d200000000p-3, 0x1.e9acde0000000p-6, 0x1.363d180000000p-4, -0x1.1eab4c0000000p-2, -0x1.83ae040000000p-4, -0x1.3cebb20000000p-2, -0x1.a863700000000p-2, -0x1.cf9d360000000p-2, 0x1.8df4aa0000000p-3, -0x1.39cd900000000p-5, -0x1.969bc60000000p-2, -0x1.f7c2c20000000p-5, 0x1.0305440000000p-6, -0x1.7eeea60000000p-3, -0x1.00faf80000000p-1, -0x1.5287ba0000000p-1, 0x1.b3147e0000000p-3, -0x1.49a56e0000000p-5, -0x1.6e8afa0000000p-2, -0x1.5f92340000000p-8, -0x1.63be220000000p-3, 0x1.e4145a0000000p-4, 0x1.7618800000000p-5, 0x1.91898c0000000p-4, -0x1.94a3740000000p-1}
