/**
  ******************************************************************************
  * @file    weights/fc.cc
  * @author  Pierre-Emmanuel Novac <penovac@unice.fr>, LEAT, CNRS, Université Côte d'Azur, France
  * @version 1.0.0
  * @date    24 march 2020
  * @brief   Template generating plain C code for the implementation of Convolutional Neural Networks on MCU
  */

#include <stdint.h>

#define INPUT_SAMPLES 128
#define FC_UNITS 64


const float dense_22_bias[FC_UNITS] = {0x1.d866780000000p-6, -0x1.52e8600000000p-5, -0x1.5943120000000p-5, 0x1.9fa3e00000000p-5, -0x1.48325a0000000p-7, 0x1.1a52820000000p-5, -0x1.91e7900000000p-5, 0x1.20e1400000000p-8, 0x1.a9037c0000000p-7, -0x1.0325840000000p-12, 0x1.fe5b300000000p-5, 0x1.8cd8520000000p-5, 0x1.4a26400000000p-7, -0x1.4cfc660000000p-4, -0x1.02cd960000000p-5, 0x1.3a6b840000000p-4, 0x1.831ca60000000p-8, 0x1.4106540000000p-4, 0x1.9f83e20000000p-5, 0x1.7b69960000000p-5, 0x1.a009980000000p-5, 0x1.84c7940000000p-6, -0x1.6299700000000p-7, 0x1.2f929a0000000p-7, 0x1.3242440000000p-5, 0x1.a25a2e0000000p-4, -0x1.fa65c20000000p-5, -0x1.7c15d00000000p-4, 0x1.504e4c0000000p-5, 0x1.3d6c900000000p-5, 0x1.6675e20000000p-5, 0x1.f1eaaa0000000p-4, 0x1.5257540000000p-5, 0x1.1c9ec00000000p-4, -0x1.e0a7320000000p-5, -0x1.9977fc0000000p-5, 0x1.b7fc1a0000000p-4, 0x1.1a15120000000p-6, -0x1.dcd88a0000000p-6, 0x1.0b2c640000000p-5, 0x1.5caf500000000p-4, 0x1.c401280000000p-5, 0x1.226cd20000000p-5, -0x1.36a5f40000000p-5, 0x1.7d2c9a0000000p-5, 0x1.f0a4540000000p-5, -0x1.a2f0840000000p-5, 0x1.08aa2e0000000p-4, 0x1.d7295a0000000p-5, -0x1.32dd180000000p-6, 0x1.1f4a360000000p-7, 0x1.3f62aa0000000p-4, 0x1.1b84060000000p-3, 0x1.4807f60000000p-5, 0x1.1107fc0000000p-5, 0x1.c43b4e0000000p-5, 0x1.fa33860000000p-6, 0x1.812dfc0000000p-5, 0x1.30d4c00000000p-5, 0x1.9c0f560000000p-6, -0x1.2ce89a0000000p-4, -0x1.f4f6240000000p-11, 0x1.73d34c0000000p-8, -0x1.f389cc0000000p-7}
;

const float dense_22_kernel[FC_UNITS][INPUT_SAMPLES] = {{0x1.25c4040000000p-4, -0x1.08f5080000000p-5, 0x1.cfe00c0000000p-4, 0x1.470e280000000p-3, 0x1.c17e480000000p-3, -0x1.5df4100000000p-4, -0x1.17aab40000000p-3, 0x1.6987ec0000000p-3, -0x1.60b71c0000000p-3, -0x1.a266da0000000p-6, 0x1.3043260000000p-4, -0x1.41d09c0000000p-4, 0x1.83f5680000000p-4, -0x1.ded6600000000p-7, 0x1.a4131c0000000p-4, -0x1.0f48460000000p-3, -0x1.ebebd80000000p-4, -0x1.c9af3a0000000p-4, 0x1.c4b0820000000p-3, -0x1.6f91880000000p-3, 0x1.ba91fc0000000p-5, 0x1.4449dc0000000p-4, 0x1.2f91300000000p-3, -0x1.b6628a0000000p-4, 0x1.a450a20000000p-8, 0x1.98719c0000000p-4, -0x1.f7bbde0000000p-5, -0x1.0f3a100000000p-2, -0x1.7f3b640000000p-6, 0x1.06f9080000000p-3, -0x1.0a6f020000000p-6, -0x1.8dbb280000000p-3, -0x1.b0b7b80000000p-3, -0x1.2b62e40000000p-3, 0x1.77cee60000000p-4, 0x1.7b81740000000p-3, 0x1.4483d40000000p-3, 0x1.7f6b520000000p-4, -0x1.1f10a60000000p-2, -0x1.8a07680000000p-5, 0x1.4af2540000000p-7, 0x1.662d5c0000000p-4, 0x1.097c940000000p-4, 0x1.911bdc0000000p-3, -0x1.3ae8c00000000p-13, 0x1.bec6ce0000000p-3, 0x1.dc572c0000000p-4, -0x1.5ddb9c0000000p-3, -0x1.bd07e40000000p-7, 0x1.42b0d00000000p-4, 0x1.7d3f1e0000000p-3, -0x1.0312d80000000p-2, 0x1.dbbace0000000p-4, -0x1.92b7e80000000p-4, 0x1.d08c500000000p-4, 0x1.2814200000000p-3, -0x1.45a0da0000000p-4, 0x1.c3ae6e0000000p-4, -0x1.20ef960000000p-2, 0x1.301a9e0000000p-3, -0x1.65578c0000000p-4, 0x1.9695860000000p-3, -0x1.40ac240000000p-2, -0x1.5c06100000000p-3, -0x1.39bdb80000000p-4, 0x1.bb66840000000p-4, -0x1.276ba60000000p-4, -0x1.a104d80000000p-4, -0x1.7ae8c20000000p-4, -0x1.3fa9420000000p-5, -0x1.5dae320000000p-3, 0x1.255f440000000p-4, 0x1.1b0c8c0000000p-5, -0x1.8151d00000000p-5, 0x1.6428160000000p-5, -0x1.bea8a60000000p-4, -0x1.01b9820000000p-3, 0x1.44158a0000000p-3, -0x1.3561e40000000p-3, -0x1.2e2d780000000p-5, -0x1.1dc1ca0000000p-2, -0x1.6d42ec0000000p-5, 0x1.6efab60000000p-3, 0x1.6f5cba0000000p-3, -0x1.7f9a7e0000000p-3, 0x1.3d2dec0000000p-5, -0x1.69c74c0000000p-3, -0x1.41e65c0000000p-2, 0x1.db4bd60000000p-4, 0x1.5e6c280000000p-4, 0x1.4d78060000000p-4, 0x1.f45b880000000p-4, -0x1.5bf8a60000000p-2, 0x1.18ad240000000p-8, 0x1.6ccdce0000000p-3, 0x1.f161e40000000p-6, 0x1.fc66a40000000p-3, -0x1.3a81c80000000p-9, -0x1.ebb5f60000000p-4, -0x1.86dafc0000000p-9, 0x1.9e5f800000000p-5, 0x1.a022fe0000000p-5, 0x1.dc8b0e0000000p-4, -0x1.25d0c80000000p-4, 0x1.793e540000000p-3, -0x1.d3201c0000000p-4, -0x1.6c07b00000000p-4, -0x1.6245960000000p-7, 0x1.4168f40000000p-3, 0x1.eec25e0000000p-4, -0x1.7767ac0000000p-4, 0x1.6acdfc0000000p-3, -0x1.77ba340000000p-2, 0x1.64b45e0000000p-5, 0x1.373f760000000p-3, 0x1.8f18060000000p-6, -0x1.0a3b0e0000000p-2, -0x1.dc43c20000000p-4, 0x1.1d63b00000000p-4, -0x1.be53160000000p-4, 0x1.05f92c0000000p-4, 0x1.9c37060000000p-4, -0x1.0e83c40000000p-5, -0x1.62ae100000000p-4, -0x1.9a6ad60000000p-4, 0x1.07aa400000000p-3, -0x1.ddb17e0000000p-10, 0x1.0407500000000p-3}
, {-0x1.ae93700000000p-3, 0x1.58a1500000000p-3, -0x1.cef1de0000000p-6, -0x1.38e6940000000p-4, 0x1.881e320000000p-5, 0x1.e929100000000p-5, 0x1.7518ec0000000p-5, -0x1.c900600000000p-6, 0x1.f23cb80000000p-6, -0x1.40142a0000000p-8, -0x1.4a36ce0000000p-4, 0x1.0b56da0000000p-3, -0x1.c223d60000000p-6, -0x1.7b516c0000000p-5, -0x1.13ee140000000p-3, -0x1.5af5fe0000000p-9, -0x1.9e5d620000000p-3, -0x1.c19d640000000p-4, -0x1.dfc4a80000000p-4, 0x1.0ca7c80000000p-3, -0x1.3f9eb60000000p-4, -0x1.449b8c0000000p-4, 0x1.ed1b8a0000000p-4, -0x1.238ea60000000p-3, 0x1.c8cc000000000p-4, -0x1.dd7d800000000p-5, -0x1.07abcc0000000p-4, 0x1.033aca0000000p-3, 0x1.8823f00000000p-5, 0x1.199de40000000p-3, 0x1.ecef9e0000000p-4, 0x1.0157860000000p-3, -0x1.c926100000000p-4, -0x1.3e08380000000p-3, 0x1.0889900000000p-3, -0x1.b7816a0000000p-4, 0x1.02047c0000000p-4, 0x1.27b48e0000000p-10, 0x1.455eea0000000p-5, -0x1.6c06d40000000p-4, 0x1.e1610a0000000p-8, 0x1.1843d40000000p-4, 0x1.3de5720000000p-4, 0x1.b1c7ea0000000p-4, 0x1.97b9900000000p-6, -0x1.070e140000000p-3, 0x1.2bcd2e0000000p-3, -0x1.29df260000000p-12, -0x1.d25e2c0000000p-5, -0x1.63f6fa0000000p-4, -0x1.7e44020000000p-7, 0x1.b49fc20000000p-5, -0x1.18522e0000000p-3, -0x1.8eec6c0000000p-5, 0x1.5c47ac0000000p-4, -0x1.b661460000000p-4, -0x1.fad4fa0000000p-9, -0x1.4d9d4c0000000p-3, -0x1.5232540000000p-4, 0x1.f396ea0000000p-6, -0x1.5fc1640000000p-3, 0x1.af4dc20000000p-7, -0x1.5446e60000000p-6, -0x1.5637880000000p-5, -0x1.138bae0000000p-4, -0x1.1fb7880000000p-3, -0x1.6cbfd80000000p-4, -0x1.6145840000000p-3, -0x1.daf1180000000p-4, -0x1.98b1be0000000p-10, -0x1.3168100000000p-3, -0x1.995b600000000p-3, 0x1.61293c0000000p-4, 0x1.31017c0000000p-4, -0x1.61c4f00000000p-4, 0x1.84a4b80000000p-4, -0x1.92a9ce0000000p-4, 0x1.5c15400000000p-5, -0x1.932d300000000p-4, 0x1.2f247c0000000p-4, -0x1.589da00000000p-3, -0x1.b35c860000000p-5, -0x1.832ca60000000p-4, 0x1.f685ee0000000p-6, -0x1.8fd7c20000000p-4, -0x1.7671780000000p-6, -0x1.15bdf60000000p-8, -0x1.e1dc380000000p-4, -0x1.eb21c80000000p-5, -0x1.65e6860000000p-3, -0x1.a9023c0000000p-5, -0x1.53adce0000000p-6, -0x1.0de67e0000000p-3, -0x1.5ef4080000000p-3, -0x1.7f28ec0000000p-3, -0x1.cb1fc80000000p-5, 0x1.ba7b160000000p-4, -0x1.5c0f540000000p-4, -0x1.f3d80c0000000p-7, -0x1.298fb80000000p-5, 0x1.b4df320000000p-4, 0x1.140cee0000000p-5, -0x1.af5c3a0000000p-4, -0x1.835ae00000000p-6, -0x1.344eb20000000p-3, -0x1.30169a0000000p-3, 0x1.85388e0000000p-5, -0x1.34bfe00000000p-3, 0x1.8d7ef80000000p-5, -0x1.c8932c0000000p-4, -0x1.65c6480000000p-3, 0x1.eb29a00000000p-5, -0x1.bcc8760000000p-4, 0x1.5548640000000p-6, -0x1.852a3e0000000p-5, 0x1.ff834a0000000p-4, 0x1.4085e40000000p-7, -0x1.da69300000000p-4, 0x1.7048820000000p-5, 0x1.4840f80000000p-3, 0x1.351ed60000000p-3, -0x1.fe4d2e0000000p-5, -0x1.49de4c0000000p-4, 0x1.36eac80000000p-4, 0x1.7e849e0000000p-4, 0x1.7455c60000000p-4, 0x1.c00a660000000p-6, 0x1.f661d00000000p-4}
, {0x1.5109c00000000p-3, 0x1.40af2e0000000p-3, -0x1.a953c60000000p-4, -0x1.b8908e0000000p-6, 0x1.7c9cc20000000p-5, -0x1.b9cc540000000p-6, 0x1.ab05300000000p-7, 0x1.f5d1500000000p-4, -0x1.9c82200000000p-7, -0x1.e7a8440000000p-4, 0x1.19f4f00000000p-3, -0x1.0d33180000000p-3, -0x1.9647f40000000p-3, -0x1.b4140e0000000p-6, -0x1.010de80000000p-7, -0x1.67a4260000000p-5, 0x1.2c6dbe0000000p-3, 0x1.4675740000000p-3, 0x1.667c4c0000000p-8, -0x1.6509fc0000000p-3, -0x1.1cc1960000000p-5, 0x1.3502b80000000p-4, -0x1.1a14ea0000000p-2, -0x1.ca78140000000p-4, 0x1.9c32c60000000p-3, 0x1.484c160000000p-3, 0x1.42a1f40000000p-3, 0x1.1a6bfc0000000p-2, -0x1.e167400000000p-4, -0x1.952d500000000p-5, 0x1.49be140000000p-3, -0x1.7ba1be0000000p-5, 0x1.1fa7fe0000000p-2, 0x1.912b7e0000000p-4, 0x1.58e8f40000000p-5, 0x1.b88fbc0000000p-5, 0x1.99d2a60000000p-4, 0x1.faaffa0000000p-6, 0x1.b7cbea0000000p-4, -0x1.b707e40000000p-4, -0x1.d2408a0000000p-5, 0x1.adcaa80000000p-4, 0x1.7bc18c0000000p-6, -0x1.ba1aba0000000p-4, -0x1.fdcc100000000p-7, -0x1.6142a80000000p-3, 0x1.61a8f40000000p-5, -0x1.4879140000000p-3, 0x1.b2252c0000000p-3, 0x1.28b6760000000p-4, -0x1.4e2b6c0000000p-3, 0x1.cb1e7e0000000p-12, -0x1.0d8ece0000000p-4, 0x1.4349140000000p-4, 0x1.a0bad80000000p-4, 0x1.7000d00000000p-3, 0x1.0a03be0000000p-3, -0x1.6a2a840000000p-5, 0x1.4a8dc20000000p-3, 0x1.925b4c0000000p-5, -0x1.8985120000000p-6, -0x1.90f9500000000p-6, 0x1.145b200000000p-4, -0x1.2f1aee0000000p-3, -0x1.2ff4a80000000p-3, -0x1.0070a40000000p-3, -0x1.0096820000000p-4, -0x1.1d2eb80000000p-3, -0x1.ec76400000000p-5, 0x1.326f2a0000000p-3, -0x1.03aafc0000000p-3, 0x1.fb3a540000000p-7, 0x1.694b880000000p-3, 0x1.bce2f00000000p-4, -0x1.f0ac080000000p-3, 0x1.596c900000000p-3, 0x1.e867a80000000p-4, 0x1.8203a00000000p-6, -0x1.0af3e60000000p-3, 0x1.9d04780000000p-4, 0x1.3164b40000000p-3, 0x1.59b2660000000p-4, 0x1.0dfdf00000000p-3, 0x1.ae087c0000000p-3, 0x1.09b0760000000p-5, -0x1.6f6f540000000p-8, 0x1.49b0460000000p-6, 0x1.051fba0000000p-3, 0x1.bcff240000000p-4, 0x1.7d1a3a0000000p-5, 0x1.7ce73a0000000p-3, -0x1.8175e40000000p-3, -0x1.598fb40000000p-6, -0x1.3f609a0000000p-5, 0x1.6dfb6c0000000p-3, -0x1.594c960000000p-4, 0x1.28b0de0000000p-3, 0x1.b814580000000p-3, -0x1.15353c0000000p-3, 0x1.1992640000000p-4, 0x1.97233a0000000p-3, -0x1.4b01e60000000p-2, -0x1.0ecda80000000p-3, -0x1.f480040000000p-4, -0x1.f8ac040000000p-3, 0x1.4ab9480000000p-3, 0x1.ed0bd00000000p-4, 0x1.0c4d440000000p-3, -0x1.7d3b340000000p-3, 0x1.8149c00000000p-5, -0x1.0169240000000p-4, -0x1.8711fa0000000p-7, -0x1.49e97e0000000p-3, 0x1.78f22a0000000p-3, -0x1.2dc5420000000p-8, -0x1.cd4a6a0000000p-3, -0x1.defc720000000p-4, -0x1.93174c0000000p-4, -0x1.de08740000000p-5, -0x1.94fbb20000000p-3, -0x1.130fe60000000p-3, -0x1.861a8e0000000p-4, -0x1.bfe9d40000000p-4, -0x1.9f7fd00000000p-3, -0x1.07c8800000000p-3, -0x1.8e46620000000p-3, -0x1.d750800000000p-7, -0x1.c573460000000p-3}
, {-0x1.f980a40000000p-5, 0x1.59e1460000000p-4, 0x1.448e400000000p-4, 0x1.2b8d180000000p-3, -0x1.2e04440000000p-3, -0x1.40d1ce0000000p-4, -0x1.21031e0000000p-3, 0x1.2cea840000000p-4, -0x1.59356e0000000p-6, -0x1.d21e8a0000000p-4, 0x1.23d51e0000000p-3, -0x1.ac8cb20000000p-3, 0x1.f32e0a0000000p-5, -0x1.3c34680000000p-3, 0x1.9f90a20000000p-3, -0x1.03943c0000000p-5, 0x1.e7871e0000000p-4, 0x1.5f92780000000p-4, 0x1.cb28260000000p-3, 0x1.72dc6a0000000p-2, 0x1.a6f3680000000p-7, -0x1.f543a40000000p-4, -0x1.3d21ae0000000p-3, -0x1.97d1260000000p-3, 0x1.5da7000000000p-2, 0x1.b100760000000p-3, 0x1.b25a5c0000000p-6, -0x1.53f2f60000000p-4, -0x1.86bd620000000p-3, 0x1.219c840000000p-4, -0x1.02e0220000000p-7, -0x1.8be8100000000p-3, 0x1.9610a80000000p-4, -0x1.95ce920000000p-3, 0x1.00eca40000000p-2, -0x1.7c9c5e0000000p-4, 0x1.16c89c0000000p-4, 0x1.f483a40000000p-3, -0x1.d565260000000p-3, -0x1.61e47a0000000p-6, 0x1.4b03a20000000p-4, 0x1.78e35e0000000p-4, -0x1.b8d91a0000000p-4, 0x1.ce60140000000p-4, 0x1.34e41c0000000p-4, 0x1.28ca6c0000000p-4, 0x1.4b3aea0000000p-4, 0x1.3498960000000p-7, -0x1.a7557e0000000p-11, 0x1.e832920000000p-6, 0x1.9d98040000000p-3, -0x1.0908b60000000p-3, 0x1.6520c80000000p-4, -0x1.b236560000000p-4, 0x1.26b9ea0000000p-3, 0x1.e17e760000000p-7, 0x1.4a2b240000000p-4, 0x1.2290560000000p-4, -0x1.3a1cce0000000p-6, 0x1.74d3800000000p-4, 0x1.e1315e0000000p-2, 0x1.55d6ba0000000p-4, -0x1.5cbd600000000p-6, 0x1.a21d860000000p-7, 0x1.4ad2dc0000000p-3, 0x1.d3fbbc0000000p-3, 0x1.c85e920000000p-4, -0x1.241ce00000000p-6, -0x1.0384ae0000000p-2, -0x1.f916720000000p-4, -0x1.e97e900000000p-4, -0x1.fdd70a0000000p-4, -0x1.22f3720000000p-3, 0x1.2ab8b40000000p-4, 0x1.e070900000000p-3, 0x1.0b136c0000000p-4, 0x1.4cbb7e0000000p-3, -0x1.6fc3f20000000p-4, 0x1.5bd0600000000p-4, 0x1.64f7c40000000p-4, -0x1.b8019e0000000p-5, -0x1.05aa040000000p-2, 0x1.20600e0000000p-3, 0x1.1021ea0000000p-2, 0x1.25c6260000000p-2, -0x1.18da780000000p-3, -0x1.1d0c780000000p-3, -0x1.63c98e0000000p-5, 0x1.2027f40000000p-3, 0x1.7a071c0000000p-4, 0x1.9c13ee0000000p-4, 0x1.3f10ea0000000p-8, -0x1.2618140000000p-4, 0x1.7338620000000p-4, -0x1.486f6c0000000p-6, 0x1.a70b6e0000000p-5, -0x1.de00e60000000p-6, -0x1.5eaba20000000p-3, -0x1.5555da0000000p-6, -0x1.9720320000000p-3, 0x1.7e400e0000000p-5, -0x1.c0c2c40000000p-7, 0x1.7a8c8c0000000p-3, -0x1.fbb48a0000000p-7, 0x1.e251160000000p-3, -0x1.1008a00000000p-3, -0x1.0d7c6a0000000p-4, 0x1.c724040000000p-9, 0x1.7d23b60000000p-6, 0x1.78534c0000000p-6, 0x1.23ec160000000p-4, 0x1.c34d760000000p-3, 0x1.ae3b960000000p-3, -0x1.b72cd20000000p-4, -0x1.9ebd2e0000000p-7, -0x1.0593f40000000p-3, 0x1.60a6b20000000p-9, 0x1.7fef520000000p-3, -0x1.f1cc460000000p-4, 0x1.befe8e0000000p-3, 0x1.6c33180000000p-7, -0x1.4ef9720000000p-4, -0x1.9442ca0000000p-6, 0x1.07acb20000000p-3, -0x1.83155a0000000p-3, -0x1.5bb48a0000000p-8, 0x1.16c2fe0000000p-2, 0x1.1d09620000000p-3}
, {0x1.d12e1a0000000p-7, -0x1.fccd340000000p-5, 0x1.af58740000000p-3, -0x1.4339680000000p-2, 0x1.f03cfc0000000p-6, 0x1.6caf400000000p-3, -0x1.1e37ce0000000p-5, 0x1.8724f00000000p-3, -0x1.f95eb60000000p-5, -0x1.433ada0000000p-5, 0x1.6a7d540000000p-4, -0x1.0863f60000000p-3, -0x1.ab0ca40000000p-11, -0x1.3dab240000000p-3, -0x1.6f2ddc0000000p-3, 0x1.5326480000000p-9, 0x1.5d20560000000p-4, 0x1.d3eea00000000p-4, -0x1.7046040000000p-6, -0x1.2dccfa0000000p-2, 0x1.3e51f80000000p-5, -0x1.b729f60000000p-3, 0x1.31f4dc0000000p-6, 0x1.081e2c0000000p-4, 0x1.dd9c320000000p-3, 0x1.4bc86e0000000p-3, 0x1.2c161c0000000p-4, -0x1.12f0aa0000000p-4, -0x1.0f68b20000000p-2, 0x1.1d4f1a0000000p-8, -0x1.4c46700000000p-7, 0x1.067e980000000p-2, -0x1.13393e0000000p-2, 0x1.3865080000000p-9, -0x1.7bd2bc0000000p-5, 0x1.991bca0000000p-5, 0x1.4720a40000000p-3, -0x1.7445a60000000p-4, -0x1.239c2c0000000p-8, 0x1.ad952c0000000p-4, -0x1.4e43a80000000p-3, -0x1.92175a0000000p-5, -0x1.ddf7a20000000p-4, -0x1.4bf93c0000000p-4, 0x1.4c05700000000p-6, -0x1.6aec880000000p-4, -0x1.3465900000000p-4, -0x1.0fcb280000000p-7, 0x1.b9a12e0000000p-3, 0x1.4a60360000000p-3, -0x1.92a5f40000000p-3, -0x1.2436160000000p-3, 0x1.873ef60000000p-4, 0x1.4e796a0000000p-4, -0x1.ce7f180000000p-4, -0x1.dd51fa0000000p-3, -0x1.9886640000000p-7, 0x1.e0144c0000000p-3, 0x1.856a420000000p-3, 0x1.ccd0000000000p-10, 0x1.fa7f220000000p-12, -0x1.66600a0000000p-4, -0x1.2042280000000p-2, 0x1.1a47100000000p-3, 0x1.1096c80000000p-3, -0x1.a8700e0000000p-5, -0x1.80477e0000000p-5, -0x1.3084100000000p-5, 0x1.441d140000000p-2, -0x1.8730280000000p-9, 0x1.f5a6200000000p-4, -0x1.ca7fd00000000p-3, -0x1.d93ca00000000p-3, -0x1.cf110a0000000p-9, -0x1.b88ac40000000p-4, -0x1.6486460000000p-3, 0x1.8b63240000000p-4, 0x1.ee067c0000000p-3, -0x1.5352740000000p-3, -0x1.1687e00000000p-4, 0x1.e6ed740000000p-3, -0x1.9f43920000000p-5, 0x1.58a7c40000000p-3, -0x1.2a5d820000000p-2, -0x1.725cac0000000p-2, 0x1.b901480000000p-5, -0x1.4957d80000000p-4, -0x1.11990c0000000p-2, -0x1.59e9c40000000p-4, 0x1.c9c6000000000p-7, 0x1.ace0480000000p-4, 0x1.4dbb9a0000000p-3, 0x1.4991120000000p-5, 0x1.7abba40000000p-3, -0x1.15da8e0000000p-4, 0x1.53fe5a0000000p-3, -0x1.e430040000000p-4, -0x1.6ba1c00000000p-4, -0x1.56d32a0000000p-5, 0x1.66f31a0000000p-4, -0x1.1480d20000000p-3, -0x1.2080f60000000p-5, 0x1.cec4a40000000p-5, -0x1.e394400000000p-4, 0x1.8f7fec0000000p-4, 0x1.5c428a0000000p-3, -0x1.5933800000000p-2, -0x1.7009b80000000p-5, -0x1.0726900000000p-3, -0x1.9c32520000000p-3, -0x1.37eb020000000p-2, -0x1.0c51860000000p-6, 0x1.479dec0000000p-3, -0x1.058db80000000p-3, -0x1.c61d540000000p-2, 0x1.52e0a00000000p-4, 0x1.19ab1c0000000p-2, -0x1.62e1460000000p-3, 0x1.b03eaa0000000p-5, 0x1.8839f00000000p-4, -0x1.119d140000000p-4, -0x1.04e1240000000p-2, -0x1.21fa7e0000000p-3, 0x1.3234640000000p-4, -0x1.a31fe00000000p-4, 0x1.0ce3f40000000p-2, 0x1.f9ce080000000p-4, -0x1.3683b20000000p-3}
, {0x1.d560440000000p-4, 0x1.0cf5960000000p-3, 0x1.b00c280000000p-4, 0x1.7f88ba0000000p-2, -0x1.de5efc0000000p-5, 0x1.20a57e0000000p-5, -0x1.9055aa0000000p-3, 0x1.6d01f80000000p-3, 0x1.c52f7e0000000p-4, -0x1.1f3fb60000000p-3, 0x1.4763d20000000p-3, -0x1.44fe120000000p-3, 0x1.5188400000000p-4, -0x1.98fe2c0000000p-3, 0x1.970d580000000p-3, -0x1.9334e40000000p-3, -0x1.63d98e0000000p-3, -0x1.65c0300000000p-3, 0x1.4944d80000000p-3, -0x1.39cfb80000000p-3, -0x1.86b22c0000000p-5, 0x1.b36eb40000000p-3, -0x1.74bf080000000p-5, -0x1.6e068a0000000p-6, 0x1.179b120000000p-6, 0x1.5fb07c0000000p-3, 0x1.f99f860000000p-8, -0x1.3860280000000p-4, -0x1.7e89340000000p-4, 0x1.24672e0000000p-6, 0x1.8f439c0000000p-3, -0x1.7f63840000000p-3, -0x1.f92d720000000p-4, 0x1.3124bc0000000p-9, 0x1.203ffa0000000p-3, 0x1.3bb6e20000000p-6, -0x1.e9f9b20000000p-5, 0x1.5289400000000p-2, -0x1.19a5ca0000000p-3, -0x1.1c15000000000p-3, 0x1.4d7fa80000000p-5, 0x1.e0b7900000000p-9, -0x1.3037940000000p-3, 0x1.a9f0560000000p-5, 0x1.74170a0000000p-7, 0x1.ca757a0000000p-4, -0x1.c4e8500000000p-4, -0x1.1711f60000000p-4, 0x1.36b31a0000000p-3, 0x1.91dbe00000000p-5, 0x1.3804160000000p-3, -0x1.419bae0000000p-3, 0x1.03ce1a0000000p-3, 0x1.2c336e0000000p-6, 0x1.81012c0000000p-5, 0x1.cb48cc0000000p-4, 0x1.3222040000000p-3, -0x1.a399740000000p-4, -0x1.24bc180000000p-2, 0x1.16066c0000000p-4, -0x1.289dd00000000p-4, 0x1.d5c2ea0000000p-3, -0x1.43b07a0000000p-3, -0x1.3853e80000000p-3, 0x1.8bbccc0000000p-3, -0x1.ba39840000000p-4, 0x1.36e3d40000000p-4, 0x1.d3d6ac0000000p-4, -0x1.795ca60000000p-4, -0x1.37717a0000000p-4, 0x1.a09b2e0000000p-6, 0x1.26a0680000000p-5, 0x1.782d360000000p-6, 0x1.1565a00000000p-4, 0x1.7ea8580000000p-3, 0x1.19240c0000000p-4, 0x1.7b9d000000000p-5, -0x1.141da60000000p-6, 0x1.7b99ba0000000p-3, -0x1.f52ff80000000p-4, -0x1.487dbc0000000p-2, 0x1.6947da0000000p-4, 0x1.c3e5be0000000p-7, 0x1.0290c40000000p-5, 0x1.ab264c0000000p-4, 0x1.fbaeda0000000p-4, 0x1.0d7dce0000000p-4, -0x1.0f57320000000p-3, -0x1.ff287e0000000p-7, 0x1.0e61c00000000p-5, 0x1.bc5e980000000p-6, 0x1.98fb8e0000000p-5, -0x1.9ddf040000000p-4, -0x1.d2773e0000000p-5, -0x1.1cc80e0000000p-5, -0x1.0df2f80000000p-6, -0x1.3602720000000p-4, 0x1.8756a60000000p-3, -0x1.369d0a0000000p-4, -0x1.e2c6ca0000000p-3, -0x1.d7cea00000000p-3, -0x1.5553060000000p-3, 0x1.4e4b720000000p-3, 0x1.c8d9780000000p-4, 0x1.3e1c7c0000000p-4, -0x1.5197320000000p-3, 0x1.15abb80000000p-2, 0x1.858cd20000000p-4, 0x1.52a2de0000000p-3, -0x1.2ac3c00000000p-3, 0x1.2e00280000000p-4, -0x1.c6fad00000000p-5, -0x1.4575a60000000p-7, -0x1.fb6bb60000000p-4, 0x1.dc50040000000p-3, -0x1.38bddc0000000p-6, 0x1.71a9ba0000000p-5, -0x1.bc0a500000000p-5, -0x1.bc0ab00000000p-3, 0x1.54e5d20000000p-4, -0x1.1973d00000000p-3, 0x1.18ce540000000p-5, 0x1.45e8d80000000p-5, 0x1.62b4bc0000000p-4, -0x1.d470140000000p-5, 0x1.4c03ae0000000p-2, -0x1.6040980000000p-4, -0x1.59c5c80000000p-3}
, {0x1.91b8280000000p-5, -0x1.68f9500000000p-5, -0x1.d1ffe40000000p-5, 0x1.a009c00000000p-5, 0x1.407a940000000p-5, -0x1.8b9cba0000000p-3, -0x1.c8267a0000000p-4, 0x1.0b12a20000000p-5, -0x1.c5c1c80000000p-4, -0x1.6e67920000000p-4, -0x1.9dd1ae0000000p-3, 0x1.6458000000000p-4, -0x1.6116940000000p-5, -0x1.59885c0000000p-3, -0x1.74e1960000000p-3, -0x1.26d8b20000000p-3, -0x1.0b171a0000000p-3, -0x1.af7bf00000000p-3, 0x1.e303080000000p-8, -0x1.7124fa0000000p-3, -0x1.581e5e0000000p-3, -0x1.18d1860000000p-3, -0x1.046d780000000p-4, -0x1.d55cb20000000p-4, 0x1.fd534c0000000p-4, 0x1.f9a3760000000p-5, 0x1.d3f2240000000p-4, -0x1.1fab660000000p-3, 0x1.67b3800000000p-6, -0x1.1e94f80000000p-4, 0x1.2547940000000p-3, 0x1.efb9b80000000p-6, -0x1.c612ea0000000p-4, -0x1.5bbd200000000p-4, 0x1.55aaf20000000p-3, 0x1.fe0d520000000p-7, -0x1.73af9c0000000p-3, -0x1.9b06a60000000p-4, -0x1.2366060000000p-4, -0x1.8767a40000000p-3, -0x1.2f17f00000000p-3, -0x1.5bf5c00000000p-8, -0x1.6735720000000p-3, -0x1.abc4680000000p-4, -0x1.4a49200000000p-3, 0x1.1a3ec80000000p-3, -0x1.fc6bde0000000p-4, -0x1.c051980000000p-4, -0x1.145a3c0000000p-3, 0x1.a566c60000000p-4, -0x1.0358000000000p-3, 0x1.144b760000000p-4, -0x1.7f5dfe0000000p-4, -0x1.780b6e0000000p-6, -0x1.83ea380000000p-3, 0x1.7c349a0000000p-4, -0x1.39e1920000000p-4, -0x1.4b680e0000000p-3, 0x1.97f7100000000p-5, 0x1.17afc80000000p-5, 0x1.5dd8900000000p-5, -0x1.4bee200000000p-3, 0x1.0308260000000p-3, -0x1.5b3ba60000000p-3, -0x1.25f3c00000000p-6, 0x1.2049360000000p-6, -0x1.78502a0000000p-5, -0x1.816e740000000p-5, 0x1.cd7eb00000000p-6, 0x1.00d2ca0000000p-3, 0x1.81e2fa0000000p-5, -0x1.fa7af60000000p-4, -0x1.0392e00000000p-4, 0x1.741fcc0000000p-4, 0x1.6a32c40000000p-4, -0x1.167d580000000p-3, -0x1.36d33c0000000p-3, -0x1.f074360000000p-5, 0x1.4b598a0000000p-4, -0x1.fd4c940000000p-4, 0x1.4ce1700000000p-5, 0x1.63a1d80000000p-8, -0x1.e700d40000000p-4, 0x1.436d400000000p-4, 0x1.daab700000000p-6, -0x1.bec1da0000000p-7, 0x1.8924cc0000000p-6, -0x1.6b674c0000000p-10, 0x1.83c5f80000000p-5, 0x1.793b300000000p-6, -0x1.45dc400000000p-5, -0x1.60bbd40000000p-3, -0x1.ff37540000000p-5, -0x1.b254840000000p-3, 0x1.ff34320000000p-4, 0x1.6bd0a20000000p-4, -0x1.1fae5c0000000p-3, 0x1.e3d8460000000p-6, -0x1.7a7e200000000p-7, -0x1.4690640000000p-3, 0x1.2a14ac0000000p-4, -0x1.085d480000000p-5, 0x1.79a2760000000p-4, 0x1.4dec940000000p-4, -0x1.069d2c0000000p-3, 0x1.1da27a0000000p-9, -0x1.9a413a0000000p-5, -0x1.17b76c0000000p-4, 0x1.8ee85c0000000p-4, 0x1.bc01420000000p-4, -0x1.f5a7240000000p-4, 0x1.6e445c0000000p-6, -0x1.79576e0000000p-3, 0x1.b24bb20000000p-5, -0x1.12448e0000000p-3, -0x1.8709760000000p-4, 0x1.6612be0000000p-3, 0x1.e244200000000p-5, -0x1.ab847a0000000p-7, -0x1.24729c0000000p-5, -0x1.b569840000000p-5, -0x1.7fef800000000p-6, -0x1.adc4620000000p-3, 0x1.97c2480000000p-4, -0x1.4495380000000p-3, 0x1.12a00e0000000p-3, -0x1.437bb20000000p-4, 0x1.41d7e60000000p-3}
, {0x1.ba67b80000000p-6, 0x1.69a4800000000p-4, 0x1.1e24280000000p-3, -0x1.9991360000000p-3, -0x1.9bf9c20000000p-3, -0x1.f27fc60000000p-5, 0x1.3b371e0000000p-3, -0x1.ae48c80000000p-5, -0x1.097cf20000000p-4, -0x1.d608ce0000000p-10, -0x1.9ed81a0000000p-8, -0x1.51bdb60000000p-3, -0x1.1de8220000000p-4, 0x1.a6cef80000000p-8, -0x1.4d6fe40000000p-8, 0x1.12a2060000000p-2, -0x1.0bce760000000p-3, 0x1.e754e20000000p-7, -0x1.3ebf320000000p-3, -0x1.04987c0000000p-2, 0x1.1f7f8a0000000p-3, -0x1.8a79a00000000p-10, 0x1.5884960000000p-2, 0x1.3d41080000000p-8, -0x1.291e940000000p-2, 0x1.4c62b00000000p-3, -0x1.c054060000000p-4, 0x1.3a9e7c0000000p-2, 0x1.04e52c0000000p-6, 0x1.2cd3fe0000000p-5, -0x1.78e18c0000000p-3, 0x1.8a5a3c0000000p-4, 0x1.969c8e0000000p-3, 0x1.c7319c0000000p-7, -0x1.72512a0000000p-2, 0x1.6f66c20000000p-3, 0x1.f1473c0000000p-4, -0x1.df2e880000000p-3, 0x1.a9447e0000000p-4, -0x1.95397c0000000p-4, 0x1.9f2c320000000p-3, 0x1.9032c40000000p-4, 0x1.469d400000000p-2, -0x1.a5b55e0000000p-4, -0x1.a0dba40000000p-9, -0x1.fd7f240000000p-5, 0x1.3e504c0000000p-4, -0x1.9b9e3a0000000p-4, 0x1.1bdbc20000000p-4, -0x1.6cc8fe0000000p-9, -0x1.7846980000000p-3, -0x1.a1be500000000p-4, -0x1.733cc60000000p-3, 0x1.2527a60000000p-4, -0x1.f78a660000000p-5, -0x1.ce21c60000000p-4, 0x1.f592380000000p-8, 0x1.d386420000000p-7, 0x1.2781d00000000p-2, -0x1.f1a4c20000000p-4, -0x1.fd06d20000000p-4, -0x1.8a57ee0000000p-7, 0x1.f86c080000000p-4, 0x1.02ec120000000p-3, 0x1.3b5c300000000p-4, 0x1.f93a9a0000000p-6, 0x1.5b116c0000000p-3, -0x1.2adc340000000p-3, 0x1.5ca3bc0000000p-3, 0x1.a0e1f20000000p-5, 0x1.d4b4120000000p-6, -0x1.539d4a0000000p-6, 0x1.b0185e0000000p-4, -0x1.4d5c120000000p-5, -0x1.a879e40000000p-4, -0x1.e9198a0000000p-7, 0x1.ca5b240000000p-6, 0x1.71e9260000000p-3, 0x1.2961d60000000p-8, 0x1.86bd3e0000000p-3, 0x1.01d6d20000000p-2, -0x1.23c0ae0000000p-4, -0x1.6003ae0000000p-4, -0x1.60faae0000000p-7, 0x1.5f21ec0000000p-3, 0x1.43637a0000000p-5, 0x1.a289f40000000p-5, 0x1.8c74c00000000p-4, 0x1.750fd20000000p-4, 0x1.d17afe0000000p-4, -0x1.af63d40000000p-4, -0x1.843a5a0000000p-3, 0x1.6e531e0000000p-5, 0x1.fffd980000000p-4, 0x1.a0cc3e0000000p-5, 0x1.00c8060000000p-3, 0x1.932a600000000p-4, 0x1.d27da20000000p-6, 0x1.8a72920000000p-3, 0x1.0ab15c0000000p-2, 0x1.217af40000000p-3, -0x1.169ae60000000p-3, -0x1.59e83e0000000p-3, -0x1.2940660000000p-3, 0x1.ac60e20000000p-4, 0x1.0eba480000000p-6, -0x1.382ba80000000p-3, -0x1.099b780000000p-4, -0x1.e84b8a0000000p-3, 0x1.3e51840000000p-4, 0x1.f88e660000000p-6, -0x1.8ed25c0000000p-4, 0x1.2eba1a0000000p-6, -0x1.d02f760000000p-4, -0x1.b2c6180000000p-3, -0x1.9563240000000p-3, 0x1.1bf40e0000000p-3, -0x1.0c4c760000000p-3, 0x1.4163480000000p-3, -0x1.22666c0000000p-4, -0x1.524c7e0000000p-3, -0x1.ce34120000000p-3, 0x1.c1347a0000000p-4, 0x1.349a5e0000000p-3, 0x1.0d68c20000000p-3, -0x1.d4ff1c0000000p-3, 0x1.8f97bc0000000p-5, -0x1.7a71ec0000000p-6}
, {0x1.f309060000000p-5, 0x1.2542b40000000p-2, -0x1.22acca0000000p-4, -0x1.3a02680000000p-3, 0x1.d6feac0000000p-5, 0x1.4363900000000p-3, 0x1.9dcd420000000p-3, -0x1.48c68e0000000p-3, -0x1.753cae0000000p-4, -0x1.3c5c960000000p-3, 0x1.b7f6b00000000p-3, -0x1.06fca00000000p-4, -0x1.d568d40000000p-4, 0x1.1bee4c0000000p-5, 0x1.2ea0900000000p-3, 0x1.2ebd2a0000000p-3, 0x1.e3be980000000p-4, -0x1.cd418a0000000p-4, -0x1.ce6b760000000p-3, 0x1.cbdf780000000p-3, 0x1.eef01a0000000p-10, 0x1.12186c0000000p-3, -0x1.6259a00000000p-7, -0x1.05b2ce0000000p-4, 0x1.d891040000000p-4, -0x1.8bc8ce0000000p-5, -0x1.6c88460000000p-6, 0x1.bafef60000000p-7, 0x1.916e880000000p-3, -0x1.45d7ce0000000p-3, 0x1.5e9e300000000p-4, 0x1.bb54de0000000p-3, -0x1.f0235e0000000p-10, -0x1.a394660000000p-6, -0x1.0b45fc0000000p-3, -0x1.d1f2e00000000p-8, 0x1.f46b9e0000000p-6, -0x1.2a84400000000p-3, 0x1.458b300000000p-3, -0x1.6677420000000p-5, -0x1.4f7d400000000p-3, 0x1.809af20000000p-4, -0x1.e1e6820000000p-4, -0x1.32eefa0000000p-6, 0x1.1189440000000p-3, -0x1.1884100000000p-3, 0x1.de5d3c0000000p-4, -0x1.630ed60000000p-4, -0x1.5511600000000p-4, 0x1.6bde1e0000000p-3, -0x1.b707d00000000p-3, 0x1.ff16a00000000p-3, 0x1.fd69840000000p-4, -0x1.9a5c120000000p-5, -0x1.dd98880000000p-7, -0x1.0e24300000000p-8, 0x1.3df4d80000000p-4, -0x1.fdbad00000000p-4, -0x1.00f9e60000000p-3, -0x1.0559e20000000p-3, 0x1.59cfc40000000p-2, -0x1.40594e0000000p-4, -0x1.21010a0000000p-4, 0x1.137bd00000000p-4, -0x1.ee3a460000000p-5, -0x1.c40cc60000000p-7, 0x1.02de660000000p-3, 0x1.7884320000000p-3, 0x1.3733b80000000p-3, -0x1.86ab660000000p-3, 0x1.7d07260000000p-5, -0x1.1bc9a40000000p-4, -0x1.0160420000000p-2, 0x1.a6cac20000000p-4, 0x1.d4ffd20000000p-3, -0x1.19e2020000000p-3, -0x1.20760c0000000p-6, -0x1.2341e40000000p-3, 0x1.2104920000000p-6, -0x1.9e69ee0000000p-3, 0x1.3344720000000p-5, 0x1.067f260000000p-2, -0x1.c56f0c0000000p-4, 0x1.68f9f00000000p-5, 0x1.175c4e0000000p-4, -0x1.421ac20000000p-3, 0x1.69c1800000000p-4, 0x1.da33000000000p-4, 0x1.1853000000000p-3, -0x1.2835c20000000p-3, 0x1.c9c7b40000000p-4, 0x1.824df60000000p-3, -0x1.7c4e900000000p-5, 0x1.0a9bd00000000p-3, -0x1.40fa4a0000000p-3, 0x1.48ece00000000p-4, -0x1.c50bae0000000p-3, 0x1.d449000000000p-5, 0x1.dfd7780000000p-5, 0x1.e86d1e0000000p-3, -0x1.241d1c0000000p-4, 0x1.08bafc0000000p-2, 0x1.ce8e340000000p-5, 0x1.072f920000000p-3, -0x1.d6fc7a0000000p-5, 0x1.006e1a0000000p-6, -0x1.b174ba0000000p-5, -0x1.b4db700000000p-4, 0x1.22597c0000000p-4, 0x1.ff8fcc0000000p-4, -0x1.38d5b00000000p-3, 0x1.5029560000000p-3, 0x1.ab10800000000p-2, -0x1.03471e0000000p-4, -0x1.07564a0000000p-2, 0x1.3486520000000p-4, 0x1.84526c0000000p-4, 0x1.04d83e0000000p-3, 0x1.c8c31e0000000p-4, 0x1.111e080000000p-3, -0x1.1540820000000p-2, -0x1.b4514c0000000p-5, 0x1.20046c0000000p-6, 0x1.c16aa60000000p-3, -0x1.da2dae0000000p-4, 0x1.da2bfc0000000p-4, -0x1.3854fe0000000p-4, -0x1.608a620000000p-3}
, {0x1.0a52de0000000p-3, 0x1.6b95aa0000000p-2, -0x1.02a2840000000p-3, -0x1.7508620000000p-3, 0x1.6c88680000000p-3, 0x1.4585200000000p-4, 0x1.02e02a0000000p-5, 0x1.06bf2c0000000p-3, -0x1.8d8f300000000p-3, -0x1.66de300000000p-4, -0x1.07022e0000000p-5, 0x1.54089c0000000p-4, -0x1.98d49a0000000p-4, 0x1.3de1620000000p-2, 0x1.2ef13e0000000p-4, -0x1.0ecd900000000p-3, -0x1.1d601a0000000p-3, 0x1.5bbbcc0000000p-3, -0x1.1be8fa0000000p-3, -0x1.d5d1920000000p-3, 0x1.37e2e20000000p-2, -0x1.379a3e0000000p-3, -0x1.2dba280000000p-4, 0x1.21aa200000000p-3, -0x1.cea13a0000000p-5, -0x1.acef8c0000000p-3, -0x1.b197860000000p-5, 0x1.c2cbdc0000000p-6, 0x1.6e51100000000p-3, -0x1.22d58e0000000p-7, 0x1.2edb480000000p-3, 0x1.fda8f00000000p-4, 0x1.3963360000000p-3, -0x1.d567ee0000000p-4, -0x1.3abd300000000p-3, 0x1.c0944a0000000p-4, 0x1.03b3a40000000p-3, -0x1.104d400000000p-2, 0x1.636e240000000p-7, -0x1.7e50880000000p-6, -0x1.aa89e00000000p-3, 0x1.389c0c0000000p-3, -0x1.fcb26a0000000p-4, 0x1.0ec3c60000000p-4, 0x1.5756bc0000000p-4, 0x1.97f3980000000p-6, 0x1.7f563e0000000p-5, -0x1.96616e0000000p-5, 0x1.3523fa0000000p-3, 0x1.7666a60000000p-5, 0x1.28cad40000000p-4, 0x1.059a6e0000000p-2, 0x1.9dac7e0000000p-7, -0x1.a3d3480000000p-4, -0x1.a69b600000000p-3, -0x1.b5c83a0000000p-3, -0x1.0880d60000000p-6, -0x1.3b5e8c0000000p-3, -0x1.7d31800000000p-4, 0x1.85eaa40000000p-4, -0x1.0cba620000000p-3, 0x1.7f8dea0000000p-6, 0x1.ef36c60000000p-5, 0x1.cb0db60000000p-5, 0x1.2933c20000000p-5, -0x1.3ecf0e0000000p-3, 0x1.b604760000000p-3, 0x1.8e17320000000p-3, 0x1.e47f400000000p-5, 0x1.7044d60000000p-3, -0x1.2173280000000p-4, -0x1.253e740000000p-4, -0x1.2641320000000p-6, -0x1.af702e0000000p-3, 0x1.047f380000000p-2, -0x1.1ea42c0000000p-3, -0x1.f3defc0000000p-5, 0x1.2eb6600000000p-3, 0x1.73d08c0000000p-3, 0x1.8d918a0000000p-5, -0x1.4e3e480000000p-3, 0x1.729e380000000p-2, -0x1.b0dbc00000000p-5, -0x1.599d8c0000000p-4, -0x1.b277f20000000p-6, 0x1.9f89880000000p-4, -0x1.57b5d60000000p-4, 0x1.50057a0000000p-3, -0x1.316a940000000p-3, 0x1.1e69e60000000p-3, -0x1.0aa0600000000p-3, -0x1.aaa81a0000000p-3, -0x1.08e5b80000000p-5, 0x1.0a0a240000000p-4, 0x1.360c000000000p-3, 0x1.b868680000000p-3, -0x1.8f31bc0000000p-5, -0x1.8fb6c40000000p-5, -0x1.c981ee0000000p-5, -0x1.b75cf40000000p-4, 0x1.105f720000000p-3, 0x1.b8b1640000000p-3, 0x1.0da6c20000000p-5, -0x1.709c5c0000000p-5, -0x1.5c7ee20000000p-4, 0x1.04359e0000000p-2, 0x1.dddd020000000p-8, -0x1.4824bc0000000p-3, 0x1.ad83aa0000000p-3, 0x1.16b40e0000000p-4, -0x1.566a500000000p-8, -0x1.21cf8a0000000p-3, 0x1.3ec60c0000000p-8, -0x1.49013e0000000p-4, -0x1.1bb89c0000000p-3, -0x1.983d880000000p-3, -0x1.5d75b40000000p-4, -0x1.da6fcc0000000p-3, -0x1.c3d3b20000000p-4, 0x1.fff33e0000000p-3, -0x1.c1ad700000000p-3, 0x1.e4d33c0000000p-3, -0x1.9c22220000000p-7, -0x1.bc2c6c0000000p-7, -0x1.7c9bbc0000000p-7, 0x1.8bf6200000000p-3, -0x1.370a760000000p-3, -0x1.7d6dd40000000p-3}
, {-0x1.0dea9e0000000p-3, 0x1.1e98b60000000p-5, 0x1.01a7640000000p-3, 0x1.b316880000000p-3, 0x1.1206c00000000p-3, -0x1.0330320000000p-3, -0x1.c162bc0000000p-5, 0x1.42ee460000000p-3, -0x1.5714720000000p-3, -0x1.4f71200000000p-4, -0x1.627a5e0000000p-6, 0x1.141baa0000000p-3, -0x1.b8d8d80000000p-4, -0x1.0b7a400000000p-2, 0x1.9059600000000p-3, -0x1.e790040000000p-7, -0x1.92afcc0000000p-5, -0x1.2d8e6e0000000p-3, -0x1.466b120000000p-5, 0x1.17d52a0000000p-2, 0x1.5dd6b40000000p-4, -0x1.99d0800000000p-8, -0x1.2b3a660000000p-2, -0x1.6b6c360000000p-4, 0x1.d032600000000p-5, 0x1.bbb6cc0000000p-5, 0x1.8d910e0000000p-4, -0x1.bd42720000000p-4, 0x1.01b2ac0000000p-4, -0x1.5a17e00000000p-3, 0x1.8376f60000000p-8, -0x1.10b8620000000p-5, -0x1.5431120000000p-8, 0x1.e153600000000p-5, 0x1.27ad6c0000000p-6, 0x1.e66eb00000000p-5, -0x1.3922d60000000p-5, 0x1.dcac140000000p-5, -0x1.334fea0000000p-2, 0x1.41978c0000000p-7, 0x1.149ffe0000000p-3, 0x1.9bfbfc0000000p-4, -0x1.17aca00000000p-2, 0x1.360e0e0000000p-3, -0x1.7cb7220000000p-3, 0x1.4ca9180000000p-7, -0x1.ce74760000000p-4, -0x1.adbb640000000p-4, 0x1.fff5fc0000000p-4, 0x1.53b7da0000000p-3, 0x1.b9fc900000000p-3, 0x1.3a2fd00000000p-4, -0x1.3714f40000000p-3, -0x1.825f0e0000000p-3, 0x1.158ac40000000p-2, -0x1.de13800000000p-5, 0x1.f091ee0000000p-6, 0x1.53aa540000000p-8, -0x1.0f3e9a0000000p-3, 0x1.d88b240000000p-4, 0x1.317aba0000000p-4, 0x1.b3c8b80000000p-3, 0x1.2df9340000000p-3, 0x1.069dc40000000p-3, 0x1.043d920000000p-3, -0x1.62c6520000000p-5, -0x1.97cf200000000p-7, -0x1.fedf680000000p-4, 0x1.f7e16e0000000p-4, -0x1.6535e20000000p-5, 0x1.7f24f40000000p-3, -0x1.1e0e0a0000000p-5, 0x1.a02ac00000000p-3, 0x1.23962a0000000p-4, -0x1.1ac58a0000000p-5, 0x1.0948240000000p-3, -0x1.1574ae0000000p-3, -0x1.24fd1e0000000p-4, 0x1.39b7880000000p-3, 0x1.bdd37c0000000p-3, -0x1.944e0e0000000p-3, -0x1.61c6ce0000000p-4, 0x1.936f1a0000000p-3, 0x1.2f754a0000000p-4, 0x1.75cf000000000p-5, -0x1.ad5f360000000p-3, -0x1.3a4d9e0000000p-6, -0x1.dfbe5c0000000p-3, 0x1.6ace080000000p-4, 0x1.1752240000000p-3, 0x1.f7b4860000000p-7, 0x1.2bc3160000000p-7, -0x1.7175ca0000000p-4, -0x1.680b740000000p-8, 0x1.18ffc20000000p-3, 0x1.2832360000000p-7, 0x1.00d1900000000p-2, 0x1.dc73380000000p-4, 0x1.14d4b80000000p-4, -0x1.4413660000000p-4, -0x1.82791a0000000p-3, 0x1.254e9c0000000p-3, -0x1.6067880000000p-4, -0x1.1c32c60000000p-4, 0x1.62daae0000000p-5, -0x1.77ee800000000p-2, -0x1.69b6a20000000p-6, 0x1.2038100000000p-3, 0x1.9761340000000p-4, 0x1.cd91e20000000p-4, -0x1.89cea40000000p-3, 0x1.68aad40000000p-3, -0x1.4b879c0000000p-6, -0x1.d6c2540000000p-3, 0x1.cc43dc0000000p-4, -0x1.bd02c20000000p-3, 0x1.e26ca20000000p-3, -0x1.2f19500000000p-3, 0x1.608c9e0000000p-3, 0x1.2b7a480000000p-4, 0x1.271f320000000p-2, -0x1.4b89ba0000000p-6, 0x1.5169f60000000p-4, 0x1.961ed00000000p-3, -0x1.27d90c0000000p-4, 0x1.51ffe20000000p-5, -0x1.67bbd20000000p-3, 0x1.b40de80000000p-2}
, {0x1.8908b60000000p-4, 0x1.6758500000000p-5, 0x1.680dde0000000p-3, -0x1.f7571c0000000p-4, 0x1.30ccf80000000p-6, -0x1.cf40d80000000p-3, 0x1.31551c0000000p-4, 0x1.f597280000000p-8, -0x1.d8b6760000000p-3, 0x1.7ee7380000000p-5, 0x1.6cf5a80000000p-5, -0x1.ffc4ee0000000p-7, 0x1.9bf5ba0000000p-3, 0x1.5e47740000000p-4, 0x1.a5894c0000000p-5, -0x1.4379e00000000p-3, 0x1.95ad460000000p-3, 0x1.25f12e0000000p-3, -0x1.42e49c0000000p-3, -0x1.0438f40000000p-3, -0x1.2d44280000000p-2, -0x1.b2e2640000000p-5, 0x1.6d66e00000000p-11, -0x1.30f5240000000p-5, -0x1.aeb6700000000p-3, -0x1.6bfff20000000p-3, 0x1.50eec00000000p-3, 0x1.2097d20000000p-4, 0x1.0139f80000000p-3, 0x1.1ad2e80000000p-3, -0x1.0b07980000000p-3, 0x1.59f35e0000000p-4, -0x1.f909500000000p-4, 0x1.5a4bc20000000p-5, -0x1.c60f160000000p-4, 0x1.27a7cc0000000p-3, -0x1.98082e0000000p-4, -0x1.c173520000000p-3, -0x1.9a88720000000p-3, 0x1.9367de0000000p-3, 0x1.d9a04a0000000p-3, 0x1.0199f60000000p-7, -0x1.0e62100000000p-2, -0x1.2869fc0000000p-4, 0x1.1a943c0000000p-3, -0x1.a0e5c80000000p-4, 0x1.30082a0000000p-4, 0x1.bd22ba0000000p-3, 0x1.a2cb5e0000000p-5, 0x1.77352e0000000p-6, -0x1.b04a0a0000000p-3, -0x1.5d9e300000000p-5, 0x1.4b9dcc0000000p-3, -0x1.acf7e20000000p-8, 0x1.6894500000000p-5, -0x1.f412400000000p-5, 0x1.78b5d20000000p-3, -0x1.acb2be0000000p-5, 0x1.f29d5e0000000p-6, -0x1.e627d00000000p-4, 0x1.8cdf480000000p-3, 0x1.0476aa0000000p-2, 0x1.0a895c0000000p-9, 0x1.ffb43e0000000p-4, 0x1.4eed840000000p-3, 0x1.88077c0000000p-4, -0x1.5057b20000000p-5, -0x1.57bb160000000p-4, 0x1.e22a0a0000000p-4, 0x1.1d62ba0000000p-4, -0x1.8c74300000000p-4, 0x1.33caba0000000p-4, -0x1.0d53c00000000p-3, -0x1.0afc520000000p-13, -0x1.dcd3e20000000p-4, 0x1.1453500000000p-3, 0x1.50c1c80000000p-5, -0x1.9cb7c20000000p-8, -0x1.f336fe0000000p-4, 0x1.b5fb0a0000000p-4, 0x1.df28760000000p-3, -0x1.3b5e120000000p-2, -0x1.4d47300000000p-3, -0x1.0277e00000000p-2, -0x1.20179e0000000p-3, -0x1.40bbd60000000p-4, -0x1.07202a0000000p-3, -0x1.f778380000000p-5, 0x1.6e08800000000p-3, 0x1.42ffec0000000p-7, -0x1.62d6720000000p-5, 0x1.48b27e0000000p-2, 0x1.8151ba0000000p-3, 0x1.c7396e0000000p-4, 0x1.2ec5d20000000p-3, -0x1.010aba0000000p-3, 0x1.1c00a80000000p-4, -0x1.80c1760000000p-4, 0x1.656c260000000p-4, -0x1.192d920000000p-4, -0x1.d994660000000p-4, -0x1.a30c960000000p-4, 0x1.1818920000000p-3, 0x1.884ed20000000p-4, 0x1.01a3c60000000p-6, -0x1.2de8100000000p-3, 0x1.44f7ba0000000p-4, -0x1.fe5e780000000p-4, -0x1.e477aa0000000p-3, 0x1.c4d1600000000p-4, -0x1.5fe59a0000000p-2, -0x1.8207e20000000p-4, -0x1.1f0e8e0000000p-3, -0x1.db59340000000p-4, 0x1.42991c0000000p-6, 0x1.b042020000000p-4, -0x1.9571500000000p-6, 0x1.23c4b60000000p-5, 0x1.30b9bc0000000p-3, -0x1.cba13a0000000p-3, -0x1.2f54440000000p-2, -0x1.1623f80000000p-3, 0x1.831ac60000000p-5, 0x1.d60ec60000000p-5, 0x1.f3fb1e0000000p-4, 0x1.9004b60000000p-6, -0x1.cb32f60000000p-4, 0x1.b6fcf60000000p-5}
, {-0x1.fab64a0000000p-5, 0x1.045dda0000000p-2, 0x1.3cbbfa0000000p-2, 0x1.38dd140000000p-5, 0x1.4c1cde0000000p-3, -0x1.c1f7fc0000000p-6, -0x1.2946240000000p-4, 0x1.18927c0000000p-3, -0x1.3badee0000000p-3, 0x1.bf5e340000000p-4, 0x1.8a86cc0000000p-3, -0x1.e7fd260000000p-4, -0x1.4348660000000p-4, 0x1.51f6ec0000000p-4, -0x1.0327440000000p-3, -0x1.e119700000000p-4, 0x1.b7bf7a0000000p-9, -0x1.9db0ba0000000p-4, 0x1.2c23960000000p-4, 0x1.4f7d7e0000000p-4, 0x1.e3b29e0000000p-4, -0x1.e8b8960000000p-6, 0x1.a122e00000000p-4, 0x1.519eda0000000p-3, 0x1.f68b200000000p-4, -0x1.ffccf00000000p-4, 0x1.65ee320000000p-6, -0x1.9fe4840000000p-6, 0x1.b3e0200000000p-4, -0x1.5d03dc0000000p-5, 0x1.1401980000000p-3, -0x1.4c3c480000000p-3, 0x1.00fac40000000p-3, 0x1.71c3900000000p-5, -0x1.77a1640000000p-4, 0x1.2354de0000000p-3, -0x1.50e4c20000000p-4, -0x1.91b6100000000p-7, 0x1.05dcb40000000p-3, -0x1.0c00a40000000p-3, -0x1.9279060000000p-4, -0x1.f68c300000000p-4, -0x1.23dac40000000p-7, 0x1.25135a0000000p-4, -0x1.21f4140000000p-4, 0x1.77efa60000000p-5, -0x1.9d59480000000p-5, 0x1.c8d9b00000000p-4, -0x1.07eb760000000p-3, 0x1.1ce1820000000p-4, 0x1.ffddf00000000p-4, 0x1.327f680000000p-3, -0x1.37febe0000000p-3, -0x1.a328ca0000000p-4, -0x1.d94f780000000p-4, 0x1.2c632a0000000p-4, 0x1.a7ed180000000p-3, -0x1.03ac220000000p-2, -0x1.64e4700000000p-6, -0x1.6f9cd60000000p-4, 0x1.9411a80000000p-7, -0x1.b2aa240000000p-4, 0x1.ee4ff80000000p-3, 0x1.6b0f900000000p-6, 0x1.3487d20000000p-6, 0x1.a2b9380000000p-4, 0x1.9523080000000p-4, -0x1.1520ea0000000p-3, -0x1.a412c80000000p-4, 0x1.300d660000000p-3, 0x1.d9f2640000000p-3, -0x1.144b180000000p-4, 0x1.82ff580000000p-3, -0x1.3cb08a0000000p-4, -0x1.8aa1de0000000p-4, 0x1.5cc22e0000000p-6, -0x1.5884bc0000000p-12, -0x1.49ae9e0000000p-4, 0x1.48bd880000000p-3, -0x1.1364d40000000p-3, -0x1.565a800000000p-3, 0x1.837d640000000p-2, -0x1.19c22e0000000p-2, -0x1.0f8eb20000000p-5, 0x1.d6cc9c0000000p-4, 0x1.5abbac0000000p-3, 0x1.d650200000000p-4, 0x1.5664940000000p-4, 0x1.6cb5b00000000p-3, 0x1.393bc20000000p-3, -0x1.1d93f00000000p-4, -0x1.429fd20000000p-6, 0x1.fc916e0000000p-3, -0x1.6162e00000000p-9, 0x1.3fa3d60000000p-3, -0x1.4b074a0000000p-5, -0x1.0ea2660000000p-3, -0x1.3c225c0000000p-4, -0x1.8ce6fc0000000p-4, 0x1.7b8ed40000000p-3, -0x1.cfa6840000000p-4, -0x1.e427580000000p-4, -0x1.4dc0660000000p-4, -0x1.2c87a40000000p-3, 0x1.65b8020000000p-5, -0x1.142f7c0000000p-4, -0x1.e504a80000000p-5, -0x1.16a26c0000000p-7, 0x1.1829b00000000p-3, 0x1.82a3620000000p-3, -0x1.b47b880000000p-4, -0x1.79c1f60000000p-8, -0x1.efd4de0000000p-6, 0x1.cde6a00000000p-5, -0x1.4158960000000p-2, 0x1.6f3a9c0000000p-5, -0x1.b1a6380000000p-4, 0x1.d04dd20000000p-4, -0x1.454e000000000p-6, 0x1.aa65fc0000000p-3, -0x1.d96fa00000000p-4, 0x1.0fda8a0000000p-2, -0x1.a7ffec0000000p-4, -0x1.909af40000000p-3, 0x1.89bb660000000p-4, 0x1.dcb03e0000000p-4, 0x1.4d4dc80000000p-5, -0x1.4ba5180000000p-3}
, {0x1.8ec9660000000p-6, 0x1.d19ca00000000p-3, -0x1.658d840000000p-5, -0x1.bd46aa0000000p-4, -0x1.fd539c0000000p-7, -0x1.a51b740000000p-4, 0x1.69541a0000000p-6, 0x1.f92b100000000p-9, 0x1.8868700000000p-3, 0x1.6636560000000p-4, -0x1.8ffeb20000000p-4, -0x1.b139fe0000000p-5, -0x1.2a05000000000p-3, -0x1.66304a0000000p-7, -0x1.21a6ce0000000p-5, 0x1.03d17e0000000p-6, -0x1.b8bec20000000p-3, 0x1.7123e60000000p-3, -0x1.26eb240000000p-3, 0x1.94b1320000000p-5, 0x1.3b51500000000p-7, -0x1.3b29920000000p-6, -0x1.1fd2c80000000p-4, -0x1.309e320000000p-3, 0x1.7ebd080000000p-3, -0x1.2f2be60000000p-3, -0x1.2cfbb40000000p-4, 0x1.2030c20000000p-3, -0x1.1ba3080000000p-3, 0x1.3611780000000p-5, -0x1.019d6a0000000p-3, -0x1.118e7a0000000p-7, 0x1.89e05e0000000p-3, -0x1.f7c80e0000000p-6, -0x1.111fd80000000p-3, -0x1.3d17ea0000000p-4, 0x1.2820be0000000p-4, 0x1.b08c840000000p-2, 0x1.0f48a00000000p-3, -0x1.47b4b60000000p-4, 0x1.da4bac0000000p-6, -0x1.60451e0000000p-4, 0x1.673d940000000p-4, -0x1.a4cae20000000p-3, -0x1.5a7ac80000000p-3, -0x1.4823aa0000000p-4, 0x1.35bb1e0000000p-5, -0x1.8a09b80000000p-4, -0x1.36badc0000000p-3, -0x1.e936ba0000000p-3, -0x1.903c1c0000000p-6, -0x1.91b15a0000000p-3, 0x1.9d5c640000000p-6, -0x1.cc919a0000000p-7, 0x1.1439600000000p-3, 0x1.37e89e0000000p-5, -0x1.c4fe4a0000000p-3, 0x1.af90140000000p-4, 0x1.3abfce0000000p-4, 0x1.0ec4f80000000p-5, 0x1.9da71c0000000p-3, 0x1.8eb1fc0000000p-3, -0x1.0695c60000000p-2, -0x1.3e18e40000000p-4, 0x1.b729700000000p-7, -0x1.62180a0000000p-6, 0x1.8f66ee0000000p-4, 0x1.142d180000000p-3, -0x1.b9236e0000000p-6, 0x1.d0ac000000000p-6, 0x1.12d8780000000p-3, -0x1.f71fd60000000p-4, -0x1.089c440000000p-2, 0x1.3bbba20000000p-3, -0x1.df39de0000000p-7, 0x1.0646ca0000000p-3, -0x1.d059aa0000000p-4, -0x1.158e220000000p-3, -0x1.56bbb00000000p-5, -0x1.786f700000000p-4, -0x1.de99a60000000p-4, -0x1.4ca3a80000000p-3, -0x1.9db3ca0000000p-3, -0x1.cc40d40000000p-7, -0x1.ca4b8e0000000p-3, -0x1.0b38860000000p-6, -0x1.bda5ee0000000p-3, 0x1.e2c99a0000000p-5, -0x1.3e525a0000000p-4, -0x1.169de00000000p-7, 0x1.ec624c0000000p-4, -0x1.0848d40000000p-6, 0x1.339ef20000000p-2, -0x1.ed2cde0000000p-8, -0x1.fffede0000000p-3, -0x1.c5bff60000000p-8, -0x1.1e68ca0000000p-5, -0x1.640ffc0000000p-4, -0x1.4abbd80000000p-3, 0x1.d7f89a0000000p-5, -0x1.1faa320000000p-8, 0x1.31691c0000000p-4, -0x1.97bd300000000p-3, -0x1.1c4c560000000p-4, -0x1.863a840000000p-4, -0x1.f3fbae0000000p-5, -0x1.040a280000000p-3, -0x1.f1861c0000000p-5, 0x1.0d472e0000000p-6, 0x1.2aeeca0000000p-4, -0x1.4cbafe0000000p-3, -0x1.6dbcf80000000p-4, 0x1.d312800000000p-5, -0x1.c24cbe0000000p-5, -0x1.3f52460000000p-3, 0x1.b28ca40000000p-3, 0x1.6470040000000p-4, -0x1.0ea29a0000000p-4, 0x1.b9b4a40000000p-6, 0x1.7bb70a0000000p-3, 0x1.b0d4ae0000000p-4, -0x1.68a46a0000000p-3, -0x1.1727fe0000000p-3, 0x1.726b500000000p-4, 0x1.cdaeb80000000p-3, 0x1.4ecf220000000p-7, 0x1.2787000000000p-5, -0x1.e735440000000p-5}
, {-0x1.4a1c9e0000000p-3, 0x1.1565980000000p-5, 0x1.323de40000000p-3, -0x1.515d640000000p-3, -0x1.24c4900000000p-3, -0x1.44c83e0000000p-3, 0x1.9dc0460000000p-9, -0x1.dc45c20000000p-4, 0x1.8921ac0000000p-4, 0x1.13423c0000000p-4, 0x1.0e703c0000000p-3, -0x1.adeb540000000p-4, -0x1.2f6ba80000000p-3, 0x1.28dec40000000p-3, -0x1.3996a00000000p-4, -0x1.d7bf780000000p-5, -0x1.0dbb9c0000000p-4, -0x1.38f03c0000000p-3, -0x1.6df1e40000000p-5, -0x1.c970c00000000p-5, -0x1.65e3ec0000000p-6, -0x1.73fdde0000000p-3, 0x1.b4f0900000000p-5, -0x1.4c73460000000p-3, -0x1.6299300000000p-5, 0x1.b8e0700000000p-8, 0x1.5debec0000000p-4, 0x1.04fd080000000p-5, 0x1.cc7a320000000p-6, -0x1.f779ec0000000p-5, -0x1.8f73e40000000p-6, 0x1.0676a20000000p-3, -0x1.a6a72e0000000p-4, -0x1.966ce80000000p-3, -0x1.0b67340000000p-3, -0x1.ad66920000000p-4, -0x1.797df80000000p-3, -0x1.6835320000000p-3, 0x1.8d12460000000p-4, -0x1.95ae7e0000000p-5, 0x1.b578420000000p-4, 0x1.049bc80000000p-4, 0x1.b4fe820000000p-8, -0x1.ba15c40000000p-5, -0x1.460e700000000p-5, -0x1.c4ec8a0000000p-4, 0x1.74e7800000000p-10, 0x1.9e795a0000000p-4, 0x1.448f220000000p-5, -0x1.2a11560000000p-4, -0x1.1b13520000000p-4, -0x1.0fe9e40000000p-3, -0x1.515a160000000p-5, 0x1.7d29300000000p-5, -0x1.d4956c0000000p-6, -0x1.1147440000000p-3, -0x1.d0431e0000000p-7, -0x1.4a62b80000000p-5, -0x1.c8898c0000000p-4, 0x1.2a50000000000p-12, -0x1.aca09e0000000p-3, -0x1.51295e0000000p-4, 0x1.9559620000000p-5, 0x1.265a3a0000000p-3, 0x1.62393c0000000p-6, -0x1.91c2820000000p-3, -0x1.946fde0000000p-5, -0x1.f7d1b40000000p-5, 0x1.5c87920000000p-4, -0x1.56614c0000000p-4, -0x1.59282a0000000p-4, 0x1.09aa400000000p-8, -0x1.37ade80000000p-3, -0x1.4669200000000p-6, -0x1.826bee0000000p-9, 0x1.cf22180000000p-5, -0x1.cf56820000000p-4, -0x1.eb732c0000000p-4, -0x1.a9b6840000000p-3, 0x1.e0ccf00000000p-7, -0x1.65293c0000000p-3, 0x1.9f7d900000000p-4, -0x1.9f797c0000000p-7, 0x1.5b580c0000000p-4, -0x1.6a44c00000000p-5, -0x1.a918d00000000p-4, -0x1.67716c0000000p-3, 0x1.cad4540000000p-6, -0x1.efdb3c0000000p-5, 0x1.2b33d20000000p-3, 0x1.47afd00000000p-6, 0x1.5bb5f80000000p-5, -0x1.351ae00000000p-3, -0x1.7a678e0000000p-6, -0x1.41d99c0000000p-4, -0x1.b54b9a0000000p-4, -0x1.88f3660000000p-3, -0x1.8f57660000000p-3, -0x1.630fcc0000000p-8, 0x1.53b7860000000p-6, -0x1.0c13c60000000p-6, -0x1.5a86300000000p-3, -0x1.40eaf20000000p-4, 0x1.1d82400000000p-6, 0x1.2c4b9a0000000p-6, -0x1.43b0f00000000p-6, 0x1.c541500000000p-5, 0x1.9ab93c0000000p-4, -0x1.2a60d60000000p-3, 0x1.b659ae0000000p-6, -0x1.e5b2940000000p-4, -0x1.a055b80000000p-4, -0x1.54ade20000000p-3, 0x1.e7b1460000000p-4, -0x1.2990c20000000p-3, 0x1.f0ddea0000000p-4, 0x1.7261de0000000p-3, 0x1.248d180000000p-4, 0x1.ab11da0000000p-4, 0x1.e437480000000p-4, -0x1.ff44020000000p-6, 0x1.03fe840000000p-3, -0x1.d825a00000000p-6, 0x1.d17a4e0000000p-6, -0x1.6455ba0000000p-3, -0x1.d60d9e0000000p-4, -0x1.538b1a0000000p-3, -0x1.3112f20000000p-3}
, {-0x1.e293080000000p-4, -0x1.241e000000000p-2, -0x1.2adbda0000000p-2, -0x1.0c469a0000000p-3, 0x1.6fb3340000000p-5, -0x1.60439a0000000p-4, -0x1.e6d16a0000000p-3, -0x1.9f11a00000000p-8, -0x1.2225e00000000p-6, -0x1.1831bc0000000p-5, 0x1.a2a3380000000p-3, 0x1.96c7a00000000p-3, -0x1.2d08380000000p-3, -0x1.9bf8440000000p-2, 0x1.b181a40000000p-6, -0x1.2f90f40000000p-3, -0x1.2d047e0000000p-4, 0x1.2636aa0000000p-3, -0x1.e2234c0000000p-4, -0x1.db2e500000000p-5, -0x1.6cec180000000p-2, -0x1.702a680000000p-3, 0x1.e525680000000p-3, -0x1.410a900000000p-4, -0x1.818b720000000p-3, -0x1.6e033c0000000p-4, -0x1.6a454e0000000p-5, -0x1.75f62c0000000p-3, 0x1.f12e1e0000000p-5, 0x1.30d6540000000p-7, -0x1.56ac000000000p-5, -0x1.60bb0c0000000p-3, 0x1.54e0260000000p-4, 0x1.4802920000000p-4, 0x1.9ef60a0000000p-6, -0x1.64bfe80000000p-3, -0x1.34a4140000000p-5, 0x1.c559420000000p-4, -0x1.c2c96c0000000p-4, -0x1.e05ada0000000p-4, 0x1.e9dd540000000p-7, -0x1.e9b4380000000p-5, 0x1.a991920000000p-4, 0x1.a71b920000000p-4, -0x1.2beeda0000000p-4, 0x1.4c0bbc0000000p-3, -0x1.345e920000000p-2, 0x1.a2fb5e0000000p-3, -0x1.653e280000000p-4, 0x1.82cd640000000p-3, -0x1.38ef3c0000000p-2, -0x1.c03b440000000p-2, -0x1.250d220000000p-4, 0x1.40d30a0000000p-3, 0x1.8754660000000p-7, -0x1.b64cf00000000p-3, 0x1.3cad7e0000000p-6, 0x1.321ae20000000p-4, -0x1.0be0960000000p-3, -0x1.2399080000000p-5, -0x1.160b1c0000000p-4, -0x1.59c9500000000p-2, -0x1.5953e20000000p-3, -0x1.f12f880000000p-5, -0x1.986b760000000p-6, -0x1.41623a0000000p-3, -0x1.2843000000000p-6, 0x1.999cd40000000p-3, 0x1.f84eb40000000p-4, 0x1.5f76e60000000p-3, -0x1.947d420000000p-4, -0x1.5cc2680000000p-3, 0x1.558a800000000p-4, -0x1.d1dab60000000p-4, -0x1.d24b520000000p-2, 0x1.5064480000000p-3, 0x1.eec1b60000000p-4, -0x1.4bbf960000000p-3, 0x1.4055b40000000p-3, 0x1.63a8f20000000p-4, 0x1.afce0e0000000p-7, 0x1.0bf2920000000p-6, 0x1.8d26460000000p-4, -0x1.24d3720000000p-3, 0x1.0f90700000000p-2, -0x1.82a7260000000p-4, 0x1.40ee680000000p-3, -0x1.b0b2540000000p-4, 0x1.4970200000000p-3, -0x1.716da40000000p-4, -0x1.7ffb6a0000000p-3, 0x1.1357480000000p-3, -0x1.31bdee0000000p-4, 0x1.cf55780000000p-5, -0x1.9c82400000000p-3, 0x1.54f9ea0000000p-3, -0x1.55d2760000000p-3, -0x1.6074a60000000p-5, -0x1.36ae8c0000000p-3, 0x1.07de180000000p-3, 0x1.e16e9e0000000p-4, -0x1.0ee4820000000p-4, 0x1.21de4a0000000p-4, 0x1.2aee3a0000000p-7, -0x1.ea3b960000000p-4, 0x1.8a8c060000000p-4, 0x1.348c9e0000000p-3, 0x1.a1f0300000000p-4, 0x1.6258d60000000p-3, 0x1.625e560000000p-3, 0x1.14336e0000000p-2, 0x1.1d307e0000000p-5, 0x1.8125b60000000p-4, 0x1.7010300000000p-3, -0x1.0448680000000p-3, -0x1.50247e0000000p-3, -0x1.8c564a0000000p-4, -0x1.6eecc40000000p-6, -0x1.b062940000000p-7, -0x1.dba5060000000p-4, -0x1.d38f440000000p-3, 0x1.abc8920000000p-4, 0x1.6108000000000p-4, -0x1.7b6dfe0000000p-3, 0x1.25a3800000000p-7, -0x1.9fbd0e0000000p-3, 0x1.f148ee0000000p-4, -0x1.f337f80000000p-5}
, {-0x1.984d8c0000000p-3, -0x1.8d48e80000000p-3, -0x1.ffb2820000000p-4, 0x1.45b3d60000000p-5, -0x1.ecf57a0000000p-4, -0x1.77afac0000000p-5, 0x1.40f3fe0000000p-3, 0x1.2fdfc20000000p-4, -0x1.3a65ca0000000p-3, 0x1.773f5e0000000p-4, -0x1.52b1f20000000p-3, -0x1.60cada0000000p-4, 0x1.e858f20000000p-4, -0x1.782c760000000p-5, -0x1.0134c40000000p-4, -0x1.e9d5060000000p-5, -0x1.3bb7060000000p-4, 0x1.67ff6e0000000p-3, 0x1.fcfff00000000p-6, -0x1.5b26ee0000000p-4, 0x1.16d2080000000p-3, 0x1.4338960000000p-6, 0x1.99b1ba0000000p-3, -0x1.4173b20000000p-4, -0x1.9c149e0000000p-4, 0x1.9d9ae20000000p-6, 0x1.2d45b60000000p-3, 0x1.3449ba0000000p-6, -0x1.88d51a0000000p-6, -0x1.fbc1f00000000p-5, 0x1.3c87c40000000p-3, -0x1.b4c1e60000000p-4, -0x1.8adfc60000000p-8, 0x1.9285200000000p-3, -0x1.e6797c0000000p-4, 0x1.26f13c0000000p-5, 0x1.67d8c40000000p-3, -0x1.47b8c60000000p-4, 0x1.2104cc0000000p-3, -0x1.7183240000000p-5, 0x1.face1a0000000p-7, 0x1.24f6a40000000p-3, 0x1.7bdfc20000000p-3, -0x1.0552b60000000p-3, -0x1.1514360000000p-7, -0x1.1a077e0000000p-2, 0x1.baada40000000p-3, -0x1.24a9160000000p-4, -0x1.99a7820000000p-5, 0x1.e80d2c0000000p-4, 0x1.78c3d60000000p-4, -0x1.6686d60000000p-2, -0x1.8c385c0000000p-3, 0x1.4399d20000000p-4, -0x1.8f62bc0000000p-2, 0x1.362d4e0000000p-4, -0x1.ba98ee0000000p-3, -0x1.f581ac0000000p-4, -0x1.4d2d5c0000000p-2, -0x1.5131860000000p-3, -0x1.53d9720000000p-7, -0x1.1683bc0000000p-2, 0x1.80f01a0000000p-5, 0x1.5ad4340000000p-4, -0x1.fd32620000000p-4, 0x1.64d35a0000000p-4, 0x1.63d1340000000p-8, 0x1.796d7e0000000p-3, -0x1.8013c80000000p-3, 0x1.e3404a0000000p-4, 0x1.9f39b80000000p-4, 0x1.7638ea0000000p-3, -0x1.5822680000000p-3, 0x1.c3eea40000000p-9, 0x1.33aa8e0000000p-2, 0x1.7ee02e0000000p-3, -0x1.e472a00000000p-5, -0x1.78bb260000000p-6, -0x1.21ee280000000p-4, 0x1.ec93820000000p-5, -0x1.8f104a0000000p-3, 0x1.41586c0000000p-2, 0x1.8876da0000000p-6, 0x1.968e820000000p-4, -0x1.cd52fa0000000p-3, 0x1.ad0f480000000p-4, -0x1.6664a80000000p-5, 0x1.3c73ec0000000p-2, 0x1.9d4bde0000000p-5, -0x1.1a5ba40000000p-5, 0x1.6305860000000p-4, -0x1.638f9e0000000p-7, -0x1.43ad4e0000000p-2, 0x1.938bb20000000p-3, 0x1.e442340000000p-4, 0x1.7093520000000p-3, 0x1.59719a0000000p-3, -0x1.ed13060000000p-5, 0x1.e2e5140000000p-3, 0x1.c26ed40000000p-6, -0x1.6368380000000p-3, 0x1.0f8b380000000p-4, -0x1.fb41460000000p-3, -0x1.2dbc6c0000000p-3, 0x1.94d1b40000000p-5, 0x1.92f6640000000p-2, 0x1.55c09c0000000p-3, 0x1.17f8300000000p-3, -0x1.2fae5e0000000p-3, 0x1.ef80d00000000p-4, 0x1.c895520000000p-6, 0x1.9e6f200000000p-3, -0x1.2473820000000p-2, 0x1.3c9ab60000000p-3, -0x1.8473b40000000p-3, 0x1.dbed8e0000000p-4, -0x1.102dde0000000p-2, 0x1.2e8c320000000p-3, -0x1.be72ba0000000p-3, 0x1.bf30a40000000p-4, 0x1.8148660000000p-5, 0x1.a3c2a40000000p-3, -0x1.7a10200000000p-3, -0x1.7e34d60000000p-4, -0x1.110b7e0000000p-5, -0x1.8945600000000p-4, -0x1.5fa0440000000p-3, -0x1.c1ce400000000p-5}
, {-0x1.8260e80000000p-5, 0x1.5e928e0000000p-2, 0x1.57a67c0000000p-2, -0x1.6fd2b40000000p-4, 0x1.6cb09e0000000p-5, 0x1.3707340000000p-3, 0x1.539cd20000000p-3, 0x1.559f9c0000000p-5, 0x1.cc68a80000000p-4, -0x1.06c8000000000p-13, -0x1.fa3c760000000p-5, -0x1.ac8b420000000p-4, 0x1.3656cc0000000p-3, -0x1.ccd6ac0000000p-5, -0x1.d247b20000000p-4, -0x1.38c27c0000000p-3, -0x1.b597b00000000p-3, -0x1.3b08c00000000p-5, 0x1.c9c8680000000p-4, 0x1.5c18060000000p-2, 0x1.7bf8340000000p-8, -0x1.b229cc0000000p-3, -0x1.2da1ba0000000p-3, -0x1.13b94c0000000p-2, -0x1.091bba0000000p-4, -0x1.be3d460000000p-3, 0x1.02a1920000000p-3, -0x1.50eef80000000p-4, -0x1.1120140000000p-3, 0x1.2abf3e0000000p-3, 0x1.5fc8960000000p-3, -0x1.37ce2c0000000p-7, -0x1.30b81c0000000p-7, -0x1.5e11120000000p-3, -0x1.99dd3c0000000p-7, -0x1.50d5420000000p-3, 0x1.64025c0000000p-6, 0x1.70d8260000000p-5, 0x1.ca282c0000000p-3, 0x1.be0d240000000p-6, -0x1.c667f60000000p-8, -0x1.069aea0000000p-7, -0x1.19ec0a0000000p-5, 0x1.9b5d120000000p-5, -0x1.7d48e60000000p-6, 0x1.327b5a0000000p-4, 0x1.453fd20000000p-4, 0x1.398bcc0000000p-3, 0x1.14e9a60000000p-3, -0x1.93233e0000000p-5, -0x1.96e4320000000p-3, 0x1.21f5500000000p-7, 0x1.a48e420000000p-4, -0x1.1242420000000p-3, -0x1.70c5e80000000p-8, 0x1.1b8f8c0000000p-5, 0x1.f9be160000000p-3, 0x1.a06bf00000000p-3, 0x1.065afc0000000p-2, -0x1.9cd02a0000000p-4, 0x1.774a4a0000000p-4, -0x1.4611ba0000000p-4, 0x1.aed2ac0000000p-4, 0x1.3765320000000p-3, -0x1.59b3b60000000p-3, -0x1.be4dce0000000p-5, 0x1.df4a0e0000000p-4, 0x1.f0ea820000000p-6, 0x1.7ba74c0000000p-4, 0x1.6af3ce0000000p-4, -0x1.fbc99e0000000p-4, -0x1.5fe93a0000000p-5, -0x1.6d25ae0000000p-3, 0x1.456f220000000p-4, 0x1.aee33a0000000p-2, -0x1.2ce0be0000000p-3, 0x1.ea70480000000p-5, -0x1.e77d500000000p-3, -0x1.3fe9460000000p-3, -0x1.d847700000000p-4, 0x1.642c8e0000000p-9, 0x1.6f04ce0000000p-3, 0x1.4d612a0000000p-6, -0x1.7c0af20000000p-3, -0x1.ba9bf60000000p-5, -0x1.82c9a60000000p-5, -0x1.4d5a7c0000000p-3, -0x1.1238bc0000000p-2, -0x1.5c0bc20000000p-8, 0x1.2ede060000000p-4, -0x1.362e000000000p-2, -0x1.ac65f40000000p-8, -0x1.237a340000000p-2, -0x1.13180c0000000p-6, -0x1.288a5e0000000p-3, -0x1.301a980000000p-4, -0x1.02db760000000p-2, 0x1.0017b80000000p-2, -0x1.03aefa0000000p-2, -0x1.6bdea60000000p-8, -0x1.05fe460000000p-8, 0x1.17fac20000000p-2, 0x1.1ff6620000000p-3, -0x1.45a3c60000000p-4, -0x1.35e7640000000p-5, -0x1.e966960000000p-3, -0x1.36c3660000000p-3, -0x1.1498700000000p-6, 0x1.6657980000000p-3, -0x1.0243f00000000p-3, -0x1.1e36120000000p-2, -0x1.b7f99a0000000p-4, -0x1.8cddc40000000p-6, -0x1.a406700000000p-4, -0x1.4782180000000p-4, 0x1.bbc8040000000p-4, 0x1.1ba6f00000000p-3, -0x1.f468440000000p-5, 0x1.87932c0000000p-3, 0x1.c9dd220000000p-4, -0x1.a0cfe40000000p-4, -0x1.78beb20000000p-4, 0x1.021c4a0000000p-3, 0x1.cd05f20000000p-4, -0x1.6a5b6a0000000p-3, 0x1.cfa88e0000000p-6, 0x1.835d140000000p-7, -0x1.65a0c40000000p-4}
, {-0x1.030dc80000000p-3, 0x1.1c4f420000000p-2, 0x1.edc8cc0000000p-3, 0x1.45ad760000000p-3, 0x1.751d340000000p-3, -0x1.d605ea0000000p-4, 0x1.150e4e0000000p-4, -0x1.12b1480000000p-4, -0x1.4ce4900000000p-3, 0x1.4a8a740000000p-4, 0x1.547e140000000p-3, 0x1.1b58680000000p-3, 0x1.b2a8d60000000p-6, 0x1.3e914e0000000p-2, -0x1.130fc80000000p-3, -0x1.9638720000000p-3, -0x1.b700240000000p-4, -0x1.493f320000000p-3, 0x1.d85f6a0000000p-4, 0x1.3982780000000p-4, 0x1.094b8c0000000p-2, -0x1.6672cc0000000p-4, -0x1.9c65ea0000000p-4, 0x1.0099520000000p-3, -0x1.9ca7ea0000000p-5, -0x1.a814680000000p-13, -0x1.b8de3c0000000p-4, -0x1.0639420000000p-2, -0x1.962ce00000000p-3, -0x1.3366f40000000p-3, 0x1.7ccbb40000000p-5, 0x1.b967e00000000p-5, 0x1.a55bd60000000p-3, -0x1.208c780000000p-3, 0x1.6fdef20000000p-3, -0x1.138f0a0000000p-3, -0x1.603d080000000p-4, 0x1.1744e20000000p-2, 0x1.9461fe0000000p-3, -0x1.094b520000000p-3, -0x1.b147040000000p-3, 0x1.9738340000000p-3, -0x1.d92e2a0000000p-8, 0x1.d2721e0000000p-4, -0x1.9056580000000p-7, 0x1.1200dc0000000p-3, -0x1.520b7c0000000p-8, 0x1.4275c80000000p-3, 0x1.1a42660000000p-3, 0x1.1074a00000000p-3, 0x1.f1b94a0000000p-3, 0x1.fba66e0000000p-3, 0x1.558aae0000000p-4, -0x1.5b4c920000000p-3, -0x1.ff0e9a0000000p-7, -0x1.1380a80000000p-6, 0x1.e3c5bc0000000p-3, -0x1.3aaefe0000000p-3, 0x1.7f45c60000000p-3, -0x1.dd75540000000p-4, 0x1.598b920000000p-4, -0x1.dfd1060000000p-3, 0x1.4c88340000000p-5, 0x1.44c7520000000p-3, -0x1.c854a60000000p-4, -0x1.119fe00000000p-4, -0x1.3160a80000000p-3, 0x1.142a440000000p-3, -0x1.4612920000000p-4, 0x1.736c500000000p-6, 0x1.1348ca0000000p-4, -0x1.29f6300000000p-3, -0x1.05ff000000000p-4, -0x1.50c9320000000p-3, 0x1.dc7d420000000p-3, 0x1.7ede2e0000000p-4, -0x1.fc4ee60000000p-4, -0x1.dc94200000000p-4, 0x1.3ca4180000000p-3, 0x1.cc87480000000p-4, -0x1.e28f160000000p-3, 0x1.c433a60000000p-5, -0x1.c615ca0000000p-6, 0x1.3c1d120000000p-3, 0x1.755c780000000p-8, 0x1.afc4360000000p-4, -0x1.3fd21e0000000p-7, 0x1.14b5760000000p-6, 0x1.c5395c0000000p-6, 0x1.6a4b5a0000000p-6, 0x1.d63c360000000p-6, 0x1.0c5ac20000000p-5, 0x1.5b77fa0000000p-3, -0x1.52e88a0000000p-6, 0x1.6625900000000p-3, -0x1.75d4bc0000000p-5, 0x1.dd66280000000p-8, -0x1.006d080000000p-3, -0x1.57ce9a0000000p-4, -0x1.3868600000000p-3, 0x1.8670660000000p-3, 0x1.4f62a60000000p-4, 0x1.365ba00000000p-3, -0x1.374af20000000p-8, 0x1.da1afe0000000p-3, -0x1.7989680000000p-3, 0x1.c68c640000000p-5, -0x1.9dd2aa0000000p-4, 0x1.8c8cd40000000p-3, 0x1.b1daf00000000p-10, 0x1.63ae040000000p-4, -0x1.914e3c0000000p-4, 0x1.6acb180000000p-4, 0x1.6fb1160000000p-3, 0x1.191fb60000000p-5, -0x1.10502e0000000p-4, 0x1.2da5380000000p-3, 0x1.e0dd6a0000000p-3, -0x1.68a7520000000p-3, 0x1.6c72aa0000000p-6, 0x1.9795c40000000p-3, 0x1.50a7520000000p-3, 0x1.c638620000000p-5, -0x1.0b3aba0000000p-3, -0x1.e3c4840000000p-12, -0x1.473d9e0000000p-5, -0x1.be0af40000000p-5, -0x1.8dd9c00000000p-2}
, {-0x1.53cda20000000p-3, -0x1.256fdc0000000p-3, -0x1.190f6a0000000p-3, -0x1.82bfe60000000p-3, 0x1.650aa80000000p-3, 0x1.feb7d80000000p-3, 0x1.331ce80000000p-6, 0x1.4aba3c0000000p-12, -0x1.5974780000000p-2, -0x1.99cd500000000p-8, 0x1.a12a480000000p-3, 0x1.a8abca0000000p-4, 0x1.82feae0000000p-4, -0x1.fd5b260000000p-5, -0x1.f57e300000000p-4, 0x1.0c8ce40000000p-3, -0x1.66ba2c0000000p-3, 0x1.8475da0000000p-3, -0x1.6c34180000000p-4, 0x1.2c058c0000000p-8, 0x1.7d6cbe0000000p-6, 0x1.0c09680000000p-3, -0x1.298aca0000000p-4, 0x1.45d9800000000p-4, 0x1.71c93e0000000p-4, -0x1.50acf60000000p-5, 0x1.43d6400000000p-5, -0x1.8221dc0000000p-4, 0x1.769a560000000p-3, -0x1.1d35680000000p-4, 0x1.27a1c20000000p-5, 0x1.bed5240000000p-4, -0x1.86ac5c0000000p-5, -0x1.3acc080000000p-3, -0x1.403c900000000p-5, 0x1.d7f93a0000000p-7, -0x1.bd530e0000000p-3, 0x1.ee782a0000000p-3, 0x1.6e702c0000000p-4, 0x1.fe6b9a0000000p-4, -0x1.e7911a0000000p-4, -0x1.1e018e0000000p-4, -0x1.d2abcc0000000p-6, 0x1.0b8e240000000p-4, -0x1.6cc1840000000p-5, 0x1.878df20000000p-9, 0x1.92d92e0000000p-4, -0x1.26dc0c0000000p-5, -0x1.0144c00000000p-3, -0x1.9f18160000000p-3, 0x1.95c38e0000000p-4, 0x1.567c4e0000000p-4, -0x1.9a187a0000000p-4, -0x1.779abc0000000p-3, -0x1.1c84720000000p-3, -0x1.5e31000000000p-3, 0x1.72d7440000000p-3, -0x1.b6ecf20000000p-5, 0x1.8db2920000000p-3, -0x1.14953a0000000p-3, -0x1.f6ade80000000p-3, 0x1.ddcd620000000p-7, 0x1.ad4dd60000000p-4, -0x1.2a37240000000p-3, 0x1.aa0a1c0000000p-5, -0x1.dbe22c0000000p-3, 0x1.34123e0000000p-5, -0x1.3a2d5e0000000p-4, -0x1.2fa53e0000000p-4, 0x1.807b600000000p-7, 0x1.9688140000000p-3, 0x1.cc9ae00000000p-6, -0x1.2f58fa0000000p-7, 0x1.4248da0000000p-3, 0x1.f464b20000000p-6, -0x1.0867ac0000000p-3, 0x1.704b9c0000000p-3, -0x1.edb8e20000000p-6, 0x1.db512e0000000p-5, 0x1.e904be0000000p-4, -0x1.08f6f80000000p-9, 0x1.3d4cb40000000p-3, 0x1.3d90340000000p-3, 0x1.94f70e0000000p-4, 0x1.bedf640000000p-5, 0x1.508a660000000p-3, 0x1.10ab9a0000000p-7, 0x1.04d7e00000000p-2, 0x1.ce8d7e0000000p-4, 0x1.5d64b00000000p-3, 0x1.8803c80000000p-4, 0x1.136cfa0000000p-3, -0x1.1ee9160000000p-2, -0x1.13e9e40000000p-3, 0x1.0613160000000p-4, 0x1.f041100000000p-6, 0x1.15d4560000000p-3, 0x1.4efef00000000p-8, 0x1.00d8ce0000000p-5, -0x1.dfc3560000000p-5, -0x1.6aa3f60000000p-5, -0x1.17140e0000000p-4, -0x1.9882740000000p-4, -0x1.8f8dee0000000p-3, -0x1.27ee5e0000000p-3, -0x1.ca73e00000000p-4, 0x1.11fa920000000p-4, 0x1.1bbae60000000p-3, 0x1.4420f20000000p-3, 0x1.c2a0f40000000p-4, 0x1.fb2ae20000000p-3, 0x1.88731c0000000p-3, 0x1.1682260000000p-3, -0x1.5c04560000000p-5, 0x1.66433a0000000p-4, 0x1.5a74700000000p-4, -0x1.4430100000000p-1, -0x1.58e5540000000p-6, -0x1.beb99c0000000p-3, 0x1.20f6540000000p-2, 0x1.583c4a0000000p-3, -0x1.3a8ef00000000p-3, -0x1.894e320000000p-4, 0x1.4e7b520000000p-3, 0x1.ef460a0000000p-4, -0x1.e756580000000p-4, -0x1.9cfd7a0000000p-3, -0x1.b1f1980000000p-7}
, {-0x1.e90d500000000p-4, -0x1.8b3ea40000000p-3, -0x1.141fbc0000000p-2, 0x1.7606880000000p-3, 0x1.5c70ec0000000p-5, 0x1.1e41960000000p-3, 0x1.817f440000000p-5, -0x1.47297a0000000p-4, -0x1.98ae0e0000000p-6, -0x1.3b59660000000p-4, 0x1.a6a6880000000p-3, 0x1.27ecba0000000p-5, 0x1.83f9260000000p-3, -0x1.7de9fc0000000p-3, 0x1.26662e0000000p-2, -0x1.f0245a0000000p-4, -0x1.789cb60000000p-5, -0x1.63deee0000000p-3, 0x1.4d12900000000p-4, -0x1.c464b60000000p-8, -0x1.6310b60000000p-4, -0x1.435dd00000000p-3, 0x1.61e3140000000p-6, 0x1.2361ee0000000p-5, -0x1.8327220000000p-3, -0x1.08c2460000000p-3, -0x1.1332500000000p-6, 0x1.dfb00c0000000p-5, 0x1.c542b40000000p-4, 0x1.33d51a0000000p-4, -0x1.31a2440000000p-2, -0x1.8caafa0000000p-3, 0x1.aea9740000000p-4, 0x1.a148120000000p-6, 0x1.1a012a0000000p-3, -0x1.2994760000000p-4, 0x1.58183c0000000p-4, 0x1.2a07820000000p-3, -0x1.bdba740000000p-3, -0x1.2aa4ba0000000p-3, 0x1.69ffc00000000p-4, 0x1.64dbcc0000000p-5, 0x1.ae59de0000000p-4, -0x1.43d46a0000000p-3, -0x1.082e9a0000000p-3, -0x1.124fe80000000p-3, -0x1.f694880000000p-3, 0x1.232bc40000000p-3, -0x1.bbbdc20000000p-4, 0x1.4fe58c0000000p-3, 0x1.7098800000000p-11, -0x1.519bfa0000000p-2, 0x1.88c1800000000p-3, 0x1.57484e0000000p-3, 0x1.6a01fe0000000p-2, 0x1.0a86c60000000p-3, 0x1.a206c00000000p-4, 0x1.271aa20000000p-5, -0x1.e80a560000000p-6, -0x1.0194d60000000p-3, 0x1.1984980000000p-2, -0x1.495f9a0000000p-4, 0x1.9b41260000000p-5, -0x1.3179680000000p-3, -0x1.7a68a20000000p-3, 0x1.e789600000000p-3, 0x1.f382140000000p-4, 0x1.02ec200000000p-3, -0x1.a5df240000000p-4, -0x1.cb968a0000000p-3, 0x1.153f1e0000000p-6, 0x1.3e8e540000000p-7, -0x1.1be0de0000000p-2, 0x1.d3abfa0000000p-4, -0x1.0b1b300000000p-2, 0x1.a1ade00000000p-4, 0x1.6a17e40000000p-3, 0x1.6a170e0000000p-8, 0x1.780b0e0000000p-4, 0x1.1067200000000p-3, -0x1.265aa00000000p-4, -0x1.222a780000000p-3, 0x1.a0e4f00000000p-5, 0x1.5fa3da0000000p-3, 0x1.311eb80000000p-3, -0x1.bed56a0000000p-4, -0x1.dc0ed40000000p-3, 0x1.273e320000000p-2, -0x1.a3041a0000000p-5, -0x1.326aaa0000000p-3, -0x1.1850c80000000p-3, 0x1.d6b4f20000000p-3, 0x1.0e8b140000000p-8, -0x1.07ca360000000p-3, -0x1.83eafe0000000p-3, -0x1.81065a0000000p-3, 0x1.0f3e640000000p-3, 0x1.16a1f00000000p-6, 0x1.efecaa0000000p-6, -0x1.69abb00000000p-2, 0x1.faf2f60000000p-5, -0x1.b922d80000000p-4, 0x1.bd85160000000p-5, 0x1.2d8bce0000000p-4, 0x1.f322c60000000p-4, -0x1.fcb5b40000000p-5, 0x1.42141e0000000p-3, 0x1.6981b80000000p-4, 0x1.07facc0000000p-3, 0x1.97b94a0000000p-5, 0x1.4c94920000000p-3, 0x1.42287c0000000p-8, -0x1.1d5d820000000p-5, 0x1.e29b700000000p-6, -0x1.9ffbd40000000p-5, 0x1.0bb12e0000000p-4, -0x1.fa66e00000000p-4, 0x1.2013480000000p-5, 0x1.ad1f4a0000000p-5, -0x1.79bcb80000000p-2, 0x1.d3e8460000000p-4, 0x1.8a51820000000p-3, -0x1.431c420000000p-8, 0x1.776ebe0000000p-3, -0x1.c194540000000p-4, -0x1.525f9c0000000p-3, 0x1.6dbbc00000000p-7, 0x1.aeda0c0000000p-4}
, {-0x1.cc8dd20000000p-7, 0x1.7db2e20000000p-4, 0x1.0f23300000000p-2, 0x1.7d9f240000000p-2, 0x1.7264d40000000p-3, -0x1.20ac600000000p-5, -0x1.4709d40000000p-3, 0x1.2024a00000000p-3, 0x1.2821460000000p-3, 0x1.cb67560000000p-6, -0x1.2f4cf00000000p-4, -0x1.a3df9e0000000p-3, 0x1.53a02c0000000p-4, -0x1.d268800000000p-5, -0x1.d02af20000000p-5, -0x1.8b2b920000000p-10, 0x1.071c5e0000000p-7, 0x1.6eb7c00000000p-6, -0x1.560dfa0000000p-4, -0x1.21c54a0000000p-3, 0x1.007d440000000p-3, -0x1.0ef6320000000p-3, 0x1.a9c0cc0000000p-4, -0x1.7fb4d80000000p-5, 0x1.e4a52a0000000p-3, -0x1.3d4c1a0000000p-4, 0x1.ce76f60000000p-5, -0x1.ba23360000000p-3, 0x1.fff6f40000000p-4, -0x1.ef96ee0000000p-5, 0x1.64622c0000000p-4, -0x1.8dfd6a0000000p-5, 0x1.4335520000000p-3, 0x1.07b0700000000p-5, 0x1.bd7ce20000000p-4, -0x1.313e060000000p-3, 0x1.b7030c0000000p-4, 0x1.82b09e0000000p-2, -0x1.f699c00000000p-4, 0x1.73d1160000000p-3, -0x1.751b7c0000000p-5, 0x1.69a7320000000p-3, 0x1.1ba9fa0000000p-3, -0x1.618e4c0000000p-3, -0x1.11344e0000000p-5, 0x1.773b340000000p-3, 0x1.1b56ec0000000p-4, -0x1.5af3940000000p-4, -0x1.744aa80000000p-4, -0x1.33139e0000000p-4, 0x1.a8185e0000000p-5, 0x1.5b55b00000000p-3, -0x1.ad85940000000p-6, 0x1.5602840000000p-3, 0x1.5077fe0000000p-4, -0x1.8258a20000000p-3, -0x1.d40d600000000p-4, -0x1.4a17e00000000p-5, -0x1.c276f80000000p-6, -0x1.d928fa0000000p-4, 0x1.a39c2a0000000p-6, 0x1.5b92c00000000p-3, -0x1.682a500000000p-5, -0x1.62d1760000000p-3, 0x1.88310c0000000p-3, 0x1.d7ec3c0000000p-3, 0x1.3af37c0000000p-4, 0x1.b2aebc0000000p-5, 0x1.edcbae0000000p-6, 0x1.208b020000000p-2, 0x1.126cd80000000p-3, -0x1.9b0b700000000p-3, -0x1.fc27ee0000000p-7, -0x1.2a16a00000000p-4, -0x1.4503780000000p-5, 0x1.05ef6e0000000p-3, -0x1.472b940000000p-3, -0x1.26ebe20000000p-3, -0x1.e7009c0000000p-4, -0x1.72d62c0000000p-6, 0x1.ceefc60000000p-6, -0x1.8f90c40000000p-5, 0x1.c9304a0000000p-8, -0x1.217d680000000p-4, 0x1.2be1e00000000p-5, -0x1.5ff1720000000p-6, 0x1.c8cc440000000p-8, 0x1.b8389e0000000p-4, 0x1.ca23380000000p-4, 0x1.1f7d880000000p-5, -0x1.e3e6640000000p-5, 0x1.d2af0a0000000p-4, 0x1.2449dc0000000p-3, -0x1.1d887a0000000p-3, -0x1.f28c3e0000000p-4, 0x1.6a0db20000000p-7, -0x1.d0230c0000000p-4, 0x1.785c660000000p-3, -0x1.13fea60000000p-3, -0x1.878d900000000p-5, -0x1.1be7240000000p-2, 0x1.9497d80000000p-4, 0x1.1bca260000000p-5, -0x1.0faf920000000p-6, 0x1.876f120000000p-5, -0x1.29866c0000000p-2, -0x1.768f9c0000000p-5, 0x1.f6ed120000000p-4, 0x1.8cb6080000000p-4, 0x1.10661c0000000p-3, 0x1.0b59640000000p-3, 0x1.4d922a0000000p-3, -0x1.59e5e40000000p-4, 0x1.a280ee0000000p-6, 0x1.03836c0000000p-3, 0x1.eaffd80000000p-5, 0x1.7616340000000p-2, 0x1.8d2b860000000p-5, 0x1.37ce800000000p-3, -0x1.24b16a0000000p-5, 0x1.c845bc0000000p-3, -0x1.7f8cd80000000p-4, -0x1.379b680000000p-4, -0x1.9be03c0000000p-3, 0x1.c8478c0000000p-4, 0x1.8841f00000000p-3, 0x1.619e680000000p-3, 0x1.cfb5a00000000p-5}
, {-0x1.10d3e60000000p-3, 0x1.c757580000000p-4, -0x1.7484b80000000p-9, 0x1.1668a80000000p-2, -0x1.a8bfce0000000p-3, 0x1.f863620000000p-3, 0x1.75f0760000000p-3, -0x1.00a0600000000p-6, -0x1.0dd99c0000000p-2, 0x1.bf7b5a0000000p-4, 0x1.406bd60000000p-3, -0x1.64f4e00000000p-4, -0x1.3fa5100000000p-3, 0x1.5dfa140000000p-2, 0x1.3b0e440000000p-6, 0x1.a7ea3a0000000p-3, -0x1.23da760000000p-5, 0x1.70e00e0000000p-3, 0x1.a82fe80000000p-4, 0x1.723c840000000p-2, -0x1.ce9f6a0000000p-6, -0x1.8cc5320000000p-4, -0x1.6747ee0000000p-7, -0x1.4e031e0000000p-4, -0x1.ef046e0000000p-5, -0x1.4de33c0000000p-5, -0x1.64c2000000000p-9, 0x1.62c9ce0000000p-3, -0x1.4ba6540000000p-3, -0x1.75dfc00000000p-4, -0x1.841be40000000p-3, 0x1.73313e0000000p-5, 0x1.428eb80000000p-3, -0x1.65d1ee0000000p-3, 0x1.b5d36e0000000p-3, -0x1.27f9da0000000p-4, 0x1.d96a060000000p-4, -0x1.adeed40000000p-3, 0x1.7b83380000000p-3, -0x1.11cd940000000p-5, 0x1.c476040000000p-4, -0x1.25525c0000000p-3, 0x1.b75d780000000p-2, 0x1.97452e0000000p-4, 0x1.a77bb40000000p-5, -0x1.7ef3ec0000000p-3, -0x1.0c0c2c0000000p-4, 0x1.dbfe080000000p-4, -0x1.a054940000000p-3, 0x1.f32fe40000000p-3, -0x1.b6bc5e0000000p-4, 0x1.0c6a160000000p-2, -0x1.a2e4c80000000p-8, 0x1.f872e00000000p-6, 0x1.1fa8a60000000p-4, 0x1.0d376e0000000p-3, -0x1.740cd20000000p-3, 0x1.2755600000000p-3, 0x1.d276460000000p-4, 0x1.57d9fc0000000p-4, 0x1.708b6c0000000p-4, -0x1.8bbffc0000000p-4, -0x1.338c3a0000000p-3, 0x1.005d1e0000000p-8, -0x1.d18a200000000p-4, -0x1.4676b20000000p-5, 0x1.0bbffe0000000p-3, 0x1.3cdade0000000p-3, 0x1.221be00000000p-6, -0x1.4e627c0000000p-4, -0x1.5f67020000000p-3, -0x1.182e320000000p-5, -0x1.6f281a0000000p-3, -0x1.66a3dc0000000p-4, -0x1.dd5f620000000p-4, -0x1.99b8740000000p-3, 0x1.29435a0000000p-3, -0x1.b56bb00000000p-4, -0x1.0e4dde0000000p-5, -0x1.baada40000000p-3, 0x1.b6b7660000000p-4, -0x1.3a36460000000p-2, -0x1.50f9ea0000000p-3, 0x1.ff843a0000000p-7, 0x1.96c2620000000p-2, 0x1.744e1a0000000p-3, -0x1.a773200000000p-4, 0x1.7e872c0000000p-3, -0x1.dab6100000000p-4, -0x1.04a6ca0000000p-4, -0x1.88f8b60000000p-3, -0x1.39832c0000000p-4, 0x1.05746a0000000p-3, -0x1.fed73e0000000p-4, -0x1.de135e0000000p-4, 0x1.f489ca0000000p-4, -0x1.9f4d940000000p-3, -0x1.899f440000000p-3, 0x1.6ec3f20000000p-4, -0x1.5c58c60000000p-3, -0x1.0325200000000p-5, -0x1.a09d680000000p-4, 0x1.5b77b40000000p-3, -0x1.b210d80000000p-5, -0x1.a82d2e0000000p-6, 0x1.e9f4100000000p-3, -0x1.818d5e0000000p-3, 0x1.0c3be60000000p-3, 0x1.3c4c380000000p-4, 0x1.f3272e0000000p-4, 0x1.20d3fe0000000p-2, -0x1.6032600000000p-4, -0x1.9b466c0000000p-5, -0x1.08b9000000000p-3, -0x1.9caa800000000p-3, 0x1.122e9c0000000p-3, 0x1.5857a60000000p-3, 0x1.047ac40000000p-3, -0x1.cdbb1e0000000p-3, -0x1.2638ec0000000p-4, -0x1.8ba8c00000000p-3, 0x1.61b8aa0000000p-6, -0x1.89dbf60000000p-3, -0x1.6eec680000000p-6, 0x1.7a8c220000000p-3, 0x1.0ec77c0000000p-2, 0x1.3b81da0000000p-4, 0x1.089da20000000p-3}
, {0x1.794d7a0000000p-4, 0x1.f5c4280000000p-3, 0x1.52e4bc0000000p-3, -0x1.d2ddec0000000p-3, -0x1.1f3fb60000000p-3, 0x1.3dd7ba0000000p-4, 0x1.c10c720000000p-5, 0x1.9d00fc0000000p-4, -0x1.5e82aa0000000p-5, 0x1.44651e0000000p-3, 0x1.03fc560000000p-3, -0x1.09e2740000000p-3, 0x1.341bac0000000p-3, 0x1.a6b2480000000p-6, 0x1.99e18e0000000p-5, -0x1.a2773c0000000p-4, 0x1.b7121e0000000p-6, -0x1.08b6500000000p-5, -0x1.c573cc0000000p-5, 0x1.92ddc60000000p-4, 0x1.b8ef600000000p-3, -0x1.ce577a0000000p-4, -0x1.0338060000000p-4, -0x1.75b1220000000p-8, -0x1.0821aa0000000p-4, 0x1.2790da0000000p-5, 0x1.8a8bb40000000p-4, -0x1.e0e0520000000p-3, -0x1.53b1120000000p-4, 0x1.6515a20000000p-3, -0x1.0d93e60000000p-4, 0x1.65cf440000000p-4, 0x1.1714fa0000000p-2, -0x1.6b25660000000p-3, -0x1.510c6a0000000p-3, -0x1.53b6c40000000p-4, -0x1.3cdd3c0000000p-3, -0x1.956d520000000p-2, -0x1.4473c60000000p-4, -0x1.504c0e0000000p-3, -0x1.507a4a0000000p-4, -0x1.5ce54a0000000p-7, 0x1.be26140000000p-4, 0x1.051f8a0000000p-4, -0x1.3d3a2a0000000p-5, 0x1.5aab8e0000000p-3, 0x1.4a71f80000000p-4, 0x1.343f8c0000000p-4, 0x1.5509580000000p-5, -0x1.15433e0000000p-4, 0x1.3365920000000p-4, 0x1.6d53300000000p-3, 0x1.20f57a0000000p-4, 0x1.1376800000000p-3, -0x1.7651440000000p-4, -0x1.213aa00000000p-3, 0x1.c720dc0000000p-4, 0x1.13a16e0000000p-3, 0x1.c560860000000p-3, 0x1.b5c83a0000000p-7, 0x1.6a91400000000p-2, -0x1.b8a5b00000000p-7, 0x1.4a93960000000p-2, -0x1.cae5a40000000p-4, 0x1.9cc47c0000000p-5, -0x1.2f3c6c0000000p-4, -0x1.83fe7c0000000p-7, -0x1.0721b20000000p-7, -0x1.54ebd00000000p-6, 0x1.ba69720000000p-5, -0x1.a88dc80000000p-5, -0x1.83488c0000000p-3, -0x1.9075cc0000000p-5, 0x1.6a60f80000000p-4, -0x1.1fc87c0000000p-4, 0x1.49a1be0000000p-4, -0x1.75c58c0000000p-4, 0x1.faeebc0000000p-7, 0x1.afb6e00000000p-4, -0x1.9f5b6e0000000p-3, 0x1.b565ae0000000p-4, 0x1.c722940000000p-8, 0x1.2553580000000p-4, -0x1.0064bc0000000p-6, -0x1.fcadfa0000000p-4, 0x1.bf83720000000p-4, -0x1.8606f60000000p-4, 0x1.b04f2c0000000p-5, 0x1.3e61120000000p-4, 0x1.9dbb320000000p-6, 0x1.7711380000000p-4, -0x1.4ccdce0000000p-5, 0x1.49bb260000000p-3, 0x1.bfc81e0000000p-3, 0x1.f873600000000p-8, -0x1.673e980000000p-3, 0x1.101ff60000000p-3, -0x1.3d4e020000000p-3, 0x1.030de00000000p-4, 0x1.a4d6de0000000p-4, 0x1.f042da0000000p-3, 0x1.1e33bc0000000p-3, 0x1.0278460000000p-3, -0x1.bdc7e60000000p-4, -0x1.48ee1e0000000p-4, 0x1.c839d60000000p-3, -0x1.5f1afe0000000p-5, -0x1.26724a0000000p-3, -0x1.d2bda80000000p-5, 0x1.a386e20000000p-6, -0x1.736f0a0000000p-4, 0x1.8870d60000000p-3, 0x1.1864400000000p-3, 0x1.0455fe0000000p-3, -0x1.ec3e5a0000000p-5, -0x1.b6a95e0000000p-4, 0x1.a69e320000000p-3, -0x1.3dcb4e0000000p-4, -0x1.0d55920000000p-3, -0x1.dd82960000000p-3, -0x1.ad79f60000000p-3, -0x1.70c4cc0000000p-5, -0x1.3236960000000p-3, -0x1.e5eaa80000000p-4, 0x1.57b0ce0000000p-5, -0x1.33c21e0000000p-5, 0x1.289f800000000p-3, -0x1.100a9e0000000p-3}
, {0x1.036b860000000p-4, -0x1.1b1cf80000000p-2, -0x1.9be79c0000000p-4, 0x1.4ae2d00000000p-3, -0x1.f4e8540000000p-4, 0x1.c757f60000000p-5, 0x1.53d4c80000000p-4, 0x1.324cc20000000p-3, 0x1.6c26c00000000p-6, 0x1.9ea8020000000p-10, 0x1.97402e0000000p-6, 0x1.6b2f020000000p-4, 0x1.1ae03e0000000p-6, -0x1.7878be0000000p-3, -0x1.5848ea0000000p-3, 0x1.bbcbb00000000p-4, 0x1.b306900000000p-4, 0x1.b880220000000p-3, 0x1.b70a080000000p-5, -0x1.08c3500000000p-2, -0x1.e1b1dc0000000p-3, -0x1.c54c000000000p-5, 0x1.58ab800000000p-5, 0x1.8bea8c0000000p-3, -0x1.6422c60000000p-3, 0x1.a599c60000000p-4, 0x1.6a31140000000p-3, 0x1.94b2180000000p-5, -0x1.555fe00000000p-6, -0x1.dde3d60000000p-4, -0x1.fd468c0000000p-4, -0x1.e223cc0000000p-3, -0x1.fa300c0000000p-7, 0x1.074e9a0000000p-3, 0x1.628fe00000000p-7, 0x1.4a65ec0000000p-3, 0x1.62a8080000000p-3, 0x1.f5a10c0000000p-4, 0x1.1269cc0000000p-4, 0x1.fc1a040000000p-4, 0x1.bbea6a0000000p-4, -0x1.4c07be0000000p-3, 0x1.4410f00000000p-3, 0x1.c062ee0000000p-4, -0x1.ad1a7e0000000p-4, 0x1.2d8eb40000000p-4, -0x1.6e15de0000000p-11, -0x1.2c676a0000000p-3, -0x1.e231ac0000000p-6, 0x1.2383960000000p-3, -0x1.17a54a0000000p-3, -0x1.3548440000000p-2, 0x1.2f4dd80000000p-3, 0x1.6d3f280000000p-3, 0x1.008abe0000000p-3, -0x1.3c0c840000000p-3, 0x1.0b108a0000000p-4, -0x1.a6ab7a0000000p-5, -0x1.3a431e0000000p-6, 0x1.1cdcac0000000p-3, -0x1.87f9100000000p-3, 0x1.c62e3a0000000p-4, -0x1.36dfc20000000p-3, -0x1.1729e80000000p-4, -0x1.35de6c0000000p-4, 0x1.7792800000000p-3, 0x1.2d52300000000p-5, 0x1.f418000000000p-4, -0x1.cdf8060000000p-5, 0x1.1e55ec0000000p-4, -0x1.9564a80000000p-3, -0x1.16b66c0000000p-3, 0x1.f83ee40000000p-5, -0x1.9762b60000000p-4, -0x1.1463e00000000p-2, 0x1.430b7a0000000p-3, -0x1.1aed900000000p-3, 0x1.ade6ca0000000p-5, 0x1.7fe7e20000000p-3, 0x1.1bb62e0000000p-3, -0x1.97cc4e0000000p-3, -0x1.b638520000000p-3, 0x1.efc9420000000p-4, 0x1.cd7e6c0000000p-4, -0x1.051e440000000p-5, 0x1.30d2ca0000000p-3, -0x1.f33ac20000000p-5, 0x1.4c8a160000000p-7, 0x1.44f9060000000p-6, 0x1.01eaa20000000p-3, 0x1.0a738a0000000p-2, -0x1.4417540000000p-2, -0x1.2bc2c60000000p-3, -0x1.f013d00000000p-8, -0x1.62a0480000000p-3, -0x1.e849980000000p-4, 0x1.6486140000000p-4, 0x1.84c5360000000p-4, 0x1.1eb3220000000p-2, -0x1.45ebc40000000p-4, -0x1.e56c440000000p-5, -0x1.120fac0000000p-2, 0x1.b900920000000p-4, 0x1.c8336e0000000p-4, 0x1.6c70bc0000000p-4, -0x1.5c67940000000p-5, 0x1.04c71c0000000p-3, 0x1.13d1b80000000p-7, 0x1.3ded8a0000000p-6, 0x1.5e8c440000000p-6, 0x1.2061560000000p-2, 0x1.2742360000000p-3, -0x1.70f48e0000000p-3, 0x1.021a140000000p-3, -0x1.8c0c2e0000000p-5, 0x1.de80d40000000p-4, -0x1.b7bc220000000p-10, 0x1.275a800000000p-3, 0x1.8eb5d80000000p-4, 0x1.0a81280000000p-6, 0x1.35952e0000000p-3, 0x1.8133fe0000000p-3, -0x1.a372100000000p-5, -0x1.60833a0000000p-4, 0x1.f6ce700000000p-5, -0x1.8d659c0000000p-4, -0x1.ad3b140000000p-3, -0x1.eda7900000000p-4}
, {-0x1.082f260000000p-3, -0x1.53c48c0000000p-4, 0x1.a13a820000000p-2, -0x1.269b5e0000000p-2, -0x1.584eca0000000p-4, -0x1.2ffb7c0000000p-5, 0x1.139d180000000p-3, -0x1.e6c1840000000p-7, 0x1.4d6f220000000p-5, -0x1.086a3c0000000p-5, 0x1.acb4cc0000000p-5, 0x1.a874c60000000p-5, 0x1.c6aec20000000p-6, 0x1.0d09a00000000p-3, -0x1.104e4a0000000p-2, 0x1.13ad300000000p-2, -0x1.2f81d40000000p-4, 0x1.e4e6500000000p-4, 0x1.9379600000000p-4, -0x1.678ad00000000p-3, 0x1.282f220000000p-3, -0x1.87d1380000000p-7, 0x1.6e3c420000000p-3, -0x1.9b8bac0000000p-4, -0x1.2183e60000000p-2, -0x1.8f4d1a0000000p-3, 0x1.c18ffc0000000p-4, -0x1.0219900000000p-6, 0x1.c27d360000000p-3, -0x1.fe2ac20000000p-6, -0x1.0b5afa0000000p-3, -0x1.c2658e0000000p-5, -0x1.2e93580000000p-2, 0x1.402f040000000p-4, -0x1.b5cc1e0000000p-3, 0x1.75566e0000000p-3, -0x1.b930540000000p-4, -0x1.84520a0000000p-2, -0x1.8988ba0000000p-3, 0x1.043d060000000p-3, -0x1.28f34a0000000p-5, -0x1.6e762a0000000p-3, -0x1.7e54e20000000p-3, -0x1.ed97ac0000000p-5, 0x1.346c220000000p-4, 0x1.3c71840000000p-4, -0x1.7c54500000000p-3, 0x1.9adea80000000p-3, -0x1.8a54260000000p-4, -0x1.95390e0000000p-4, -0x1.9be59e0000000p-5, -0x1.a9919a0000000p-4, -0x1.17594e0000000p-3, -0x1.36744a0000000p-3, -0x1.b99e840000000p-3, 0x1.1b26840000000p-7, -0x1.8908f00000000p-3, 0x1.c6daa00000000p-3, 0x1.46e9140000000p-3, -0x1.0800300000000p-3, 0x1.6fdc9c0000000p-3, 0x1.4dc32e0000000p-3, -0x1.3231ba0000000p-5, -0x1.81153e0000000p-3, -0x1.9faaac0000000p-4, -0x1.3a5b600000000p-7, -0x1.a0e5960000000p-4, 0x1.2028cc0000000p-6, -0x1.fba9de0000000p-5, -0x1.aedef00000000p-5, 0x1.0d6a6a0000000p-3, 0x1.fdc37e0000000p-7, 0x1.f86c580000000p-4, 0x1.979ab80000000p-5, -0x1.06bd660000000p-2, 0x1.95f6860000000p-6, -0x1.48aa5e0000000p-3, 0x1.6dce5c0000000p-10, 0x1.a2534e0000000p-4, -0x1.1d56ec0000000p-8, 0x1.c7fd860000000p-4, 0x1.67752a0000000p-4, 0x1.4bb4500000000p-3, 0x1.528aaa0000000p-3, -0x1.82ba9e0000000p-3, -0x1.068a600000000p-3, 0x1.3cd6320000000p-2, 0x1.c4edc20000000p-5, -0x1.931d4c0000000p-9, -0x1.a4e7220000000p-6, 0x1.ef0c9a0000000p-5, 0x1.3c07a60000000p-3, 0x1.b897f20000000p-2, -0x1.b46f900000000p-5, 0x1.1cb24e0000000p-7, 0x1.db83800000000p-4, -0x1.7cb7940000000p-10, -0x1.1d1c940000000p-6, 0x1.1b122c0000000p-2, 0x1.d35b900000000p-3, -0x1.2c45d20000000p-5, 0x1.e869420000000p-3, 0x1.13a7700000000p-6, -0x1.4cb6d80000000p-3, 0x1.915bee0000000p-5, 0x1.3295260000000p-4, 0x1.6ca2220000000p-7, 0x1.06c88a0000000p-3, -0x1.7e37b80000000p-3, 0x1.90c6a00000000p-3, -0x1.053aa80000000p-2, 0x1.bbb9e00000000p-3, -0x1.5d6c040000000p-4, -0x1.9b54c00000000p-5, 0x1.bfc1780000000p-7, -0x1.1fb23a0000000p-6, -0x1.651fde0000000p-4, 0x1.91d3720000000p-6, 0x1.df6cb20000000p-7, 0x1.99213c0000000p-3, -0x1.e3d6260000000p-3, -0x1.6b649c0000000p-2, 0x1.5c7f140000000p-4, -0x1.57f2040000000p-4, 0x1.bcf3ba0000000p-4, 0x1.e62d340000000p-7, 0x1.79970c0000000p-3, 0x1.06e0a20000000p-2}
, {-0x1.2560520000000p-3, -0x1.14b7520000000p-3, -0x1.2d5b9e0000000p-6, -0x1.3cd2d20000000p-4, -0x1.e0dad60000000p-3, 0x1.64e2dc0000000p-4, 0x1.674e080000000p-7, 0x1.15d8060000000p-4, -0x1.9d93ae0000000p-3, -0x1.db35860000000p-4, 0x1.a460e00000000p-5, -0x1.aac9ee0000000p-4, -0x1.afe3e00000000p-5, -0x1.5ef6ba0000000p-4, 0x1.70bc1e0000000p-6, 0x1.c3d87c0000000p-5, 0x1.26ed940000000p-4, 0x1.3ee5a60000000p-4, -0x1.f0c00c0000000p-5, -0x1.2a36380000000p-2, -0x1.100d020000000p-2, -0x1.21130e0000000p-3, -0x1.ae910e0000000p-4, 0x1.de846a0000000p-4, 0x1.3e1b2a0000000p-5, 0x1.295eb40000000p-3, 0x1.7d41fe0000000p-5, -0x1.7538640000000p-5, -0x1.1fdb520000000p-3, 0x1.a7ac360000000p-3, 0x1.98df300000000p-3, 0x1.ed5fb60000000p-8, -0x1.d6bf580000000p-4, 0x1.e22d620000000p-4, -0x1.7a92320000000p-4, -0x1.610f6e0000000p-4, -0x1.4467b80000000p-4, -0x1.f688ae0000000p-4, 0x1.db45580000000p-4, 0x1.986fc60000000p-4, 0x1.af06580000000p-6, -0x1.9a4ebe0000000p-3, 0x1.0773100000000p-8, 0x1.2981ca0000000p-3, 0x1.c220280000000p-5, -0x1.f9c9440000000p-4, 0x1.1b3b6e0000000p-5, -0x1.1edbb60000000p-3, 0x1.77a4e80000000p-3, -0x1.00f96a0000000p-4, -0x1.1b16f40000000p-4, -0x1.ea3da00000000p-6, -0x1.fd77c20000000p-4, -0x1.f8e8f80000000p-4, -0x1.14dbe40000000p-2, 0x1.5320ca0000000p-3, -0x1.438c760000000p-6, -0x1.f7cb0e0000000p-4, -0x1.757f220000000p-3, -0x1.2085420000000p-3, -0x1.172c6e0000000p-4, 0x1.e78b820000000p-6, 0x1.8bc3e40000000p-5, 0x1.674dfc0000000p-4, -0x1.de37a00000000p-3, 0x1.bb8f1a0000000p-4, -0x1.f7b9060000000p-5, 0x1.d6c5ec0000000p-4, -0x1.c47e5a0000000p-3, 0x1.6aa4940000000p-3, -0x1.1112a20000000p-4, -0x1.a467480000000p-5, 0x1.1bd5da0000000p-3, 0x1.a22ef80000000p-7, 0x1.38c8be0000000p-3, -0x1.3cdace0000000p-3, 0x1.c573fa0000000p-5, 0x1.627b560000000p-3, 0x1.2fb2f60000000p-4, -0x1.ce96540000000p-3, 0x1.4c77180000000p-4, -0x1.00d6c00000000p-2, 0x1.6a5b880000000p-4, 0x1.428ac80000000p-4, -0x1.96edf00000000p-5, 0x1.4765880000000p-5, 0x1.d7fd800000000p-3, 0x1.4280620000000p-8, -0x1.a50f120000000p-3, 0x1.be9ba00000000p-4, -0x1.b4bb900000000p-3, 0x1.7dd34a0000000p-4, 0x1.2296100000000p-6, -0x1.fef8b60000000p-4, 0x1.567a860000000p-5, -0x1.3be5160000000p-3, 0x1.5cdb960000000p-5, -0x1.2873b60000000p-3, 0x1.1754260000000p-4, -0x1.695d540000000p-4, 0x1.4a02700000000p-5, -0x1.83a6680000000p-4, 0x1.062da60000000p-3, -0x1.34bcde0000000p-3, 0x1.1b17d40000000p-3, 0x1.260e7c0000000p-4, 0x1.3d19b20000000p-6, 0x1.2e277a0000000p-4, -0x1.36faee0000000p-3, -0x1.4ce2600000000p-5, -0x1.9aabaa0000000p-3, -0x1.451ba20000000p-3, 0x1.2ced3a0000000p-5, 0x1.1f006e0000000p-5, 0x1.48bcbe0000000p-7, -0x1.ce12fc0000000p-3, -0x1.6752020000000p-4, -0x1.046faa0000000p-5, -0x1.4ea6a60000000p-4, -0x1.c00bca0000000p-5, -0x1.f7c2300000000p-11, 0x1.30b4fa0000000p-3, 0x1.4f8a740000000p-7, -0x1.2aa63a0000000p-2, 0x1.2161f80000000p-5, 0x1.19de680000000p-3, -0x1.da03ae0000000p-5, -0x1.39fba80000000p-5}
, {-0x1.0342000000000p-3, 0x1.8023d20000000p-3, 0x1.f6f3f60000000p-6, 0x1.b8f44a0000000p-5, 0x1.4f69e00000000p-2, 0x1.8705900000000p-4, -0x1.466abc0000000p-4, -0x1.4863900000000p-2, 0x1.7c8cd00000000p-4, -0x1.3b68120000000p-3, -0x1.932d2c0000000p-3, -0x1.bba9040000000p-3, -0x1.18f21a0000000p-3, 0x1.b640640000000p-5, -0x1.747b8e0000000p-4, -0x1.f2a6480000000p-3, -0x1.04c82c0000000p-5, 0x1.6ee9f60000000p-3, -0x1.26210a0000000p-3, 0x1.ead7580000000p-5, -0x1.07a5b00000000p-3, 0x1.1224280000000p-4, 0x1.3ab2aa0000000p-6, -0x1.655fd20000000p-4, -0x1.53b2a80000000p-3, -0x1.da908c0000000p-5, -0x1.2e1b160000000p-5, 0x1.3e3cdc0000000p-3, 0x1.3f194c0000000p-3, 0x1.0a42520000000p-4, 0x1.716edc0000000p-3, 0x1.77a34c0000000p-3, -0x1.56e4620000000p-2, -0x1.6726ac0000000p-3, -0x1.06979e0000000p-3, -0x1.2cdfe60000000p-3, 0x1.240ffc0000000p-4, 0x1.4ea4bc0000000p-2, -0x1.2f9a5c0000000p-4, -0x1.f9b8a40000000p-3, -0x1.f6e3e40000000p-5, -0x1.56a9b00000000p-6, 0x1.3698a00000000p-4, 0x1.a8108e0000000p-7, -0x1.748a060000000p-3, -0x1.22b0660000000p-3, -0x1.4c174c0000000p-3, -0x1.02addc0000000p-6, 0x1.3b57340000000p-3, 0x1.11a26c0000000p-4, 0x1.0c56140000000p-5, 0x1.e363380000000p-3, -0x1.5305340000000p-3, 0x1.5121c00000000p-3, 0x1.df1cce0000000p-5, 0x1.bb9a940000000p-4, -0x1.b9d8340000000p-3, -0x1.82a7d60000000p-3, 0x1.d172a20000000p-3, 0x1.705c9c0000000p-6, -0x1.1ddece0000000p-4, -0x1.a76df80000000p-3, -0x1.40e4a20000000p-3, -0x1.39f81c0000000p-3, 0x1.50f0d40000000p-3, -0x1.1bb8ce0000000p-3, -0x1.41b01e0000000p-3, -0x1.0f58260000000p-2, 0x1.027dce0000000p-2, 0x1.6f3b140000000p-4, 0x1.b1e0560000000p-6, 0x1.8f7cfe0000000p-3, -0x1.231e5c0000000p-2, 0x1.fb957c0000000p-4, 0x1.23634c0000000p-3, -0x1.40a2ba0000000p-3, -0x1.1c32c00000000p-6, -0x1.d1e5700000000p-4, 0x1.c38afe0000000p-6, 0x1.c0b4620000000p-4, -0x1.63cd240000000p-7, -0x1.ba412a0000000p-4, -0x1.0fa1e20000000p-5, 0x1.45466e0000000p-4, 0x1.bacf4a0000000p-4, 0x1.e3c7f40000000p-3, -0x1.4ef5680000000p-2, -0x1.ae46780000000p-3, 0x1.776eee0000000p-5, 0x1.4c677e0000000p-3, 0x1.d4c5e60000000p-3, -0x1.4b5b760000000p-3, -0x1.3c02c60000000p-2, 0x1.3e949a0000000p-5, -0x1.328e140000000p-4, 0x1.0f6d0a0000000p-3, 0x1.2460400000000p-4, -0x1.b320700000000p-4, -0x1.ba523e0000000p-4, 0x1.0f64780000000p-2, 0x1.870ca80000000p-4, -0x1.d1af240000000p-3, 0x1.a7ff940000000p-12, -0x1.ae3c520000000p-4, -0x1.8e7b580000000p-5, 0x1.4eb4fe0000000p-3, -0x1.f10b1c0000000p-5, 0x1.0146e20000000p-4, 0x1.97491c0000000p-5, 0x1.9e49cc0000000p-4, 0x1.00607a0000000p-4, 0x1.3fd7820000000p-4, 0x1.935b240000000p-3, 0x1.8140bc0000000p-3, -0x1.3648cc0000000p-4, -0x1.ee64c00000000p-3, 0x1.9b02a20000000p-3, 0x1.dffb460000000p-4, -0x1.4ec4720000000p-4, 0x1.a942fe0000000p-3, 0x1.18a83a0000000p-5, 0x1.b2202c0000000p-3, -0x1.dad7320000000p-5, 0x1.666f340000000p-5, -0x1.813b580000000p-4, 0x1.9bbe940000000p-5, -0x1.aa2f520000000p-5, 0x1.9c09960000000p-4}
, {0x1.b85cf20000000p-5, -0x1.1e509c0000000p-3, -0x1.148d740000000p-4, 0x1.ce38820000000p-3, -0x1.05e3b60000000p-2, -0x1.0b53320000000p-4, 0x1.fde9bc0000000p-4, 0x1.e0ab9a0000000p-5, 0x1.24d2820000000p-6, 0x1.223c540000000p-5, 0x1.6873960000000p-3, -0x1.525fcc0000000p-4, 0x1.9761080000000p-3, -0x1.c9a9740000000p-3, -0x1.b5c57c0000000p-4, 0x1.1a01ec0000000p-3, -0x1.5a6cd60000000p-4, 0x1.f6f7080000000p-4, 0x1.dc501a0000000p-3, -0x1.8a60dc0000000p-6, -0x1.025cd20000000p-2, -0x1.2dd1440000000p-5, -0x1.fac03e0000000p-3, 0x1.7d44a80000000p-6, -0x1.c8e0800000000p-5, 0x1.cd44040000000p-4, 0x1.05135c0000000p-3, -0x1.7b52020000000p-3, -0x1.7f69a40000000p-4, 0x1.6e21c20000000p-3, 0x1.2368a60000000p-4, -0x1.bf78ee0000000p-3, -0x1.fde7c00000000p-4, 0x1.78ca4c0000000p-4, 0x1.8260fe0000000p-3, 0x1.93fa880000000p-8, 0x1.2269ec0000000p-3, -0x1.9c5be80000000p-4, -0x1.2df7f00000000p-4, 0x1.a26e460000000p-4, -0x1.0a84220000000p-4, 0x1.8244aa0000000p-4, 0x1.5253b80000000p-3, -0x1.c3075c0000000p-4, 0x1.3fa15a0000000p-3, 0x1.f354140000000p-4, -0x1.43fed60000000p-4, -0x1.452d840000000p-3, 0x1.05aaa00000000p-6, 0x1.d03bfe0000000p-4, 0x1.d3236e0000000p-3, -0x1.c329680000000p-3, -0x1.4d31da0000000p-4, -0x1.069c4c0000000p-6, 0x1.0460ae0000000p-4, -0x1.e1d9600000000p-4, 0x1.0c68fc0000000p-4, -0x1.d6c4360000000p-4, -0x1.5a08840000000p-2, -0x1.1ab7960000000p-3, 0x1.004f340000000p-4, -0x1.a330400000000p-7, 0x1.9b3a3e0000000p-8, 0x1.9b55800000000p-4, 0x1.1898c00000000p-5, 0x1.d60f6c0000000p-3, 0x1.29013c0000000p-3, -0x1.37942e0000000p-8, 0x1.3253ee0000000p-4, 0x1.04ecfc0000000p-3, -0x1.23285e0000000p-3, 0x1.541c420000000p-7, -0x1.0023a20000000p-2, 0x1.82f6380000000p-3, -0x1.db828c0000000p-3, 0x1.ecf89e0000000p-4, 0x1.7e588a0000000p-5, 0x1.b6090a0000000p-4, -0x1.b93b440000000p-5, 0x1.44241a0000000p-3, -0x1.1ad06c0000000p-7, -0x1.1f09d20000000p-3, 0x1.03ae0c0000000p-4, 0x1.039c3e0000000p-2, 0x1.40249e0000000p-6, 0x1.dcc70e0000000p-5, -0x1.6eb1d20000000p-3, 0x1.55cba80000000p-3, 0x1.70acbc0000000p-3, -0x1.1b97960000000p-3, 0x1.c027a00000000p-3, -0x1.9a99ae0000000p-7, -0x1.9bdc6c0000000p-3, -0x1.fe17020000000p-4, 0x1.dcaf040000000p-5, -0x1.51a9180000000p-3, 0x1.b3a77c0000000p-3, 0x1.6650ba0000000p-5, 0x1.2c09560000000p-2, -0x1.a12d500000000p-2, -0x1.51ab280000000p-4, -0x1.10f5fc0000000p-3, -0x1.7c46fc0000000p-3, 0x1.49d1a20000000p-5, -0x1.c8900a0000000p-4, -0x1.9201080000000p-3, -0x1.7d80f80000000p-5, -0x1.13f5540000000p-3, -0x1.1206de0000000p-3, 0x1.04c35a0000000p-4, 0x1.0286c40000000p-3, 0x1.2944800000000p-8, -0x1.60aa460000000p-3, -0x1.8407220000000p-3, 0x1.71c3640000000p-4, 0x1.8026a80000000p-4, -0x1.40abdc0000000p-8, -0x1.e3b30c0000000p-5, -0x1.6ca1920000000p-3, 0x1.6242c40000000p-4, 0x1.10fc460000000p-3, -0x1.3b8e720000000p-6, -0x1.2819d80000000p-5, 0x1.13e64e0000000p-3, -0x1.307b4a0000000p-3, 0x1.1045480000000p-3, -0x1.80f1440000000p-4, 0x1.5e004e0000000p-3}
, {0x1.c429940000000p-10, -0x1.114b640000000p-3, -0x1.0bbed60000000p-3, 0x1.8eeaf80000000p-3, 0x1.f74b1e0000000p-3, -0x1.a6a2d00000000p-4, 0x1.eb4e3c0000000p-8, -0x1.2e2c2c0000000p-4, -0x1.7955ea0000000p-3, -0x1.e300b40000000p-5, -0x1.8b34d00000000p-6, 0x1.c2f4c00000000p-18, 0x1.2f82200000000p-3, -0x1.4fda1c0000000p-3, 0x1.0b3ee60000000p-5, -0x1.2ace460000000p-5, -0x1.acfb2e0000000p-4, 0x1.5071cc0000000p-3, 0x1.567ba60000000p-3, -0x1.1babde0000000p-3, -0x1.3670a20000000p-3, 0x1.692f220000000p-3, -0x1.4e603e0000000p-3, -0x1.0275160000000p-3, 0x1.44d5e60000000p-2, 0x1.331e340000000p-4, 0x1.4534f80000000p-3, -0x1.5536f00000000p-2, 0x1.6c2d740000000p-4, -0x1.2ca1800000000p-6, 0x1.0483c60000000p-3, 0x1.f4096c0000000p-4, -0x1.f9f7700000000p-3, -0x1.583c4a0000000p-3, 0x1.ab48ce0000000p-3, -0x1.c071f80000000p-7, 0x1.17bf5c0000000p-2, 0x1.e6f30e0000000p-5, -0x1.9ec4480000000p-3, 0x1.489eaa0000000p-3, 0x1.7ae8aa0000000p-6, 0x1.60b83c0000000p-3, -0x1.7d56b00000000p-3, 0x1.1acbd00000000p-3, 0x1.2c86d80000000p-3, 0x1.a53d320000000p-3, 0x1.10a1820000000p-4, 0x1.9986c20000000p-3, -0x1.ceacae0000000p-7, -0x1.37bf200000000p-5, 0x1.651a620000000p-3, -0x1.0ab6380000000p-4, -0x1.c64f5c0000000p-4, 0x1.a3c9140000000p-3, 0x1.b39dde0000000p-5, -0x1.a17cba0000000p-4, -0x1.13381e0000000p-10, 0x1.ae374c0000000p-3, 0x1.fe96260000000p-7, 0x1.012c780000000p-3, -0x1.3d179a0000000p-4, 0x1.a257180000000p-4, -0x1.152d9e0000000p-3, 0x1.9a49820000000p-4, 0x1.3f51000000000p-4, 0x1.051fb00000000p-4, -0x1.b4b7900000000p-4, -0x1.3918600000000p-4, -0x1.9308e80000000p-3, 0x1.763fa80000000p-4, 0x1.d50ab60000000p-5, -0x1.a2242c0000000p-5, -0x1.c23e2c0000000p-5, 0x1.d0349c0000000p-12, -0x1.179e2a0000000p-3, 0x1.a55dd20000000p-3, 0x1.9e3e4e0000000p-5, -0x1.55c4720000000p-3, 0x1.a9f9e60000000p-3, -0x1.ad0e260000000p-3, 0x1.848abc0000000p-5, 0x1.14f6c40000000p-4, 0x1.86457c0000000p-3, -0x1.1dbaf60000000p-5, -0x1.8854800000000p-5, 0x1.1b33c00000000p-4, -0x1.36d05c0000000p-3, -0x1.46ee360000000p-3, 0x1.306ce80000000p-6, -0x1.2808d00000000p-3, -0x1.0378400000000p-4, 0x1.838b4a0000000p-3, -0x1.2e27400000000p-4, 0x1.4a5ef80000000p-3, -0x1.fd24320000000p-6, 0x1.9418c80000000p-4, 0x1.89f2360000000p-6, 0x1.ff1de40000000p-4, -0x1.ab51ae0000000p-3, 0x1.8c0e900000000p-4, 0x1.238f800000000p-9, -0x1.735d480000000p-4, -0x1.613fd00000000p-4, -0x1.e612b00000000p-4, -0x1.b921420000000p-4, 0x1.c6a3d40000000p-5, -0x1.eed6f80000000p-9, 0x1.a6d3de0000000p-4, -0x1.bf15120000000p-8, -0x1.1a1b3a0000000p-6, -0x1.acef760000000p-3, -0x1.3527440000000p-4, -0x1.1841340000000p-4, -0x1.197ef60000000p-4, 0x1.32a6de0000000p-4, 0x1.baa9700000000p-3, -0x1.b5c72a0000000p-6, -0x1.7f28a00000000p-2, 0x1.1a98d80000000p-3, 0x1.18c9840000000p-3, -0x1.c4f9680000000p-3, 0x1.2b697c0000000p-6, -0x1.0ffb080000000p-3, -0x1.a221ea0000000p-6, -0x1.0eb64e0000000p-3, 0x1.78ccac0000000p-3, -0x1.51ae500000000p-3, 0x1.94c5660000000p-3}
, {-0x1.40c9a20000000p-3, 0x1.32b6600000000p-4, 0x1.60b0aa0000000p-5, -0x1.14e6e40000000p-3, 0x1.f5a2760000000p-5, 0x1.efab2c0000000p-4, 0x1.f085200000000p-9, 0x1.1b00bc0000000p-3, 0x1.16f7180000000p-3, -0x1.39ee320000000p-9, 0x1.4d8cca0000000p-3, 0x1.6ae4520000000p-4, 0x1.d8b11a0000000p-5, -0x1.6b4e500000000p-2, 0x1.76b12a0000000p-5, -0x1.c64ab20000000p-4, 0x1.b0b9a80000000p-4, 0x1.7992f40000000p-3, 0x1.dfc3da0000000p-8, -0x1.ac11060000000p-3, -0x1.5f1fd60000000p-4, 0x1.813ac60000000p-6, -0x1.ef853a0000000p-3, -0x1.e341e20000000p-3, 0x1.a56d260000000p-4, 0x1.3a83c20000000p-4, 0x1.e42b0a0000000p-4, -0x1.0946300000000p-3, 0x1.6322fa0000000p-3, 0x1.660d380000000p-4, 0x1.acbe1c0000000p-4, -0x1.30b9720000000p-3, -0x1.0c5f960000000p-5, 0x1.e66d360000000p-6, 0x1.aae5ac0000000p-5, -0x1.304b300000000p-3, -0x1.53aec80000000p-3, -0x1.2410a40000000p-2, 0x1.1dd2840000000p-3, 0x1.fce7ec0000000p-4, 0x1.981fc40000000p-5, 0x1.6727160000000p-3, -0x1.5ca2320000000p-4, -0x1.9d6caa0000000p-3, 0x1.0e49de0000000p-3, -0x1.a3c5de0000000p-3, 0x1.47940e0000000p-3, -0x1.92e2b60000000p-4, 0x1.3804cc0000000p-3, -0x1.7e11320000000p-3, 0x1.310d240000000p-3, -0x1.19ae0e0000000p-3, -0x1.58b4060000000p-3, 0x1.43bb4c0000000p-3, 0x1.7d21260000000p-5, -0x1.8aa6160000000p-3, 0x1.2554ba0000000p-3, 0x1.a852ea0000000p-4, -0x1.1e53be0000000p-2, -0x1.5c7a060000000p-3, -0x1.80cd940000000p-6, 0x1.e763320000000p-6, 0x1.4fba260000000p-4, 0x1.931c080000000p-8, 0x1.1665ce0000000p-3, 0x1.eea7fe0000000p-7, 0x1.6898bc0000000p-3, -0x1.20c8380000000p-3, 0x1.52cb020000000p-2, 0x1.7804e40000000p-4, -0x1.2d6b460000000p-3, 0x1.67231a0000000p-5, -0x1.ea97080000000p-4, -0x1.2c0e1a0000000p-5, -0x1.db87100000000p-4, 0x1.91411c0000000p-4, 0x1.35e5720000000p-3, -0x1.c1f14a0000000p-4, 0x1.555bc00000000p-3, -0x1.d809300000000p-7, -0x1.5f4c5a0000000p-2, 0x1.ea71820000000p-4, 0x1.013cda0000000p-3, -0x1.07a65a0000000p-6, -0x1.0d56f00000000p-3, -0x1.39b4b60000000p-3, -0x1.bc40ca0000000p-5, -0x1.03ab2e0000000p-2, 0x1.a702fc0000000p-5, 0x1.6c86900000000p-5, 0x1.43d2360000000p-3, -0x1.d609400000000p-4, 0x1.ba41d60000000p-4, -0x1.4172840000000p-3, -0x1.4928500000000p-5, -0x1.26b53a0000000p-2, 0x1.4667300000000p-7, -0x1.04ab1a0000000p-3, -0x1.9ec7ae0000000p-3, -0x1.37bad80000000p-3, -0x1.0d77580000000p-2, 0x1.99f26c0000000p-5, -0x1.311c640000000p-3, -0x1.f92ff00000000p-4, -0x1.7a026a0000000p-3, 0x1.c1eba80000000p-4, 0x1.868a5c0000000p-3, 0x1.cd08360000000p-5, -0x1.0c9dba0000000p-3, -0x1.d2c2820000000p-4, 0x1.3ed0360000000p-4, -0x1.32a8c60000000p-3, 0x1.ab10fa0000000p-4, -0x1.8220b00000000p-4, -0x1.1b48ae0000000p-4, 0x1.3926ee0000000p-4, 0x1.a60d860000000p-3, -0x1.2b74a40000000p-6, 0x1.d47ae80000000p-5, 0x1.a81e8c0000000p-3, 0x1.d860a80000000p-7, -0x1.5e1dd40000000p-3, -0x1.27e66a0000000p-4, 0x1.e1cffe0000000p-4, -0x1.9352ac0000000p-4, -0x1.ab9ef20000000p-3, -0x1.01dc500000000p-2, 0x1.f648580000000p-4}
, {-0x1.f367c80000000p-4, -0x1.02f56e0000000p-2, -0x1.f437fe0000000p-5, 0x1.0c69aa0000000p-2, -0x1.a9e9ca0000000p-7, -0x1.14d23e0000000p-7, -0x1.20ee540000000p-3, 0x1.1a13f20000000p-3, 0x1.1e48c00000000p-3, -0x1.9f85020000000p-4, 0x1.197d720000000p-3, 0x1.1d2bd40000000p-3, 0x1.2590ee0000000p-4, -0x1.351a500000000p-3, 0x1.9f28a60000000p-10, 0x1.f25bd20000000p-3, -0x1.5fc1d00000000p-3, -0x1.97776e0000000p-5, 0x1.eb83ea0000000p-4, 0x1.8308ae0000000p-3, -0x1.4d0a1c0000000p-2, 0x1.11398c0000000p-2, -0x1.8509a40000000p-2, -0x1.5852220000000p-4, 0x1.9697620000000p-6, 0x1.373f220000000p-2, -0x1.607aa00000000p-7, -0x1.ecfc240000000p-3, -0x1.6644de0000000p-3, -0x1.2f6cbe0000000p-3, 0x1.1988680000000p-2, -0x1.36ceb00000000p-4, -0x1.fa171e0000000p-3, 0x1.caecf20000000p-5, 0x1.8cb1480000000p-4, -0x1.98bf140000000p-4, 0x1.a784f20000000p-5, -0x1.f95d1e0000000p-6, 0x1.afbda80000000p-6, 0x1.77ce6c0000000p-5, -0x1.6cf6a80000000p-4, -0x1.a1ff080000000p-7, -0x1.48f8700000000p-2, 0x1.b115ac0000000p-5, 0x1.92351e0000000p-3, -0x1.dd694a0000000p-6, 0x1.3ad1140000000p-3, 0x1.efee040000000p-6, -0x1.07d9a80000000p-3, 0x1.f3faec0000000p-4, 0x1.122e7e0000000p-4, -0x1.680eba0000000p-3, 0x1.c757540000000p-3, 0x1.0cc4160000000p-3, -0x1.42b9fa0000000p-3, -0x1.2961da0000000p-3, 0x1.10b9e00000000p-3, 0x1.4199f00000000p-4, -0x1.016fc60000000p-2, -0x1.e12c640000000p-4, -0x1.6917b80000000p-2, -0x1.4548fe0000000p-3, 0x1.574fbe0000000p-5, -0x1.d538480000000p-5, 0x1.696a640000000p-3, -0x1.555e880000000p-8, 0x1.9dc0680000000p-4, -0x1.6adfba0000000p-6, 0x1.e82e900000000p-4, -0x1.801d4a0000000p-4, -0x1.7ddbb00000000p-8, -0x1.30f1160000000p-4, 0x1.3aeb340000000p-3, 0x1.2c9c220000000p-3, 0x1.691c020000000p-2, 0x1.a9de080000000p-4, 0x1.9c5ca40000000p-6, 0x1.410cd40000000p-3, 0x1.cdfcc00000000p-4, -0x1.0d3bb60000000p-2, -0x1.e14a780000000p-2, -0x1.2bf3160000000p-5, 0x1.dd67380000000p-3, 0x1.8589320000000p-2, -0x1.f3325c0000000p-3, 0x1.298f540000000p-3, -0x1.2a32da0000000p-4, -0x1.7d46460000000p-2, 0x1.64cefc0000000p-3, 0x1.3ed5780000000p-5, 0x1.1879ec0000000p-7, -0x1.222dae0000000p-3, -0x1.37af480000000p-2, -0x1.bfa2c20000000p-4, 0x1.56caa00000000p-3, -0x1.15eff20000000p-4, -0x1.22bfce0000000p-2, -0x1.df9a500000000p-12, 0x1.4087080000000p-3, -0x1.2d88300000000p-2, 0x1.133eac0000000p-3, 0x1.0378800000000p-2, 0x1.c8043e0000000p-8, -0x1.d798e20000000p-4, -0x1.5ad39c0000000p-4, -0x1.3605260000000p-3, -0x1.b6017a0000000p-4, -0x1.39d5a80000000p-6, 0x1.582f6a0000000p-5, -0x1.502c1e0000000p-5, 0x1.9281aa0000000p-5, 0x1.c62dca0000000p-8, 0x1.14298e0000000p-2, 0x1.fdc9960000000p-6, 0x1.2418500000000p-2, -0x1.520e640000000p-3, -0x1.c912b20000000p-2, -0x1.7188da0000000p-3, -0x1.028f860000000p-3, -0x1.3d48c40000000p-4, 0x1.7aa66c0000000p-2, 0x1.05b25a0000000p-3, -0x1.cba95c0000000p-4, -0x1.88723a0000000p-4, 0x1.4604c20000000p-3, -0x1.0babe60000000p-3, -0x1.6544980000000p-7, 0x1.04e5e20000000p-2}
, {-0x1.9c60e00000000p-4, -0x1.3a5d040000000p-4, -0x1.b3e9020000000p-6, 0x1.83440e0000000p-2, 0x1.0e49d40000000p-3, -0x1.4f1d300000000p-3, 0x1.c6320c0000000p-5, 0x1.55b4540000000p-4, -0x1.7e0bd00000000p-3, -0x1.0e44d80000000p-4, 0x1.b285460000000p-5, 0x1.3abb8c0000000p-3, 0x1.7ad29a0000000p-3, 0x1.7ea6380000000p-8, -0x1.36dcdc0000000p-5, -0x1.2800980000000p-5, 0x1.3085680000000p-3, -0x1.2a2eec0000000p-5, 0x1.99cd320000000p-5, -0x1.1b0a780000000p-2, 0x1.71d5980000000p-3, -0x1.3fb6c80000000p-4, 0x1.387ba40000000p-4, -0x1.45c3f00000000p-3, -0x1.3688d40000000p-5, -0x1.e2548a0000000p-4, 0x1.a80f640000000p-4, -0x1.c9c5520000000p-4, -0x1.2acbda0000000p-2, -0x1.0927160000000p-3, 0x1.923dba0000000p-4, -0x1.f161ee0000000p-7, -0x1.9ec9260000000p-3, -0x1.a3021c0000000p-3, 0x1.0509740000000p-2, -0x1.67722a0000000p-3, 0x1.cdfd3a0000000p-3, 0x1.99d5260000000p-3, -0x1.a979f00000000p-4, 0x1.70f5220000000p-4, 0x1.5dadaa0000000p-5, -0x1.1bac740000000p-3, -0x1.5046520000000p-3, -0x1.e3a4be0000000p-6, 0x1.16301c0000000p-3, -0x1.6be4740000000p-4, -0x1.63eaf60000000p-11, 0x1.2958ba0000000p-4, 0x1.0cc48e0000000p-3, 0x1.78087c0000000p-3, 0x1.adecf60000000p-3, 0x1.b86a580000000p-4, -0x1.1c059a0000000p-5, -0x1.db8d3e0000000p-4, -0x1.3ff76e0000000p-6, -0x1.0c6e4c0000000p-7, 0x1.378c660000000p-3, -0x1.3562420000000p-3, 0x1.8fae860000000p-5, -0x1.0832680000000p-4, 0x1.efbfb20000000p-4, 0x1.7b82700000000p-3, -0x1.27c6820000000p-2, -0x1.8f93da0000000p-4, 0x1.6372080000000p-3, 0x1.e4765a0000000p-3, -0x1.32da5e0000000p-4, 0x1.11df240000000p-4, -0x1.66b3680000000p-3, 0x1.fbe0300000000p-3, -0x1.9e83b40000000p-3, -0x1.3128820000000p-3, -0x1.cf67ca0000000p-3, 0x1.4bc6b40000000p-4, -0x1.8ada920000000p-7, -0x1.552fe40000000p-3, 0x1.b160ea0000000p-4, 0x1.c496e80000000p-4, -0x1.66c7640000000p-6, 0x1.f937540000000p-5, 0x1.4effd60000000p-3, -0x1.fead440000000p-4, -0x1.2710ec0000000p-6, 0x1.f9c1ea0000000p-4, 0x1.a492080000000p-3, 0x1.6c7c600000000p-8, -0x1.44cb4a0000000p-4, -0x1.d59d720000000p-4, 0x1.29f0580000000p-3, -0x1.05d6000000000p-7, 0x1.2402420000000p-5, -0x1.607e360000000p-4, 0x1.0d95600000000p-4, 0x1.1e69e60000000p-5, -0x1.ad415c0000000p-3, 0x1.f172320000000p-5, -0x1.25896a0000000p-6, 0x1.f243c00000000p-4, -0x1.1ec7ae0000000p-6, -0x1.0662a80000000p-3, -0x1.5aee5e0000000p-4, 0x1.34450e0000000p-4, -0x1.13d4560000000p-4, -0x1.98f8d80000000p-4, 0x1.02a9de0000000p-4, -0x1.7d24700000000p-2, 0x1.d373800000000p-3, -0x1.3c2ea80000000p-3, 0x1.541d400000000p-4, -0x1.11dd280000000p-6, 0x1.4d93d40000000p-6, 0x1.5c72020000000p-4, -0x1.5c40ba0000000p-3, -0x1.b0dbec0000000p-5, -0x1.39cd4c0000000p-3, 0x1.1975e60000000p-4, -0x1.2f856a0000000p-6, -0x1.0153a40000000p-3, -0x1.1276460000000p-3, 0x1.3293fe0000000p-4, 0x1.bca5620000000p-3, -0x1.98c4e40000000p-6, 0x1.e9860e0000000p-4, 0x1.3a2a8a0000000p-4, -0x1.1e50d80000000p-3, -0x1.08e5ee0000000p-5, 0x1.53a18e0000000p-3, -0x1.e5880c0000000p-4}
