/**
  ******************************************************************************
  * @file    weights/fc.cc
  * @author  Pierre-Emmanuel Novac <penovac@unice.fr>, LEAT, CNRS, Université Côte d'Azur, France
  * @version 1.0.0
  * @date    24 march 2020
  * @brief   Template generating plain C code for the implementation of Convolutional Neural Networks on MCU
  */

#include <stdint.h>

#define INPUT_SAMPLES 256
#define FC_UNITS 128


const float dense_19_bias[FC_UNITS] = {0x1.3440ca0000000p-4, 0x1.023b1e0000000p-4, 0x1.1d68640000000p-4, 0x1.278a680000000p-4, 0x1.d53b400000000p-5, 0x1.403b180000000p-4, 0x1.db33d20000000p-4, 0x1.3e1ab60000000p-5, 0x1.9745dc0000000p-6, -0x1.4f8ba80000000p-7, -0x1.6188740000000p-8, 0x1.893d580000000p-8, 0x1.80dcd40000000p-5, -0x1.958da80000000p-5, 0x1.8a7b940000000p-6, 0x1.8a2efc0000000p-4, 0x1.5ad2100000000p-6, 0x1.abadea0000000p-4, 0x1.d17d540000000p-6, -0x1.a936080000000p-7, -0x1.0cf8c80000000p-4, -0x1.4254a60000000p-9, 0x1.338fd40000000p-4, -0x1.0527c20000000p-6, 0x1.0c7d1c0000000p-3, -0x1.0e7c220000000p-5, 0x1.51ccb40000000p-4, 0x1.af7cf00000000p-5, 0x1.9c43f20000000p-4, 0x1.11b7980000000p-7, -0x1.6e22f60000000p-5, -0x1.952abe0000000p-7, -0x1.4a09240000000p-7, 0x1.c15d4c0000000p-7, 0x1.378cb00000000p-5, 0x1.3237760000000p-5, -0x1.18c2f40000000p-14, 0x1.42a36a0000000p-4, 0x1.0f16380000000p-5, 0x1.ae5a3c0000000p-4, -0x1.96f20e0000000p-5, 0x1.37d6720000000p-5, -0x1.2c305e0000000p-7, -0x1.956e720000000p-7, -0x1.e7dde40000000p-10, -0x1.6e7c4a0000000p-5, -0x1.3bed360000000p-6, -0x1.2c57120000000p-5, -0x1.a4dd4e0000000p-5, 0x1.d344340000000p-5, -0x1.a155980000000p-5, 0x1.9a46020000000p-8, 0x1.852c9e0000000p-4, 0x1.ce18880000000p-5, -0x1.0cecd60000000p-9, -0x1.f79d780000000p-10, -0x1.76c8840000000p-7, 0x1.7744240000000p-7, -0x1.27264e0000000p-4, 0x1.1196100000000p-10, 0x1.d6d2b60000000p-4, 0x1.7033a80000000p-5, 0x1.cfb5560000000p-5, 0x1.7972580000000p-5, 0x1.b0e51a0000000p-5, 0x1.024ef40000000p-5, -0x1.f8968e0000000p-8, 0x1.2fbee40000000p-4, 0x1.699fc00000000p-4, 0x1.7885920000000p-5, 0x1.4882820000000p-5, 0x1.63e7c20000000p-4, 0x1.3d15b80000000p-4, -0x1.8c5b100000000p-8, 0x1.3387e00000000p-5, 0x1.b304580000000p-7, -0x1.8d315c0000000p-5, 0x1.b0402c0000000p-4, -0x1.5c04f20000000p-5, -0x1.ed714a0000000p-7, 0x1.6511620000000p-4, 0x1.01c06e0000000p-5, -0x1.98d5020000000p-6, 0x1.17486c0000000p-6, 0x1.dabd8e0000000p-6, 0x1.1698ee0000000p-5, 0x1.ded6b80000000p-5, 0x1.328a5e0000000p-4, 0x1.5085460000000p-8, 0x1.3f99960000000p-5, -0x1.b1d3e20000000p-7, -0x1.84e3620000000p-10, 0x1.2528080000000p-6, -0x1.7420340000000p-7, -0x1.1cb66a0000000p-6, 0x1.57e3e00000000p-5, 0x1.fa0ab60000000p-5, 0x1.905e140000000p-5, -0x1.a303260000000p-6, 0x1.7ea7a40000000p-5, -0x1.e8503c0000000p-9, -0x1.79d33e0000000p-6, 0x1.7f86d20000000p-4, -0x1.7424320000000p-7, -0x1.6b6e420000000p-14, 0x1.096c040000000p-4, 0x1.2ec33a0000000p-4, -0x1.f477a60000000p-8, 0x1.19aab40000000p-4, 0x1.81b9580000000p-5, 0x1.bfef320000000p-6, 0x1.37249a0000000p-4, 0x1.3f52c60000000p-5, 0x1.e74b920000000p-6, 0x1.03198a0000000p-5, 0x1.65ffca0000000p-5, 0x1.e4ed6c0000000p-5, 0x1.29d5bc0000000p-4, -0x1.c1b0520000000p-5, 0x1.b03e560000000p-7, 0x1.8252fe0000000p-4, 0x1.3ee5440000000p-8, 0x1.3f7ac00000000p-4, 0x1.8268220000000p-5, -0x1.2568760000000p-7, -0x1.a5aef00000000p-6, 0x1.c1dea00000000p-4, 0x1.a0509e0000000p-6}
;

const float dense_19_kernel[FC_UNITS][INPUT_SAMPLES] = {{-0x1.d8b1ba0000000p-4, 0x1.5b43dc0000000p-3, 0x1.0dcea40000000p-4, -0x1.dfff6a0000000p-5, -0x1.65523a0000000p-5, 0x1.2ef7180000000p-3, 0x1.c146560000000p-5, 0x1.04185e0000000p-2, 0x1.2fac1c0000000p-3, -0x1.a6442c0000000p-4, 0x1.b8ab620000000p-4, 0x1.8f237a0000000p-4, 0x1.e8b5b60000000p-4, 0x1.6a03040000000p-5, 0x1.0324640000000p-5, 0x1.981ad20000000p-5, -0x1.7eda720000000p-6, 0x1.3a754e0000000p-3, 0x1.b4cd2c0000000p-4, 0x1.1986140000000p-3, 0x1.d2fe7c0000000p-5, -0x1.f00bf00000000p-4, 0x1.59c6820000000p-5, 0x1.7becca0000000p-3, 0x1.d9f0580000000p-4, 0x1.2af9f60000000p-5, 0x1.10ad600000000p-5, -0x1.0a3fe00000000p-4, 0x1.23c1880000000p-3, 0x1.37e8e00000000p-7, 0x1.2b63d20000000p-4, 0x1.8b342c0000000p-4, 0x1.95c9620000000p-5, 0x1.5312c20000000p-6, 0x1.1e69ea0000000p-3, -0x1.51c1540000000p-3, 0x1.fab5100000000p-5, 0x1.ad45840000000p-5, -0x1.7275640000000p-7, 0x1.31573e0000000p-8, 0x1.5334520000000p-5, 0x1.33eeb60000000p-10, 0x1.ae5afa0000000p-4, -0x1.d3bd380000000p-4, -0x1.c60b160000000p-5, 0x1.124a440000000p-7, -0x1.18a5520000000p-4, 0x1.d037c60000000p-4, -0x1.142bc20000000p-4, 0x1.3b4c560000000p-3, 0x1.9898b40000000p-5, -0x1.4edb860000000p-5, -0x1.17df260000000p-3, 0x1.670a600000000p-4, 0x1.2640b60000000p-4, -0x1.3156d40000000p-3, 0x1.f435100000000p-5, -0x1.57ffd20000000p-5, -0x1.7ba1260000000p-4, -0x1.96569a0000000p-10, -0x1.0cee8a0000000p-4, -0x1.38f5400000000p-4, 0x1.8eeb700000000p-4, -0x1.9a188e0000000p-5, 0x1.2f2ec60000000p-8, 0x1.835b7e0000000p-4, -0x1.1367820000000p-4, 0x1.681ccc0000000p-3, 0x1.230ee60000000p-6, 0x1.c859200000000p-5, -0x1.4664580000000p-4, -0x1.bb33340000000p-7, 0x1.c25c680000000p-5, 0x1.2f50e60000000p-5, -0x1.27bfb80000000p-5, 0x1.0b842e0000000p-4, -0x1.27f1cc0000000p-4, 0x1.abf1b00000000p-4, 0x1.f3fc7a0000000p-6, 0x1.5f17a60000000p-3, 0x1.1e6d800000000p-5, -0x1.585f460000000p-5, 0x1.7a7c320000000p-3, -0x1.2799460000000p-4, 0x1.07ad2a0000000p-4, 0x1.319b920000000p-6, -0x1.3bd1520000000p-4, 0x1.e05fda0000000p-6, 0x1.4d51a60000000p-3, 0x1.6402180000000p-4, -0x1.b3850a0000000p-6, 0x1.437d6e0000000p-5, -0x1.3badf60000000p-3, 0x1.25e5280000000p-3, 0x1.79e4500000000p-5, 0x1.4994620000000p-3, -0x1.725f3a0000000p-4, 0x1.5dfa460000000p-4, -0x1.2e95ec0000000p-4, -0x1.1c7b080000000p-5, -0x1.c6a76a0000000p-3, -0x1.5b72240000000p-7, 0x1.24fad80000000p-6, -0x1.30bcd80000000p-6, -0x1.2b5f140000000p-4, -0x1.68f1ee0000000p-6, -0x1.cf32420000000p-4, -0x1.336ad00000000p-5, -0x1.0ba1b00000000p-3, -0x1.4589740000000p-4, -0x1.cfbbac0000000p-4, 0x1.51d4260000000p-3, 0x1.3f63620000000p-4, -0x1.ccc0980000000p-11, 0x1.cc5cb80000000p-5, -0x1.1618bc0000000p-4, 0x1.b442e80000000p-4, 0x1.420bf60000000p-4, 0x1.32816e0000000p-5, 0x1.eec2300000000p-6, -0x1.21306a0000000p-5, 0x1.3327da0000000p-4, -0x1.ac20b40000000p-6, -0x1.68b9f40000000p-4, -0x1.0c05940000000p-7, -0x1.1146140000000p-3, 0x1.a8569e0000000p-4, -0x1.e9ffd00000000p-5, -0x1.9d9c760000000p-6, -0x1.2b488a0000000p-3, -0x1.e22fc60000000p-5, -0x1.2587940000000p-3, -0x1.4d04f20000000p-5, 0x1.491e660000000p-8, 0x1.3828160000000p-5, 0x1.3b7a860000000p-4, 0x1.4502920000000p-3, 0x1.1834d60000000p-5, -0x1.173b080000000p-4, 0x1.59df960000000p-4, -0x1.08f86a0000000p-4, 0x1.1e61600000000p-4, -0x1.049dfe0000000p-3, 0x1.aed9140000000p-5, 0x1.896a9a0000000p-6, -0x1.eca2980000000p-5, 0x1.14de880000000p-5, -0x1.ad4cee0000000p-7, -0x1.82bc1e0000000p-4, 0x1.a5d5ba0000000p-4, 0x1.37f46e0000000p-7, -0x1.83635a0000000p-4, 0x1.3d56000000000p-5, -0x1.ec61860000000p-4, -0x1.d6dafc0000000p-7, 0x1.892aa40000000p-6, -0x1.9a99340000000p-5, -0x1.de93880000000p-6, -0x1.d30a0c0000000p-6, 0x1.8a5d780000000p-3, 0x1.64557e0000000p-5, -0x1.c92c120000000p-5, -0x1.4576540000000p-7, -0x1.bfe2de0000000p-5, -0x1.d4ede60000000p-4, -0x1.409f6c0000000p-14, -0x1.f02a0a0000000p-3, 0x1.1203680000000p-4, 0x1.0c64440000000p-3, 0x1.07dfba0000000p-5, 0x1.9ee08a0000000p-4, -0x1.7eb8300000000p-5, 0x1.0fab020000000p-5, 0x1.feb02e0000000p-5, 0x1.bf57ac0000000p-5, 0x1.0c1f340000000p-7, -0x1.155aac0000000p-5, -0x1.f16f2a0000000p-8, -0x1.81e4b40000000p-3, -0x1.14cece0000000p-4, 0x1.b154dc0000000p-4, 0x1.bdfee80000000p-4, 0x1.14b5c00000000p-3, 0x1.05d4a00000000p-3, -0x1.e08e880000000p-4, 0x1.8414240000000p-4, 0x1.f829c40000000p-5, 0x1.76645a0000000p-6, 0x1.2992e20000000p-3, 0x1.3ed7b80000000p-4, -0x1.45d30c0000000p-4, -0x1.99e6da0000000p-3, 0x1.a0707e0000000p-4, 0x1.cc52860000000p-7, 0x1.360fec0000000p-5, 0x1.3e949a0000000p-5, 0x1.1c9bbe0000000p-3, 0x1.54c1d60000000p-3, 0x1.4d8c1e0000000p-4, 0x1.62f6de0000000p-6, -0x1.9a1fc00000000p-4, -0x1.e00bde0000000p-4, -0x1.82f4e00000000p-4, -0x1.911b1a0000000p-6, 0x1.ac518e0000000p-5, 0x1.d6359c0000000p-4, -0x1.5a9b0e0000000p-6, 0x1.32fb9c0000000p-5, -0x1.6c30600000000p-4, 0x1.689d480000000p-5, 0x1.2bca5e0000000p-6, -0x1.8e3d340000000p-5, -0x1.335b1a0000000p-4, 0x1.f1dae40000000p-5, 0x1.57cba60000000p-5, -0x1.ffde620000000p-4, 0x1.8da2d00000000p-4, 0x1.2d00060000000p-4, 0x1.14e49a0000000p-5, 0x1.3874720000000p-5, 0x1.b31c220000000p-7, 0x1.7eb8640000000p-5, -0x1.27e7800000000p-7, -0x1.0c11420000000p-4, 0x1.3aad9e0000000p-4, -0x1.2f430a0000000p-6, 0x1.bb408a0000000p-4, 0x1.b4ad100000000p-7, 0x1.c5c2ce0000000p-5, 0x1.367c100000000p-6, -0x1.0a61a20000000p-7, -0x1.b82e9e0000000p-5, 0x1.66c8d20000000p-3, -0x1.9d76cc0000000p-4, -0x1.c92c580000000p-7, -0x1.5428da0000000p-3, -0x1.13b8720000000p-4, 0x1.7f36700000000p-5, 0x1.b6edd40000000p-5, -0x1.03e31c0000000p-4, 0x1.13dfc20000000p-3, -0x1.144d480000000p-5, 0x1.4c569e0000000p-6, -0x1.070e3a0000000p-4, 0x1.d8353c0000000p-5, -0x1.2d3f6e0000000p-7, -0x1.417ff40000000p-4, 0x1.473f1c0000000p-9, 0x1.7716600000000p-5, -0x1.ed9fe80000000p-6, 0x1.16cdf80000000p-3, -0x1.54bd800000000p-3, 0x1.8299f40000000p-3, 0x1.c3cf100000000p-3, -0x1.d28dbe0000000p-6, 0x1.04a7fa0000000p-3}
, {-0x1.88d2a20000000p-5, -0x1.8786d00000000p-4, -0x1.00bbaa0000000p-8, -0x1.3ef1140000000p-5, -0x1.0f2df40000000p-2, -0x1.a1e6e00000000p-4, 0x1.2bbea40000000p-3, 0x1.3128ae0000000p-4, 0x1.acd45e0000000p-4, 0x1.66b9d00000000p-4, 0x1.4b5c300000000p-5, 0x1.310fea0000000p-11, -0x1.85c1f60000000p-4, 0x1.52f3c80000000p-4, -0x1.460bbc0000000p-7, 0x1.c622a00000000p-5, -0x1.5abe4c0000000p-5, 0x1.05522e0000000p-5, 0x1.0208a80000000p-3, 0x1.ee41500000000p-4, -0x1.b92a480000000p-5, 0x1.215b3a0000000p-4, 0x1.50f1260000000p-4, 0x1.bc993c0000000p-6, 0x1.afe82a0000000p-4, 0x1.3954280000000p-4, 0x1.03623a0000000p-5, 0x1.5fc7d20000000p-10, -0x1.b6f5640000000p-4, 0x1.e009100000000p-4, 0x1.5c0d4a0000000p-5, 0x1.9db2d00000000p-5, -0x1.126a940000000p-3, 0x1.3682d60000000p-4, -0x1.bbd45e0000000p-6, -0x1.0a1b620000000p-4, 0x1.703cd20000000p-8, -0x1.81004a0000000p-4, 0x1.de76b00000000p-4, -0x1.479ace0000000p-4, 0x1.b006960000000p-4, 0x1.664ac00000000p-5, 0x1.e27da00000000p-7, 0x1.8b80380000000p-5, 0x1.afd8d80000000p-7, -0x1.ac52200000000p-4, -0x1.fe92940000000p-7, -0x1.1c97a40000000p-4, 0x1.1751780000000p-5, -0x1.15ce100000000p-5, 0x1.64df7c0000000p-6, -0x1.3e16a00000000p-4, 0x1.f47c800000000p-8, -0x1.2295bc0000000p-4, -0x1.0c80a20000000p-3, 0x1.abd2a80000000p-3, -0x1.7007de0000000p-4, -0x1.6ab1740000000p-7, 0x1.b83fdc0000000p-4, 0x1.b5da4a0000000p-4, -0x1.54b3920000000p-9, -0x1.8571120000000p-4, -0x1.08f6d00000000p-3, 0x1.1432fa0000000p-3, 0x1.4f13440000000p-3, -0x1.ac06140000000p-9, 0x1.47d0dc0000000p-4, 0x1.b10c780000000p-4, -0x1.02eefc0000000p-5, -0x1.2414bc0000000p-2, 0x1.f0a9320000000p-4, 0x1.ac10820000000p-4, -0x1.4f11e00000000p-5, 0x1.ceaae80000000p-4, 0x1.c1da180000000p-4, -0x1.5269ea0000000p-3, 0x1.35fea80000000p-4, -0x1.138cd80000000p-4, -0x1.df93380000000p-5, -0x1.d21d380000000p-4, 0x1.7754200000000p-4, -0x1.aaa5140000000p-5, 0x1.9c3f620000000p-4, 0x1.0d01aa0000000p-9, -0x1.7aadf80000000p-7, -0x1.19dd720000000p-3, -0x1.4b0a560000000p-3, -0x1.2d79f20000000p-4, 0x1.afadaa0000000p-5, -0x1.6126c20000000p-3, 0x1.c1594c0000000p-7, 0x1.8bfce00000000p-3, -0x1.3d8df60000000p-8, 0x1.74e2a60000000p-6, 0x1.e6afcc0000000p-5, -0x1.2e63b80000000p-3, 0x1.eeb8160000000p-5, -0x1.1575220000000p-3, 0x1.089ef40000000p-7, 0x1.eb0ff40000000p-4, 0x1.24429e0000000p-3, -0x1.41196c0000000p-4, 0x1.8e54000000000p-4, 0x1.4880480000000p-6, -0x1.6f99880000000p-4, -0x1.480fb80000000p-7, -0x1.2862a80000000p-5, -0x1.0f9c1a0000000p-3, -0x1.0964a40000000p-3, 0x1.f224360000000p-10, -0x1.10e3060000000p-4, 0x1.8da96a0000000p-4, -0x1.7590ae0000000p-5, -0x1.0f72860000000p-7, 0x1.65005a0000000p-5, -0x1.0b15900000000p-7, -0x1.19d9800000000p-4, -0x1.4153e00000000p-3, 0x1.5de84e0000000p-6, -0x1.cd9ca80000000p-4, -0x1.3c7e6a0000000p-6, -0x1.69b0b80000000p-4, 0x1.43d5f20000000p-4, -0x1.70dcf20000000p-9, 0x1.8ca2260000000p-6, -0x1.d735d00000000p-5, 0x1.0caac40000000p-3, 0x1.18d4340000000p-3, 0x1.1d71860000000p-4, -0x1.a652a60000000p-8, -0x1.041aee0000000p-4, 0x1.52188a0000000p-4, 0x1.0c46de0000000p-9, 0x1.35052a0000000p-8, 0x1.dd4cea0000000p-7, -0x1.d1d5cc0000000p-4, -0x1.06f3a60000000p-5, 0x1.c24f720000000p-4, -0x1.d04b040000000p-4, 0x1.d673c00000000p-5, 0x1.48d5140000000p-4, 0x1.e162c60000000p-4, 0x1.8282360000000p-4, -0x1.a4bc540000000p-4, 0x1.38125e0000000p-4, -0x1.7a54e40000000p-4, 0x1.dcab160000000p-4, -0x1.fa18320000000p-4, 0x1.3b62860000000p-4, 0x1.41c7de0000000p-4, 0x1.7b7aee0000000p-3, -0x1.3c8ed80000000p-4, -0x1.b6a6280000000p-5, -0x1.55cfbe0000000p-4, 0x1.1e7b120000000p-4, -0x1.0900c80000000p-3, -0x1.0fb9ec0000000p-6, 0x1.bfc0120000000p-3, -0x1.1370280000000p-5, 0x1.0bb6720000000p-4, -0x1.c2290c0000000p-6, -0x1.c442620000000p-4, -0x1.d6d8160000000p-5, -0x1.9c4a9a0000000p-4, 0x1.6730180000000p-4, -0x1.6c263c0000000p-5, 0x1.42912a0000000p-3, 0x1.0994c80000000p-4, -0x1.5c56f20000000p-4, -0x1.3c2da20000000p-9, 0x1.9863bc0000000p-7, 0x1.15ba780000000p-3, -0x1.1331640000000p-4, -0x1.93309a0000000p-4, -0x1.a418600000000p-7, 0x1.57cc780000000p-4, -0x1.4172300000000p-3, 0x1.5282780000000p-6, 0x1.c6a14c0000000p-4, -0x1.3f46f20000000p-4, -0x1.8602da0000000p-4, 0x1.f3e1760000000p-4, 0x1.a214f60000000p-4, -0x1.ac9ca20000000p-3, 0x1.0fab9a0000000p-3, 0x1.0b46b00000000p-3, -0x1.a1ec420000000p-5, -0x1.231aec0000000p-4, 0x1.0438d20000000p-4, 0x1.7d56020000000p-8, -0x1.6e112a0000000p-3, 0x1.08efd60000000p-5, 0x1.b67fd00000000p-4, 0x1.a302440000000p-5, -0x1.5031fe0000000p-8, 0x1.019c700000000p-3, -0x1.dd6b2a0000000p-4, 0x1.13dbd60000000p-6, -0x1.9787c60000000p-4, 0x1.8ad8500000000p-6, -0x1.d9efe60000000p-7, -0x1.aa47d40000000p-4, -0x1.e6c6ac0000000p-4, -0x1.7c28cc0000000p-7, -0x1.22b48a0000000p-3, 0x1.6589a80000000p-9, 0x1.17c71e0000000p-6, -0x1.f5f9f00000000p-7, -0x1.c3279a0000000p-4, 0x1.8170680000000p-6, 0x1.aacc600000000p-4, 0x1.ece28c0000000p-4, 0x1.86e81c0000000p-4, 0x1.7161b20000000p-4, -0x1.2087c40000000p-4, 0x1.37f07e0000000p-4, -0x1.2110e40000000p-4, -0x1.2feef80000000p-6, -0x1.2a51120000000p-4, 0x1.05c6ae0000000p-5, -0x1.15c85e0000000p-3, 0x1.d1bd1e0000000p-5, 0x1.ae8a460000000p-4, 0x1.ddb5f80000000p-5, 0x1.3b6f460000000p-7, -0x1.6ed9b00000000p-9, 0x1.17c1e80000000p-3, -0x1.e4a9f00000000p-4, 0x1.960d4e0000000p-4, 0x1.1e851e0000000p-6, -0x1.7d4e560000000p-4, 0x1.665d880000000p-4, -0x1.8f349e0000000p-6, -0x1.1024c20000000p-3, 0x1.6a3a9c0000000p-4, 0x1.1ef19a0000000p-6, -0x1.822f280000000p-4, -0x1.7ac43a0000000p-4, -0x1.c57b2e0000000p-4, -0x1.b7948a0000000p-4, -0x1.33e6820000000p-4, 0x1.3924400000000p-3, -0x1.a353100000000p-5, 0x1.a3ce480000000p-5, -0x1.3026600000000p-4, -0x1.fc2a880000000p-4, -0x1.e86eee0000000p-6, 0x1.279e900000000p-3, -0x1.346c5e0000000p-3, -0x1.17b69e0000000p-3, 0x1.ea108c0000000p-5, 0x1.86546a0000000p-3, -0x1.f744dc0000000p-5, 0x1.3fe2420000000p-7, 0x1.57ccf60000000p-6, -0x1.402ef80000000p-3}
, {0x1.b7849e0000000p-5, 0x1.3398240000000p-3, 0x1.52ded00000000p-6, 0x1.5ed5a40000000p-6, 0x1.3c39820000000p-4, -0x1.0e4b140000000p-4, -0x1.0a1bf20000000p-4, 0x1.43cdf80000000p-2, -0x1.2b5d880000000p-4, 0x1.dc03200000000p-4, 0x1.5e31480000000p-5, -0x1.1c3aa60000000p-4, -0x1.46e1c80000000p-5, 0x1.bfb8900000000p-6, 0x1.e3b7ba0000000p-4, 0x1.8244dc0000000p-6, -0x1.f369060000000p-7, -0x1.127bce0000000p-4, 0x1.8f20c40000000p-4, 0x1.3161a20000000p-4, 0x1.498c660000000p-5, -0x1.7303660000000p-8, 0x1.49ae480000000p-5, 0x1.73358e0000000p-6, -0x1.2f1ecc0000000p-5, -0x1.49c5300000000p-4, 0x1.b7a9b60000000p-5, 0x1.59c68c0000000p-6, 0x1.1929e20000000p-4, 0x1.48c7520000000p-5, -0x1.1f42500000000p-3, -0x1.8c3cac0000000p-4, 0x1.326f1c0000000p-4, 0x1.1913840000000p-7, 0x1.4243860000000p-5, -0x1.2f8dd00000000p-4, -0x1.e2014c0000000p-6, -0x1.29d9b20000000p-5, -0x1.324f560000000p-4, 0x1.7269540000000p-4, 0x1.b170e80000000p-5, 0x1.420a660000000p-4, 0x1.1a7bbe0000000p-3, -0x1.d036d80000000p-6, -0x1.77443a0000000p-9, -0x1.9b8dde0000000p-4, -0x1.2714f80000000p-5, 0x1.4b09420000000p-5, -0x1.e44ed20000000p-4, -0x1.4a92f00000000p-5, -0x1.7375660000000p-9, 0x1.55dfc60000000p-4, -0x1.ff3bae0000000p-5, 0x1.12bbd20000000p-3, -0x1.f6e9600000000p-5, -0x1.1696060000000p-3, -0x1.d3fd540000000p-5, 0x1.6315a60000000p-4, 0x1.30215c0000000p-4, -0x1.a48d740000000p-3, -0x1.05f6480000000p-4, 0x1.1610560000000p-3, -0x1.b6d28c0000000p-8, 0x1.8a4adc0000000p-4, 0x1.0d489e0000000p-6, -0x1.13c7480000000p-8, -0x1.6cd7140000000p-7, -0x1.1409400000000p-6, -0x1.478e340000000p-4, 0x1.1659480000000p-3, 0x1.1a428e0000000p-6, 0x1.e691d20000000p-6, -0x1.b68adc0000000p-8, 0x1.0f204e0000000p-5, 0x1.6272b00000000p-4, 0x1.26d0060000000p-3, -0x1.e67d640000000p-4, 0x1.63ab240000000p-5, -0x1.2cf25c0000000p-4, -0x1.b2fcc80000000p-4, -0x1.8f7f080000000p-5, 0x1.0c03020000000p-3, 0x1.9b8d0a0000000p-5, 0x1.d010220000000p-7, -0x1.371b840000000p-4, 0x1.f1b8ee0000000p-5, -0x1.17a5da0000000p-5, 0x1.c93fd40000000p-7, -0x1.64cf320000000p-7, 0x1.187d020000000p-4, 0x1.1233860000000p-5, -0x1.e01aa80000000p-4, -0x1.eafd8a0000000p-6, -0x1.2c436e0000000p-5, 0x1.5c76060000000p-4, 0x1.fd23740000000p-4, 0x1.d46b620000000p-5, 0x1.448c540000000p-4, -0x1.04d0040000000p-4, 0x1.b35e460000000p-7, -0x1.7471080000000p-3, -0x1.6406720000000p-4, 0x1.6c3fa40000000p-5, -0x1.87f58e0000000p-6, -0x1.e412fe0000000p-5, 0x1.1854dc0000000p-6, -0x1.03e4600000000p-4, 0x1.e0aeca0000000p-4, -0x1.db1e9c0000000p-4, -0x1.b970140000000p-6, -0x1.6583ea0000000p-3, 0x1.fef70e0000000p-4, 0x1.8164de0000000p-6, -0x1.1b0e8e0000000p-5, -0x1.4c48980000000p-4, 0x1.ec5eac0000000p-4, -0x1.d4b1f80000000p-4, 0x1.bbf9860000000p-3, 0x1.5587be0000000p-5, 0x1.b842b00000000p-6, 0x1.f2244c0000000p-8, -0x1.ce50240000000p-4, 0x1.05b6ca0000000p-4, -0x1.1b1ef20000000p-8, 0x1.282f7e0000000p-3, -0x1.21bf060000000p-3, 0x1.df9b7e0000000p-4, -0x1.e1b9700000000p-4, 0x1.e0f6e80000000p-5, 0x1.4943860000000p-6, -0x1.f1d3220000000p-11, 0x1.0192d00000000p-3, -0x1.5686c60000000p-4, 0x1.042e5a0000000p-6, 0x1.58a4340000000p-4, 0x1.fbcc420000000p-9, 0x1.3b97c80000000p-4, -0x1.13d5b80000000p-3, 0x1.fb42680000000p-6, 0x1.4fbec80000000p-6, 0x1.79401e0000000p-5, 0x1.9ea1c60000000p-4, 0x1.6386700000000p-4, 0x1.49b9340000000p-4, -0x1.4951500000000p-9, 0x1.8cb3800000000p-4, -0x1.18fb620000000p-5, -0x1.d78c740000000p-5, -0x1.a985be0000000p-5, -0x1.0089a80000000p-5, 0x1.1323000000000p-8, 0x1.5bd1f20000000p-4, 0x1.569b3c0000000p-5, 0x1.3fec040000000p-4, -0x1.22a34a0000000p-7, 0x1.7c3f400000000p-3, 0x1.37f91e0000000p-4, 0x1.3d43b40000000p-4, -0x1.163f380000000p-4, -0x1.860e1e0000000p-6, -0x1.65bb3e0000000p-6, 0x1.6167600000000p-5, 0x1.247a840000000p-5, -0x1.1beae20000000p-4, -0x1.976b860000000p-4, -0x1.1395de0000000p-3, -0x1.1de9780000000p-3, 0x1.7b95100000000p-6, -0x1.a485920000000p-5, 0x1.91173a0000000p-4, 0x1.3998800000000p-4, -0x1.f7ce480000000p-6, -0x1.4256960000000p-4, -0x1.c296d80000000p-6, 0x1.63cc3c0000000p-4, -0x1.2e00600000000p-4, -0x1.fea1ae0000000p-5, -0x1.5687d00000000p-12, 0x1.3c278e0000000p-3, 0x1.cce57c0000000p-5, -0x1.db3a720000000p-5, 0x1.549d4c0000000p-5, -0x1.0278140000000p-4, 0x1.f570b60000000p-6, 0x1.85e8660000000p-3, 0x1.2b26220000000p-3, -0x1.2e331a0000000p-4, 0x1.0805d40000000p-3, 0x1.bf9d920000000p-3, -0x1.046c5e0000000p-6, 0x1.fd62ba0000000p-5, -0x1.15ab5c0000000p-6, 0x1.6792280000000p-4, 0x1.926df00000000p-5, -0x1.bbe7ce0000000p-4, -0x1.596a720000000p-5, 0x1.edc93e0000000p-4, -0x1.b57f8e0000000p-6, -0x1.3fb3c40000000p-4, -0x1.6e55800000000p-3, -0x1.6282c00000000p-5, 0x1.7329720000000p-9, -0x1.349e7a0000000p-3, -0x1.1a1e520000000p-3, -0x1.1e24b80000000p-4, 0x1.6ceb2a0000000p-4, -0x1.e0a14a0000000p-6, -0x1.86550c0000000p-6, 0x1.8ef0680000000p-9, -0x1.7544be0000000p-3, 0x1.057d4e0000000p-5, -0x1.e310b20000000p-4, 0x1.149d460000000p-4, -0x1.bc31ee0000000p-5, 0x1.c68bbc0000000p-6, -0x1.da2f720000000p-5, 0x1.0a50f00000000p-3, 0x1.5a68540000000p-7, 0x1.5a826e0000000p-4, 0x1.1501c20000000p-3, 0x1.7bba6e0000000p-5, 0x1.1397f40000000p-7, -0x1.02602c0000000p-6, 0x1.b593c00000000p-4, 0x1.c712e20000000p-5, -0x1.1219e80000000p-5, 0x1.3aab8a0000000p-5, 0x1.99cb1e0000000p-4, -0x1.029bfa0000000p-5, -0x1.0c1c660000000p-5, 0x1.13c8ac0000000p-5, -0x1.87871e0000000p-4, 0x1.35899e0000000p-3, -0x1.14ebdc0000000p-6, 0x1.1f59520000000p-7, -0x1.b1a9e00000000p-4, 0x1.70e8ce0000000p-4, 0x1.420efe0000000p-9, 0x1.3195400000000p-6, 0x1.bc1a220000000p-5, 0x1.0aa7bc0000000p-4, 0x1.a3339a0000000p-6, -0x1.d519320000000p-4, 0x1.68777e0000000p-5, 0x1.b0b3200000000p-4, -0x1.dbe1d00000000p-4, 0x1.6f9f480000000p-6, 0x1.7ef0180000000p-4, -0x1.4b3d500000000p-8, -0x1.88c87a0000000p-4, -0x1.2a49fc0000000p-3, -0x1.ccdc8c0000000p-3, 0x1.5399fc0000000p-3, 0x1.0085280000000p-2, -0x1.1120500000000p-3, 0x1.02e0e60000000p-3}
, {-0x1.4084380000000p-4, -0x1.ab058e0000000p-4, -0x1.8dfc660000000p-3, -0x1.ae7d420000000p-4, -0x1.152a5c0000000p-4, -0x1.adb3260000000p-4, -0x1.cccfc60000000p-4, -0x1.15204e0000000p-3, -0x1.0840960000000p-4, 0x1.ee2bf20000000p-4, -0x1.6e700c0000000p-3, -0x1.1c68040000000p-3, 0x1.14eb000000000p-3, -0x1.f88ace0000000p-5, -0x1.cba6860000000p-5, -0x1.f94da80000000p-4, -0x1.64b49a0000000p-4, 0x1.700a2e0000000p-5, 0x1.8fb8680000000p-5, 0x1.4822a40000000p-6, -0x1.af639a0000000p-6, -0x1.7eb7f20000000p-3, 0x1.450ce80000000p-7, -0x1.9a806e0000000p-3, 0x1.14a0d80000000p-4, 0x1.e4de000000000p-7, -0x1.6b8f500000000p-5, 0x1.240aa00000000p-3, 0x1.09e7d80000000p-5, -0x1.9da2840000000p-4, 0x1.87725a0000000p-7, 0x1.d212ce0000000p-5, -0x1.1084800000000p-6, 0x1.08308a0000000p-6, 0x1.c5453c0000000p-4, -0x1.be11480000000p-5, 0x1.49b3c80000000p-3, 0x1.909d580000000p-5, 0x1.c0f89c0000000p-5, -0x1.b58ae80000000p-5, -0x1.cc73000000000p-4, -0x1.0590660000000p-5, -0x1.3b562c0000000p-3, 0x1.5cdb4c0000000p-4, 0x1.5c9bf80000000p-5, -0x1.3905880000000p-4, -0x1.27c0980000000p-3, 0x1.f681c20000000p-4, -0x1.cdf98c0000000p-4, -0x1.56e4700000000p-4, -0x1.73ca060000000p-6, 0x1.efa5c40000000p-5, -0x1.3b1b940000000p-4, -0x1.6ca2220000000p-3, 0x1.90a58e0000000p-5, 0x1.3174580000000p-4, 0x1.7ba9ec0000000p-4, -0x1.671d860000000p-4, 0x1.bdd6740000000p-5, 0x1.fa648a0000000p-4, 0x1.05d90c0000000p-3, 0x1.0e8ca00000000p-6, 0x1.1f236a0000000p-4, 0x1.f5cd040000000p-4, -0x1.9eb2200000000p-3, 0x1.2329a20000000p-4, -0x1.041dd20000000p-3, -0x1.39039c0000000p-3, 0x1.0fe2400000000p-6, -0x1.57b28e0000000p-4, -0x1.275fc00000000p-6, 0x1.18d3fe0000000p-5, 0x1.d1a0d00000000p-6, -0x1.fedd5a0000000p-4, 0x1.938d820000000p-5, 0x1.f84b320000000p-4, 0x1.0ae1a80000000p-3, -0x1.fd0cfe0000000p-6, -0x1.1251480000000p-3, 0x1.9e0ed20000000p-4, 0x1.300c4c0000000p-5, -0x1.cfd48c0000000p-4, -0x1.41f7860000000p-3, 0x1.9cfb660000000p-4, 0x1.a9841c0000000p-5, -0x1.79819c0000000p-5, 0x1.6551760000000p-6, 0x1.27ad420000000p-4, 0x1.2a128c0000000p-7, 0x1.ab5b240000000p-4, -0x1.a2318c0000000p-3, -0x1.91c8740000000p-7, -0x1.6dee920000000p-3, 0x1.8f1efe0000000p-5, 0x1.6b67d40000000p-4, -0x1.41dd020000000p-3, -0x1.9a4c720000000p-4, -0x1.8344000000000p-4, 0x1.6740e60000000p-5, -0x1.16200c0000000p-5, 0x1.6a0ec60000000p-5, -0x1.111bd00000000p-3, -0x1.780ec00000000p-4, 0x1.19cbda0000000p-4, -0x1.8e70de0000000p-5, 0x1.cf962e0000000p-4, -0x1.71928e0000000p-5, -0x1.1861d00000000p-2, -0x1.88cae40000000p-7, -0x1.dd210a0000000p-5, -0x1.8e1e600000000p-4, -0x1.bdb0100000000p-4, -0x1.b96ba40000000p-8, -0x1.c646740000000p-5, -0x1.2629980000000p-4, 0x1.cfa9960000000p-5, -0x1.09ef3a0000000p-4, 0x1.acb3dc0000000p-4, -0x1.1a80000000000p-3, -0x1.ca2f6e0000000p-4, 0x1.0619b00000000p-6, -0x1.6130320000000p-5, -0x1.22bae60000000p-9, -0x1.930f080000000p-4, -0x1.0d6bbc0000000p-3, 0x1.2e218c0000000p-4, 0x1.9ad1e60000000p-4, -0x1.ea5b840000000p-4, -0x1.b9247a0000000p-9, -0x1.26f83c0000000p-3, -0x1.b704fa0000000p-5, -0x1.0123fa0000000p-3, -0x1.e974240000000p-5, -0x1.05732c0000000p-5, -0x1.30cd4c0000000p-4, -0x1.bd8cea0000000p-3, -0x1.9082060000000p-4, -0x1.7c12e20000000p-3, 0x1.22afda0000000p-4, 0x1.b1afa40000000p-5, -0x1.717ed20000000p-8, 0x1.d574260000000p-7, -0x1.7b5e000000000p-6, -0x1.fc3e100000000p-4, 0x1.cba3220000000p-4, -0x1.b3b7d60000000p-5, -0x1.da16980000000p-4, 0x1.a57fee0000000p-4, -0x1.47a6600000000p-5, -0x1.fe45e40000000p-5, -0x1.c58ae00000000p-4, 0x1.0261f60000000p-4, -0x1.d5fbe60000000p-5, 0x1.03f26e0000000p-4, -0x1.9c908c0000000p-5, 0x1.ec4d160000000p-7, -0x1.94aec20000000p-4, 0x1.df6c020000000p-6, 0x1.1b64980000000p-4, 0x1.635f580000000p-5, 0x1.1dfaaa0000000p-5, 0x1.aec13c0000000p-5, -0x1.3f3c280000000p-5, -0x1.439aa40000000p-4, 0x1.40670a0000000p-4, -0x1.0abf340000000p-4, 0x1.2602920000000p-4, -0x1.88d3060000000p-4, -0x1.08ce160000000p-4, -0x1.1694b20000000p-4, -0x1.0d3d220000000p-4, -0x1.4bc1680000000p-4, -0x1.794aee0000000p-4, -0x1.8282a40000000p-4, 0x1.6d73040000000p-4, -0x1.0a83300000000p-4, 0x1.4764d20000000p-4, 0x1.2f431e0000000p-4, 0x1.15d3160000000p-4, 0x1.09b4100000000p-4, 0x1.189a9c0000000p-4, -0x1.0b41920000000p-4, 0x1.0b22280000000p-5, 0x1.166e0c0000000p-9, 0x1.4cbb160000000p-4, -0x1.aa27120000000p-2, -0x1.9aafd40000000p-6, -0x1.dbf6f00000000p-5, -0x1.19ca080000000p-3, -0x1.8481b00000000p-8, 0x1.17b7800000000p-4, -0x1.a56a4e0000000p-4, 0x1.9b9fcc0000000p-4, -0x1.5836cc0000000p-4, -0x1.258e8a0000000p-3, -0x1.b0abbe0000000p-3, -0x1.5ffdf00000000p-4, 0x1.75f7ac0000000p-3, 0x1.2b8af20000000p-6, 0x1.82d1d60000000p-4, 0x1.2adb5a0000000p-3, 0x1.3b48280000000p-5, -0x1.6e429a0000000p-7, 0x1.bd702e0000000p-4, 0x1.76d9f80000000p-5, -0x1.3051f60000000p-4, -0x1.4522860000000p-5, -0x1.2477880000000p-3, 0x1.1c8ad80000000p-3, 0x1.81e1200000000p-3, 0x1.633b860000000p-3, -0x1.14a5fe0000000p-3, -0x1.b25c5a0000000p-4, -0x1.8de1720000000p-6, 0x1.0f19e40000000p-4, -0x1.9dac600000000p-4, 0x1.d002120000000p-6, 0x1.0572060000000p-3, -0x1.9fc1ea0000000p-4, -0x1.aff42e0000000p-4, 0x1.8e9a580000000p-4, -0x1.1b5b780000000p-10, -0x1.e41f300000000p-5, -0x1.5018600000000p-5, -0x1.1d77600000000p-3, -0x1.7969460000000p-3, 0x1.185b480000000p-4, -0x1.2171ee0000000p-3, -0x1.ba700a0000000p-3, 0x1.586dd40000000p-4, 0x1.83e0400000000p-4, 0x1.15d7c00000000p-2, 0x1.7a83880000000p-4, -0x1.99bc760000000p-3, 0x1.8448300000000p-4, 0x1.bbab400000000p-6, -0x1.fcfd4a0000000p-6, -0x1.38b7760000000p-4, -0x1.2c6e000000000p-3, 0x1.ca12260000000p-3, -0x1.6649b20000000p-3, 0x1.6a12100000000p-4, -0x1.2e180c0000000p-4, 0x1.c5d3120000000p-4, -0x1.40b6b20000000p-3, -0x1.4cbbce0000000p-6, 0x1.0437960000000p-5, -0x1.6038c80000000p-6, -0x1.8679680000000p-4, 0x1.bcf7f20000000p-4, -0x1.408c5e0000000p-3, -0x1.52653e0000000p-5, -0x1.fbfce00000000p-8, -0x1.ad8fc80000000p-7, 0x1.1a48760000000p-4, 0x1.a2a4340000000p-9}
, {-0x1.917ff20000000p-4, 0x1.043fac0000000p-8, -0x1.1c4ec60000000p-4, -0x1.c6cf660000000p-4, 0x1.4bcfb80000000p-4, -0x1.7ca13a0000000p-5, 0x1.dc60240000000p-5, -0x1.81c0f80000000p-12, 0x1.1b00900000000p-4, -0x1.f3c86c0000000p-5, -0x1.8be0480000000p-3, -0x1.2b1c380000000p-4, 0x1.20f0040000000p-6, 0x1.6ccfd40000000p-9, 0x1.a050a40000000p-4, -0x1.eaddf60000000p-5, -0x1.a7e9ca0000000p-7, -0x1.0a9d680000000p-4, -0x1.8cf4400000000p-5, 0x1.4ad11e0000000p-4, -0x1.045dfe0000000p-4, -0x1.c58b820000000p-4, 0x1.ee773c0000000p-4, -0x1.fd194a0000000p-4, 0x1.eaa84e0000000p-4, 0x1.5e7cde0000000p-4, 0x1.ee20c80000000p-4, 0x1.06f4320000000p-3, -0x1.8bcbe20000000p-5, -0x1.9264ae0000000p-3, -0x1.8ffcc60000000p-3, 0x1.1b2e160000000p-4, -0x1.4b31a60000000p-6, 0x1.17b2320000000p-4, 0x1.6da2ae0000000p-4, 0x1.09ca820000000p-3, -0x1.38537a0000000p-3, -0x1.4a61de0000000p-5, -0x1.b4b1760000000p-3, -0x1.b1f44a0000000p-4, 0x1.bc3c600000000p-4, -0x1.61f9620000000p-3, -0x1.38f0ce0000000p-4, 0x1.3b3db20000000p-5, 0x1.68ecba0000000p-3, 0x1.11e2620000000p-5, -0x1.19d1400000000p-3, 0x1.a2795c0000000p-8, 0x1.7e6f360000000p-4, 0x1.bc066c0000000p-4, 0x1.204c300000000p-4, -0x1.57ee540000000p-7, 0x1.31010c0000000p-5, 0x1.d60fcc0000000p-6, -0x1.e13a280000000p-7, 0x1.433bd60000000p-3, -0x1.1d5d4c0000000p-3, -0x1.16c8060000000p-4, -0x1.c0142a0000000p-4, 0x1.9923700000000p-4, 0x1.28f5ee0000000p-3, 0x1.14dd640000000p-3, -0x1.39b5800000000p-5, -0x1.a63d580000000p-4, -0x1.83095c0000000p-4, -0x1.0688240000000p-3, 0x1.0f9ea40000000p-7, 0x1.a507b40000000p-5, -0x1.864e660000000p-4, -0x1.197c1c0000000p-4, -0x1.4e6bf00000000p-4, -0x1.f5743c0000000p-6, -0x1.d635b40000000p-4, 0x1.65e4180000000p-5, -0x1.6abf700000000p-5, -0x1.c42d520000000p-4, 0x1.e1e50e0000000p-4, 0x1.b931c00000000p-5, -0x1.aed8ae0000000p-3, -0x1.df0b680000000p-4, -0x1.20b26c0000000p-6, 0x1.44479e0000000p-5, -0x1.5e21bc0000000p-4, 0x1.29dad40000000p-3, -0x1.cc72400000000p-5, -0x1.be91860000000p-6, -0x1.dee2920000000p-6, 0x1.51b8160000000p-4, -0x1.0c11e20000000p-4, 0x1.742c000000000p-4, 0x1.e8d7620000000p-5, 0x1.77cce40000000p-8, -0x1.1aa9480000000p-3, 0x1.0aa6d40000000p-6, -0x1.f94de00000000p-4, 0x1.2cc13c0000000p-4, -0x1.0bc26a0000000p-4, 0x1.3dfce60000000p-4, -0x1.ec19fc0000000p-5, -0x1.136b280000000p-3, 0x1.bb31fa0000000p-3, -0x1.fae5e20000000p-4, 0x1.4bf8aa0000000p-4, 0x1.09131c0000000p-4, -0x1.1859100000000p-3, 0x1.9ccc0e0000000p-4, -0x1.64e0b40000000p-8, -0x1.53fefa0000000p-4, 0x1.f343220000000p-4, 0x1.a0923e0000000p-5, 0x1.a0f5fc0000000p-6, 0x1.59a6ca0000000p-4, -0x1.42fef60000000p-4, 0x1.3a6fe40000000p-4, -0x1.1132860000000p-3, 0x1.c93d800000000p-4, 0x1.2522520000000p-4, 0x1.0c51dc0000000p-3, -0x1.6d370a0000000p-5, -0x1.aeac200000000p-4, 0x1.0ef64a0000000p-3, 0x1.58c6140000000p-5, 0x1.f779b20000000p-5, -0x1.9cae5e0000000p-4, -0x1.9d77140000000p-5, 0x1.f6c1e60000000p-6, 0x1.6e20440000000p-3, -0x1.0809f20000000p-5, 0x1.a21ba60000000p-5, 0x1.d04f660000000p-5, 0x1.0861220000000p-7, -0x1.4173000000000p-3, -0x1.5eb5920000000p-3, 0x1.b3ef280000000p-4, -0x1.80dfb60000000p-4, -0x1.14a5bc0000000p-4, 0x1.410e4e0000000p-4, -0x1.881dbc0000000p-5, 0x1.1a6bf80000000p-3, 0x1.5869d60000000p-4, -0x1.062d640000000p-6, 0x1.37930a0000000p-4, -0x1.372bb00000000p-4, 0x1.327f5a0000000p-4, 0x1.24761c0000000p-4, 0x1.f3b3780000000p-9, 0x1.4f1fa20000000p-5, -0x1.3935e60000000p-8, -0x1.1209360000000p-3, -0x1.092ea40000000p-3, 0x1.1565420000000p-3, 0x1.5853de0000000p-5, 0x1.1f3be40000000p-3, -0x1.4863080000000p-4, 0x1.4473240000000p-4, -0x1.5ecb5c0000000p-8, 0x1.9bc5920000000p-4, 0x1.50f33c0000000p-6, -0x1.0383500000000p-7, -0x1.84bc740000000p-4, 0x1.0223dc0000000p-3, -0x1.83b32a0000000p-4, -0x1.85d4520000000p-4, -0x1.c53ce80000000p-4, 0x1.c039a80000000p-4, -0x1.4a38760000000p-4, 0x1.72967e0000000p-3, -0x1.138a340000000p-4, 0x1.c49fce0000000p-5, 0x1.3555100000000p-4, 0x1.6167960000000p-5, 0x1.5ff48e0000000p-4, 0x1.e5e1dc0000000p-10, -0x1.716f740000000p-4, 0x1.e3adf00000000p-4, 0x1.e67a8a0000000p-6, 0x1.17712a0000000p-4, -0x1.1b6ee20000000p-6, 0x1.bc35020000000p-4, 0x1.4911400000000p-4, -0x1.ed65fe0000000p-4, 0x1.126c440000000p-4, 0x1.6314de0000000p-4, 0x1.aa163e0000000p-3, 0x1.b214ac0000000p-5, 0x1.5022920000000p-5, 0x1.a8c3ac0000000p-4, 0x1.3545a00000000p-4, 0x1.ac3fac0000000p-4, 0x1.3adc4e0000000p-4, -0x1.f14d840000000p-4, 0x1.117efe0000000p-3, 0x1.d3dc6c0000000p-4, 0x1.48987a0000000p-4, -0x1.8de4c00000000p-4, -0x1.becfca0000000p-4, -0x1.684ea40000000p-4, 0x1.255a440000000p-4, -0x1.e2bde40000000p-5, -0x1.ae9fa80000000p-5, 0x1.16a8f40000000p-3, -0x1.33e2de0000000p-4, 0x1.007d0e0000000p-5, 0x1.a335c60000000p-4, -0x1.f005b20000000p-4, 0x1.2c9c620000000p-5, 0x1.7779b80000000p-4, 0x1.0ad47a0000000p-4, -0x1.52dffc0000000p-6, -0x1.3d54c20000000p-7, 0x1.583c840000000p-5, 0x1.759f360000000p-4, -0x1.99ee260000000p-4, 0x1.d11a800000000p-7, -0x1.897e240000000p-5, -0x1.3f10f00000000p-4, 0x1.8ee4640000000p-6, 0x1.8baf560000000p-6, -0x1.3c443c0000000p-6, 0x1.2711b40000000p-4, 0x1.6d0ad80000000p-4, -0x1.89b4820000000p-6, 0x1.34721e0000000p-4, -0x1.6fe3960000000p-6, -0x1.fcfd900000000p-6, -0x1.af34d20000000p-6, -0x1.4bf2600000000p-4, -0x1.1575760000000p-6, -0x1.1f4ad60000000p-4, 0x1.e1694a0000000p-5, -0x1.5d9d580000000p-9, 0x1.dcec2e0000000p-4, -0x1.e5677a0000000p-4, -0x1.ba84960000000p-5, -0x1.4080160000000p-4, -0x1.8a44420000000p-6, -0x1.6dd5240000000p-5, -0x1.e5bfba0000000p-4, 0x1.9780800000000p-4, -0x1.21827c0000000p-4, 0x1.08cdb80000000p-3, -0x1.55451a0000000p-6, -0x1.af7ff80000000p-5, -0x1.4c5fa00000000p-4, -0x1.0ac92e0000000p-5, 0x1.c4eb020000000p-6, -0x1.faa7160000000p-6, -0x1.4fa8ba0000000p-4, -0x1.4714480000000p-3, 0x1.6e171a0000000p-6, 0x1.2c43380000000p-4, -0x1.030bb40000000p-5, -0x1.b045bc0000000p-3, -0x1.25a1f20000000p-5, 0x1.23ace00000000p-5, -0x1.bd3f520000000p-5}
, {-0x1.a1eaf80000000p-6, -0x1.55ec480000000p-4, 0x1.35d5f60000000p-5, -0x1.6358440000000p-7, -0x1.1960cc0000000p-6, 0x1.6405bc0000000p-6, -0x1.359e9a0000000p-5, 0x1.5b967e0000000p-4, 0x1.26783c0000000p-3, -0x1.24f1420000000p-6, -0x1.e44c100000000p-5, 0x1.1014f40000000p-4, -0x1.224e080000000p-4, -0x1.82d1280000000p-4, -0x1.43254a0000000p-4, -0x1.c240a00000000p-4, -0x1.cc045c0000000p-7, 0x1.224ff00000000p-4, 0x1.172aa60000000p-4, 0x1.84e9940000000p-4, -0x1.a47c780000000p-5, 0x1.04cd900000000p-5, -0x1.4c2f6e0000000p-3, 0x1.46ebbe0000000p-3, 0x1.4656440000000p-4, 0x1.8150d20000000p-4, 0x1.5c4ff60000000p-5, -0x1.3f9e8c0000000p-3, 0x1.a07a780000000p-4, -0x1.5d94420000000p-6, -0x1.0b56d80000000p-4, -0x1.6ad4f00000000p-4, 0x1.01a7240000000p-4, 0x1.18f74a0000000p-4, 0x1.1d03f80000000p-4, 0x1.3db9f20000000p-5, -0x1.215f040000000p-6, 0x1.b3efca0000000p-4, 0x1.24dede0000000p-3, -0x1.9f6f940000000p-4, -0x1.42d4100000000p-4, 0x1.d8f3160000000p-5, 0x1.2710300000000p-3, -0x1.506a1a0000000p-3, -0x1.d0eb780000000p-8, -0x1.943e7c0000000p-5, 0x1.197c4a0000000p-3, 0x1.10541c0000000p-5, 0x1.dd39a40000000p-8, 0x1.2f79860000000p-3, -0x1.61a4220000000p-4, -0x1.80872a0000000p-4, 0x1.24176a0000000p-8, -0x1.a3ba980000000p-6, 0x1.3ec6ce0000000p-4, 0x1.6c61480000000p-6, -0x1.947afc0000000p-7, 0x1.78828e0000000p-4, 0x1.80232c0000000p-5, 0x1.1b6d240000000p-6, -0x1.6b49c00000000p-4, 0x1.291dfe0000000p-3, -0x1.d53a200000000p-4, 0x1.e3f8ec0000000p-6, 0x1.fc3ea20000000p-8, 0x1.31b1900000000p-6, -0x1.60a4080000000p-4, -0x1.5eac980000000p-6, 0x1.b71d080000000p-4, 0x1.a52e380000000p-3, -0x1.198b8e0000000p-3, -0x1.417b940000000p-8, -0x1.d214c00000000p-6, -0x1.59469c0000000p-4, -0x1.42be860000000p-9, -0x1.54e14e0000000p-5, -0x1.ccdb940000000p-6, 0x1.71c2760000000p-4, -0x1.838a0e0000000p-4, 0x1.336af40000000p-3, -0x1.3e2cba0000000p-4, -0x1.9624460000000p-5, 0x1.6c0f300000000p-5, -0x1.bb5c360000000p-4, 0x1.3d17300000000p-6, 0x1.9a596e0000000p-5, -0x1.742e3c0000000p-5, 0x1.04b7580000000p-3, -0x1.8d3db40000000p-5, 0x1.6580a20000000p-5, 0x1.f349b80000000p-8, -0x1.40bd680000000p-5, 0x1.8965620000000p-4, 0x1.3970460000000p-2, 0x1.5129760000000p-4, 0x1.18f3ac0000000p-4, 0x1.3ac4140000000p-9, -0x1.2d66d80000000p-8, -0x1.8e1c460000000p-4, -0x1.ee12900000000p-6, -0x1.6c14420000000p-3, 0x1.2f056a0000000p-3, 0x1.0e09cc0000000p-4, -0x1.3e4c180000000p-4, 0x1.d6de220000000p-6, -0x1.d304700000000p-9, -0x1.d698860000000p-4, 0x1.1b1be60000000p-4, -0x1.0b36c00000000p-5, -0x1.33d9940000000p-3, -0x1.8c7fce0000000p-3, -0x1.adaf960000000p-6, -0x1.1043180000000p-4, -0x1.1038980000000p-5, 0x1.4659de0000000p-8, 0x1.ba87460000000p-7, -0x1.817aaa0000000p-6, 0x1.65c15a0000000p-7, -0x1.57e2040000000p-4, -0x1.4a8e320000000p-4, -0x1.4efd580000000p-4, 0x1.85639a0000000p-4, 0x1.73c24e0000000p-4, 0x1.256b4c0000000p-4, 0x1.6e69040000000p-5, -0x1.55266e0000000p-5, 0x1.8c2f0e0000000p-3, 0x1.11572a0000000p-4, -0x1.5906c60000000p-3, -0x1.5e51800000000p-4, 0x1.171b040000000p-6, -0x1.5fd2920000000p-7, -0x1.a508c20000000p-8, 0x1.878ba60000000p-4, -0x1.994a900000000p-4, 0x1.9130260000000p-5, -0x1.64b2ea0000000p-6, -0x1.6b40220000000p-3, -0x1.8a21cc0000000p-4, -0x1.fc38b20000000p-4, 0x1.7d9cae0000000p-3, -0x1.02cbb20000000p-5, 0x1.4f01940000000p-5, 0x1.07f6080000000p-3, -0x1.be6c800000000p-4, -0x1.fd82040000000p-5, 0x1.0b0cf80000000p-3, -0x1.046cd00000000p-3, -0x1.06cf780000000p-4, 0x1.bd021c0000000p-4, -0x1.d59d780000000p-6, -0x1.b9a91e0000000p-4, 0x1.467b540000000p-6, -0x1.405f800000000p-3, -0x1.6d640a0000000p-4, 0x1.bc31460000000p-3, 0x1.2923ee0000000p-4, 0x1.4389e60000000p-3, 0x1.8ce2c20000000p-4, 0x1.4b75080000000p-4, 0x1.4c45360000000p-4, -0x1.8c62940000000p-10, 0x1.b3186c0000000p-6, 0x1.73ead20000000p-5, -0x1.1a52700000000p-3, 0x1.ba54980000000p-5, 0x1.1294300000000p-4, -0x1.530df40000000p-4, -0x1.80fe340000000p-6, 0x1.33e94c0000000p-5, 0x1.c9ee860000000p-7, 0x1.2dda900000000p-5, -0x1.3cc2980000000p-6, 0x1.1970340000000p-6, 0x1.9d0eea0000000p-4, -0x1.3b75860000000p-5, 0x1.9f80220000000p-4, -0x1.55cb1c0000000p-5, -0x1.3972880000000p-4, -0x1.ce49a00000000p-6, 0x1.2dcc780000000p-7, 0x1.782b9a0000000p-6, -0x1.5a88c80000000p-6, 0x1.e9a36c0000000p-5, -0x1.8dbd7c0000000p-8, 0x1.0660be0000000p-6, -0x1.5162380000000p-4, 0x1.1274420000000p-3, 0x1.12abd80000000p-3, 0x1.afe0de0000000p-4, -0x1.dd56380000000p-4, -0x1.06815e0000000p-4, -0x1.469e9a0000000p-5, 0x1.98fb0a0000000p-5, 0x1.3e9d600000000p-3, -0x1.5ddc960000000p-6, 0x1.e99df80000000p-4, 0x1.a30e520000000p-4, -0x1.f01b760000000p-6, -0x1.f52fe60000000p-4, 0x1.3360ae0000000p-4, 0x1.5a38b00000000p-5, 0x1.74e3200000000p-5, -0x1.e2f0440000000p-4, 0x1.bbbc900000000p-5, 0x1.4dac120000000p-4, -0x1.044a180000000p-3, -0x1.1e3df60000000p-3, -0x1.2324ac0000000p-4, 0x1.0369860000000p-4, -0x1.2197fc0000000p-5, -0x1.64742e0000000p-5, 0x1.0429a80000000p-3, -0x1.ee94140000000p-5, -0x1.618bba0000000p-4, -0x1.e5686e0000000p-4, 0x1.e3d7e00000000p-6, -0x1.e36bb00000000p-6, -0x1.527c000000000p-4, -0x1.24bde40000000p-4, -0x1.d389b20000000p-7, 0x1.d2a5300000000p-6, -0x1.8aa70e0000000p-5, 0x1.70de640000000p-10, -0x1.dd277a0000000p-4, -0x1.4f1fbc0000000p-3, -0x1.4873780000000p-3, -0x1.334c200000000p-4, -0x1.b44b940000000p-5, -0x1.05cf280000000p-3, 0x1.2fceee0000000p-4, -0x1.c906180000000p-3, 0x1.ee39660000000p-6, -0x1.7998e40000000p-4, -0x1.52414e0000000p-7, 0x1.743c080000000p-5, 0x1.3bc5360000000p-4, 0x1.31e5d20000000p-3, 0x1.8caa9e0000000p-4, -0x1.2e509a0000000p-3, 0x1.5e6c620000000p-4, 0x1.59b5840000000p-4, 0x1.a827b60000000p-5, 0x1.7a9a760000000p-4, -0x1.1c7d580000000p-5, 0x1.747d740000000p-6, 0x1.a4bbc80000000p-6, 0x1.be55e80000000p-7, 0x1.63b54e0000000p-4, 0x1.a5d4900000000p-4, -0x1.ed7c440000000p-5, -0x1.14561c0000000p-4, 0x1.24ef4e0000000p-5, 0x1.d5c3000000000p-5, -0x1.b2a5640000000p-5, 0x1.d28e5a0000000p-3}
, {0x1.232e140000000p-4, -0x1.a490ea0000000p-6, -0x1.0cc66e0000000p-8, 0x1.0b40fa0000000p-4, -0x1.61bdb60000000p-3, 0x1.0927880000000p-3, -0x1.22b1100000000p-5, -0x1.8f61c20000000p-4, -0x1.bdd53a0000000p-5, 0x1.5920520000000p-4, 0x1.5ef3a40000000p-7, -0x1.f715c00000000p-6, 0x1.bcbe1c0000000p-4, -0x1.4bcbe20000000p-6, 0x1.3c5fa80000000p-5, 0x1.46cfda0000000p-4, -0x1.1df4c40000000p-5, -0x1.64f5320000000p-4, -0x1.0a15f20000000p-4, 0x1.6e2fa00000000p-9, 0x1.aee3ca0000000p-5, 0x1.2399660000000p-5, 0x1.fdfafc0000000p-4, -0x1.55e1c00000000p-5, -0x1.fcbf720000000p-5, -0x1.5a46ee0000000p-4, -0x1.ff52680000000p-5, -0x1.4e6a300000000p-11, -0x1.1b14700000000p-3, 0x1.e103d40000000p-6, -0x1.41ad940000000p-5, 0x1.cb65fe0000000p-6, 0x1.41d49e0000000p-5, -0x1.b91b3a0000000p-4, -0x1.f28ab00000000p-6, 0x1.e2d7400000000p-5, -0x1.744dc20000000p-5, -0x1.7faa260000000p-4, 0x1.db319c0000000p-6, -0x1.a58fe00000000p-3, 0x1.5a99d80000000p-5, 0x1.b1f3740000000p-9, -0x1.c15f620000000p-7, 0x1.6222400000000p-4, -0x1.89e31e0000000p-4, -0x1.02e6880000000p-4, -0x1.90422e0000000p-5, -0x1.4df29c0000000p-4, -0x1.ea22c80000000p-4, 0x1.9d111c0000000p-6, -0x1.235dee0000000p-4, -0x1.bd7bd00000000p-4, 0x1.59f3e40000000p-5, -0x1.504dac0000000p-5, 0x1.ecfd400000000p-4, -0x1.5b82f20000000p-6, 0x1.fbfdc40000000p-5, 0x1.0c8c280000000p-3, -0x1.d696900000000p-6, -0x1.f3db2c0000000p-7, 0x1.30f7fe0000000p-3, 0x1.a74eec0000000p-5, 0x1.00ea6e0000000p-3, 0x1.5eb9ac0000000p-8, 0x1.939fc20000000p-6, 0x1.b567880000000p-6, -0x1.4317a00000000p-4, 0x1.8b1b780000000p-5, 0x1.205b260000000p-4, 0x1.8543f20000000p-4, -0x1.e87bd80000000p-4, -0x1.2c8a440000000p-6, 0x1.d3740e0000000p-4, 0x1.d14ab60000000p-5, 0x1.14cfa00000000p-4, 0x1.641baa0000000p-8, -0x1.7060da0000000p-5, 0x1.ab458e0000000p-4, 0x1.af711c0000000p-10, -0x1.1086aa0000000p-4, -0x1.0662e40000000p-3, 0x1.1a6a0c0000000p-4, 0x1.5326140000000p-3, -0x1.fd6ef80000000p-4, 0x1.4533180000000p-3, -0x1.78109c0000000p-5, -0x1.eec6d80000000p-4, -0x1.f94d5c0000000p-5, -0x1.37d3040000000p-3, 0x1.6723360000000p-6, -0x1.5f56060000000p-5, -0x1.5e3bc40000000p-3, -0x1.ac79b00000000p-4, -0x1.b3491c0000000p-4, 0x1.7235e00000000p-9, 0x1.dfbe3c0000000p-6, -0x1.e9dd540000000p-7, 0x1.6348680000000p-4, -0x1.e1b10c0000000p-5, -0x1.68e9d20000000p-4, 0x1.47c3300000000p-3, 0x1.2d70460000000p-4, -0x1.6612240000000p-6, -0x1.a23dce0000000p-4, 0x1.0c14200000000p-8, 0x1.2f948c0000000p-4, -0x1.6e323c0000000p-4, 0x1.c2656c0000000p-4, -0x1.1ec1b20000000p-3, 0x1.bcb4e80000000p-7, -0x1.3294a00000000p-3, 0x1.1622800000000p-4, 0x1.fc2c180000000p-5, 0x1.0df6a20000000p-3, -0x1.0566080000000p-3, 0x1.ac7fee0000000p-5, 0x1.1ae6460000000p-3, -0x1.d2bcce0000000p-7, 0x1.6ab5fa0000000p-5, 0x1.478cd20000000p-4, -0x1.51ba180000000p-4, 0x1.3fe4d80000000p-6, -0x1.7541d20000000p-4, 0x1.c5942e0000000p-5, 0x1.be57440000000p-4, -0x1.4264760000000p-4, 0x1.47b21a0000000p-3, -0x1.819f2a0000000p-4, -0x1.ad11080000000p-6, -0x1.167a700000000p-4, 0x1.32473c0000000p-3, 0x1.d642fc0000000p-6, -0x1.0d3c460000000p-4, 0x1.1bbd140000000p-3, 0x1.d13c9c0000000p-8, 0x1.828e9c0000000p-4, 0x1.5dae420000000p-5, -0x1.1819e00000000p-5, -0x1.af1b200000000p-5, -0x1.5163820000000p-3, 0x1.549b3e0000000p-8, -0x1.1d746e0000000p-5, -0x1.d58ffc0000000p-3, 0x1.f2e7e00000000p-5, 0x1.6594560000000p-5, -0x1.55289a0000000p-4, 0x1.a7d2860000000p-4, -0x1.f5ca440000000p-5, 0x1.2bdf4a0000000p-4, 0x1.aec9d00000000p-7, 0x1.5f29200000000p-4, 0x1.67d67e0000000p-10, 0x1.d65e1c0000000p-5, -0x1.f257460000000p-5, -0x1.cb38740000000p-4, 0x1.3a083c0000000p-4, -0x1.7900780000000p-4, 0x1.617c8a0000000p-4, 0x1.ca8dc40000000p-11, 0x1.62b8320000000p-3, 0x1.9ab90e0000000p-6, -0x1.61b04e0000000p-7, 0x1.ef10c20000000p-4, -0x1.8ac5800000000p-4, -0x1.f037da0000000p-5, -0x1.77a2120000000p-4, 0x1.3b69b60000000p-7, 0x1.d52c440000000p-6, 0x1.e7b6960000000p-5, -0x1.d32cfa0000000p-4, -0x1.37076a0000000p-4, -0x1.d4b6880000000p-5, -0x1.ec91180000000p-5, 0x1.4984d00000000p-5, 0x1.79f7600000000p-5, -0x1.6b8e220000000p-4, -0x1.e5457c0000000p-3, 0x1.e617e00000000p-4, -0x1.a913fa0000000p-4, 0x1.7f66ae0000000p-4, -0x1.7035f20000000p-10, 0x1.d6980c0000000p-4, 0x1.5b3d600000000p-5, 0x1.4791800000000p-4, -0x1.38fd600000000p-3, 0x1.26f1700000000p-2, 0x1.b8b1b20000000p-4, 0x1.a9963c0000000p-4, -0x1.b40aca0000000p-6, 0x1.a867160000000p-6, 0x1.969dbe0000000p-8, 0x1.239f660000000p-4, -0x1.ea709a0000000p-6, 0x1.6544060000000p-5, -0x1.7891f40000000p-7, 0x1.38415a0000000p-4, -0x1.6716280000000p-5, 0x1.6cd2500000000p-5, 0x1.1503b40000000p-4, -0x1.20e7240000000p-3, 0x1.1212000000000p-8, -0x1.6804ec0000000p-3, -0x1.3310880000000p-4, -0x1.f869800000000p-4, -0x1.6ccf280000000p-5, 0x1.04a4f00000000p-11, 0x1.0d04500000000p-4, -0x1.e9a2680000000p-4, 0x1.fb5bc00000000p-7, 0x1.b03c060000000p-4, -0x1.07b8b00000000p-3, 0x1.a6de9a0000000p-4, 0x1.dded420000000p-4, 0x1.c36f1a0000000p-7, -0x1.af84f40000000p-5, -0x1.0e04340000000p-4, 0x1.5783800000000p-5, 0x1.0b190c0000000p-3, -0x1.d818a80000000p-4, -0x1.382fc20000000p-5, -0x1.b4b51a0000000p-5, 0x1.3b23980000000p-3, -0x1.2bece20000000p-4, 0x1.0fcb120000000p-3, 0x1.98428c0000000p-5, 0x1.b9d3100000000p-11, -0x1.54fff60000000p-4, 0x1.57e2600000000p-8, 0x1.af18500000000p-4, 0x1.c508620000000p-7, -0x1.3b91220000000p-4, 0x1.ceca760000000p-4, -0x1.ddbb100000000p-11, -0x1.7291a40000000p-4, -0x1.d924a80000000p-4, -0x1.a848e60000000p-4, 0x1.a3d5060000000p-6, 0x1.8576aa0000000p-3, 0x1.c70f080000000p-5, -0x1.1eaad20000000p-4, -0x1.4d84100000000p-4, -0x1.22c2620000000p-8, -0x1.6b0de20000000p-3, 0x1.5c03a60000000p-3, 0x1.02d6500000000p-5, 0x1.784ad40000000p-6, -0x1.55b6060000000p-4, -0x1.607c680000000p-12, -0x1.f1695c0000000p-5, -0x1.3ef8a40000000p-10, -0x1.1b5c160000000p-9, -0x1.3175280000000p-2, 0x1.3383640000000p-4, 0x1.7768040000000p-3, 0x1.6c7b6c0000000p-5, 0x1.3dcaca0000000p-6}
, {-0x1.9c12200000000p-4, 0x1.236c500000000p-6, 0x1.d14ea00000000p-4, 0x1.15a5080000000p-3, -0x1.88136e0000000p-4, -0x1.821d460000000p-4, 0x1.c627c80000000p-4, 0x1.4222160000000p-8, 0x1.7ebdc20000000p-4, 0x1.8be14a0000000p-6, -0x1.60617a0000000p-5, -0x1.d2e3800000000p-4, -0x1.3656a20000000p-9, 0x1.dc314c0000000p-7, -0x1.5c31200000000p-4, 0x1.af71e60000000p-4, -0x1.774a700000000p-5, 0x1.f6e41c0000000p-4, 0x1.b95d700000000p-6, 0x1.22b5660000000p-6, -0x1.efe3620000000p-5, -0x1.0ee5dc0000000p-5, -0x1.4a6ef60000000p-4, 0x1.87aa3c0000000p-7, -0x1.a723ac0000000p-5, 0x1.13754e0000000p-4, -0x1.ea8ed80000000p-7, -0x1.199eba0000000p-4, -0x1.e55bec0000000p-6, -0x1.d2e3360000000p-4, 0x1.6e44fa0000000p-8, -0x1.1313cc0000000p-4, 0x1.818baa0000000p-3, 0x1.12bafe0000000p-4, 0x1.1a3c1e0000000p-7, -0x1.41ad540000000p-4, 0x1.c23a7a0000000p-3, -0x1.b444fa0000000p-7, 0x1.fd10040000000p-6, 0x1.4721b80000000p-4, 0x1.4c320e0000000p-4, 0x1.1a22ec0000000p-3, -0x1.d52a060000000p-7, -0x1.112bf60000000p-4, 0x1.8f2b500000000p-5, 0x1.972d2e0000000p-4, 0x1.a585960000000p-4, 0x1.c29e240000000p-6, -0x1.783bf00000000p-6, 0x1.61a3e80000000p-3, 0x1.9c25cc0000000p-7, -0x1.79c0da0000000p-5, 0x1.102f620000000p-5, 0x1.8c07fe0000000p-4, 0x1.90c7360000000p-7, -0x1.4e45900000000p-4, 0x1.a9ac560000000p-6, 0x1.974cee0000000p-4, -0x1.5e7a660000000p-7, -0x1.39e95e0000000p-3, -0x1.35993e0000000p-5, -0x1.786d120000000p-5, 0x1.2848020000000p-4, 0x1.26c0380000000p-5, -0x1.3d1d240000000p-3, 0x1.7c2ee60000000p-4, -0x1.8234b40000000p-5, 0x1.8383500000000p-3, -0x1.ac40d80000000p-4, 0x1.a5cf5a0000000p-8, 0x1.c3c8de0000000p-10, 0x1.3617fe0000000p-5, 0x1.a7014e0000000p-4, -0x1.fd7c100000000p-7, -0x1.73c71c0000000p-6, -0x1.3c590c0000000p-6, 0x1.6622e40000000p-4, -0x1.f39fec0000000p-4, 0x1.4952a40000000p-4, 0x1.2e892e0000000p-7, 0x1.3130ae0000000p-4, 0x1.50d4900000000p-4, -0x1.67e05e0000000p-4, 0x1.64e4480000000p-5, 0x1.a6864c0000000p-4, 0x1.99d83c0000000p-5, -0x1.72b3620000000p-4, -0x1.4d97f80000000p-5, -0x1.35fe400000000p-6, 0x1.9cf1180000000p-3, -0x1.67bf5a0000000p-4, 0x1.0770b80000000p-5, 0x1.3090e00000000p-3, 0x1.6f1bcc0000000p-3, -0x1.c5edf80000000p-5, -0x1.58aef60000000p-5, -0x1.4be09c0000000p-3, -0x1.9cea3c0000000p-4, -0x1.7775d00000000p-6, 0x1.1e756c0000000p-5, -0x1.d81a4e0000000p-3, -0x1.a950f40000000p-4, -0x1.ea587c0000000p-8, -0x1.4af5760000000p-4, 0x1.0377220000000p-4, -0x1.0d0df80000000p-3, 0x1.281d200000000p-4, 0x1.d8e6ec0000000p-5, 0x1.586f380000000p-4, -0x1.8ecadc0000000p-6, 0x1.d280f00000000p-4, 0x1.5cb7ec0000000p-4, 0x1.230f220000000p-3, -0x1.ae55c80000000p-5, -0x1.81063a0000000p-7, -0x1.f9da9c0000000p-5, 0x1.beb9c20000000p-6, 0x1.08c1c60000000p-3, 0x1.0f908e0000000p-6, -0x1.6a19d40000000p-5, -0x1.1eb56a0000000p-5, 0x1.81e1b20000000p-7, 0x1.7c224a0000000p-10, 0x1.0d489a0000000p-7, -0x1.379a2c0000000p-4, -0x1.7ab3aa0000000p-6, -0x1.c637ba0000000p-5, 0x1.da73660000000p-5, -0x1.63233e0000000p-4, -0x1.8baccc0000000p-9, -0x1.870d380000000p-9, -0x1.376ec20000000p-3, -0x1.1c76e00000000p-5, 0x1.35b29e0000000p-4, -0x1.2d2bca0000000p-3, 0x1.292f800000000p-4, 0x1.1ca0540000000p-5, -0x1.f779080000000p-4, 0x1.0cf6960000000p-4, 0x1.6d6d360000000p-4, 0x1.a2e3fc0000000p-4, 0x1.d30a640000000p-4, -0x1.44e3160000000p-5, -0x1.9fdd2e0000000p-9, 0x1.ce83e40000000p-5, -0x1.5898ae0000000p-7, 0x1.ff4db40000000p-4, 0x1.2157060000000p-3, 0x1.127fe00000000p-4, 0x1.156db40000000p-5, -0x1.6a8fa60000000p-3, 0x1.5cbdbe0000000p-5, 0x1.0584fa0000000p-6, 0x1.f6e9980000000p-4, 0x1.c194220000000p-7, 0x1.9733800000000p-4, -0x1.28eafc0000000p-4, 0x1.1397c80000000p-4, -0x1.81badc0000000p-9, 0x1.c3cd020000000p-6, 0x1.333e300000000p-5, -0x1.8551c80000000p-6, -0x1.614ee00000000p-3, -0x1.95a02a0000000p-4, 0x1.2cc1de0000000p-4, -0x1.b420a00000000p-6, 0x1.f8d27c0000000p-4, 0x1.04f0c80000000p-7, 0x1.6f88580000000p-4, -0x1.bd26080000000p-4, 0x1.eafac00000000p-4, -0x1.f4ea000000000p-4, 0x1.0064180000000p-4, -0x1.a63c040000000p-4, 0x1.90918c0000000p-4, -0x1.883f200000000p-4, 0x1.6c428e0000000p-4, -0x1.67fa160000000p-4, 0x1.4a54460000000p-3, -0x1.3a2b080000000p-4, 0x1.0c7d280000000p-4, -0x1.71e74c0000000p-5, 0x1.0db43a0000000p-4, 0x1.c0353a0000000p-7, -0x1.4660f20000000p-6, -0x1.7092480000000p-7, 0x1.6631da0000000p-4, 0x1.5146b20000000p-7, 0x1.f48bd80000000p-4, 0x1.21d4200000000p-3, 0x1.5840460000000p-5, -0x1.4630ca0000000p-3, -0x1.a602540000000p-3, 0x1.7649940000000p-6, -0x1.1591480000000p-4, 0x1.234da40000000p-4, 0x1.05023c0000000p-8, 0x1.96fca80000000p-9, -0x1.1f781c0000000p-5, 0x1.6bd60e0000000p-4, 0x1.b6ff9c0000000p-5, 0x1.294fe20000000p-4, 0x1.86eb620000000p-6, -0x1.5386500000000p-6, 0x1.0f242c0000000p-4, 0x1.750b1e0000000p-3, -0x1.5e9f120000000p-4, -0x1.d698d60000000p-4, 0x1.0435cc0000000p-4, 0x1.8f439a0000000p-4, 0x1.b43a0a0000000p-4, -0x1.fcdadc0000000p-4, -0x1.3088840000000p-3, -0x1.ede3ee0000000p-5, 0x1.04edf00000000p-4, 0x1.f7ee940000000p-4, 0x1.63e6ee0000000p-10, 0x1.afdde40000000p-5, 0x1.ad54da0000000p-5, 0x1.da0fd40000000p-6, 0x1.a8e1bc0000000p-4, -0x1.a694b40000000p-4, 0x1.24c6a40000000p-4, 0x1.a1c1b20000000p-5, -0x1.07a12e0000000p-3, 0x1.43cbe20000000p-4, 0x1.73bf580000000p-5, 0x1.585d3c0000000p-9, 0x1.5e66920000000p-5, -0x1.cdcf580000000p-4, -0x1.3ee61e0000000p-3, 0x1.4835aa0000000p-3, -0x1.e7d2b00000000p-4, 0x1.16931a0000000p-6, 0x1.ac99da0000000p-6, 0x1.ca10620000000p-4, -0x1.8a3e9c0000000p-6, -0x1.1047080000000p-4, 0x1.075ca80000000p-3, -0x1.65b3b20000000p-5, 0x1.d804da0000000p-6, -0x1.9cfe100000000p-4, 0x1.3237c00000000p-6, -0x1.0e57580000000p-4, -0x1.0f6ee40000000p-3, -0x1.ee2e420000000p-5, -0x1.85e8200000000p-4, -0x1.d5c3480000000p-7, 0x1.a37caa0000000p-3, 0x1.1e51a80000000p-3, -0x1.80f6a20000000p-6, -0x1.6e88220000000p-4, 0x1.bb4e020000000p-5, 0x1.4f857e0000000p-5, -0x1.831cb60000000p-4, 0x1.ce794e0000000p-5}
, {0x1.449d320000000p-4, 0x1.0bdb260000000p-3, 0x1.4468360000000p-3, 0x1.1a500a0000000p-4, 0x1.9085c20000000p-7, 0x1.d9f3c20000000p-4, -0x1.0dd63c0000000p-5, -0x1.5cc4ae0000000p-3, 0x1.c8f9540000000p-5, 0x1.6f037e0000000p-8, -0x1.074ce00000000p-5, 0x1.9757f60000000p-4, 0x1.110a280000000p-5, -0x1.1a52b80000000p-4, -0x1.f50cc60000000p-7, -0x1.f802100000000p-5, -0x1.0148d60000000p-4, 0x1.e9d78c0000000p-10, -0x1.d988f00000000p-6, 0x1.b497420000000p-4, -0x1.d6b3020000000p-4, -0x1.a16aba0000000p-6, -0x1.d795920000000p-4, 0x1.55e86e0000000p-4, -0x1.4919e20000000p-4, 0x1.192fe20000000p-3, 0x1.c25e360000000p-4, -0x1.7979ac0000000p-5, -0x1.41a3a40000000p-3, -0x1.1565720000000p-4, 0x1.a9859c0000000p-4, -0x1.1406b80000000p-3, -0x1.b06e6c0000000p-6, 0x1.8b26200000000p-3, 0x1.c37abc0000000p-5, 0x1.849b600000000p-6, -0x1.8881460000000p-3, -0x1.a119460000000p-4, 0x1.82dc640000000p-4, -0x1.ba7b6e0000000p-4, 0x1.a14e420000000p-4, -0x1.b4695c0000000p-6, 0x1.a2ffba0000000p-8, -0x1.7ab4ec0000000p-4, -0x1.d324340000000p-6, 0x1.2990000000000p-4, 0x1.834ef00000000p-4, -0x1.d2fa9c0000000p-4, -0x1.8769f80000000p-5, 0x1.d5ae760000000p-4, 0x1.7c84d60000000p-4, -0x1.590ff60000000p-4, -0x1.e16e960000000p-4, -0x1.064f060000000p-5, 0x1.c9800a0000000p-6, -0x1.687cca0000000p-4, -0x1.501dce0000000p-5, 0x1.20e1ca0000000p-3, -0x1.a48c700000000p-4, -0x1.a169da0000000p-5, -0x1.64d47e0000000p-7, -0x1.26c8600000000p-5, 0x1.27667a0000000p-5, -0x1.dbcee80000000p-6, 0x1.9e9dfa0000000p-4, -0x1.57c23c0000000p-6, -0x1.8770e60000000p-5, 0x1.cf321e0000000p-7, -0x1.a862c20000000p-4, -0x1.9843ba0000000p-4, -0x1.6fd4800000000p-4, 0x1.0299de0000000p-4, -0x1.b72be20000000p-5, -0x1.1ea5320000000p-4, 0x1.3c71140000000p-4, 0x1.1a24a40000000p-3, 0x1.cf92ce0000000p-5, 0x1.d2e7160000000p-4, -0x1.15fbe40000000p-4, -0x1.8c15780000000p-4, 0x1.5247960000000p-5, -0x1.8c97260000000p-9, 0x1.eb266e0000000p-6, 0x1.3f93fe0000000p-4, 0x1.c329a60000000p-4, 0x1.ef58ce0000000p-6, -0x1.96c7b20000000p-6, -0x1.a94ec00000000p-4, -0x1.deeb420000000p-4, 0x1.81048e0000000p-9, -0x1.9c8f5a0000000p-4, 0x1.8070ea0000000p-5, -0x1.d26d7c0000000p-7, -0x1.1bef0e0000000p-4, 0x1.a9c4dc0000000p-4, -0x1.158a0e0000000p-3, 0x1.104e8e0000000p-3, -0x1.83c20c0000000p-5, 0x1.b15fe40000000p-5, 0x1.03a8320000000p-5, 0x1.4ff55c0000000p-4, 0x1.05fcce0000000p-3, -0x1.e6b0120000000p-4, -0x1.beae5e0000000p-4, 0x1.0d2f0e0000000p-10, 0x1.bc3f9c0000000p-5, -0x1.436fd00000000p-6, -0x1.8d98500000000p-4, -0x1.cf4abc0000000p-5, 0x1.2dd15a0000000p-3, 0x1.1139220000000p-4, -0x1.269bae0000000p-5, -0x1.79ef0a0000000p-4, 0x1.6a51d40000000p-4, -0x1.c864aa0000000p-5, 0x1.96d1aa0000000p-4, 0x1.c4d8960000000p-4, -0x1.6bded20000000p-6, 0x1.c982ac0000000p-5, 0x1.c167680000000p-5, -0x1.77859e0000000p-6, 0x1.9b85bc0000000p-8, -0x1.929f940000000p-8, -0x1.1defb80000000p-4, 0x1.40faa40000000p-4, -0x1.57d29e0000000p-4, -0x1.03afda0000000p-5, -0x1.515d040000000p-8, -0x1.97af600000000p-4, -0x1.c2844a0000000p-6, 0x1.12f1ea0000000p-4, -0x1.79a1fc0000000p-6, 0x1.2aac8e0000000p-3, 0x1.a55d900000000p-4, -0x1.7f831e0000000p-6, 0x1.2141f00000000p-3, 0x1.654fde0000000p-5, -0x1.4d21c20000000p-5, 0x1.1848ac0000000p-3, -0x1.3f1e800000000p-4, 0x1.b9eabe0000000p-5, 0x1.2a6da20000000p-4, 0x1.e0fd860000000p-5, -0x1.a0ff6c0000000p-4, 0x1.dd36f80000000p-5, 0x1.b787c60000000p-9, -0x1.6fa5ce0000000p-4, -0x1.99a1e00000000p-6, 0x1.62d43c0000000p-5, 0x1.e56ef00000000p-5, 0x1.e3be3a0000000p-8, 0x1.8cedb40000000p-5, -0x1.dfffca0000000p-6, 0x1.4de20e0000000p-4, -0x1.4ce6760000000p-3, 0x1.9bfeb80000000p-4, 0x1.3a4ff60000000p-5, -0x1.0b138c0000000p-2, -0x1.006f3e0000000p-3, -0x1.0b92ee0000000p-4, 0x1.b1438a0000000p-4, 0x1.a3423a0000000p-4, -0x1.c50e660000000p-9, 0x1.7001540000000p-4, -0x1.a527020000000p-4, 0x1.07ef7c0000000p-3, 0x1.9f94d60000000p-4, -0x1.af55a60000000p-6, -0x1.7c4c3e0000000p-5, 0x1.a09f320000000p-5, 0x1.51e5a20000000p-4, 0x1.96dfe20000000p-4, -0x1.f9d7f80000000p-4, -0x1.598b2c0000000p-4, -0x1.18bf0c0000000p-3, -0x1.8cd1d00000000p-5, -0x1.a5b1480000000p-3, -0x1.afd3a40000000p-6, 0x1.e489900000000p-8, -0x1.d1f8000000000p-4, -0x1.4e25ee0000000p-5, 0x1.1001aa0000000p-7, -0x1.c667c20000000p-6, -0x1.0c0f540000000p-4, -0x1.09d2d00000000p-4, -0x1.fc5b8e0000000p-4, -0x1.1c787a0000000p-6, -0x1.58a7360000000p-4, -0x1.dddf860000000p-5, 0x1.1dc8a80000000p-4, 0x1.a457a40000000p-4, 0x1.ff65900000000p-5, -0x1.1c81820000000p-5, -0x1.47b28c0000000p-6, -0x1.2832780000000p-5, 0x1.b543240000000p-5, -0x1.1ae5800000000p-4, -0x1.01621e0000000p-4, 0x1.0d36f60000000p-6, -0x1.0a549a0000000p-6, 0x1.f695340000000p-4, 0x1.0c2e360000000p-3, 0x1.113d5e0000000p-4, 0x1.33db220000000p-5, -0x1.ee7bc40000000p-4, -0x1.72d4640000000p-5, -0x1.39fe8e0000000p-4, -0x1.278fe00000000p-3, -0x1.406efe0000000p-11, -0x1.b102fa0000000p-5, -0x1.7e5ba80000000p-4, 0x1.3076d00000000p-4, -0x1.a17fd00000000p-4, -0x1.864bf80000000p-7, 0x1.80ed2e0000000p-5, -0x1.8794800000000p-4, -0x1.ffa8fc0000000p-6, 0x1.c40cea0000000p-4, -0x1.9010000000000p-6, -0x1.248d2a0000000p-7, -0x1.347fcc0000000p-5, 0x1.30d8bc0000000p-7, 0x1.3f77100000000p-7, -0x1.8cfe700000000p-6, 0x1.b5d6940000000p-4, 0x1.6cd6040000000p-6, -0x1.9771260000000p-4, -0x1.75eb0a0000000p-6, -0x1.07bdb40000000p-4, 0x1.6dd2160000000p-4, 0x1.84dd900000000p-5, 0x1.f105b20000000p-3, 0x1.c34d500000000p-4, -0x1.6fec380000000p-4, -0x1.92716c0000000p-4, 0x1.7222d80000000p-8, -0x1.2884c80000000p-4, -0x1.3ac0520000000p-6, 0x1.2136020000000p-3, 0x1.2272420000000p-3, -0x1.de9ea00000000p-6, -0x1.73a9360000000p-4, -0x1.a89c8c0000000p-4, 0x1.22c46a0000000p-9, -0x1.7610620000000p-4, 0x1.5d11160000000p-4, -0x1.1c0a940000000p-7, -0x1.d3b3620000000p-7, 0x1.68d5760000000p-6, 0x1.95f4140000000p-4, 0x1.28adb00000000p-3, -0x1.87f44a0000000p-6, 0x1.544bdc0000000p-3, -0x1.4b0a9a0000000p-3, -0x1.6e6bb80000000p-4, -0x1.071ea00000000p-3}
, {0x1.d6d12a0000000p-5, 0x1.c679520000000p-10, 0x1.eb60980000000p-5, 0x1.944dc00000000p-6, 0x1.54b35a0000000p-6, -0x1.1732180000000p-4, -0x1.b44e340000000p-7, 0x1.0ac9800000000p-4, -0x1.19e3480000000p-5, 0x1.4200540000000p-4, -0x1.34f1000000000p-4, 0x1.157fe40000000p-5, -0x1.164fa80000000p-4, -0x1.d67d1c0000000p-4, -0x1.f4e1320000000p-5, -0x1.c12f8a0000000p-5, 0x1.6a8c7a0000000p-4, -0x1.3807b80000000p-4, -0x1.7ffd400000000p-4, -0x1.74f5be0000000p-5, -0x1.ebbaa40000000p-4, -0x1.ad67be0000000p-6, -0x1.8ddcb40000000p-5, -0x1.3ed3d40000000p-4, -0x1.0eac960000000p-4, -0x1.4775cc0000000p-7, 0x1.6b62f40000000p-4, -0x1.e7a8200000000p-4, 0x1.31e8580000000p-4, 0x1.4e845e0000000p-5, 0x1.e948080000000p-6, -0x1.d9d9ee0000000p-7, -0x1.5498860000000p-4, -0x1.5415440000000p-5, -0x1.bd1df00000000p-4, -0x1.b3ebe20000000p-4, 0x1.653bfc0000000p-5, 0x1.8883400000000p-6, 0x1.fd3d580000000p-7, -0x1.959d780000000p-4, 0x1.53dcca0000000p-7, 0x1.a9333c0000000p-5, -0x1.3002ee0000000p-5, 0x1.f13c260000000p-7, -0x1.c2cf880000000p-4, -0x1.a039ca0000000p-4, 0x1.b4ce620000000p-5, 0x1.a7f06c0000000p-4, -0x1.d1fc5a0000000p-5, 0x1.6ca0040000000p-4, 0x1.2f61000000000p-9, 0x1.c9cc0a0000000p-5, -0x1.4875160000000p-4, -0x1.7af9d00000000p-5, -0x1.198c040000000p-3, -0x1.4e3b420000000p-5, -0x1.3edd860000000p-4, -0x1.45bfa80000000p-7, -0x1.f64b240000000p-4, 0x1.80574e0000000p-4, 0x1.ad7cc40000000p-11, 0x1.44292a0000000p-4, 0x1.dfc8d80000000p-7, 0x1.a1ce4e0000000p-4, 0x1.b925ae0000000p-8, 0x1.17f07a0000000p-6, -0x1.1a82400000000p-4, -0x1.3a5f700000000p-5, 0x1.32cd2e0000000p-4, 0x1.5ed1420000000p-5, 0x1.8c1c340000000p-6, -0x1.742d960000000p-6, -0x1.9ab84c0000000p-4, 0x1.c214700000000p-5, 0x1.400eb80000000p-4, 0x1.b794880000000p-5, -0x1.1daef20000000p-4, 0x1.98df920000000p-5, 0x1.f0e3f80000000p-7, -0x1.d3014e0000000p-4, -0x1.fef1000000000p-4, -0x1.f754d60000000p-4, 0x1.e896ee0000000p-4, -0x1.4a66220000000p-5, 0x1.9486700000000p-9, -0x1.2dbda60000000p-5, -0x1.a8a8640000000p-4, 0x1.042ee40000000p-4, 0x1.fe613e0000000p-8, -0x1.75acf00000000p-5, 0x1.039ac80000000p-4, -0x1.28a6780000000p-4, 0x1.80a4680000000p-5, 0x1.5740000000000p-6, -0x1.e577280000000p-5, -0x1.46401c0000000p-4, -0x1.ed4f040000000p-5, 0x1.18e2fe0000000p-5, 0x1.8d19260000000p-4, 0x1.1c70380000000p-4, -0x1.da81500000000p-4, -0x1.4fd5400000000p-5, -0x1.2e34f60000000p-7, -0x1.b692080000000p-4, 0x1.7c1ca20000000p-4, 0x1.85a9d60000000p-6, 0x1.801f9e0000000p-7, 0x1.b5a8fc0000000p-4, -0x1.196ae80000000p-5, -0x1.0dd4fa0000000p-4, -0x1.5409720000000p-4, -0x1.b4971c0000000p-4, -0x1.74c4640000000p-5, 0x1.0f22560000000p-5, -0x1.909b340000000p-4, -0x1.ae9a5c0000000p-5, 0x1.4d7ed60000000p-4, 0x1.97d7b80000000p-4, 0x1.b7490e0000000p-4, -0x1.c3280c0000000p-4, 0x1.2c8b0a0000000p-5, -0x1.1e42be0000000p-4, 0x1.239db20000000p-4, -0x1.5213400000000p-4, 0x1.a02d9c0000000p-6, -0x1.2bc8a80000000p-4, -0x1.49cab40000000p-7, -0x1.d27a500000000p-5, -0x1.8748260000000p-4, 0x1.752ce20000000p-6, -0x1.89ea160000000p-6, -0x1.925d6e0000000p-4, 0x1.e19bb00000000p-5, 0x1.535aaa0000000p-4, -0x1.02c6ac0000000p-3, -0x1.5979020000000p-4, 0x1.988ce80000000p-4, 0x1.07ab540000000p-4, -0x1.243dfe0000000p-4, -0x1.e5fe060000000p-4, -0x1.a0fbdc0000000p-4, -0x1.8b168a0000000p-4, 0x1.ea83280000000p-5, -0x1.3a04400000000p-4, -0x1.c9b4b00000000p-5, 0x1.0802ae0000000p-4, -0x1.59a3c20000000p-4, -0x1.c911b60000000p-4, 0x1.a318d00000000p-5, 0x1.eccbda0000000p-6, 0x1.358dc00000000p-4, -0x1.fd47ae0000000p-4, -0x1.893b0e0000000p-9, -0x1.c32ac20000000p-4, -0x1.3a4e700000000p-10, 0x1.e6615c0000000p-5, -0x1.62dfe80000000p-5, 0x1.23ec940000000p-4, -0x1.3cb24e0000000p-5, -0x1.30e1760000000p-6, -0x1.6a90860000000p-5, 0x1.9cc3620000000p-6, -0x1.50a51c0000000p-4, -0x1.996aac0000000p-7, -0x1.39aa860000000p-4, 0x1.2e14c00000000p-6, 0x1.fa92120000000p-5, 0x1.50cd640000000p-4, -0x1.3adc1e0000000p-5, 0x1.9aa5b20000000p-4, -0x1.bfb9280000000p-6, -0x1.e1c20a0000000p-5, 0x1.7661dc0000000p-6, -0x1.dfd3520000000p-5, -0x1.9e38320000000p-4, -0x1.926e480000000p-4, 0x1.9712660000000p-5, -0x1.429d600000000p-5, 0x1.cdae760000000p-5, -0x1.a410000000000p-10, 0x1.8bbf8c0000000p-6, 0x1.39ad080000000p-4, 0x1.9650ee0000000p-8, 0x1.6123800000000p-5, 0x1.91eea00000000p-5, -0x1.53730e0000000p-5, -0x1.f8eccc0000000p-4, 0x1.12eb680000000p-5, 0x1.edcb4c0000000p-5, -0x1.a905ac0000000p-5, -0x1.feb9aa0000000p-4, -0x1.c6ee560000000p-5, 0x1.3c37d00000000p-6, -0x1.3c56e80000000p-9, -0x1.c352200000000p-5, -0x1.75a57e0000000p-4, -0x1.4df78a0000000p-4, -0x1.e31fbe0000000p-4, -0x1.21dbec0000000p-3, -0x1.f820a80000000p-4, -0x1.07abe40000000p-3, 0x1.d61a500000000p-5, -0x1.f251ce0000000p-10, -0x1.841b300000000p-4, 0x1.0779400000000p-5, -0x1.07bffe0000000p-4, 0x1.2f61c00000000p-4, 0x1.787bea0000000p-4, 0x1.b22d460000000p-4, 0x1.2841740000000p-4, 0x1.92e1de0000000p-5, 0x1.b136920000000p-5, -0x1.2e88c00000000p-4, -0x1.87f7ce0000000p-4, -0x1.d54ff00000000p-5, 0x1.7b9dc60000000p-4, 0x1.f2bc300000000p-5, -0x1.16bf500000000p-5, -0x1.b617e40000000p-4, -0x1.c36c240000000p-4, -0x1.7363580000000p-4, 0x1.6f8f600000000p-4, 0x1.67239e0000000p-4, 0x1.41ac1a0000000p-6, 0x1.5c7aec0000000p-4, 0x1.9969b60000000p-4, 0x1.b141000000000p-5, 0x1.82be760000000p-4, 0x1.98cb7c0000000p-5, -0x1.41fe9c0000000p-8, -0x1.f58e0c0000000p-5, 0x1.d361ae0000000p-4, -0x1.1550020000000p-4, 0x1.431ad60000000p-4, -0x1.4294400000000p-7, 0x1.25faf60000000p-5, 0x1.cd5e820000000p-4, 0x1.8da80e0000000p-4, 0x1.cd18d80000000p-4, 0x1.86c0460000000p-4, -0x1.0e59180000000p-3, 0x1.42a1720000000p-4, -0x1.92a9da0000000p-4, -0x1.03dc480000000p-3, -0x1.8c3abc0000000p-5, -0x1.0d3bde0000000p-3, 0x1.2df5800000000p-6, -0x1.3abb000000000p-4, -0x1.f242de0000000p-4, -0x1.d3b9800000000p-5, -0x1.e504060000000p-9, 0x1.8c96700000000p-4, -0x1.bf81640000000p-4, 0x1.92f3de0000000p-5, -0x1.cb127c0000000p-5, -0x1.4a22bc0000000p-9}
, {-0x1.2073fe0000000p-12, 0x1.2a56f60000000p-4, -0x1.65d3e40000000p-4, -0x1.1578fa0000000p-3, -0x1.8a36b60000000p-4, -0x1.cfaab60000000p-4, 0x1.4159420000000p-8, 0x1.5dc3600000000p-3, -0x1.be53f00000000p-4, -0x1.4bd0fe0000000p-5, 0x1.ae7f780000000p-5, -0x1.3713880000000p-5, -0x1.186a800000000p-5, -0x1.2f5ec00000000p-5, -0x1.381c8c0000000p-4, -0x1.22e5ce0000000p-4, 0x1.8a740c0000000p-6, -0x1.c423e60000000p-4, 0x1.46b9f40000000p-4, -0x1.647aa20000000p-4, -0x1.2c77e40000000p-5, -0x1.bc9fc60000000p-5, 0x1.67fe180000000p-4, 0x1.c7c3380000000p-6, -0x1.d89a460000000p-5, 0x1.d45e480000000p-7, 0x1.e08be80000000p-4, -0x1.bfe9c20000000p-5, -0x1.a041820000000p-4, -0x1.723ab80000000p-8, -0x1.9653820000000p-7, 0x1.27eae60000000p-4, 0x1.b519da0000000p-6, 0x1.97b7700000000p-4, -0x1.2f716c0000000p-7, -0x1.019ff20000000p-6, 0x1.8eecfe0000000p-4, -0x1.02ac360000000p-3, 0x1.15e0260000000p-4, -0x1.af870e0000000p-8, 0x1.a4a0b20000000p-8, -0x1.8b011a0000000p-4, -0x1.34d2dc0000000p-6, -0x1.66317e0000000p-6, -0x1.1fdc7c0000000p-4, -0x1.7888b80000000p-5, 0x1.26e6ec0000000p-4, -0x1.12f0bc0000000p-3, -0x1.11439e0000000p-3, -0x1.c8b7840000000p-6, 0x1.023c840000000p-6, -0x1.c562aa0000000p-5, 0x1.bf79000000000p-7, 0x1.8d24aa0000000p-6, -0x1.93bab20000000p-6, -0x1.4923c00000000p-5, -0x1.4c61b40000000p-4, 0x1.3e4d440000000p-6, 0x1.1a8f240000000p-4, -0x1.9fb2fa0000000p-6, -0x1.c55f920000000p-5, -0x1.e4827e0000000p-4, 0x1.98ab540000000p-5, 0x1.18d62a0000000p-4, -0x1.2a389e0000000p-3, -0x1.ba08c00000000p-4, -0x1.340f620000000p-3, -0x1.069ff60000000p-4, -0x1.0853d80000000p-3, -0x1.50a5940000000p-4, 0x1.78747c0000000p-4, -0x1.d2cf880000000p-4, -0x1.40ef3e0000000p-3, -0x1.da25460000000p-4, -0x1.a75a300000000p-4, -0x1.e7bb340000000p-5, -0x1.090b420000000p-5, -0x1.20eb5a0000000p-4, 0x1.54bf5e0000000p-8, 0x1.ddd76a0000000p-7, -0x1.136bfe0000000p-3, -0x1.97b4c40000000p-5, -0x1.129b4c0000000p-6, -0x1.3f15f40000000p-3, -0x1.a4989e0000000p-5, 0x1.7cea0a0000000p-4, -0x1.ba24d60000000p-4, -0x1.c4a5fa0000000p-6, 0x1.06ea5a0000000p-5, -0x1.5498d40000000p-4, 0x1.36ffce0000000p-4, -0x1.c758ae0000000p-7, -0x1.2d942a0000000p-11, -0x1.33a8ec0000000p-4, -0x1.b093040000000p-6, -0x1.24c6420000000p-3, -0x1.df7d120000000p-7, -0x1.dfbea60000000p-13, 0x1.bf3f040000000p-4, -0x1.f2af3a0000000p-4, -0x1.a728340000000p-4, 0x1.4e89a40000000p-5, -0x1.bd2c200000000p-6, 0x1.a212660000000p-4, 0x1.ca8a520000000p-7, -0x1.0aa5ee0000000p-7, -0x1.40282e0000000p-3, 0x1.1ef98e0000000p-4, -0x1.1cf9380000000p-4, 0x1.b903180000000p-7, 0x1.339f7c0000000p-7, -0x1.8b32860000000p-4, 0x1.8d4d5e0000000p-4, -0x1.de844c0000000p-7, -0x1.003a840000000p-7, 0x1.f35b520000000p-6, -0x1.9f96440000000p-4, 0x1.664fde0000000p-4, -0x1.56c0360000000p-4, 0x1.39e1680000000p-4, 0x1.1cb8000000000p-6, -0x1.7984340000000p-7, 0x1.4561780000000p-5, 0x1.a121f20000000p-8, -0x1.1923d60000000p-4, 0x1.98bc380000000p-6, -0x1.2b59c60000000p-4, 0x1.09db120000000p-3, 0x1.75216c0000000p-4, -0x1.7b341c0000000p-6, -0x1.7f2fe00000000p-4, 0x1.7016840000000p-4, -0x1.8f0ed00000000p-6, -0x1.303f520000000p-4, 0x1.854ece0000000p-4, -0x1.53137c0000000p-4, 0x1.2455ce0000000p-5, -0x1.43fb740000000p-3, 0x1.f5d9d40000000p-6, -0x1.c77e7a0000000p-5, -0x1.3267680000000p-4, 0x1.20fc360000000p-4, -0x1.3933360000000p-5, 0x1.ee226c0000000p-5, 0x1.4a53720000000p-6, -0x1.dbfd820000000p-4, 0x1.df0b140000000p-6, -0x1.afbf120000000p-4, 0x1.25534a0000000p-5, -0x1.ae10360000000p-9, 0x1.76d2fe0000000p-11, 0x1.167f900000000p-5, -0x1.67588c0000000p-7, -0x1.1143520000000p-3, 0x1.6b66ba0000000p-6, -0x1.5cab640000000p-4, 0x1.4cebfc0000000p-4, 0x1.0e673e0000000p-4, 0x1.b5910e0000000p-6, 0x1.843c060000000p-5, -0x1.4849b20000000p-4, -0x1.aa31800000000p-4, -0x1.ac2b360000000p-4, -0x1.16317a0000000p-4, -0x1.8eedbe0000000p-5, 0x1.5185220000000p-6, 0x1.9578ca0000000p-5, -0x1.5ab4400000000p-7, 0x1.4c883c0000000p-8, 0x1.211d4e0000000p-4, -0x1.3ca02c0000000p-4, 0x1.7a4b240000000p-4, 0x1.4f094c0000000p-4, -0x1.07d8a40000000p-5, -0x1.01d3a40000000p-3, -0x1.2b0b840000000p-4, -0x1.a8eabe0000000p-6, 0x1.075bf60000000p-4, -0x1.b4b3560000000p-4, -0x1.488f600000000p-6, 0x1.5b29080000000p-4, 0x1.715d720000000p-5, -0x1.4b20040000000p-6, 0x1.9a4e0a0000000p-3, 0x1.64c2560000000p-4, 0x1.3465a40000000p-9, -0x1.a488ea0000000p-4, 0x1.0d60480000000p-4, -0x1.9ca4d40000000p-6, -0x1.843c2e0000000p-3, 0x1.513fbe0000000p-4, -0x1.558ae20000000p-6, -0x1.58382e0000000p-4, 0x1.45267c0000000p-4, 0x1.a603360000000p-4, 0x1.c870fa0000000p-6, 0x1.6e47e80000000p-5, 0x1.0e98400000000p-9, 0x1.7c7d780000000p-6, -0x1.1d9c300000000p-4, -0x1.1f4dd20000000p-3, -0x1.1a341c0000000p-4, -0x1.aa50d80000000p-4, -0x1.67a7d20000000p-4, -0x1.4adf060000000p-5, -0x1.e4fb840000000p-4, 0x1.3c50ec0000000p-4, 0x1.ba34b60000000p-5, -0x1.efa3f40000000p-4, -0x1.19c66e0000000p-3, -0x1.f629540000000p-4, 0x1.95103a0000000p-5, 0x1.c745c60000000p-7, 0x1.c6ccfe0000000p-6, 0x1.17aa3a0000000p-4, -0x1.e687d80000000p-4, 0x1.be855c0000000p-4, 0x1.9484220000000p-5, -0x1.328baa0000000p-7, 0x1.8478ea0000000p-4, 0x1.1388dc0000000p-4, 0x1.1e78b60000000p-3, -0x1.3c93e20000000p-3, 0x1.693c540000000p-4, 0x1.5ec9ca0000000p-4, 0x1.665d660000000p-4, -0x1.f261740000000p-4, 0x1.80f4e60000000p-4, 0x1.f7e41e0000000p-5, -0x1.0b200a0000000p-5, 0x1.64cc700000000p-4, -0x1.182cbc0000000p-7, 0x1.cd15280000000p-4, -0x1.682f3c0000000p-4, -0x1.544fd00000000p-8, -0x1.1762160000000p-3, -0x1.8b2aec0000000p-7, -0x1.242d6a0000000p-4, 0x1.799d980000000p-5, 0x1.4e29280000000p-4, 0x1.296c300000000p-4, -0x1.596bfe0000000p-5, 0x1.0143c80000000p-4, -0x1.1c34b80000000p-7, -0x1.5750a20000000p-6, 0x1.84aaec0000000p-4, -0x1.f9a6b60000000p-5, -0x1.3040520000000p-4, 0x1.feaaee0000000p-8, -0x1.10eb4e0000000p-5, 0x1.6b085a0000000p-4, 0x1.5453640000000p-5, -0x1.1769c60000000p-4, 0x1.45c7b60000000p-4, -0x1.dd5e020000000p-5, -0x1.d0eba20000000p-4}
, {-0x1.1085d80000000p-3, 0x1.74f0f80000000p-4, -0x1.9760b60000000p-5, -0x1.3623c40000000p-3, 0x1.a67ff40000000p-4, -0x1.0bfdd00000000p-5, -0x1.57412c0000000p-8, 0x1.7392de0000000p-6, -0x1.891d9e0000000p-6, -0x1.3389440000000p-5, 0x1.bd6ba80000000p-5, 0x1.bed1340000000p-8, 0x1.15ca7e0000000p-4, -0x1.78d3d80000000p-4, 0x1.08b2480000000p-5, 0x1.bd96e40000000p-4, -0x1.0de5980000000p-3, -0x1.56161a0000000p-6, -0x1.07ac620000000p-3, 0x1.c5b6300000000p-5, 0x1.b65ab00000000p-6, -0x1.4f83700000000p-7, -0x1.c961dc0000000p-4, -0x1.8ef2a60000000p-4, 0x1.8f35880000000p-4, 0x1.385d1a0000000p-6, -0x1.032cd20000000p-4, 0x1.79274e0000000p-6, -0x1.57d7640000000p-5, 0x1.409f7c0000000p-3, -0x1.8e670a0000000p-7, -0x1.0020f60000000p-3, 0x1.4cb4560000000p-4, -0x1.9e66420000000p-4, -0x1.80c5d00000000p-7, 0x1.d7ff5a0000000p-5, 0x1.2bf1f60000000p-3, -0x1.bbd51a0000000p-4, 0x1.0d2a320000000p-5, 0x1.d84f680000000p-7, -0x1.802bf20000000p-4, 0x1.1f59a00000000p-4, 0x1.a817740000000p-7, 0x1.5e74800000000p-7, 0x1.822fe00000000p-5, -0x1.9ce3d40000000p-5, -0x1.d925460000000p-6, -0x1.f390880000000p-7, -0x1.22ad440000000p-3, 0x1.431fb80000000p-8, 0x1.9df23e0000000p-5, 0x1.09409a0000000p-4, 0x1.ea05fc0000000p-4, 0x1.5633220000000p-5, -0x1.2157480000000p-4, 0x1.83c7ac0000000p-6, -0x1.8d8b160000000p-5, -0x1.5e2ce00000000p-6, -0x1.c97f9a0000000p-4, 0x1.0452bc0000000p-5, -0x1.f6ed6a0000000p-6, -0x1.89272a0000000p-6, 0x1.69f9b60000000p-5, -0x1.0cf20e0000000p-6, -0x1.02dbbe0000000p-3, -0x1.d6e7480000000p-4, 0x1.aacf9c0000000p-3, -0x1.9250d20000000p-4, -0x1.c134320000000p-4, 0x1.607e780000000p-4, -0x1.df40660000000p-7, -0x1.dfc67c0000000p-4, 0x1.ebf3c80000000p-10, -0x1.1f3d8a0000000p-6, 0x1.36a1be0000000p-4, 0x1.fc9c360000000p-5, 0x1.124a4a0000000p-5, -0x1.a91f7e0000000p-4, 0x1.767a220000000p-4, -0x1.7ee30e0000000p-4, 0x1.f41b6c0000000p-5, 0x1.2039360000000p-3, -0x1.57910a0000000p-4, -0x1.1b776e0000000p-5, -0x1.471afc0000000p-6, 0x1.1bb58e0000000p-4, 0x1.aa224c0000000p-4, -0x1.53d66a0000000p-3, 0x1.83fb9a0000000p-3, -0x1.cbe6560000000p-5, 0x1.dc012e0000000p-4, 0x1.2322020000000p-4, -0x1.26a1f40000000p-4, 0x1.fa91960000000p-5, 0x1.89b8e80000000p-11, 0x1.36e1fe0000000p-4, 0x1.09119c0000000p-3, 0x1.0e89ba0000000p-4, -0x1.3cba300000000p-11, -0x1.831bfe0000000p-4, -0x1.7eff000000000p-3, -0x1.adb0060000000p-4, -0x1.e569b40000000p-5, -0x1.9fbba80000000p-6, 0x1.3619300000000p-3, 0x1.4618d40000000p-4, -0x1.4f01a60000000p-6, -0x1.092c700000000p-5, 0x1.f016800000000p-5, -0x1.a344ca0000000p-5, 0x1.0282b80000000p-4, -0x1.0e63680000000p-2, 0x1.995a4c0000000p-4, 0x1.c45a620000000p-4, 0x1.2bdf860000000p-4, 0x1.73f6c40000000p-4, -0x1.aeaa520000000p-5, 0x1.3eaa4c0000000p-4, -0x1.0057c40000000p-3, -0x1.1e6a660000000p-4, -0x1.3283f40000000p-4, 0x1.d7dd440000000p-6, -0x1.0da51c0000000p-5, -0x1.63c0ec0000000p-4, 0x1.2db96c0000000p-4, 0x1.05a5320000000p-3, -0x1.11d6980000000p-3, -0x1.247f6c0000000p-5, 0x1.b7b4fa0000000p-4, -0x1.72c60e0000000p-6, -0x1.88ce0a0000000p-4, 0x1.f9a4fe0000000p-4, 0x1.0274660000000p-4, 0x1.3a93f40000000p-4, 0x1.0d9de00000000p-5, 0x1.2eacd80000000p-4, -0x1.819a2a0000000p-4, 0x1.32e5420000000p-4, 0x1.ad43be0000000p-6, -0x1.e341260000000p-3, -0x1.be58440000000p-5, 0x1.9b1e940000000p-4, 0x1.4225dc0000000p-3, 0x1.db110a0000000p-6, -0x1.2c7a240000000p-4, 0x1.39a7760000000p-4, -0x1.54ea740000000p-3, 0x1.1e59c60000000p-5, 0x1.5c82ae0000000p-6, -0x1.32104a0000000p-3, -0x1.21c9e00000000p-3, 0x1.3629820000000p-5, 0x1.9084360000000p-4, 0x1.3cf6300000000p-4, 0x1.88d4640000000p-6, 0x1.3458dc0000000p-4, 0x1.37a7b20000000p-5, -0x1.c4472e0000000p-4, -0x1.58f7780000000p-4, -0x1.56ee020000000p-3, -0x1.e0964e0000000p-4, -0x1.f86c900000000p-6, -0x1.6ef1e20000000p-4, 0x1.719f7a0000000p-3, -0x1.02cb6a0000000p-7, -0x1.1d281c0000000p-3, 0x1.2cb91a0000000p-5, 0x1.5889440000000p-4, -0x1.de3e800000000p-4, 0x1.96a9280000000p-6, -0x1.62227c0000000p-3, 0x1.aac94e0000000p-4, 0x1.7caa0a0000000p-4, 0x1.0d5cc80000000p-4, -0x1.b61b580000000p-6, 0x1.cd41e00000000p-4, 0x1.5995b80000000p-5, -0x1.6b39be0000000p-4, 0x1.85ab740000000p-3, 0x1.4f44000000000p-4, -0x1.5141040000000p-4, -0x1.d955dc0000000p-5, -0x1.ca79180000000p-6, -0x1.0a8d500000000p-3, 0x1.f6869c0000000p-5, -0x1.4389b60000000p-5, -0x1.d03caa0000000p-9, 0x1.90edd20000000p-4, 0x1.bc358e0000000p-5, -0x1.7cd72c0000000p-4, 0x1.7702ae0000000p-4, -0x1.91f82a0000000p-4, 0x1.0b66f20000000p-6, 0x1.3608380000000p-4, 0x1.ea7f560000000p-7, -0x1.b1e7540000000p-4, -0x1.2da8aa0000000p-3, -0x1.42a7ba0000000p-4, -0x1.debf9c0000000p-4, 0x1.e1f0b60000000p-8, 0x1.2e6e940000000p-4, 0x1.d3f0380000000p-4, -0x1.60b68e0000000p-4, 0x1.1e2f780000000p-4, -0x1.0377dc0000000p-5, -0x1.0db4780000000p-6, 0x1.2a42d20000000p-3, -0x1.88f6be0000000p-4, 0x1.e34a3c0000000p-4, -0x1.c6535a0000000p-5, -0x1.b9764a0000000p-4, -0x1.bbe11c0000000p-4, 0x1.f3a0360000000p-6, -0x1.1dd1140000000p-3, -0x1.20dd300000000p-5, 0x1.c977f80000000p-5, -0x1.058eda0000000p-4, 0x1.1bf01a0000000p-7, -0x1.060cb80000000p-4, -0x1.d0892c0000000p-7, 0x1.c7b0180000000p-4, -0x1.b5bd8e0000000p-4, 0x1.904dc40000000p-4, 0x1.5cf21a0000000p-7, 0x1.45b9720000000p-3, -0x1.d6c9400000000p-6, 0x1.1f2f400000000p-6, -0x1.56c4a20000000p-6, -0x1.03a89c0000000p-3, 0x1.cb3c5a0000000p-7, -0x1.ca1fe60000000p-7, -0x1.fc1cde0000000p-5, -0x1.ef3e880000000p-4, -0x1.116e7e0000000p-5, 0x1.dfa32e0000000p-3, 0x1.54c68c0000000p-4, 0x1.fe026e0000000p-4, -0x1.b471e80000000p-6, 0x1.6e738e0000000p-4, -0x1.e0c8780000000p-6, -0x1.61716c0000000p-4, -0x1.614ba20000000p-5, -0x1.278ba20000000p-3, -0x1.18359c0000000p-4, 0x1.34007a0000000p-4, -0x1.1bccd80000000p-5, -0x1.4b54c40000000p-5, -0x1.ef96920000000p-7, -0x1.74a4f60000000p-5, 0x1.aae9460000000p-4, 0x1.54fc0a0000000p-3, -0x1.593c0c0000000p-3, 0x1.24a10e0000000p-3, 0x1.94f8e60000000p-4, -0x1.c6810e0000000p-10, -0x1.06696c0000000p-4}
, {0x1.23ad6e0000000p-4, -0x1.ee85ce0000000p-5, -0x1.fe68800000000p-4, 0x1.ce945e0000000p-8, 0x1.9237be0000000p-4, -0x1.71c7420000000p-4, 0x1.95089a0000000p-7, 0x1.06c2780000000p-3, 0x1.64d5fa0000000p-4, 0x1.1794ea0000000p-3, -0x1.7651d40000000p-3, -0x1.40a30a0000000p-5, 0x1.871e120000000p-4, -0x1.a625200000000p-5, -0x1.9e28da0000000p-6, 0x1.cd17b00000000p-7, -0x1.07e9ee0000000p-4, -0x1.2fa0d40000000p-4, -0x1.1adcb80000000p-4, 0x1.18f0620000000p-3, 0x1.9de1d20000000p-4, -0x1.23cc2a0000000p-6, -0x1.82112c0000000p-4, 0x1.ed7f0a0000000p-6, 0x1.b67d2a0000000p-4, 0x1.0c382c0000000p-5, 0x1.9234b80000000p-4, -0x1.cbbbea0000000p-5, 0x1.2e51500000000p-4, -0x1.55cb660000000p-3, 0x1.76c19c0000000p-11, -0x1.3308700000000p-5, 0x1.0059a00000000p-3, 0x1.d5f45a0000000p-5, 0x1.09b9d40000000p-6, -0x1.e14ec60000000p-5, -0x1.35f0240000000p-4, -0x1.e0d4e80000000p-3, -0x1.cab9600000000p-6, 0x1.6740860000000p-5, -0x1.a2ccac0000000p-4, -0x1.3029ba0000000p-4, -0x1.e382a20000000p-4, 0x1.c0cfac0000000p-4, 0x1.80a54c0000000p-3, -0x1.baa0360000000p-7, -0x1.a9a01c0000000p-4, 0x1.c9e2a40000000p-4, 0x1.af597e0000000p-4, 0x1.69fe0a0000000p-4, 0x1.2e44aa0000000p-12, -0x1.8ae1c80000000p-4, 0x1.01328c0000000p-6, -0x1.cd31f00000000p-6, 0x1.2f68480000000p-4, -0x1.051d7e0000000p-5, 0x1.71d2240000000p-8, 0x1.d2d0460000000p-4, -0x1.bf06ee0000000p-4, -0x1.2314c20000000p-5, 0x1.016cb60000000p-4, 0x1.8506c20000000p-5, -0x1.ad4b4c0000000p-4, 0x1.f020140000000p-4, 0x1.6fef900000000p-4, -0x1.62ce6c0000000p-5, 0x1.9c2d5a0000000p-4, 0x1.e372e20000000p-4, -0x1.930b9c0000000p-4, 0x1.3cb48e0000000p-6, -0x1.72a3840000000p-4, 0x1.d96ce20000000p-5, 0x1.83d36a0000000p-5, -0x1.330ece0000000p-5, -0x1.6f90d20000000p-5, -0x1.24dcec0000000p-4, -0x1.0f2df80000000p-6, 0x1.e443ce0000000p-4, 0x1.2ebdf00000000p-4, 0x1.7473d40000000p-6, -0x1.7f20b80000000p-6, 0x1.3b286e0000000p-5, -0x1.d3bbf00000000p-5, 0x1.c1d7ba0000000p-4, 0x1.39a57a0000000p-3, 0x1.f689100000000p-6, 0x1.8713ea0000000p-4, 0x1.7ce0fa0000000p-5, -0x1.c904f80000000p-4, 0x1.35e7500000000p-4, -0x1.a14cf00000000p-4, -0x1.b332d80000000p-3, -0x1.ba18ec0000000p-8, -0x1.3fb6920000000p-5, -0x1.68c1340000000p-4, -0x1.de31900000000p-4, -0x1.19ae420000000p-3, 0x1.18edae0000000p-3, -0x1.5ef6e20000000p-4, -0x1.aa86100000000p-4, 0x1.636d300000000p-3, -0x1.9898020000000p-5, 0x1.f18dde0000000p-5, 0x1.312a180000000p-5, 0x1.9ab9c80000000p-7, 0x1.afa48c0000000p-5, -0x1.c7b7cc0000000p-5, 0x1.91a40a0000000p-7, 0x1.b46d9a0000000p-7, -0x1.2be73a0000000p-6, 0x1.da50680000000p-5, 0x1.7b18f00000000p-4, -0x1.2541560000000p-4, -0x1.f484ba0000000p-5, -0x1.b900ba0000000p-4, -0x1.4bd1c40000000p-8, -0x1.ace83a0000000p-6, -0x1.47fc920000000p-3, -0x1.0a8b8e0000000p-5, 0x1.309e160000000p-4, -0x1.8dd9c00000000p-4, -0x1.fc3d660000000p-5, -0x1.3dcbf40000000p-4, 0x1.27b54e0000000p-3, -0x1.4fed540000000p-4, -0x1.ccef6c0000000p-4, 0x1.34b9aa0000000p-3, 0x1.88da300000000p-4, -0x1.0fd44c0000000p-4, -0x1.038e360000000p-5, -0x1.2821720000000p-5, -0x1.c63e940000000p-4, 0x1.b9fa7e0000000p-6, 0x1.81a7880000000p-5, 0x1.cd84840000000p-4, 0x1.f4acc00000000p-5, 0x1.1d44b00000000p-3, -0x1.32d8b40000000p-4, 0x1.632ce00000000p-4, -0x1.653db00000000p-5, 0x1.76b8040000000p-4, 0x1.6d82c40000000p-4, -0x1.2853e40000000p-5, -0x1.6332da0000000p-8, -0x1.d9152c0000000p-7, -0x1.0590060000000p-4, -0x1.83a7040000000p-4, 0x1.7ec9220000000p-5, -0x1.b1c5540000000p-6, -0x1.ca6d500000000p-4, 0x1.4b1d1e0000000p-4, 0x1.d13d2a0000000p-6, 0x1.570dcc0000000p-6, -0x1.dac5220000000p-6, 0x1.0532ce0000000p-3, -0x1.295b5c0000000p-4, 0x1.080fec0000000p-3, 0x1.6142660000000p-3, 0x1.1f74d40000000p-5, 0x1.1cb5b60000000p-5, -0x1.f9f2c20000000p-6, -0x1.5fd9760000000p-4, 0x1.80c7c20000000p-4, -0x1.61c94c0000000p-4, 0x1.7e8b9c0000000p-4, -0x1.2aaa0c0000000p-4, 0x1.c9622c0000000p-3, 0x1.4664620000000p-6, -0x1.3b453a0000000p-4, 0x1.c0a9160000000p-4, -0x1.49143c0000000p-4, 0x1.3a0f340000000p-3, 0x1.0d8e580000000p-3, 0x1.679e4e0000000p-4, 0x1.30312a0000000p-5, -0x1.7d8aac0000000p-4, -0x1.c0a99c0000000p-5, -0x1.dee32c0000000p-8, -0x1.c2b3f20000000p-4, 0x1.00f7800000000p-6, -0x1.d1e99a0000000p-4, -0x1.3562540000000p-5, -0x1.4f4f400000000p-8, 0x1.45f0de0000000p-3, -0x1.c0649c0000000p-7, 0x1.5b27580000000p-8, -0x1.6d34840000000p-6, 0x1.e5cc3c0000000p-4, -0x1.86cba00000000p-7, -0x1.355adc0000000p-5, -0x1.f77bae0000000p-5, -0x1.fa40460000000p-5, 0x1.59c30e0000000p-10, -0x1.68920c0000000p-4, 0x1.52e9f80000000p-8, -0x1.63a30e0000000p-5, -0x1.fd64860000000p-5, -0x1.262a380000000p-5, 0x1.d581620000000p-6, 0x1.b2273e0000000p-5, 0x1.c8a4fe0000000p-4, 0x1.33c1b60000000p-4, 0x1.b103ce0000000p-8, -0x1.b2579a0000000p-4, -0x1.d660fe0000000p-5, -0x1.2e0b960000000p-3, -0x1.1441c00000000p-5, 0x1.3f5ebc0000000p-3, 0x1.fb0d400000000p-6, 0x1.4d0ca20000000p-3, -0x1.08f8800000000p-4, 0x1.f960f80000000p-6, -0x1.a09b720000000p-5, 0x1.e606a60000000p-6, -0x1.c3ab020000000p-6, 0x1.fa6e7a0000000p-4, 0x1.ea205c0000000p-4, -0x1.5385140000000p-4, 0x1.5bf8d80000000p-5, 0x1.77b80e0000000p-4, 0x1.9faff60000000p-4, 0x1.258a800000000p-4, -0x1.8059f60000000p-4, -0x1.52fc200000000p-3, 0x1.30f9880000000p-4, 0x1.eb44160000000p-4, 0x1.f522480000000p-7, -0x1.877d540000000p-4, 0x1.8aad840000000p-8, 0x1.20e80e0000000p-3, 0x1.1c0c5e0000000p-10, -0x1.45dda80000000p-8, -0x1.4c7a100000000p-7, -0x1.9367060000000p-4, -0x1.4dfeee0000000p-3, -0x1.63fe440000000p-6, -0x1.f4d7a40000000p-4, -0x1.49720e0000000p-5, 0x1.9764740000000p-4, 0x1.8992840000000p-3, 0x1.55e6c80000000p-3, -0x1.4c8be60000000p-4, -0x1.4b954c0000000p-4, 0x1.bff5fa0000000p-4, 0x1.1099480000000p-6, -0x1.3428d20000000p-3, -0x1.1f31ca0000000p-6, 0x1.969fd60000000p-4, 0x1.a51cba0000000p-4, 0x1.b1d6860000000p-9, -0x1.2911ce0000000p-6, -0x1.e1541a0000000p-6, -0x1.5e8c540000000p-6, 0x1.3ce4880000000p-3, -0x1.c592380000000p-5, -0x1.c2400c0000000p-4}
, {0x1.160ea40000000p-7, -0x1.9e5e520000000p-7, 0x1.79327a0000000p-4, -0x1.64070e0000000p-7, -0x1.0300320000000p-6, 0x1.7feb2e0000000p-4, 0x1.0a3cda0000000p-4, 0x1.413ff40000000p-9, 0x1.cf1d700000000p-4, 0x1.e9bb120000000p-4, 0x1.7191b40000000p-6, -0x1.db896e0000000p-4, -0x1.f7667c0000000p-6, -0x1.6715ec0000000p-6, -0x1.9e63140000000p-4, -0x1.728b4c0000000p-6, -0x1.52dd420000000p-4, 0x1.db245c0000000p-11, -0x1.1a0a220000000p-3, 0x1.33322c0000000p-5, 0x1.d7d81a0000000p-8, 0x1.0d17ba0000000p-4, -0x1.652b420000000p-4, -0x1.782ce20000000p-4, 0x1.8cfca80000000p-4, -0x1.858eea0000000p-5, -0x1.8f22d20000000p-5, -0x1.4bca9a0000000p-4, -0x1.1b82720000000p-5, -0x1.fdd1980000000p-5, 0x1.61d5220000000p-6, -0x1.badea40000000p-4, 0x1.430b780000000p-10, 0x1.8099bc0000000p-4, 0x1.b75ebc0000000p-9, -0x1.9b9d540000000p-9, -0x1.24d1040000000p-4, 0x1.bbcd720000000p-5, -0x1.bc288c0000000p-11, -0x1.bae2000000000p-6, -0x1.8365be0000000p-5, -0x1.ad7ada0000000p-3, 0x1.39c2400000000p-4, -0x1.38b5080000000p-4, 0x1.02897c0000000p-4, -0x1.aabb0c0000000p-7, 0x1.8cf0fc0000000p-7, 0x1.7a791e0000000p-3, 0x1.681fc40000000p-5, 0x1.3ed7380000000p-3, -0x1.5f6dd00000000p-4, -0x1.16ca860000000p-6, 0x1.1456160000000p-4, 0x1.af35260000000p-4, 0x1.07da5e0000000p-3, -0x1.70a3e40000000p-7, -0x1.e77ba00000000p-7, -0x1.36a0340000000p-3, -0x1.8167940000000p-8, -0x1.f24a0e0000000p-5, 0x1.4b522e0000000p-3, 0x1.40a5220000000p-3, -0x1.719a640000000p-4, 0x1.3ed97c0000000p-4, 0x1.7e5eee0000000p-6, -0x1.dddf080000000p-4, -0x1.b37cfc0000000p-5, -0x1.1c2f420000000p-5, -0x1.e25df00000000p-4, -0x1.e23cfc0000000p-5, 0x1.32ef460000000p-5, 0x1.4956460000000p-4, -0x1.8110620000000p-3, 0x1.d37fb00000000p-4, 0x1.85ad220000000p-8, -0x1.ad662a0000000p-4, -0x1.1005440000000p-5, 0x1.6383a00000000p-11, 0x1.ba64d60000000p-5, 0x1.9329880000000p-5, 0x1.9fa1880000000p-4, -0x1.50a97e0000000p-3, -0x1.a48da80000000p-6, -0x1.9d98b40000000p-4, -0x1.968e020000000p-5, -0x1.9f62580000000p-5, 0x1.7e86800000000p-6, -0x1.9c0e540000000p-4, -0x1.361d6e0000000p-7, -0x1.69dc840000000p-4, -0x1.1b58960000000p-6, 0x1.0dd9260000000p-5, -0x1.92672c0000000p-8, -0x1.9180ba0000000p-5, -0x1.b247180000000p-5, -0x1.a862c80000000p-7, 0x1.eff4f60000000p-5, -0x1.d622e40000000p-5, 0x1.152e920000000p-6, -0x1.c6874a0000000p-4, 0x1.4764a00000000p-3, 0x1.5d557c0000000p-4, -0x1.b116160000000p-3, 0x1.1188740000000p-3, 0x1.9cc96e0000000p-7, 0x1.c148a20000000p-4, -0x1.85cfd40000000p-6, -0x1.e1085a0000000p-5, 0x1.33edd20000000p-4, 0x1.1cef1a0000000p-3, 0x1.f8ef1c0000000p-4, -0x1.106c660000000p-3, -0x1.0603500000000p-12, 0x1.ecd87c0000000p-5, 0x1.2deff40000000p-6, 0x1.afc7420000000p-5, -0x1.859e160000000p-5, 0x1.460fc00000000p-6, -0x1.957a4c0000000p-5, -0x1.002d480000000p-3, -0x1.4b968c0000000p-5, 0x1.bb19120000000p-4, 0x1.5dd5e60000000p-4, 0x1.4386b00000000p-11, -0x1.1866020000000p-3, -0x1.43893c0000000p-4, -0x1.d0fcb20000000p-5, 0x1.ca803c0000000p-5, 0x1.1d8d7c0000000p-6, -0x1.61bb060000000p-5, -0x1.46d02a0000000p-7, -0x1.7c229a0000000p-8, 0x1.457b000000000p-4, -0x1.cdc34e0000000p-4, -0x1.e002760000000p-5, -0x1.4ef1920000000p-4, -0x1.b6e41c0000000p-4, 0x1.01cc260000000p-3, 0x1.f9200e0000000p-6, -0x1.8ca34c0000000p-5, -0x1.15f4380000000p-5, 0x1.7da1f00000000p-4, 0x1.cb19f80000000p-5, -0x1.2a8eb20000000p-3, 0x1.da476e0000000p-5, 0x1.ff78040000000p-5, 0x1.496ff00000000p-4, 0x1.4a9d480000000p-4, -0x1.af6c880000000p-8, -0x1.a5de480000000p-4, -0x1.ddbb340000000p-4, 0x1.4ea3ae0000000p-7, 0x1.1a60e60000000p-5, -0x1.55a0440000000p-3, 0x1.84df260000000p-5, -0x1.a0a7000000000p-4, 0x1.fff52c0000000p-5, -0x1.7f46960000000p-5, -0x1.3117a00000000p-4, -0x1.a43f4c0000000p-4, 0x1.0ef5660000000p-3, 0x1.b060b20000000p-5, 0x1.59da5e0000000p-4, 0x1.66bc740000000p-6, 0x1.e305560000000p-4, -0x1.23a4e40000000p-5, 0x1.0c9de20000000p-3, 0x1.9054c20000000p-7, 0x1.d117680000000p-4, 0x1.c0a9840000000p-4, -0x1.4357020000000p-3, 0x1.ca8d640000000p-5, 0x1.0000080000000p-3, -0x1.204e860000000p-5, 0x1.aa73120000000p-4, 0x1.0ff84a0000000p-5, 0x1.1bb7760000000p-5, 0x1.6380c60000000p-5, -0x1.aa37780000000p-6, -0x1.283aa00000000p-5, 0x1.f56b660000000p-7, -0x1.33ab0e0000000p-4, 0x1.32679c0000000p-3, 0x1.b66f920000000p-3, 0x1.4912e00000000p-5, 0x1.5ab5460000000p-5, 0x1.2f83320000000p-4, 0x1.2e51460000000p-4, 0x1.c5fcca0000000p-4, -0x1.d841e60000000p-5, -0x1.e53a920000000p-3, 0x1.076f600000000p-3, -0x1.e8a0de0000000p-6, -0x1.2a47940000000p-4, -0x1.08c7be0000000p-3, -0x1.0aadea0000000p-4, -0x1.648c100000000p-3, -0x1.6eae280000000p-3, -0x1.25b7700000000p-4, 0x1.20dbfc0000000p-3, 0x1.911e0e0000000p-4, 0x1.3ec5fe0000000p-5, 0x1.42a3fe0000000p-5, 0x1.592dee0000000p-4, 0x1.8956f00000000p-5, -0x1.b767fa0000000p-4, 0x1.a88f9c0000000p-5, 0x1.a837da0000000p-5, 0x1.06acba0000000p-7, -0x1.be10fe0000000p-5, -0x1.abb65c0000000p-5, 0x1.1872680000000p-3, 0x1.db90ca0000000p-4, -0x1.447a920000000p-4, 0x1.0eec100000000p-5, 0x1.5d1cf20000000p-3, -0x1.d611c00000000p-5, 0x1.ac06480000000p-4, -0x1.19aab60000000p-4, -0x1.a7bd1a0000000p-6, -0x1.4d0b000000000p-7, -0x1.aa2ee40000000p-4, -0x1.0b255a0000000p-3, 0x1.ec06780000000p-5, -0x1.10c2220000000p-4, 0x1.ed666a0000000p-4, -0x1.bd3c6e0000000p-7, 0x1.e92cde0000000p-4, -0x1.420cbe0000000p-9, -0x1.35f6920000000p-4, 0x1.b784600000000p-4, -0x1.bf64940000000p-4, -0x1.da92da0000000p-4, -0x1.28fc6e0000000p-3, -0x1.a429960000000p-5, 0x1.0e7e000000000p-3, 0x1.c995260000000p-4, -0x1.631a0c0000000p-3, 0x1.4656760000000p-3, -0x1.b6a87a0000000p-4, -0x1.deed120000000p-4, 0x1.073ef40000000p-5, -0x1.caa9540000000p-7, 0x1.0d7a680000000p-6, 0x1.9ff3bc0000000p-4, -0x1.990d6a0000000p-3, -0x1.7c3ef00000000p-7, 0x1.4e77020000000p-3, -0x1.7692520000000p-3, 0x1.8287640000000p-6, 0x1.a018300000000p-5, -0x1.7e7b5c0000000p-8, -0x1.9e4d0c0000000p-3, -0x1.2394ec0000000p-3, 0x1.1db00c0000000p-3, -0x1.53633a0000000p-3}
, {0x1.c3231c0000000p-5, 0x1.4e73a00000000p-4, -0x1.487ea80000000p-5, -0x1.52bbae0000000p-6, -0x1.5536740000000p-4, 0x1.81ca380000000p-5, -0x1.16aa020000000p-5, -0x1.24de080000000p-6, -0x1.490d080000000p-4, -0x1.9491ce0000000p-4, 0x1.79ccac0000000p-5, 0x1.5a42740000000p-6, -0x1.41d7920000000p-5, 0x1.22e8680000000p-4, -0x1.1440520000000p-5, 0x1.e8d16e0000000p-4, 0x1.746b080000000p-5, -0x1.a4ed360000000p-4, 0x1.4abb480000000p-3, -0x1.89a8320000000p-5, 0x1.92a14e0000000p-6, -0x1.c962480000000p-6, -0x1.504ddc0000000p-4, 0x1.855c880000000p-6, 0x1.b9f61c0000000p-4, -0x1.9698be0000000p-5, 0x1.5fe8560000000p-4, -0x1.3b36d60000000p-8, 0x1.7008160000000p-4, 0x1.9c0bf20000000p-3, 0x1.1f16980000000p-5, 0x1.d13c160000000p-4, 0x1.f4619e0000000p-4, 0x1.1da57a0000000p-9, -0x1.7d4be20000000p-4, 0x1.1a0f560000000p-3, 0x1.1e22060000000p-5, 0x1.f3f74c0000000p-4, 0x1.74fa220000000p-6, 0x1.2004a20000000p-6, 0x1.ff66c00000000p-6, 0x1.2f76800000000p-4, -0x1.21aa520000000p-3, -0x1.61318c0000000p-12, -0x1.25783a0000000p-4, -0x1.6183b80000000p-5, -0x1.ed8e8a0000000p-6, 0x1.7d14780000000p-8, -0x1.3ebbd80000000p-6, 0x1.6212600000000p-3, -0x1.149e2e0000000p-3, 0x1.d65eb80000000p-8, 0x1.b21a540000000p-4, 0x1.95eff20000000p-4, -0x1.009e160000000p-6, 0x1.5c23c80000000p-3, 0x1.077f320000000p-3, 0x1.12c81c0000000p-3, 0x1.8013800000000p-3, -0x1.5a0e5e0000000p-4, 0x1.ce4b240000000p-4, 0x1.3ceff80000000p-4, -0x1.4554760000000p-6, 0x1.43d63c0000000p-5, -0x1.cc02680000000p-4, 0x1.92ef5c0000000p-4, -0x1.fbd59e0000000p-4, 0x1.1916d60000000p-2, -0x1.09381a0000000p-8, -0x1.d5a3c60000000p-5, -0x1.46cb0e0000000p-3, 0x1.69ab960000000p-5, 0x1.2bc8e80000000p-9, 0x1.a75f5c0000000p-7, -0x1.28a5060000000p-3, 0x1.05fa3a0000000p-4, 0x1.a44df60000000p-5, 0x1.73cdba0000000p-5, 0x1.25b9e60000000p-5, 0x1.301e400000000p-5, 0x1.5c73f40000000p-4, -0x1.5a84e00000000p-7, 0x1.29f2c40000000p-4, -0x1.919f500000000p-6, 0x1.0bbba80000000p-4, -0x1.07136c0000000p-4, -0x1.869d780000000p-5, 0x1.f796ca0000000p-11, 0x1.6d848c0000000p-7, 0x1.29ea8c0000000p-4, -0x1.b1cf9c0000000p-5, 0x1.27fc8e0000000p-4, -0x1.c205da0000000p-9, 0x1.8d48f60000000p-5, -0x1.2c64fe0000000p-8, -0x1.91335a0000000p-6, -0x1.b836c60000000p-5, 0x1.77c35e0000000p-4, -0x1.7d091e0000000p-7, 0x1.8c31f40000000p-4, 0x1.0977aa0000000p-8, 0x1.ec4e540000000p-4, -0x1.0097640000000p-5, -0x1.043e980000000p-5, -0x1.f7fab60000000p-4, 0x1.5fc2dc0000000p-4, -0x1.15a4480000000p-5, -0x1.66ee020000000p-6, 0x1.86bb560000000p-4, -0x1.e960660000000p-4, -0x1.b8fb960000000p-5, -0x1.2baae20000000p-5, 0x1.0e2ff20000000p-5, 0x1.0867cc0000000p-6, 0x1.bf86d80000000p-5, -0x1.8a737e0000000p-4, -0x1.d743c40000000p-5, 0x1.9482fe0000000p-4, -0x1.a0c2fa0000000p-5, 0x1.2336c20000000p-3, 0x1.8223020000000p-4, -0x1.88c0500000000p-4, 0x1.bbaedc0000000p-4, 0x1.74450a0000000p-4, 0x1.13a26a0000000p-4, 0x1.88a6380000000p-6, 0x1.988f5c0000000p-9, 0x1.86e9120000000p-6, 0x1.8484da0000000p-4, -0x1.8351560000000p-5, 0x1.1709cc0000000p-3, 0x1.e67bc60000000p-4, -0x1.224ea40000000p-3, 0x1.2090ac0000000p-4, 0x1.a668400000000p-6, -0x1.804a6a0000000p-6, -0x1.56b3ea0000000p-4, -0x1.c0b34e0000000p-5, 0x1.1f5d600000000p-5, 0x1.1a6a420000000p-2, -0x1.a988720000000p-6, -0x1.8d68ae0000000p-5, 0x1.fb71240000000p-6, 0x1.1b2c3e0000000p-4, 0x1.113aee0000000p-5, -0x1.66eaec0000000p-5, -0x1.3c3bd00000000p-4, 0x1.8e70840000000p-5, -0x1.93fdd00000000p-4, 0x1.8358760000000p-4, -0x1.1922240000000p-4, 0x1.1a04700000000p-4, -0x1.1ab5f80000000p-5, 0x1.e303760000000p-6, 0x1.c666aa0000000p-4, -0x1.3944740000000p-2, -0x1.b360d20000000p-8, -0x1.1924d80000000p-3, -0x1.7c20900000000p-6, 0x1.e8fea40000000p-8, 0x1.2c32f80000000p-14, -0x1.2aab240000000p-4, 0x1.1affde0000000p-4, 0x1.cab12a0000000p-5, -0x1.d2d3260000000p-7, -0x1.9c7e1a0000000p-5, -0x1.2603ca0000000p-2, 0x1.1990ea0000000p-3, -0x1.d0030c0000000p-8, -0x1.69ad8c0000000p-6, -0x1.5a991e0000000p-4, -0x1.4088e00000000p-4, -0x1.b357980000000p-5, -0x1.cc712c0000000p-6, 0x1.57ff540000000p-3, 0x1.b045960000000p-5, 0x1.38beb80000000p-4, -0x1.6eaa320000000p-3, 0x1.e2c1180000000p-4, -0x1.855f9e0000000p-4, -0x1.50d1b20000000p-7, 0x1.19a06c0000000p-3, -0x1.84b40a0000000p-8, -0x1.d22be40000000p-3, -0x1.0d247c0000000p-3, 0x1.c362200000000p-4, -0x1.19552a0000000p-4, 0x1.0f28ee0000000p-4, -0x1.4a5d120000000p-5, 0x1.05a3ee0000000p-3, -0x1.3a7f3a0000000p-5, -0x1.5f19260000000p-5, 0x1.8dae560000000p-7, -0x1.dcb65c0000000p-4, -0x1.534fd60000000p-6, 0x1.42bb800000000p-4, -0x1.2f2bc80000000p-5, -0x1.626fe60000000p-4, 0x1.c4e96e0000000p-5, -0x1.05db260000000p-4, 0x1.a18eac0000000p-5, 0x1.27c3080000000p-5, -0x1.787dbc0000000p-7, 0x1.9a94380000000p-5, -0x1.d3e5880000000p-4, 0x1.576d240000000p-3, -0x1.325a7c0000000p-5, -0x1.0146de0000000p-3, 0x1.93d2480000000p-4, -0x1.e46ca40000000p-4, 0x1.3d504c0000000p-5, -0x1.d6eefe0000000p-6, -0x1.17f9c20000000p-4, -0x1.3f5bde0000000p-4, 0x1.40a8320000000p-3, -0x1.50c7120000000p-7, 0x1.dbdf720000000p-4, -0x1.9aebf00000000p-7, -0x1.c5afd60000000p-7, 0x1.4e5ad80000000p-4, -0x1.43932c0000000p-4, 0x1.989ffc0000000p-4, 0x1.f2eb7e0000000p-4, -0x1.1738b20000000p-5, 0x1.88b9d00000000p-6, -0x1.6740fc0000000p-4, 0x1.9d56580000000p-4, -0x1.7ca0500000000p-6, -0x1.2b04720000000p-9, 0x1.b27ebc0000000p-4, 0x1.0f13e40000000p-4, -0x1.8864080000000p-4, -0x1.f374f60000000p-5, 0x1.83f8760000000p-5, 0x1.c4f30a0000000p-3, -0x1.b1346a0000000p-4, 0x1.4d2f7e0000000p-4, -0x1.0c1d8c0000000p-5, 0x1.029a000000000p-5, -0x1.21cdde0000000p-4, -0x1.206bee0000000p-6, 0x1.ac397a0000000p-4, 0x1.10eae80000000p-3, -0x1.950d480000000p-4, -0x1.f8181c0000000p-4, -0x1.c5b55a0000000p-5, 0x1.a5ef8c0000000p-8, 0x1.057db00000000p-5, 0x1.119e860000000p-3, 0x1.904b4a0000000p-8, 0x1.4e255e0000000p-6, -0x1.9c0a300000000p-8, 0x1.019ff20000000p-3, -0x1.12fbe80000000p-3, -0x1.8436520000000p-4, 0x1.3fcf240000000p-6}
, {-0x1.03f8e80000000p-3, -0x1.09be9c0000000p-8, -0x1.200cb60000000p-5, 0x1.7765b80000000p-4, 0x1.0aff620000000p-6, -0x1.ba188e0000000p-6, 0x1.2d93040000000p-4, 0x1.ab11c00000000p-13, 0x1.9397e00000000p-4, 0x1.bf66a00000000p-4, 0x1.9e86be0000000p-4, 0x1.9ec59e0000000p-4, -0x1.696c9c0000000p-4, -0x1.060f220000000p-3, 0x1.c583200000000p-6, 0x1.7020520000000p-3, 0x1.7f773a0000000p-4, 0x1.24cc2a0000000p-4, 0x1.49f1520000000p-4, 0x1.7f1fa00000000p-5, 0x1.93b3f00000000p-4, -0x1.2ea0580000000p-4, 0x1.d37a020000000p-4, 0x1.2e154a0000000p-3, 0x1.6dee140000000p-5, 0x1.35b8ca0000000p-6, -0x1.1e549c0000000p-4, -0x1.c2b3b60000000p-6, 0x1.c9d5760000000p-6, 0x1.c3df380000000p-4, -0x1.ac19ea0000000p-5, 0x1.2db57c0000000p-4, 0x1.9a9f340000000p-9, -0x1.d2bcb60000000p-5, 0x1.83e9c40000000p-5, -0x1.7730ac0000000p-4, 0x1.6437fa0000000p-6, -0x1.383e640000000p-4, 0x1.7e868c0000000p-4, 0x1.a56b0a0000000p-5, 0x1.6342de0000000p-12, -0x1.029c720000000p-4, 0x1.f429060000000p-5, -0x1.f4c0ec0000000p-5, -0x1.208df40000000p-3, -0x1.00adf00000000p-4, 0x1.0de7d00000000p-3, 0x1.e221a40000000p-6, 0x1.9fdbb60000000p-4, 0x1.c6389e0000000p-4, -0x1.3059d00000000p-3, 0x1.25489a0000000p-6, 0x1.e368160000000p-6, 0x1.3f7e3e0000000p-4, -0x1.7f5f300000000p-4, -0x1.60b6c20000000p-6, 0x1.3962ac0000000p-5, -0x1.f84fba0000000p-7, 0x1.5112a00000000p-3, -0x1.f74f9c0000000p-7, 0x1.e927560000000p-4, 0x1.80f0c40000000p-6, -0x1.395f8e0000000p-4, 0x1.6c37a20000000p-4, 0x1.5f04e20000000p-3, 0x1.af0e3c0000000p-6, 0x1.9f79ee0000000p-4, 0x1.3fdc1a0000000p-4, -0x1.870b4a0000000p-6, 0x1.3280540000000p-5, -0x1.abe5580000000p-6, 0x1.4547640000000p-4, 0x1.595b240000000p-3, 0x1.3daa8c0000000p-8, 0x1.65bcd20000000p-7, -0x1.01489a0000000p-3, -0x1.ae78ee0000000p-6, -0x1.593a240000000p-4, -0x1.0627920000000p-4, -0x1.1cd2da0000000p-6, -0x1.e351580000000p-5, -0x1.0b486a0000000p-4, 0x1.37a5e00000000p-3, -0x1.8765a20000000p-4, 0x1.9fd5ca0000000p-4, -0x1.9276240000000p-5, -0x1.39b43a0000000p-4, 0x1.0fc6520000000p-4, -0x1.af9ea20000000p-5, -0x1.ac607c0000000p-4, 0x1.7d02440000000p-5, -0x1.a995560000000p-7, -0x1.830d540000000p-5, 0x1.f00ec20000000p-5, 0x1.d1992e0000000p-5, 0x1.13016e0000000p-5, 0x1.2811b80000000p-3, -0x1.7a5ebc0000000p-5, -0x1.d9347c0000000p-4, -0x1.20ecfc0000000p-4, -0x1.fb64080000000p-3, 0x1.9d012c0000000p-4, -0x1.20ee940000000p-6, 0x1.068c720000000p-3, 0x1.b665ae0000000p-6, -0x1.e8cd100000000p-4, -0x1.741c1e0000000p-4, 0x1.f004360000000p-7, -0x1.4227d60000000p-3, -0x1.7cad280000000p-4, -0x1.e807500000000p-4, 0x1.5b4caa0000000p-4, 0x1.7ae7d00000000p-4, -0x1.abba560000000p-6, 0x1.bbffdc0000000p-9, 0x1.b143900000000p-6, -0x1.cc812c0000000p-5, 0x1.d64d680000000p-5, 0x1.24f9fc0000000p-4, 0x1.ffa75c0000000p-6, 0x1.dc62c40000000p-4, 0x1.8246c00000000p-5, 0x1.bddb8a0000000p-4, 0x1.70751a0000000p-4, 0x1.d8772c0000000p-5, -0x1.1f841a0000000p-6, -0x1.0aeb8e0000000p-4, -0x1.c6e90e0000000p-5, -0x1.00df3e0000000p-5, 0x1.9797d00000000p-4, 0x1.172c9a0000000p-3, -0x1.aedca00000000p-4, 0x1.c8fdea0000000p-6, 0x1.ae01540000000p-6, -0x1.734fb20000000p-6, -0x1.b8811c0000000p-4, 0x1.9190440000000p-7, -0x1.bb0ef80000000p-4, -0x1.0ced220000000p-4, -0x1.b9c2f20000000p-4, 0x1.3d7eaa0000000p-5, 0x1.8831ac0000000p-7, -0x1.81865e0000000p-6, 0x1.098a500000000p-5, 0x1.6779b00000000p-4, -0x1.66b1780000000p-4, 0x1.1da1960000000p-3, 0x1.b4e1260000000p-8, 0x1.bb8e200000000p-4, 0x1.486b640000000p-5, 0x1.6749b60000000p-4, -0x1.0a6d640000000p-5, -0x1.bb7f640000000p-6, 0x1.dd72bc0000000p-9, -0x1.7e11f20000000p-3, 0x1.019fee0000000p-2, -0x1.afec340000000p-7, 0x1.d9198c0000000p-3, -0x1.de79f40000000p-4, 0x1.acade40000000p-3, 0x1.2b0eb60000000p-5, -0x1.ec9da20000000p-4, 0x1.7fa62c0000000p-4, -0x1.2b5d5a0000000p-3, -0x1.7d89fe0000000p-5, -0x1.202e760000000p-6, -0x1.43bab80000000p-3, -0x1.d06aee0000000p-5, 0x1.0f559c0000000p-3, 0x1.0066ec0000000p-6, 0x1.d305c80000000p-6, -0x1.32fd0c0000000p-4, -0x1.05e3d60000000p-3, 0x1.65bece0000000p-4, -0x1.1341580000000p-4, -0x1.cdccf00000000p-4, -0x1.39f8320000000p-7, -0x1.82825e0000000p-4, -0x1.0f365a0000000p-4, -0x1.d9885a0000000p-7, 0x1.be65a40000000p-4, 0x1.0be2320000000p-3, 0x1.0edb660000000p-4, 0x1.c48a440000000p-4, 0x1.4071280000000p-4, 0x1.c63c0a0000000p-3, -0x1.31e5540000000p-6, 0x1.6b9e300000000p-6, -0x1.dac9ac0000000p-6, 0x1.3f11440000000p-4, -0x1.27a8a00000000p-4, 0x1.28efbc0000000p-4, 0x1.6ce7a20000000p-3, -0x1.8d38200000000p-5, 0x1.4d90f00000000p-5, 0x1.becfa20000000p-9, 0x1.2f59920000000p-4, -0x1.5e2cd00000000p-4, -0x1.47712c0000000p-5, -0x1.9445600000000p-4, -0x1.df32460000000p-7, -0x1.3624da0000000p-4, -0x1.732e5c0000000p-4, -0x1.5b64fc0000000p-4, -0x1.e6d8840000000p-9, -0x1.163e9e0000000p-4, -0x1.56459a0000000p-4, -0x1.398a800000000p-3, -0x1.84e0f80000000p-4, -0x1.fed3c40000000p-4, 0x1.365ada0000000p-4, 0x1.7223ce0000000p-6, 0x1.272cd40000000p-4, 0x1.7f32480000000p-7, 0x1.188fb20000000p-9, -0x1.0fdcb80000000p-4, -0x1.a12a2e0000000p-9, 0x1.15bcda0000000p-3, 0x1.cfe29c0000000p-4, 0x1.a02b2c0000000p-5, 0x1.ce44100000000p-4, 0x1.6451ea0000000p-4, -0x1.5aa4880000000p-5, 0x1.1a32040000000p-6, -0x1.8b56d40000000p-5, -0x1.ec919c0000000p-8, -0x1.1b3b000000000p-3, 0x1.4ad5100000000p-8, 0x1.2e0dbc0000000p-4, 0x1.b13c9a0000000p-4, -0x1.6bafd40000000p-4, -0x1.9f154c0000000p-4, 0x1.ed73700000000p-4, 0x1.57441c0000000p-5, 0x1.6bfc240000000p-4, -0x1.33324a0000000p-3, 0x1.97bf7c0000000p-4, 0x1.55226c0000000p-5, 0x1.8943800000000p-4, -0x1.ebfeca0000000p-6, 0x1.38c6a20000000p-4, 0x1.3c66d60000000p-7, -0x1.00aa680000000p-3, 0x1.85ff440000000p-4, 0x1.32f6180000000p-3, -0x1.1d2d6a0000000p-5, 0x1.8db5ee0000000p-8, 0x1.c1737c0000000p-5, -0x1.a3d4300000000p-4, -0x1.6c8d1e0000000p-7, 0x1.3aeb8c0000000p-5, -0x1.04da360000000p-3, -0x1.005d620000000p-4, 0x1.359b060000000p-5, -0x1.62e3660000000p-5, 0x1.3c627e0000000p-7}
