/**
  ******************************************************************************
  * @file    weights/fc.cc
  * @author  Pierre-Emmanuel Novac <penovac@unice.fr>, LEAT, CNRS, Université Côte d'Azur, France
  * @version 1.0.0
  * @date    24 march 2020
  * @brief   Template generating plain C code for the implementation of Convolutional Neural Networks on MCU
  */

#include <stdint.h>

#define INPUT_SAMPLES 64
#define FC_UNITS 10


const float dense_23_bias[FC_UNITS] = {0x1.67dc020000000p-6, 0x1.ca1bca0000000p-6, -0x1.7112900000000p-6, 0x1.f908fe0000000p-5, -0x1.1dbab40000000p-5, 0x1.3084b00000000p-6, -0x1.63b94e0000000p-11, -0x1.af0b420000000p-5, -0x1.a04d220000000p-7, -0x1.6759e80000000p-6}
;

const float dense_23_kernel[FC_UNITS][INPUT_SAMPLES] = {{-0x1.d2103e0000000p-3, -0x1.87f3500000000p-3, -0x1.c424ee0000000p-3, 0x1.008a780000000p-3, 0x1.7b6f9e0000000p-5, -0x1.1ba9980000000p-2, -0x1.0281d00000000p-3, 0x1.6d81b60000000p-4, 0x1.1c494a0000000p-2, -0x1.5deb4c0000000p-2, -0x1.4f356c0000000p-2, 0x1.3477000000000p-2, -0x1.81d40e0000000p-2, -0x1.31e7560000000p-2, -0x1.fb695e0000000p-6, 0x1.ac79260000000p-3, 0x1.409b3a0000000p-5, -0x1.4065960000000p-2, -0x1.2708300000000p-2, -0x1.bd89de0000000p-10, 0x1.1238020000000p-2, -0x1.3a13e00000000p-2, 0x1.8ba3180000000p-3, 0x1.70749c0000000p-2, 0x1.a825d60000000p-4, 0x1.2cabda0000000p-4, 0x1.ec6e340000000p-3, 0x1.b244e60000000p-2, 0x1.2edaa00000000p-2, -0x1.9929420000000p-3, 0x1.f2306c0000000p-2, 0x1.2f4cf80000000p-5, -0x1.288c080000000p-2, 0x1.03f0f60000000p-4, 0x1.123c0e0000000p-2, 0x1.37c8ec0000000p-2, 0x1.d3b5f80000000p-4, -0x1.c5c37a0000000p-2, -0x1.86816e0000000p-3, 0x1.1fe8040000000p-3, 0x1.36f59a0000000p-2, 0x1.9fbbe60000000p-2, -0x1.14f4380000000p-2, -0x1.1842840000000p-2, 0x1.060b320000000p-2, -0x1.8d22880000000p-3, 0x1.17cfae0000000p-5, 0x1.fb5f8a0000000p-4, 0x1.202c1c0000000p-2, -0x1.31ef280000000p-1, -0x1.61fbf40000000p-3, 0x1.4375640000000p-3, -0x1.b012d20000000p-7, -0x1.0c7e2a0000000p-2, -0x1.a561b40000000p-4, -0x1.4578820000000p-4, 0x1.a43d120000000p-3, -0x1.609f680000000p-3, -0x1.bae67c0000000p-4, 0x1.de53b20000000p-4, -0x1.e7742c0000000p-2, -0x1.626cd80000000p-3, -0x1.0e1b380000000p-1, 0x1.cef4640000000p-2}
, {0x1.5649fe0000000p-2, 0x1.80e8600000000p-4, -0x1.9de17e0000000p-2, 0x1.7b20860000000p-3, -0x1.eba2160000000p-4, 0x1.e862fc0000000p-3, 0x1.d0b4aa0000000p-3, -0x1.541baa0000000p-2, -0x1.9c4ca00000000p-3, -0x1.9591780000000p-3, 0x1.326f9c0000000p-2, -0x1.a1e8680000000p-4, -0x1.a4b4700000000p-3, 0x1.d3849a0000000p-6, -0x1.b54eb40000000p-4, -0x1.ab1e940000000p-4, -0x1.12ef940000000p-3, -0x1.275f7e0000000p-2, 0x1.408ce20000000p-4, 0x1.6684dc0000000p-3, 0x1.5ad2b40000000p-5, 0x1.0f80220000000p-2, 0x1.dccc740000000p-3, -0x1.135fbe0000000p-3, 0x1.011b4c0000000p-2, -0x1.31e4c80000000p-3, -0x1.9a11360000000p-5, 0x1.f102bc0000000p-4, 0x1.4474e60000000p-2, 0x1.3761a00000000p-3, 0x1.600ae00000000p-3, 0x1.0768560000000p-3, 0x1.44611a0000000p-2, -0x1.82ee5c0000000p-3, -0x1.4c2d360000000p-2, -0x1.6a0ece0000000p-3, 0x1.1b69a40000000p-3, -0x1.2289180000000p-3, -0x1.3369aa0000000p-2, 0x1.6d9d520000000p-2, 0x1.5e6b640000000p-3, 0x1.a572980000000p-3, 0x1.19786c0000000p-2, -0x1.9665ca0000000p-3, 0x1.e1c15a0000000p-3, -0x1.67db420000000p-6, -0x1.b5aeb00000000p-4, -0x1.3a7a1e0000000p-4, 0x1.757bee0000000p-4, 0x1.cb4fee0000000p-5, 0x1.c5395e0000000p-5, 0x1.434dcc0000000p-3, 0x1.333a320000000p-3, 0x1.3a55080000000p-2, 0x1.2213a80000000p-2, 0x1.074f020000000p-2, 0x1.47177a0000000p-2, 0x1.12ec300000000p-6, 0x1.35972e0000000p-2, -0x1.61aae20000000p-4, -0x1.bb97cc0000000p-5, -0x1.9f541e0000000p-3, 0x1.29f0c60000000p-2, 0x1.6b6f700000000p-2}
, {-0x1.05ecce0000000p-2, 0x1.94aa3e0000000p-4, 0x1.822a9c0000000p-3, -0x1.38ee7e0000000p-3, 0x1.7648940000000p-2, 0x1.2cd1580000000p-6, 0x1.4ea3c80000000p-3, 0x1.1f5ba20000000p-2, 0x1.2a11d60000000p-3, 0x1.2a7c6c0000000p-2, -0x1.d219780000000p-2, -0x1.d5147c0000000p-3, 0x1.723d2e0000000p-3, 0x1.b3061c0000000p-3, -0x1.669bea0000000p-4, 0x1.acf2800000000p-4, 0x1.748c820000000p-4, 0x1.5fcd800000000p-7, 0x1.64e0c80000000p-3, 0x1.3b72160000000p-2, -0x1.8fa5180000000p-2, 0x1.66d3720000000p-4, -0x1.227c3e0000000p-3, 0x1.6122a40000000p-4, 0x1.e1bebc0000000p-3, -0x1.8b15500000000p-3, -0x1.90f4f80000000p-3, -0x1.561aa80000000p-2, 0x1.b904e20000000p-7, -0x1.6e9ed20000000p-2, -0x1.44aaca0000000p-6, -0x1.9201620000000p-3, 0x1.ab68820000000p-6, -0x1.748a980000000p-2, 0x1.1725f40000000p-2, 0x1.a312c00000000p-3, -0x1.9852e00000000p-1, 0x1.294b240000000p-3, 0x1.b27f220000000p-3, -0x1.0b66c60000000p-2, -0x1.5bc6120000000p-4, 0x1.13223c0000000p-2, -0x1.b997160000000p-2, 0x1.db0e9e0000000p-5, 0x1.52b81e0000000p-5, 0x1.775ca60000000p-4, 0x1.0126fe0000000p-4, -0x1.1f7a1a0000000p-2, -0x1.37a49a0000000p-2, -0x1.e6eece0000000p-4, 0x1.3067900000000p-4, 0x1.06bd140000000p-2, 0x1.c7f0420000000p-3, 0x1.e1c3b40000000p-3, -0x1.d257ae0000000p-3, 0x1.85dca40000000p-3, 0x1.edabea0000000p-3, 0x1.01f92e0000000p-5, 0x1.cfd0e80000000p-7, 0x1.5138560000000p-2, -0x1.46992e0000000p-2, 0x1.01afac0000000p-2, 0x1.13ac2c0000000p-3, 0x1.301e5a0000000p-3}
, {0x1.641b240000000p-5, 0x1.3b189a0000000p-4, -0x1.69bf8a0000000p-2, -0x1.2907560000000p-2, -0x1.284c500000000p-5, 0x1.08daf00000000p-6, -0x1.07e4ac0000000p-2, 0x1.b66b240000000p-3, 0x1.82bcd20000000p-4, 0x1.6dd73a0000000p-3, -0x1.0e7cda0000000p-3, -0x1.c835940000000p-3, -0x1.62c6b00000000p-4, -0x1.17703e0000000p-2, -0x1.b9d7840000000p-3, 0x1.1f57740000000p-2, 0x1.950dc00000000p-3, 0x1.4d7d7a0000000p-2, -0x1.61ed340000000p-4, 0x1.80fdca0000000p-2, -0x1.1944020000000p-1, -0x1.8b8ca40000000p-4, -0x1.0be4f40000000p-1, -0x1.8efc380000000p-5, 0x1.537c360000000p-3, 0x1.415dd40000000p-2, -0x1.3384600000000p-3, -0x1.60efd60000000p-3, 0x1.81a8de0000000p-3, 0x1.0a0d620000000p-2, 0x1.2085760000000p-2, 0x1.80c8aa0000000p-2, -0x1.3f1cc80000000p-2, 0x1.623f6a0000000p-2, -0x1.6ec7000000000p-3, -0x1.b0266c0000000p-3, 0x1.79c0040000000p-2, -0x1.6296300000000p-3, 0x1.4387060000000p-3, -0x1.db75e60000000p-5, 0x1.337dc20000000p-2, -0x1.2c4a940000000p-3, -0x1.239f2c0000000p-2, -0x1.a6fb440000000p-3, 0x1.67d34a0000000p-3, 0x1.4441980000000p-3, -0x1.be05140000000p-2, 0x1.cbba520000000p-3, -0x1.fafa520000000p-2, -0x1.d472ec0000000p-2, -0x1.bfcec40000000p-2, 0x1.14648c0000000p-6, 0x1.ee7d020000000p-2, 0x1.ad66100000000p-5, -0x1.d446ea0000000p-4, 0x1.35ecca0000000p-2, -0x1.559ad40000000p-2, -0x1.9a166a0000000p-2, 0x1.4176f00000000p-3, -0x1.9de2a60000000p-8, -0x1.4335360000000p-2, 0x1.68f3d20000000p-5, -0x1.2396dc0000000p-6, -0x1.9b8e740000000p-3}
, {0x1.d2e1100000000p-3, 0x1.0e2f380000000p-3, 0x1.43c2f00000000p-3, -0x1.2b93120000000p-3, 0x1.17304a0000000p-3, -0x1.015e120000000p-4, -0x1.69dc2e0000000p-3, 0x1.44175e0000000p-2, -0x1.429fac0000000p-4, -0x1.2fa8de0000000p-3, 0x1.0b646e0000000p-3, 0x1.1acd4c0000000p-2, -0x1.823f6e0000000p-3, 0x1.647b840000000p-3, -0x1.75b6cc0000000p-4, 0x1.476c060000000p-2, -0x1.ec71460000000p-3, -0x1.ea3f040000000p-2, -0x1.d3bdfe0000000p-2, -0x1.f648bc0000000p-3, 0x1.ff22960000000p-4, 0x1.165c0c0000000p-3, 0x1.2880640000000p-2, -0x1.6b21220000000p-3, 0x1.c066ce0000000p-3, 0x1.6e2c160000000p-5, 0x1.0657780000000p-2, 0x1.74b4000000000p-5, 0x1.3cc4320000000p-3, -0x1.68edf40000000p-5, -0x1.2052800000000p-2, -0x1.4ff7f80000000p-2, 0x1.06a6e20000000p-4, -0x1.7d96700000000p-5, 0x1.8fe9300000000p-5, 0x1.46964e0000000p-2, 0x1.77726a0000000p-3, 0x1.25594a0000000p-3, -0x1.92087a0000000p-2, 0x1.07ea8a0000000p-4, -0x1.1858b80000000p-5, -0x1.3b87de0000000p-2, 0x1.8300f40000000p-3, 0x1.12cc5e0000000p-2, 0x1.4d04040000000p-3, -0x1.ab02240000000p-4, 0x1.51c5700000000p-2, 0x1.a564500000000p-2, 0x1.2ff83a0000000p-3, -0x1.e86f560000000p-6, -0x1.89e4fe0000000p-2, -0x1.a745b00000000p-3, -0x1.c1068c0000000p-3, -0x1.106a9a0000000p-6, 0x1.3ab25a0000000p-2, -0x1.b49db20000000p-4, -0x1.a641520000000p-3, -0x1.ad147a0000000p-2, 0x1.71e42a0000000p-3, -0x1.892b9a0000000p-4, 0x1.e55c9c0000000p-5, 0x1.987a260000000p-3, 0x1.3ccb1c0000000p-2, -0x1.2a68920000000p-2}
, {0x1.1736b00000000p-3, -0x1.e503800000000p-8, -0x1.5651c00000000p-3, 0x1.3941300000000p-4, 0x1.93f0ee0000000p-3, 0x1.56c4120000000p-3, 0x1.4f88380000000p-4, -0x1.e3dcc80000000p-3, 0x1.3febcc0000000p-2, 0x1.df793e0000000p-3, -0x1.8e636c0000000p-8, 0x1.c7494e0000000p-3, 0x1.51ed0c0000000p-2, 0x1.d330140000000p-3, -0x1.25edb40000000p-2, -0x1.628e240000000p-2, -0x1.c76aa40000000p-3, 0x1.1c565e0000000p-3, 0x1.a1fa5e0000000p-3, -0x1.3c7a960000000p-2, -0x1.9c59200000000p-5, 0x1.e61e1a0000000p-3, -0x1.d4c2b80000000p-4, 0x1.6fef4c0000000p-3, -0x1.03bb220000000p-2, -0x1.fc32a00000000p-5, 0x1.e65ad00000000p-4, -0x1.3533140000000p-2, -0x1.af86de0000000p-3, 0x1.46f3a40000000p-2, 0x1.96dd780000000p-3, -0x1.10e4560000000p-5, 0x1.3bc8580000000p-2, 0x1.4272140000000p-2, 0x1.4ccefe0000000p-2, 0x1.2591760000000p-3, -0x1.f0acb40000000p-3, -0x1.63b8c20000000p-5, 0x1.a3e4260000000p-4, 0x1.c7acf60000000p-3, 0x1.8692320000000p-4, -0x1.aefd620000000p-5, 0x1.0095ae0000000p-7, -0x1.fba64a0000000p-3, -0x1.63ff2a0000000p-2, 0x1.09e0b00000000p-4, -0x1.c975540000000p-4, 0x1.2f4f7a0000000p-2, -0x1.96c5240000000p-2, 0x1.f517be0000000p-2, -0x1.5d503a0000000p-7, -0x1.6fbc8e0000000p-2, -0x1.7aa07c0000000p-1, -0x1.a3ae2c0000000p-4, -0x1.f5e8f20000000p-7, -0x1.93c6ec0000000p-3, 0x1.51afba0000000p-5, -0x1.2134340000000p-5, -0x1.24d7e80000000p-2, 0x1.aa2f8a0000000p-3, 0x1.6560400000000p-2, -0x1.7121400000000p-2, -0x1.42d0de0000000p-7, -0x1.0727ac0000000p-2}
, {-0x1.667cbe0000000p-2, 0x1.90c69c0000000p-3, -0x1.31b0640000000p-3, 0x1.803f580000000p-4, -0x1.00e4ee0000000p-1, -0x1.3056280000000p-2, -0x1.8979c40000000p-3, 0x1.102bf60000000p-2, 0x1.09a01e0000000p-3, -0x1.397e960000000p-8, 0x1.49a2220000000p-2, 0x1.91a63c0000000p-4, 0x1.aa9a220000000p-2, -0x1.14d3660000000p-2, 0x1.ace75a0000000p-3, -0x1.f289e60000000p-3, -0x1.1082660000000p-2, 0x1.06c4b20000000p-3, 0x1.23c44e0000000p-4, -0x1.df5cc20000000p-6, -0x1.847c7e0000000p-3, 0x1.70007e0000000p-5, -0x1.f195b20000000p-2, 0x1.d4edb40000000p-3, -0x1.4867b40000000p-3, 0x1.9be5a80000000p-2, 0x1.f1c63a0000000p-4, -0x1.e35c820000000p-3, -0x1.4b18020000000p-3, -0x1.c419f00000000p-2, -0x1.ee2e080000000p-2, -0x1.e7b3d00000000p-3, -0x1.14b9100000000p-2, -0x1.ad4c080000000p-5, -0x1.4520c00000000p-3, -0x1.8498d00000000p-6, 0x1.0851d20000000p-5, 0x1.05b8f80000000p-2, -0x1.2303060000000p-4, -0x1.61b9820000000p-2, 0x1.d55ffc0000000p-3, -0x1.0683e60000000p-2, -0x1.0931be0000000p-6, 0x1.efcb300000000p-3, -0x1.59e0c00000000p-2, 0x1.1f05c20000000p-2, -0x1.07817c0000000p-3, -0x1.6b20780000000p-2, 0x1.bc36640000000p-3, 0x1.1719b60000000p-8, 0x1.77406a0000000p-2, 0x1.8324ac0000000p-2, 0x1.f5c0020000000p-3, -0x1.1842b00000000p-2, -0x1.ae48ae0000000p-5, -0x1.7e17ae0000000p-2, -0x1.42adcc0000000p-2, -0x1.6449840000000p-3, -0x1.3912dc0000000p-2, 0x1.9665e20000000p-3, -0x1.74f1da0000000p-5, -0x1.614a040000000p-3, 0x1.2337b60000000p-2, 0x1.3e277c0000000p-2}
, {0x1.3977c80000000p-2, -0x1.49801e0000000p-3, -0x1.7c83580000000p-3, -0x1.2f67bc0000000p-2, -0x1.36b8a40000000p-1, -0x1.e6984c0000000p-5, -0x1.a6c8500000000p-6, -0x1.63562c0000000p-2, -0x1.21e2a60000000p-2, 0x1.af3bba0000000p-3, -0x1.6449780000000p-4, -0x1.c7f1b40000000p-4, 0x1.3bfc4c0000000p-2, -0x1.65a7300000000p-1, -0x1.97b5e40000000p-4, -0x1.a870b40000000p-3, 0x1.5095c40000000p-3, 0x1.b1f2dc0000000p-3, 0x1.31a5420000000p-2, 0x1.de1fa60000000p-3, 0x1.7c84760000000p-4, 0x1.ba7c6a0000000p-6, -0x1.7c2b5e0000000p-2, 0x1.7dff840000000p-2, -0x1.e1a53e0000000p-4, -0x1.a0594e0000000p-3, 0x1.f966ec0000000p-4, -0x1.78b8b60000000p-2, 0x1.41d1e00000000p-3, 0x1.24bdd80000000p-2, 0x1.b757be0000000p-4, -0x1.932e680000000p-2, 0x1.f14cea0000000p-3, -0x1.c9db1c0000000p-2, 0x1.be454a0000000p-3, 0x1.88b4620000000p-4, 0x1.2cb8aa0000000p-3, -0x1.24285c0000000p-1, 0x1.330c600000000p-2, 0x1.fd73fc0000000p-3, -0x1.08fc400000000p-3, -0x1.a006d20000000p-4, -0x1.5bf8b20000000p-5, 0x1.6b0a9e0000000p-4, 0x1.6d6e040000000p-4, -0x1.74b0b40000000p-2, -0x1.62c3b40000000p-2, 0x1.f4c6240000000p-6, -0x1.2b3de80000000p+0, -0x1.78fefa0000000p-2, 0x1.5990c60000000p-3, 0x1.e5e9900000000p-4, -0x1.aff1320000000p-3, 0x1.060f5a0000000p-6, -0x1.00ec2a0000000p-2, 0x1.e2b7dc0000000p-3, 0x1.0dd4bc0000000p-4, 0x1.24800c0000000p-8, -0x1.fe4f1e0000000p-7, 0x1.5755ce0000000p-5, -0x1.b01a5e0000000p-3, -0x1.e4674e0000000p-6, 0x1.4014c00000000p-4, -0x1.05b0b00000000p-4}
, {-0x1.5000960000000p-2, -0x1.c2fe8e0000000p-4, 0x1.b00ea60000000p-3, 0x1.188f9c0000000p-4, -0x1.30c2900000000p-2, -0x1.5a36780000000p-3, -0x1.1e1e4e0000000p-6, -0x1.f40e700000000p-4, 0x1.49194c0000000p-2, 0x1.ccd22e0000000p-6, -0x1.408e860000000p-2, -0x1.c612340000000p-3, 0x1.11d5a40000000p-5, -0x1.dceeee0000000p-2, -0x1.2199560000000p-2, -0x1.28f3ec0000000p-2, -0x1.fe95580000000p-3, -0x1.34cc480000000p-4, 0x1.a6bd7c0000000p-3, 0x1.0bc2060000000p-4, 0x1.6b2d000000000p-2, -0x1.2dbd3c0000000p-2, 0x1.99f72a0000000p-2, 0x1.1945b00000000p-7, -0x1.6053540000000p-3, -0x1.cf74400000000p-2, -0x1.ca73c00000000p-2, 0x1.5d85440000000p-3, -0x1.86a1740000000p-2, -0x1.752d1c0000000p-6, 0x1.229e680000000p-3, 0x1.b97f800000000p-3, -0x1.9da0dc0000000p-2, -0x1.01c0860000000p-5, 0x1.dcf79e0000000p-3, -0x1.8edd7c0000000p-3, -0x1.8f81580000000p-3, 0x1.9425f60000000p-2, -0x1.8c7fd80000000p-2, 0x1.7ead0e0000000p-2, -0x1.fd2bd00000000p-3, -0x1.ed68980000000p-5, -0x1.b02ede0000000p-3, 0x1.1c2f1c0000000p-2, 0x1.7d81fe0000000p-2, -0x1.1013080000000p-9, 0x1.cdbb340000000p-2, -0x1.a7b3e00000000p-2, -0x1.55ba3c0000000p-3, 0x1.5406600000000p-1, -0x1.0946e80000000p-3, -0x1.85c57a0000000p-2, 0x1.768ae80000000p-4, 0x1.967efa0000000p-3, 0x1.9b4cc80000000p-5, 0x1.ffa8e60000000p-3, 0x1.a62aa20000000p-3, 0x1.3a97ac0000000p-2, -0x1.84efc80000000p-2, -0x1.ab2c3c0000000p-2, -0x1.09dc0c0000000p-2, -0x1.94aa820000000p-3, -0x1.a8a8d00000000p-3, -0x1.6bcfbc0000000p-9}
, {0x1.2601ba0000000p-2, -0x1.15a0ce0000000p-4, 0x1.4b9bb00000000p-3, 0x1.27d7440000000p-4, -0x1.0093ac0000000p-1, 0x1.3d1d560000000p-2, 0x1.21d55a0000000p-3, -0x1.da855c0000000p-3, 0x1.62313a0000000p-3, 0x1.b2996a0000000p-5, -0x1.5a01420000000p-9, -0x1.422e280000000p-2, 0x1.5bdb640000000p-5, -0x1.3036f60000000p-3, -0x1.20243a0000000p-2, 0x1.b936ea0000000p-2, 0x1.af07820000000p-2, 0x1.ad03ae0000000p-9, -0x1.9ff0480000000p-4, -0x1.09c5fe0000000p-3, 0x1.0f8a380000000p-3, -0x1.7e7fc40000000p-4, -0x1.aa94160000000p-2, -0x1.3b58a40000000p-4, 0x1.6845280000000p-3, -0x1.b7fc220000000p-3, 0x1.abaf480000000p-2, -0x1.a79e3e0000000p-1, 0x1.6b786e0000000p-2, -0x1.fe55320000000p-3, -0x1.28080e0000000p-3, 0x1.7d20f20000000p-2, 0x1.332d0a0000000p-6, 0x1.ed947c0000000p-3, 0x1.35066e0000000p-2, 0x1.0962c40000000p-3, -0x1.005b660000000p-1, -0x1.ba3b340000000p-2, -0x1.251c740000000p-1, 0x1.12ab500000000p-3, -0x1.65e6500000000p-2, -0x1.d5c7780000000p-4, -0x1.ddb9ca0000000p-2, -0x1.3ab0080000000p-4, 0x1.81740a0000000p-2, -0x1.b9e3160000000p-3, 0x1.4f2f500000000p-2, -0x1.a68d120000000p-3, 0x1.7497de0000000p-2, 0x1.0a63b20000000p-2, 0x1.e4c1160000000p-9, -0x1.b73d100000000p-3, 0x1.4911340000000p-3, 0x1.18989e0000000p-5, 0x1.4b2e960000000p-3, 0x1.5b05160000000p-2, -0x1.e7a0ea0000000p-6, -0x1.c794040000000p-3, -0x1.4f0af20000000p-4, -0x1.782c5a0000000p-2, 0x1.480cd60000000p-2, -0x1.e290f40000000p-3, 0x1.3c7c700000000p-3, -0x1.ec1b880000000p-4}
}
;

#undef INPUT_SAMPLES
#undef FC_UNITS