/**
  ******************************************************************************
  * @file    weights/fc.cc
  * @author  Pierre-Emmanuel Novac <penovac@unice.fr>, LEAT, CNRS, Université Côte d'Azur, France
  * @version 1.0.0
  * @date    24 march 2020
  * @brief   Template generating plain C code for the implementation of Convolutional Neural Networks on MCU
  */

#include <stdint.h>

#define INPUT_SAMPLES 320
#define FC_UNITS 64


const float dense_16_bias[FC_UNITS] = {0x1.0d93f40000000p-5, 0x1.3faa5c0000000p-6, 0x1.2791d00000000p-9, 0x1.2cfe660000000p-5, 0x1.3e070c0000000p-4, 0x1.6315b00000000p-5, 0x1.91ab520000000p-5, -0x1.2c73880000000p-3, -0x1.3d005c0000000p-4, 0x1.3c5a660000000p-9, 0x1.e460680000000p-4, 0x1.7f281a0000000p-3, -0x1.ea976e0000000p-11, -0x1.a507860000000p-7, 0x1.6e226c0000000p-5, -0x1.3761720000000p-6, 0x1.6ea3480000000p-9, 0x1.4cc3140000000p-4, 0x1.17c0fe0000000p-3, 0x1.0921de0000000p-4, 0x1.3b8fb00000000p-5, -0x1.22b5ea0000000p-5, 0x1.be1b160000000p-4, 0x1.74dce60000000p-5, 0x1.e6a29a0000000p-5, 0x1.188cde0000000p-5, -0x1.1a97560000000p-7, 0x1.6967f80000000p-4, 0x1.d123b20000000p-9, 0x1.7167e00000000p-5, 0x1.37a58a0000000p-3, 0x1.059fae0000000p-3, -0x1.1602280000000p-4, -0x1.1226d00000000p-7, 0x1.f3d23e0000000p-5, -0x1.9349b60000000p-5, 0x1.d5718a0000000p-9, -0x1.4fccc80000000p-6, -0x1.031cbc0000000p-4, 0x1.32dcdc0000000p-4, 0x1.0ae1a60000000p-4, 0x1.0a9db80000000p-9, 0x1.bfeeb80000000p-4, 0x1.a790040000000p-7, -0x1.1893760000000p-5, -0x1.87b6960000000p-7, 0x1.5297cc0000000p-4, 0x1.d245f00000000p-4, -0x1.6291160000000p-9, -0x1.f50aa00000000p-5, 0x1.186f320000000p-5, 0x1.c892360000000p-13, 0x1.efbe460000000p-4, 0x1.baae5a0000000p-5, 0x1.34b4fc0000000p-5, -0x1.3a7f400000000p-6, 0x1.bca9420000000p-6, 0x1.9e0e560000000p-4, -0x1.64118c0000000p-6, -0x1.21a7de0000000p-5, -0x1.d8501a0000000p-6, -0x1.15db8e0000000p-4, 0x1.dbd6120000000p-8, 0x1.7b84f00000000p-5}
;

const float dense_16_kernel[FC_UNITS][INPUT_SAMPLES] = {{0x1.75e7900000000p-4, 0x1.7270120000000p-4, 0x1.998b300000000p-4, 0x1.8a2f680000000p-6, 0x1.39a32e0000000p-3, -0x1.8cab440000000p-4, 0x1.66345a0000000p-5, -0x1.2ad5720000000p-4, 0x1.1e90fe0000000p-4, 0x1.f622c00000000p-7, 0x1.678d980000000p-6, -0x1.2979e40000000p-5, 0x1.d4f4900000000p-6, -0x1.e529460000000p-7, -0x1.6a71a00000000p-5, 0x1.983ac40000000p-5, -0x1.fd11bc0000000p-5, 0x1.92290a0000000p-4, -0x1.2a55060000000p-4, -0x1.f6cc620000000p-4, 0x1.edc68c0000000p-5, -0x1.05ec980000000p-5, 0x1.54b5360000000p-3, -0x1.bcbf8e0000000p-5, 0x1.9b998a0000000p-4, -0x1.799cf00000000p-5, -0x1.49c24e0000000p-5, 0x1.759fb20000000p-6, 0x1.a358600000000p-6, 0x1.11d83e0000000p-3, 0x1.856e580000000p-4, 0x1.843baa0000000p-4, -0x1.4d46da0000000p-6, -0x1.81fba60000000p-5, 0x1.2bacc60000000p-4, -0x1.01cc7c0000000p-4, 0x1.54c9540000000p-5, 0x1.f4f5420000000p-7, -0x1.87fcec0000000p-4, 0x1.7563220000000p-5, -0x1.c0d3aa0000000p-8, -0x1.6acc460000000p-6, 0x1.5d63600000000p-7, 0x1.f06f420000000p-4, -0x1.6d9d040000000p-4, -0x1.84060e0000000p-4, -0x1.c238a00000000p-5, 0x1.b0c0660000000p-6, -0x1.43b47e0000000p-4, -0x1.16fbf80000000p-5, 0x1.5504580000000p-4, 0x1.57c1200000000p-3, 0x1.5e5fb80000000p-4, 0x1.48410e0000000p-8, -0x1.5af8ee0000000p-5, 0x1.2f7a820000000p-3, -0x1.425e220000000p-5, 0x1.a24df40000000p-5, -0x1.c4668a0000000p-5, -0x1.b922660000000p-4, 0x1.7b53aa0000000p-4, -0x1.5b7b9c0000000p-3, 0x1.0808ac0000000p-3, -0x1.859cce0000000p-4, -0x1.e423860000000p-4, -0x1.8d46640000000p-7, 0x1.115f020000000p-3, -0x1.d211d80000000p-6, 0x1.7310200000000p-6, -0x1.4253a00000000p-3, -0x1.ee95640000000p-4, 0x1.cf71580000000p-5, -0x1.43c7b80000000p-4, 0x1.849c380000000p-4, -0x1.e932220000000p-5, 0x1.1b3aa00000000p-3, 0x1.1641e60000000p-4, -0x1.23abc40000000p-4, -0x1.64a7b60000000p-4, 0x1.2f0b080000000p-7, -0x1.751b080000000p-4, 0x1.8f58420000000p-3, 0x1.107c760000000p-7, -0x1.f770320000000p-4, -0x1.9ee0ac0000000p-5, 0x1.95fe900000000p-5, 0x1.a06ad40000000p-4, -0x1.acbb6e0000000p-4, -0x1.6934e00000000p-4, -0x1.43373a0000000p-4, -0x1.b22d640000000p-4, 0x1.02c7460000000p-4, -0x1.35a6ee0000000p-5, 0x1.5068660000000p-3, 0x1.42e2220000000p-3, 0x1.d7b7140000000p-6, -0x1.5eca800000000p-4, 0x1.3d07140000000p-4, 0x1.c1c8040000000p-4, 0x1.57b50a0000000p-7, -0x1.4e64980000000p-4, -0x1.88d4580000000p-5, 0x1.684d960000000p-5, -0x1.dd3ce60000000p-5, -0x1.1b45620000000p-5, 0x1.dbc8200000000p-5, -0x1.8413c80000000p-5, 0x1.7dd6d20000000p-4, -0x1.8c11180000000p-4, -0x1.f8c3b60000000p-9, -0x1.3d58ee0000000p-12, 0x1.1670180000000p-2, -0x1.ef7e400000000p-5, 0x1.3411dc0000000p-4, -0x1.17b1d40000000p-4, 0x1.1f8eee0000000p-2, -0x1.e5882c0000000p-4, 0x1.3bdef40000000p-4, 0x1.39a27c0000000p-4, 0x1.d35edc0000000p-6, -0x1.8bdbfe0000000p-6, 0x1.0b643c0000000p-4, 0x1.265c0e0000000p-9, -0x1.26d1ac0000000p-4, -0x1.50b79c0000000p-7, -0x1.2746a60000000p-3, 0x1.04e4120000000p-4, 0x1.260d900000000p-4, -0x1.2e2ce80000000p-4, -0x1.a57f700000000p-4, -0x1.8874fc0000000p-4, -0x1.7c52560000000p-3, 0x1.65b62e0000000p-6, 0x1.533db80000000p-5, 0x1.5217f60000000p-5, -0x1.9b71ec0000000p-4, 0x1.6589760000000p-4, -0x1.aacb1c0000000p-4, -0x1.55ac2e0000000p-4, 0x1.9844aa0000000p-4, 0x1.015ab60000000p-3, -0x1.c71e560000000p-4, 0x1.51c8320000000p-5, -0x1.64a2020000000p-4, -0x1.8a1e620000000p-5, 0x1.3ee6c40000000p-5, -0x1.ac3c040000000p-7, 0x1.6f83820000000p-6, 0x1.5ba9600000000p-4, -0x1.d679ca0000000p-6, 0x1.e6c4b80000000p-4, -0x1.9717e20000000p-5, -0x1.5860520000000p-8, 0x1.5f8d0e0000000p-4, -0x1.96df700000000p-4, -0x1.9dd71e0000000p-4, -0x1.88069a0000000p-5, -0x1.31a0820000000p-5, 0x1.bacd9c0000000p-4, 0x1.2e837c0000000p-5, 0x1.f98a3c0000000p-5, -0x1.e263240000000p-4, 0x1.cff2160000000p-4, 0x1.2c01860000000p-5, -0x1.5ae8aa0000000p-4, 0x1.43bbf80000000p-5, 0x1.301f8a0000000p-4, -0x1.ff04d00000000p-6, -0x1.258cbe0000000p-3, 0x1.8e03180000000p-6, -0x1.0a338e0000000p-5, -0x1.5964ea0000000p-5, 0x1.050a480000000p-3, 0x1.bf82ca0000000p-5, -0x1.410a1e0000000p-4, 0x1.070b0a0000000p-4, 0x1.bd15740000000p-5, -0x1.0d32880000000p-3, -0x1.1073b40000000p-4, 0x1.6d07a00000000p-3, 0x1.1ab1420000000p-6, -0x1.de0c3c0000000p-4, -0x1.17e1d80000000p-13, -0x1.611ad80000000p-6, 0x1.4cabca0000000p-3, 0x1.c27a000000000p-4, -0x1.1a58580000000p-5, 0x1.e9b7a40000000p-4, -0x1.6e12f40000000p-5, -0x1.ff00960000000p-7, 0x1.756e080000000p-3, -0x1.019f4e0000000p-3, 0x1.33b1aa0000000p-5, -0x1.dc01c20000000p-5, 0x1.b3c3aa0000000p-4, 0x1.09ced60000000p-4, 0x1.605f380000000p-4, 0x1.40a5220000000p-6, -0x1.771b140000000p-11, 0x1.f94e6c0000000p-6, -0x1.c850ea0000000p-5, -0x1.9a699c0000000p-6, 0x1.dfded60000000p-7, 0x1.0d829e0000000p-3, 0x1.9510ea0000000p-6, 0x1.46963c0000000p-5, -0x1.24daf00000000p-4, -0x1.43f0f20000000p-2, -0x1.7236ba0000000p-5, 0x1.acd1700000000p-7, 0x1.9483020000000p-3, 0x1.49065c0000000p-4, -0x1.864d1e0000000p-8, -0x1.5682b20000000p-4, -0x1.dcc1220000000p-6, 0x1.3e83680000000p-5, -0x1.8c9f600000000p-4, 0x1.5e4ca00000000p-3, 0x1.5089720000000p-4, 0x1.6b00d40000000p-4, 0x1.d4b5fe0000000p-5, 0x1.6848060000000p-4, -0x1.190fda0000000p-3, -0x1.a6437a0000000p-4, -0x1.131dde0000000p-2, -0x1.2045960000000p-4, 0x1.7877420000000p-4, 0x1.c9cb540000000p-10, 0x1.28dae40000000p-8, 0x1.f626980000000p-4, 0x1.6562240000000p-6, 0x1.0c7d380000000p-4, 0x1.97ff400000000p-6, 0x1.b4a5500000000p-8, 0x1.c3cf540000000p-4, -0x1.9b50c80000000p-5, -0x1.0b3c860000000p-6, -0x1.5236fe0000000p-7, 0x1.aff4120000000p-7, 0x1.a5a2480000000p-4, 0x1.3a09d40000000p-3, 0x1.5e37420000000p-3, 0x1.221fd20000000p-4, -0x1.5dd9d80000000p-4, 0x1.ac5e4e0000000p-3, -0x1.701cee0000000p-4, -0x1.00cef20000000p-6, 0x1.e15f8a0000000p-5, 0x1.5d02a80000000p-6, -0x1.e196640000000p-6, 0x1.3d95ca0000000p-4, 0x1.bf66e20000000p-4, -0x1.0185e40000000p-4, 0x1.1b38600000000p-4, -0x1.5c38220000000p-3, 0x1.8b487e0000000p-5, -0x1.2d9a5a0000000p-5, -0x1.8377640000000p-4, 0x1.0b88b20000000p-4, -0x1.71fd700000000p-5, 0x1.013ab60000000p-3, -0x1.67adca0000000p-3, 0x1.f900280000000p-5, -0x1.b056640000000p-3, -0x1.cedba60000000p-7, -0x1.b9215c0000000p-6, -0x1.2e73c00000000p-4, 0x1.5038280000000p-5, -0x1.e9d8680000000p-4, -0x1.41ec3c0000000p-6, -0x1.cc165e0000000p-4, -0x1.73e2f40000000p-5, -0x1.709df60000000p-4, 0x1.b9fcb00000000p-3, -0x1.20c4780000000p-7, -0x1.18ca0a0000000p-4, 0x1.02300e0000000p-4, -0x1.7ba0cc0000000p-4, -0x1.57fd520000000p-7, -0x1.41413a0000000p-3, 0x1.1440c60000000p-4, -0x1.743f7c0000000p-6, 0x1.2cfe300000000p-9, 0x1.f55b560000000p-5, -0x1.38b0b40000000p-4, -0x1.25031a0000000p-6, -0x1.33eefc0000000p-3, 0x1.0ba0e40000000p-3, -0x1.9a4b980000000p-3, -0x1.c069980000000p-4, 0x1.56261c0000000p-8, -0x1.6b87460000000p-7, -0x1.47bac80000000p-7, 0x1.802fbe0000000p-4, -0x1.f37cf00000000p-4, 0x1.44a3620000000p-6, 0x1.306ca40000000p-3, -0x1.3183640000000p-3, -0x1.b888380000000p-8, -0x1.303e300000000p-4, -0x1.9e8b1c0000000p-3, -0x1.1c88480000000p-4, -0x1.f0470a0000000p-3, 0x1.1f1c040000000p-3, 0x1.5d303e0000000p-4, -0x1.e5c92a0000000p-8, -0x1.550c900000000p-3, 0x1.7446800000000p-3, 0x1.462e080000000p-3, 0x1.7652f60000000p-7, 0x1.e11fbc0000000p-4, 0x1.2b18120000000p-3, -0x1.72ec380000000p-4, -0x1.2da6e80000000p-3, 0x1.9cbccc0000000p-6, 0x1.ae60c40000000p-6, -0x1.44161a0000000p-5, -0x1.586aa40000000p-3, -0x1.4ecdce0000000p-4, -0x1.dec3860000000p-4}
, {-0x1.9fed7c0000000p-4, -0x1.1894840000000p-5, -0x1.cd3dba0000000p-7, -0x1.af62f00000000p-5, 0x1.41125c0000000p-4, -0x1.3220960000000p-4, 0x1.1bef800000000p-4, 0x1.602c580000000p-3, 0x1.a5bf780000000p-7, 0x1.f308120000000p-6, 0x1.884c160000000p-4, 0x1.7ad0560000000p-3, -0x1.d288520000000p-6, 0x1.d573200000000p-4, -0x1.816d320000000p-4, -0x1.aed9600000000p-3, 0x1.44682a0000000p-4, 0x1.f8faa40000000p-4, -0x1.1a28980000000p-3, -0x1.a66b640000000p-4, -0x1.1a2d1c0000000p-4, -0x1.cea2f80000000p-10, 0x1.eee0e40000000p-5, -0x1.b204c00000000p-7, 0x1.ae34700000000p-7, -0x1.6f950e0000000p-4, -0x1.6055b40000000p-4, 0x1.88f8100000000p-4, -0x1.7b80580000000p-6, -0x1.3d5c7c0000000p-3, 0x1.647d8e0000000p-5, 0x1.5e10da0000000p-5, -0x1.305f040000000p-4, 0x1.997bb20000000p-4, 0x1.3bc1560000000p-4, -0x1.1e7dd20000000p-4, 0x1.46b9020000000p-3, -0x1.6c4dd40000000p-6, -0x1.6029860000000p-3, -0x1.20f0800000000p-5, -0x1.fb913a0000000p-6, 0x1.acb7fe0000000p-5, -0x1.2f5a100000000p-4, 0x1.764a060000000p-4, -0x1.bf493e0000000p-4, 0x1.b402660000000p-4, 0x1.77fe2e0000000p-3, -0x1.184df00000000p-3, -0x1.4443600000000p-5, -0x1.53351a0000000p-6, 0x1.7104d40000000p-3, 0x1.34c24e0000000p-5, -0x1.e1650e0000000p-4, 0x1.223c680000000p-3, 0x1.544b920000000p-4, -0x1.7bb1020000000p-4, -0x1.b435780000000p-3, -0x1.ef38d20000000p-5, 0x1.9844d40000000p-5, -0x1.5a08ec0000000p-4, 0x1.06c53c0000000p-3, -0x1.befb800000000p-4, -0x1.0145980000000p-4, 0x1.42bc720000000p-3, 0x1.78105e0000000p-4, 0x1.167f0c0000000p-3, 0x1.b4974c0000000p-5, 0x1.bf1fd20000000p-7, -0x1.bd4dc00000000p-4, 0x1.1b6cae0000000p-5, 0x1.0852300000000p-3, -0x1.042a560000000p-5, 0x1.d9dd7c0000000p-4, -0x1.9eeba20000000p-5, 0x1.2944580000000p-7, -0x1.7a3b6c0000000p-4, 0x1.521ac60000000p-5, 0x1.bd10060000000p-4, -0x1.b90e520000000p-4, -0x1.331c300000000p-3, -0x1.99827c0000000p-4, 0x1.11bb940000000p-4, -0x1.746c9c0000000p-5, -0x1.23bb620000000p-4, 0x1.0056960000000p-3, -0x1.865da20000000p-4, 0x1.1ac39c0000000p-7, 0x1.fbe7ae0000000p-7, 0x1.1cf68a0000000p-6, 0x1.d5d5140000000p-4, 0x1.cad1cc0000000p-6, 0x1.4dc0940000000p-5, -0x1.8e71dc0000000p-5, -0x1.48e4740000000p-5, -0x1.e0988c0000000p-3, -0x1.107dc00000000p-4, -0x1.a1e16e0000000p-3, -0x1.e2a5e60000000p-6, 0x1.746d120000000p-5, 0x1.3649cc0000000p-3, -0x1.25913c0000000p-4, 0x1.6b853a0000000p-4, 0x1.897afa0000000p-5, 0x1.a9bf7e0000000p-4, -0x1.073c860000000p-3, -0x1.85afc40000000p-4, 0x1.1ff51a0000000p-5, -0x1.44b4840000000p-4, -0x1.fda5ce0000000p-5, -0x1.6774d00000000p-6, 0x1.8d80840000000p-5, 0x1.7c7dd60000000p-5, 0x1.018a200000000p-5, 0x1.f0099e0000000p-6, 0x1.3445c40000000p-6, -0x1.5198520000000p-4, 0x1.2f3c3c0000000p-8, 0x1.0f75c20000000p-3, 0x1.25c5ee0000000p-3, 0x1.ba79340000000p-9, -0x1.dce75e0000000p-6, 0x1.2aa2ba0000000p-5, -0x1.06bb680000000p-5, -0x1.0b324c0000000p-4, 0x1.c060ba0000000p-8, -0x1.4258e80000000p-3, -0x1.90da060000000p-4, -0x1.f9a4c00000000p-5, 0x1.48a6de0000000p-6, -0x1.93cc7a0000000p-7, -0x1.ab49040000000p-6, -0x1.9a6b8e0000000p-5, 0x1.8009d00000000p-5, 0x1.5bb2de0000000p-4, 0x1.0f90540000000p-3, -0x1.68e6e80000000p-5, -0x1.2a13b20000000p-5, 0x1.50f5ba0000000p-4, 0x1.392b0e0000000p-4, 0x1.203a7a0000000p-4, -0x1.79afa20000000p-4, 0x1.225bee0000000p-6, -0x1.8ab7e40000000p-5, 0x1.1e1fa20000000p-4, -0x1.41539e0000000p-6, -0x1.9dd9420000000p-5, -0x1.0cd8f00000000p-3, 0x1.63b8760000000p-6, -0x1.615bf20000000p-4, -0x1.96e7e80000000p-4, 0x1.2ecc300000000p-3, -0x1.4f06e80000000p-5, -0x1.54c78a0000000p-3, -0x1.5ddcba0000000p-3, 0x1.3686120000000p-3, 0x1.1612180000000p-6, -0x1.8815840000000p-7, -0x1.9df5700000000p-6, -0x1.7941a80000000p-3, 0x1.ac0f3e0000000p-8, -0x1.25e0780000000p-3, 0x1.a704c00000000p-10, 0x1.70f27c0000000p-6, -0x1.0b455e0000000p-7, 0x1.09a6980000000p-4, 0x1.39d0de0000000p-7, 0x1.f34c120000000p-7, -0x1.fd7abc0000000p-6, -0x1.af17920000000p-4, -0x1.3dddec0000000p-4, -0x1.9003e00000000p-4, -0x1.a7d93c0000000p-5, 0x1.50e4420000000p-5, -0x1.0fc0800000000p-3, 0x1.3d7c0e0000000p-4, -0x1.b707be0000000p-4, 0x1.eeb8540000000p-4, -0x1.ed02100000000p-4, 0x1.01b3300000000p-3, 0x1.15d0120000000p-5, -0x1.0bb5140000000p-4, 0x1.95f2620000000p-5, 0x1.7a6e340000000p-7, -0x1.e26bb40000000p-4, -0x1.2c59d60000000p-3, 0x1.1815b60000000p-4, -0x1.d7dafe0000000p-8, -0x1.1370780000000p-3, 0x1.a740bc0000000p-5, 0x1.47f8520000000p-5, 0x1.bd74380000000p-5, -0x1.6e9ff40000000p-6, -0x1.c94cc80000000p-4, 0x1.5f41220000000p-5, -0x1.66e2aa0000000p-5, -0x1.4e8f5a0000000p-5, 0x1.d020fa0000000p-4, -0x1.6c8cfc0000000p-5, -0x1.2867360000000p-6, 0x1.462eda0000000p-8, 0x1.ddcf440000000p-5, 0x1.761f660000000p-4, 0x1.8e026c0000000p-4, -0x1.1bf51a0000000p-3, 0x1.d352a00000000p-6, 0x1.52bea80000000p-4, 0x1.7ae3a00000000p-4, 0x1.9ad1440000000p-5, -0x1.0261820000000p-4, 0x1.616c5e0000000p-4, -0x1.c62ee20000000p-5, 0x1.6e86100000000p-7, 0x1.1006fa0000000p-5, 0x1.43734e0000000p-7, 0x1.d6e0ae0000000p-5, -0x1.d64e8e0000000p-4, -0x1.42cd760000000p-4, -0x1.c323060000000p-4, -0x1.30a1e00000000p-4, 0x1.865cd00000000p-8, -0x1.a380060000000p-5, -0x1.a4edde0000000p-3, 0x1.f12b4e0000000p-6, -0x1.79aad80000000p-4, -0x1.847b580000000p-4, 0x1.8258980000000p-4, -0x1.0745d80000000p-3, -0x1.256e660000000p-5, 0x1.a753f40000000p-4, -0x1.2116600000000p-4, 0x1.3d2d520000000p-4, 0x1.f78a060000000p-6, -0x1.3411c60000000p-4, 0x1.0256580000000p-11, -0x1.1e173a0000000p-3, 0x1.35ff980000000p-4, -0x1.e062900000000p-7, 0x1.fadd0c0000000p-3, 0x1.6a2dfa0000000p-4, -0x1.0b1e440000000p-7, 0x1.f5be2e0000000p-6, -0x1.30d2800000000p-5, 0x1.4e50220000000p-4, 0x1.c697400000000p-4, 0x1.083fe80000000p-5, 0x1.04ec260000000p-3, 0x1.48a21c0000000p-3, 0x1.b4d9660000000p-5, 0x1.22f0300000000p-8, -0x1.ee80c80000000p-5, -0x1.5e3b820000000p-4, -0x1.22b6c20000000p-5, 0x1.574f7a0000000p-3, -0x1.f6641a0000000p-4, 0x1.fbeac40000000p-5, 0x1.4ff3540000000p-6, -0x1.29dab20000000p-7, 0x1.e8ca420000000p-6, 0x1.fd967a0000000p-5, -0x1.ca88aa0000000p-8, 0x1.d174180000000p-5, 0x1.bf88160000000p-8, 0x1.87f6080000000p-4, 0x1.fdc18c0000000p-6, -0x1.7c6e4c0000000p-5, -0x1.62a4000000000p-5, 0x1.ca83280000000p-4, -0x1.1c5c0c0000000p-4, -0x1.6f98f00000000p-5, 0x1.3a16b60000000p-3, 0x1.05ac7a0000000p-4, 0x1.5c94660000000p-6, 0x1.f7b3860000000p-5, -0x1.5b76940000000p-4, -0x1.0879b00000000p-5, -0x1.26af700000000p-4, 0x1.c5f92c0000000p-4, 0x1.a5d0d60000000p-6, 0x1.f223d40000000p-4, 0x1.c9682e0000000p-6, -0x1.6b55e20000000p-6, -0x1.a64a640000000p-4, 0x1.f483500000000p-6, 0x1.3490ae0000000p-4, 0x1.bdda640000000p-8, -0x1.042d620000000p-3, -0x1.f7c13e0000000p-7, -0x1.9361740000000p-3, -0x1.0a5dec0000000p-3, -0x1.e3a9920000000p-6, -0x1.0d2c4a0000000p-4, 0x1.ececb60000000p-5, -0x1.78e5f80000000p-5, -0x1.0a23ea0000000p-4, 0x1.4d31f60000000p-5, 0x1.66ca520000000p-5, 0x1.26c3780000000p-4, 0x1.f040fc0000000p-6, -0x1.71ffd60000000p-3, 0x1.b711c40000000p-5, 0x1.da40c40000000p-5, 0x1.1e595a0000000p-4, 0x1.ee27c80000000p-4, 0x1.43d91c0000000p-4, 0x1.439ede0000000p-5, -0x1.258aa40000000p-4, -0x1.bc7dec0000000p-6, 0x1.b011180000000p-5, 0x1.cea4de0000000p-6, 0x1.8665460000000p-5, 0x1.8eba1c0000000p-7, -0x1.532c600000000p-5, -0x1.7992a20000000p-4, -0x1.54fe4a0000000p-4, 0x1.e9effc0000000p-7, 0x1.f6df5a0000000p-7, 0x1.14d55a0000000p-2, -0x1.22beac0000000p-5, -0x1.86d2920000000p-4, 0x1.00c4280000000p-4}
, {0x1.a3aa740000000p-5, 0x1.1b6c040000000p-4, 0x1.3cff260000000p-4, 0x1.7637ae0000000p-4, -0x1.ffae420000000p-9, -0x1.359a180000000p-5, 0x1.de7b2a0000000p-5, 0x1.f489ac0000000p-4, 0x1.46fcc80000000p-4, -0x1.35d6fc0000000p-5, 0x1.64eb780000000p-3, 0x1.95a26a0000000p-4, -0x1.7d083e0000000p-4, -0x1.60aedc0000000p-4, 0x1.84630c0000000p-4, 0x1.52387e0000000p-6, -0x1.cf3af40000000p-5, -0x1.48ce040000000p-6, 0x1.18b0da0000000p-3, 0x1.b051140000000p-4, -0x1.8e03800000000p-5, 0x1.1e01de0000000p-6, -0x1.21afce0000000p-3, 0x1.0f7b520000000p-5, 0x1.1f65f40000000p-3, -0x1.29c4c60000000p-4, 0x1.c289fe0000000p-4, -0x1.930f440000000p-5, -0x1.7587c80000000p-7, 0x1.2472b00000000p-6, -0x1.ac7b440000000p-4, -0x1.8f3dd80000000p-4, 0x1.0a524c0000000p-3, 0x1.f140920000000p-6, -0x1.3549c80000000p-6, 0x1.8b450c0000000p-4, 0x1.cce91c0000000p-4, 0x1.3ddbf80000000p-4, -0x1.ad40400000000p-6, 0x1.ef5e8e0000000p-4, -0x1.f0b8420000000p-5, -0x1.ecd7580000000p-4, 0x1.889aba0000000p-5, -0x1.1e1f940000000p-4, -0x1.c856f60000000p-4, -0x1.05acb80000000p-4, 0x1.33a9da0000000p-4, -0x1.ade68c0000000p-5, 0x1.4628360000000p-4, -0x1.321b5a0000000p-4, 0x1.62324e0000000p-3, -0x1.6c8f820000000p-5, -0x1.4e96980000000p-6, 0x1.9fd7b20000000p-5, -0x1.f235ec0000000p-6, -0x1.a7ab4a0000000p-4, 0x1.501e840000000p-5, -0x1.21b7600000000p-3, -0x1.ea5cce0000000p-5, 0x1.5fcaac0000000p-3, -0x1.63d0660000000p-4, -0x1.9b752a0000000p-5, -0x1.af0e2a0000000p-4, -0x1.55920c0000000p-5, -0x1.be28700000000p-4, -0x1.349c0c0000000p-4, 0x1.0062060000000p-3, 0x1.5e973c0000000p-6, 0x1.1d46ae0000000p-4, -0x1.0ae60c0000000p-5, 0x1.f184d60000000p-5, 0x1.5058480000000p-4, -0x1.3f235a0000000p-4, -0x1.7149620000000p-4, 0x1.93653c0000000p-4, 0x1.3443140000000p-5, -0x1.8445e40000000p-5, 0x1.1631320000000p-4, 0x1.9e08a00000000p-8, -0x1.8ea8720000000p-9, 0x1.1d5aee0000000p-6, -0x1.08cc5a0000000p-4, 0x1.3ae8380000000p-4, 0x1.47bb1a0000000p-4, 0x1.540ea60000000p-4, 0x1.b0f9400000000p-4, -0x1.4f82120000000p-4, 0x1.db8d600000000p-4, -0x1.f43c560000000p-6, 0x1.e6e04c0000000p-6, -0x1.ff55820000000p-5, -0x1.6aae1c0000000p-6, -0x1.55f6a20000000p-4, -0x1.4f9fae0000000p-5, -0x1.caa6ac0000000p-5, -0x1.82ee820000000p-8, 0x1.134ef40000000p-4, -0x1.2d9d040000000p-5, -0x1.fbcfc00000000p-10, 0x1.d44c3e0000000p-6, 0x1.f20ef20000000p-5, -0x1.263eca0000000p-5, 0x1.3bf3e40000000p-4, 0x1.9aaac20000000p-4, 0x1.33ea600000000p-4, 0x1.5ccdb80000000p-5, 0x1.1adba00000000p-4, -0x1.44b5de0000000p-11, 0x1.b464ac0000000p-7, 0x1.57df120000000p-5, -0x1.3b14b00000000p-4, 0x1.59471e0000000p-3, 0x1.c38ff80000000p-4, -0x1.5923e60000000p-5, 0x1.d2468e0000000p-4, -0x1.6c195e0000000p-3, 0x1.1731480000000p-3, 0x1.6e92ee0000000p-5, -0x1.2a79ba0000000p-4, 0x1.a1127e0000000p-7, 0x1.8fcf220000000p-6, -0x1.efbd820000000p-4, 0x1.ce94560000000p-6, -0x1.5f35480000000p-4, 0x1.672e0c0000000p-4, -0x1.568e0c0000000p-8, 0x1.05c5e60000000p-5, -0x1.5c23840000000p-4, 0x1.2cf6420000000p-4, -0x1.d200820000000p-4, 0x1.2a34bc0000000p-3, 0x1.f54a800000000p-4, 0x1.0e943c0000000p-3, -0x1.e61b040000000p-6, -0x1.e061ac0000000p-7, -0x1.e8ae720000000p-4, -0x1.7694820000000p-5, -0x1.45299c0000000p-8, 0x1.12df8e0000000p-7, 0x1.78584a0000000p-5, 0x1.020cbc0000000p-3, -0x1.f0ec4a0000000p-5, -0x1.b7cd220000000p-4, 0x1.16ee840000000p-5, 0x1.185a800000000p-4, -0x1.3c72d80000000p-5, 0x1.d33a660000000p-4, -0x1.b07cc40000000p-4, -0x1.d3358a0000000p-6, 0x1.f11a660000000p-4, 0x1.14dcc20000000p-3, -0x1.f726f40000000p-5, 0x1.b2e57a0000000p-5, 0x1.2961d00000000p-3, 0x1.3baffe0000000p-4, 0x1.0d474c0000000p-5, -0x1.0a8f220000000p-5, -0x1.3f79cc0000000p-4, -0x1.596bf20000000p-4, 0x1.97a8080000000p-4, -0x1.749c5c0000000p-8, 0x1.bd4f8c0000000p-5, 0x1.5e4e940000000p-6, -0x1.ccbb020000000p-6, -0x1.df05fa0000000p-6, 0x1.3544800000000p-3, -0x1.202a320000000p-7, 0x1.4e53160000000p-6, 0x1.84d9c00000000p-16, -0x1.b457ac0000000p-5, 0x1.e330280000000p-5, -0x1.7d1f0c0000000p-9, -0x1.f202760000000p-5, 0x1.69dab40000000p-5, 0x1.da799a0000000p-6, -0x1.9ff0000000000p-7, -0x1.0117bc0000000p-4, 0x1.5c273e0000000p-5, 0x1.5533400000000p-4, -0x1.4b48e80000000p-3, 0x1.eed0860000000p-5, 0x1.7fff160000000p-9, -0x1.2c5d2c0000000p-5, -0x1.5e0dc80000000p-4, -0x1.2800aa0000000p-3, 0x1.cb633e0000000p-5, 0x1.36f8ac0000000p-4, -0x1.0c868e0000000p-6, 0x1.45102c0000000p-4, 0x1.cb75ea0000000p-4, -0x1.433b4e0000000p-3, -0x1.7fcd160000000p-5, -0x1.40c1660000000p-6, 0x1.251ce20000000p-4, -0x1.1891340000000p-4, 0x1.c59c280000000p-7, -0x1.854fe40000000p-12, 0x1.c0ae180000000p-4, 0x1.897cd80000000p-8, 0x1.421b3e0000000p-3, 0x1.ea56660000000p-8, -0x1.8936d80000000p-5, 0x1.2dd4740000000p-6, -0x1.5bb0e00000000p-4, 0x1.9eb6ec0000000p-5, -0x1.0aa06c0000000p-4, 0x1.c86a920000000p-4, -0x1.02d31c0000000p-5, 0x1.a838640000000p-4, -0x1.d6ac0a0000000p-4, -0x1.da012e0000000p-6, 0x1.03f71a0000000p-4, -0x1.6957b00000000p-7, -0x1.f89eea0000000p-6, 0x1.3a04cc0000000p-4, -0x1.e321ca0000000p-6, 0x1.70b74a0000000p-5, -0x1.5e5c380000000p-6, 0x1.b129a20000000p-4, -0x1.8bafa80000000p-6, -0x1.90e70e0000000p-4, 0x1.8b5b680000000p-4, 0x1.0716660000000p-5, 0x1.c2b4ae0000000p-6, 0x1.0c87340000000p-3, -0x1.04379e0000000p-3, -0x1.034e5e0000000p-6, 0x1.373f140000000p-7, 0x1.4a30ba0000000p-6, 0x1.0f7b900000000p-3, 0x1.00826a0000000p-3, 0x1.2b334a0000000p-8, -0x1.2dd2420000000p-4, -0x1.90dd180000000p-4, -0x1.27d89e0000000p-4, -0x1.9dc8340000000p-5, -0x1.e3e3580000000p-7, -0x1.e4226e0000000p-4, -0x1.4f28fa0000000p-5, -0x1.eb30220000000p-7, 0x1.d9535a0000000p-4, -0x1.bc5c5a0000000p-4, 0x1.218eb20000000p-3, 0x1.52682c0000000p-7, -0x1.3162720000000p-5, 0x1.7763d20000000p-3, 0x1.1c63680000000p-7, -0x1.4997560000000p-4, 0x1.9e9a4e0000000p-4, 0x1.b828360000000p-5, 0x1.4c272c0000000p-4, -0x1.6840340000000p-6, -0x1.0c1b980000000p-5, 0x1.7a038e0000000p-4, -0x1.6b67140000000p-5, 0x1.98e57a0000000p-5, -0x1.e566120000000p-4, 0x1.c8f61e0000000p-5, -0x1.8b21e40000000p-4, 0x1.5bf0f00000000p-5, 0x1.2fdbbe0000000p-3, 0x1.889c0c0000000p-4, -0x1.0fd03c0000000p-4, 0x1.0e7e760000000p-7, -0x1.d163440000000p-6, -0x1.2ebfc80000000p-6, 0x1.d210f00000000p-4, -0x1.2289d80000000p-5, 0x1.2439d00000000p-3, 0x1.c330f60000000p-6, -0x1.864e560000000p-4, 0x1.035b260000000p-3, 0x1.2d50a20000000p-4, -0x1.02f97e0000000p-3, 0x1.f335500000000p-5, -0x1.93754a0000000p-4, -0x1.6420400000000p-4, 0x1.d6793e0000000p-10, -0x1.097e840000000p-3, 0x1.b6b8820000000p-5, 0x1.177dde0000000p-3, 0x1.28e3940000000p-3, 0x1.6b29ba0000000p-3, 0x1.58082c0000000p-5, 0x1.7a49ea0000000p-5, -0x1.219e8c0000000p-4, 0x1.03f82e0000000p-4, 0x1.eee5a00000000p-4, 0x1.a18a320000000p-3, 0x1.9d35be0000000p-6, 0x1.0c012a0000000p-3, 0x1.0b9f5a0000000p-5, 0x1.ebd0f00000000p-6, 0x1.d825140000000p-6, -0x1.354bb20000000p-5, 0x1.9990f20000000p-5, 0x1.6ebe140000000p-4, -0x1.c79b940000000p-11, 0x1.0df4e80000000p-5, 0x1.c0e5220000000p-4, -0x1.2ae4780000000p-6, -0x1.9e46560000000p-4, -0x1.b4f0740000000p-7, -0x1.718d2e0000000p-4, 0x1.e3ecca0000000p-4, -0x1.fbba7c0000000p-4, 0x1.7f99420000000p-4, -0x1.427b3e0000000p-3, -0x1.83d5780000000p-5, 0x1.7971220000000p-6, -0x1.3826720000000p-3, -0x1.cd47ee0000000p-5, -0x1.a0a9220000000p-8, -0x1.24b4260000000p-5, 0x1.1bb34e0000000p-5, -0x1.3653a40000000p-6, -0x1.1e177e0000000p-3, 0x1.aac2e60000000p-3, 0x1.39e48a0000000p-4, 0x1.86a70a0000000p-4}
, {0x1.1a52fe0000000p-5, 0x1.b786f40000000p-7, 0x1.099daa0000000p-4, 0x1.962a300000000p-5, 0x1.01c9b60000000p-3, 0x1.54d8780000000p-5, 0x1.f909540000000p-6, -0x1.8c38f00000000p-4, 0x1.52bb7c0000000p-5, -0x1.841e440000000p-8, -0x1.febd220000000p-5, -0x1.59dd600000000p-5, -0x1.5ee9680000000p-4, -0x1.c5dda20000000p-4, -0x1.5b24a80000000p-6, 0x1.3efade0000000p-5, 0x1.8eb4c80000000p-7, 0x1.4da6120000000p-4, -0x1.2775620000000p-5, 0x1.0cc6280000000p-3, 0x1.832d2e0000000p-4, 0x1.fdaa240000000p-8, -0x1.37b50e0000000p-3, 0x1.2995180000000p-5, 0x1.bfb08c0000000p-4, 0x1.c5f94e0000000p-6, -0x1.4a86540000000p-6, 0x1.cd85a60000000p-5, -0x1.fe400a0000000p-6, 0x1.446c640000000p-4, -0x1.0eb1320000000p-5, 0x1.a8e6ca0000000p-3, -0x1.ccfbbe0000000p-4, -0x1.7bf9d00000000p-6, 0x1.b98d440000000p-5, 0x1.3914a60000000p-5, -0x1.0369d60000000p-4, 0x1.8975e60000000p-4, -0x1.2db7e60000000p-4, -0x1.28caf00000000p-6, -0x1.1f6b880000000p-4, 0x1.e3fe700000000p-4, 0x1.2f24080000000p-3, 0x1.ffdd920000000p-6, 0x1.5c9b140000000p-4, -0x1.512fe80000000p-3, -0x1.10d4480000000p-3, 0x1.2509940000000p-5, 0x1.173f160000000p-6, -0x1.f1e2d20000000p-5, -0x1.998b3c0000000p-4, 0x1.61505c0000000p-3, -0x1.0801ac0000000p-6, -0x1.014cd60000000p-4, -0x1.0a098a0000000p-3, -0x1.135fe40000000p-3, 0x1.2361280000000p-4, -0x1.9bfb4c0000000p-5, 0x1.38ee000000000p-3, 0x1.9d08300000000p-5, 0x1.594d1a0000000p-4, 0x1.74ff2e0000000p-4, -0x1.6d78400000000p-4, -0x1.c4196e0000000p-5, -0x1.ad9b080000000p-4, -0x1.b628dc0000000p-4, -0x1.3ba1c80000000p-7, -0x1.0288940000000p-6, -0x1.67c5ea0000000p-4, 0x1.c1cff00000000p-7, 0x1.60782a0000000p-6, -0x1.4b22280000000p-4, -0x1.c729c00000000p-6, -0x1.8571d20000000p-4, 0x1.102cfe0000000p-3, 0x1.c1cbf40000000p-4, -0x1.9709f00000000p-5, 0x1.6a737e0000000p-6, 0x1.b94b8c0000000p-5, -0x1.a642bc0000000p-5, -0x1.479aae0000000p-4, 0x1.88f1940000000p-4, 0x1.b733c00000000p-6, 0x1.c54b100000000p-4, -0x1.7a1d6a0000000p-8, 0x1.52eaac0000000p-6, -0x1.aa33800000000p-4, -0x1.07c14e0000000p-3, -0x1.06dc3e0000000p-9, 0x1.9826060000000p-8, 0x1.845cba0000000p-4, 0x1.cd37a40000000p-5, 0x1.f5ff080000000p-4, 0x1.10cbf00000000p-3, 0x1.b39d320000000p-4, 0x1.44512a0000000p-3, -0x1.be7e300000000p-4, 0x1.d791da0000000p-4, 0x1.5991960000000p-5, -0x1.87b7360000000p-4, 0x1.1db07e0000000p-4, 0x1.28e3f20000000p-6, 0x1.796dae0000000p-4, 0x1.4833840000000p-4, 0x1.c8c0be0000000p-5, 0x1.0e469c0000000p-7, 0x1.5203fe0000000p-3, 0x1.df79ae0000000p-6, -0x1.bc83c80000000p-5, -0x1.09ce1a0000000p-3, -0x1.f73cc40000000p-5, -0x1.d052d00000000p-3, -0x1.093e2e0000000p-6, -0x1.c2ea540000000p-5, 0x1.3c19120000000p-6, -0x1.5ead500000000p-4, 0x1.0d1bc40000000p-5, 0x1.4e9fee0000000p-5, -0x1.7b35fa0000000p-5, -0x1.16f6b20000000p-6, 0x1.1a76c20000000p-4, -0x1.15f07c0000000p-3, 0x1.69268c0000000p-5, 0x1.10560c0000000p-3, 0x1.e6a3ee0000000p-5, 0x1.92143a0000000p-8, 0x1.2091980000000p-4, -0x1.3375d20000000p-6, 0x1.0ac7fa0000000p-4, -0x1.e630580000000p-6, 0x1.63d8240000000p-7, -0x1.ea724e0000000p-5, 0x1.096c1a0000000p-8, 0x1.bda4980000000p-8, -0x1.1fab020000000p-4, -0x1.c0cf8c0000000p-4, 0x1.d5c6ac0000000p-5, -0x1.aac6b40000000p-5, -0x1.1189420000000p-5, 0x1.dee3a00000000p-5, 0x1.df3cdc0000000p-6, 0x1.0111ee0000000p-4, 0x1.39eff60000000p-4, 0x1.e7adfe0000000p-5, 0x1.ec87360000000p-5, 0x1.63ca760000000p-7, 0x1.e889b60000000p-6, 0x1.2d23dc0000000p-8, 0x1.72388c0000000p-3, 0x1.7a3faa0000000p-7, 0x1.2e2c5e0000000p-4, -0x1.92fe8c0000000p-5, -0x1.0c4ac00000000p-3, -0x1.7118860000000p-5, -0x1.76efaa0000000p-6, 0x1.07c3f00000000p-5, -0x1.6e775e0000000p-4, 0x1.f2f4a00000000p-4, 0x1.4c0eac0000000p-7, 0x1.9ff68c0000000p-4, -0x1.d7d4ce0000000p-4, 0x1.232eea0000000p-3, 0x1.848c6e0000000p-4, -0x1.77a2340000000p-4, 0x1.c76fa20000000p-5, -0x1.0e0fd40000000p-3, 0x1.90c8a00000000p-4, 0x1.647c360000000p-6, -0x1.4209ca0000000p-5, 0x1.5142700000000p-5, 0x1.c031c40000000p-4, -0x1.1931000000000p-3, -0x1.2b0f740000000p-3, -0x1.4467f00000000p-5, 0x1.80b2fa0000000p-4, -0x1.8a82160000000p-6, -0x1.8a754a0000000p-7, 0x1.1e45fa0000000p-3, -0x1.b810ac0000000p-4, -0x1.05f0620000000p-4, 0x1.2782fa0000000p-6, -0x1.d9a2320000000p-7, 0x1.59dfd60000000p-3, 0x1.e8bbd20000000p-4, -0x1.36cee00000000p-4, 0x1.0cd58e0000000p-4, -0x1.2ff2f20000000p-4, -0x1.a7637c0000000p-4, -0x1.6366ea0000000p-3, -0x1.0e88660000000p-5, -0x1.1cb0880000000p-5, -0x1.e561800000000p-9, -0x1.34fb340000000p-5, -0x1.529e2a0000000p-6, -0x1.d690da0000000p-4, -0x1.8584860000000p-4, -0x1.0ac0a00000000p-5, -0x1.4e1d180000000p-4, 0x1.d176ba0000000p-4, 0x1.36f4060000000p-4, -0x1.75d3e60000000p-4, 0x1.39ac340000000p-5, 0x1.0b21b80000000p-6, 0x1.7f46c00000000p-4, 0x1.d854860000000p-4, -0x1.2fd3760000000p-5, 0x1.92a22e0000000p-4, 0x1.e7de560000000p-4, -0x1.03b5580000000p-4, -0x1.eecfc80000000p-4, 0x1.be6b180000000p-8, -0x1.db7f3e0000000p-5, -0x1.aca2020000000p-4, 0x1.11e1dc0000000p-3, 0x1.3503580000000p-4, 0x1.415edc0000000p-5, -0x1.c5a1ec0000000p-4, -0x1.06cd300000000p-5, -0x1.7369660000000p-4, -0x1.5c559c0000000p-4, -0x1.70b99e0000000p-5, 0x1.ba38060000000p-3, 0x1.454e160000000p-6, 0x1.7c12800000000p-8, -0x1.78ffb20000000p-4, 0x1.d1302c0000000p-3, 0x1.46ebd60000000p-5, 0x1.1188800000000p-4, 0x1.3c60000000000p-5, 0x1.9033620000000p-5, -0x1.df16260000000p-5, -0x1.64ca9c0000000p-5, -0x1.fcb6ba0000000p-11, 0x1.96147a0000000p-4, 0x1.43ca900000000p-3, 0x1.d216e00000000p-9, 0x1.88db0a0000000p-7, -0x1.244acc0000000p-4, 0x1.ed6c9c0000000p-5, 0x1.8bdcb40000000p-6, 0x1.6c92040000000p-4, 0x1.63c4f60000000p-4, 0x1.df52a80000000p-4, -0x1.9266de0000000p-3, 0x1.58dc260000000p-11, -0x1.813a560000000p-4, 0x1.ea21000000000p-5, 0x1.5b20a20000000p-4, -0x1.b911700000000p-4, 0x1.3e80b00000000p-4, 0x1.8bd4ae0000000p-7, 0x1.23ef540000000p-6, -0x1.8e1c200000000p-3, 0x1.76177a0000000p-6, -0x1.683de00000000p-6, 0x1.27d0040000000p-3, -0x1.ac08420000000p-4, 0x1.b3ab820000000p-6, 0x1.28e9ce0000000p-5, -0x1.27ec480000000p-4, -0x1.2e47100000000p-10, -0x1.d9a9e60000000p-6, -0x1.2ef8380000000p-4, 0x1.3034820000000p-4, -0x1.4fdfd60000000p-3, -0x1.afdf020000000p-6, 0x1.a7a72c0000000p-5, -0x1.2613380000000p-5, 0x1.ee15700000000p-5, -0x1.5813800000000p-6, 0x1.91b51a0000000p-3, 0x1.6e5ab60000000p-7, -0x1.fd29d00000000p-5, 0x1.dadb540000000p-10, -0x1.c6a44c0000000p-5, 0x1.1d40b00000000p-5, 0x1.30d5ce0000000p-3, 0x1.ef36ce0000000p-5, 0x1.1c410c0000000p-6, 0x1.a86db40000000p-6, -0x1.e882960000000p-5, -0x1.1835b40000000p-7, 0x1.5e038e0000000p-5, -0x1.d0e4a00000000p-4, -0x1.41d5e00000000p-4, -0x1.76b6640000000p-4, 0x1.cf38e20000000p-7, 0x1.68dea40000000p-5, -0x1.497bb40000000p-6, -0x1.be8d780000000p-4, 0x1.a9c9660000000p-4, 0x1.6314d00000000p-5, 0x1.e46c060000000p-5, 0x1.1946520000000p-3, 0x1.bdd3bc0000000p-5, -0x1.ffbfe80000000p-7, 0x1.56d21a0000000p-3, -0x1.6861020000000p-4, -0x1.cbd70c0000000p-5, -0x1.db51000000000p-5, 0x1.4484f00000000p-6, -0x1.b909700000000p-4, 0x1.2fab9e0000000p-4, -0x1.8fc1640000000p-6, -0x1.0a2a800000000p-5, 0x1.b50d720000000p-5, -0x1.2118c00000000p-4, 0x1.742e7a0000000p-5, -0x1.7743980000000p-4, -0x1.f9652e0000000p-4, 0x1.bd2bca0000000p-4, -0x1.c251de0000000p-4, 0x1.67c0120000000p-4, -0x1.5ff55a0000000p-5, -0x1.2fd0f20000000p-4, 0x1.959cd80000000p-3, -0x1.c072dc0000000p-3, -0x1.0000160000000p-5, -0x1.0e3d440000000p-5, 0x1.b753980000000p-7}
, {0x1.7cf2560000000p-4, -0x1.0cc6060000000p-4, 0x1.206dea0000000p-4, -0x1.2a42800000000p-3, -0x1.3e03340000000p-5, -0x1.47997a0000000p-4, 0x1.f3e1ac0000000p-4, -0x1.8a491c0000000p-4, 0x1.375d2a0000000p-5, -0x1.d1e9d40000000p-4, -0x1.546cd00000000p-10, 0x1.e988040000000p-5, -0x1.cfb6760000000p-6, 0x1.77386a0000000p-5, 0x1.6cdeea0000000p-6, -0x1.8f602c0000000p-3, -0x1.e7fad20000000p-4, -0x1.8a3e420000000p-8, 0x1.3541e80000000p-4, 0x1.a02c340000000p-6, 0x1.12e6ea0000000p-4, 0x1.2ab6640000000p-6, -0x1.13f9540000000p-4, -0x1.d105300000000p-5, 0x1.e74e8c0000000p-6, 0x1.8dbb380000000p-7, -0x1.0b81980000000p-3, -0x1.e13af20000000p-6, -0x1.ddad0a0000000p-4, 0x1.3effc80000000p-3, -0x1.725a820000000p-6, 0x1.8cc6a20000000p-6, -0x1.2532b60000000p-4, -0x1.5c17480000000p-12, -0x1.b693440000000p-4, 0x1.5dd7b40000000p-5, -0x1.9d2b700000000p-7, -0x1.a5c6ae0000000p-7, 0x1.95bc460000000p-4, -0x1.cc6c760000000p-5, 0x1.255e1c0000000p-6, -0x1.5707f20000000p-5, 0x1.4a4ecc0000000p-3, 0x1.22c55e0000000p-4, 0x1.c60e460000000p-6, -0x1.1d86b60000000p-4, 0x1.15b4220000000p-4, 0x1.656bac0000000p-3, 0x1.9765220000000p-4, 0x1.cc547a0000000p-3, 0x1.0924600000000p-5, 0x1.76993c0000000p-9, 0x1.2af3180000000p-3, 0x1.97bafa0000000p-5, 0x1.67bdf40000000p-4, 0x1.426b080000000p-3, -0x1.6208120000000p-4, 0x1.28e5340000000p-5, -0x1.24ccf40000000p-4, -0x1.d7d5820000000p-4, -0x1.88f8e60000000p-4, -0x1.7e19360000000p-7, -0x1.08e8440000000p-5, 0x1.2ffde80000000p-8, 0x1.3154740000000p-4, -0x1.0355ba0000000p-4, 0x1.1285fc0000000p-3, -0x1.508e0c0000000p-10, 0x1.8137020000000p-4, 0x1.009d560000000p-3, 0x1.85d99a0000000p-5, 0x1.cf95fa0000000p-6, 0x1.2fcae80000000p-7, -0x1.11b3fe0000000p-3, -0x1.e7eede0000000p-4, -0x1.9259fc0000000p-5, -0x1.18793c0000000p-3, 0x1.1fb5840000000p-4, -0x1.eca3fc0000000p-6, 0x1.8ee4b40000000p-5, 0x1.66d1ba0000000p-5, -0x1.00d7ec0000000p-6, -0x1.bbb8e20000000p-5, -0x1.310bd00000000p-5, -0x1.4441400000000p-7, 0x1.b0e77c0000000p-8, -0x1.fefdd80000000p-5, -0x1.1d0bb80000000p-5, 0x1.fa66760000000p-6, -0x1.6d8a720000000p-4, 0x1.9468ec0000000p-7, -0x1.97e7940000000p-5, 0x1.ef317c0000000p-7, 0x1.69d9e00000000p-6, 0x1.76125e0000000p-5, 0x1.26792c0000000p-4, 0x1.4c87500000000p-4, -0x1.622b4c0000000p-6, -0x1.146ffa0000000p-3, -0x1.5314ea0000000p-3, -0x1.a063fe0000000p-4, -0x1.9ba4660000000p-5, -0x1.8dd9e80000000p-4, -0x1.a80aa20000000p-8, 0x1.9d83fe0000000p-5, 0x1.9451420000000p-4, 0x1.9440e60000000p-8, -0x1.1eed800000000p-3, 0x1.bef8540000000p-6, 0x1.4f0a420000000p-4, -0x1.3322ac0000000p-3, -0x1.38e0d20000000p-4, -0x1.3063580000000p-4, -0x1.6687140000000p-4, -0x1.202a0a0000000p-4, 0x1.108c8c0000000p-2, 0x1.cdbcb00000000p-6, 0x1.3d48b40000000p-5, 0x1.3a18ce0000000p-5, -0x1.a3a3920000000p-5, -0x1.70baea0000000p-7, -0x1.972a4c0000000p-4, 0x1.4e92fe0000000p-10, 0x1.a200440000000p-4, -0x1.84a5400000000p-4, -0x1.63d3ac0000000p-5, -0x1.b7a0e00000000p-5, 0x1.7a9dfe0000000p-4, -0x1.0d173c0000000p-6, 0x1.0e0eac0000000p-3, -0x1.98cf600000000p-5, 0x1.df98b80000000p-5, 0x1.5ef2580000000p-5, -0x1.09e7540000000p-4, -0x1.5164c20000000p-5, 0x1.67c76e0000000p-3, -0x1.26ecdc0000000p-5, 0x1.2517d20000000p-7, 0x1.49dfb40000000p-5, 0x1.627b940000000p-4, -0x1.04fd0a0000000p-4, 0x1.36ef0a0000000p-7, 0x1.5a0cb40000000p-3, 0x1.f92e580000000p-5, 0x1.29af460000000p-4, 0x1.7b47960000000p-4, -0x1.48c11e0000000p-4, -0x1.d142dc0000000p-5, 0x1.07f7de0000000p-3, -0x1.4fbbea0000000p-7, -0x1.eeb1c80000000p-4, -0x1.86284a0000000p-5, -0x1.2547e20000000p-3, 0x1.d8cc860000000p-4, -0x1.1626a40000000p-4, 0x1.42d1fc0000000p-4, -0x1.b890820000000p-4, -0x1.cf427a0000000p-4, 0x1.afb95e0000000p-6, 0x1.9c9d800000000p-5, -0x1.74f7360000000p-4, 0x1.4adfbe0000000p-3, 0x1.0bb2000000000p-6, -0x1.b41e500000000p-6, 0x1.61d8da0000000p-5, -0x1.0e3b6a0000000p-6, 0x1.061d100000000p-3, 0x1.6dc4780000000p-5, -0x1.eb5cca0000000p-6, 0x1.4f241e0000000p-4, 0x1.7c91920000000p-3, 0x1.b94cfa0000000p-8, 0x1.359b140000000p-4, -0x1.0a47780000000p-3, 0x1.1e362c0000000p-6, 0x1.0d8f480000000p-4, 0x1.f6c5ca0000000p-4, 0x1.f654320000000p-4, -0x1.8aad840000000p-5, -0x1.1970640000000p-4, 0x1.5e69880000000p-3, -0x1.a313460000000p-6, 0x1.6caad60000000p-4, -0x1.304d3a0000000p-4, 0x1.1fda780000000p-5, -0x1.646fe40000000p-7, 0x1.1317ca0000000p-4, -0x1.434b740000000p-7, -0x1.0782b60000000p-3, -0x1.d3ff8c0000000p-4, -0x1.60a6f60000000p-4, -0x1.0f880c0000000p-7, -0x1.146dda0000000p-4, -0x1.507a680000000p-4, -0x1.54fd060000000p-4, -0x1.19291a0000000p-6, 0x1.d4b9f20000000p-5, 0x1.71aff40000000p-4, -0x1.4d6b8c0000000p-5, -0x1.b0fc160000000p-4, -0x1.3849da0000000p-6, -0x1.19f0680000000p-7, -0x1.f834a40000000p-7, 0x1.b2c9280000000p-4, 0x1.b938a00000000p-5, -0x1.0054c20000000p-3, 0x1.835b2e0000000p-6, 0x1.42cd060000000p-3, 0x1.936c080000000p-6, 0x1.67f8500000000p-9, -0x1.722ea80000000p-5, -0x1.a7de6c0000000p-5, -0x1.00ef720000000p-3, -0x1.ec93580000000p-6, -0x1.448b3a0000000p-4, -0x1.56dfde0000000p-5, -0x1.8d1d840000000p-5, 0x1.30a3f40000000p-4, 0x1.b9e01e0000000p-9, -0x1.8f8d9a0000000p-5, -0x1.335a6c0000000p-4, 0x1.c279a00000000p-4, -0x1.2b3fb00000000p-3, 0x1.02d6aa0000000p-3, 0x1.3085ae0000000p-7, -0x1.8af22a0000000p-5, 0x1.18c1140000000p-5, 0x1.2bf2760000000p-5, -0x1.09423a0000000p-3, 0x1.f5aad80000000p-5, -0x1.8eba000000000p-5, 0x1.2cd2660000000p-4, 0x1.37c4140000000p-3, 0x1.0e3c7e0000000p-4, 0x1.0199280000000p-3, -0x1.1a3bfa0000000p-4, -0x1.001b160000000p-5, -0x1.e47dca0000000p-4, 0x1.c61e1c0000000p-4, 0x1.5f53a40000000p-4, -0x1.c945460000000p-5, 0x1.0da8d20000000p-5, 0x1.23a2b40000000p-5, 0x1.400da80000000p-7, 0x1.fd9aa40000000p-9, -0x1.82aec20000000p-4, 0x1.a395f60000000p-4, 0x1.6b9fd60000000p-7, -0x1.658ff20000000p-4, 0x1.eccddc0000000p-4, 0x1.1baa640000000p-4, -0x1.af95d60000000p-6, 0x1.2facfe0000000p-4, 0x1.1e77fe0000000p-3, -0x1.8a4bf60000000p-4, 0x1.9a02160000000p-9, -0x1.186ae80000000p-4, -0x1.770ece0000000p-4, 0x1.d827be0000000p-4, -0x1.f2364e0000000p-5, 0x1.51ce0c0000000p-7, 0x1.34675e0000000p-3, -0x1.f1a34c0000000p-9, -0x1.8fd0060000000p-4, -0x1.0e73f80000000p-3, -0x1.16014e0000000p-7, 0x1.1f26a00000000p-5, 0x1.eca0de0000000p-5, -0x1.ea9d240000000p-4, -0x1.9b48ea0000000p-4, 0x1.7246ca0000000p-4, -0x1.18666c0000000p-2, 0x1.1a596e0000000p-4, 0x1.46f5920000000p-3, 0x1.db7c2e0000000p-5, 0x1.bd5ec80000000p-4, 0x1.0b72ce0000000p-3, 0x1.5e63e40000000p-5, 0x1.89b0600000000p-8, -0x1.e6770a0000000p-5, -0x1.5bc3a00000000p-3, -0x1.bb44680000000p-6, -0x1.dd6eda0000000p-4, 0x1.fb2b060000000p-4, -0x1.2737760000000p-4, -0x1.7138320000000p-4, -0x1.9c21260000000p-5, 0x1.3791980000000p-5, -0x1.26342e0000000p-8, 0x1.60bfd60000000p-4, 0x1.1714340000000p-5, -0x1.31ad820000000p-4, -0x1.483bfe0000000p-8, -0x1.85b1080000000p-5, -0x1.30ac300000000p-5, 0x1.b5a1ee0000000p-4, 0x1.788d480000000p-4, 0x1.b8ea340000000p-6, 0x1.5588de0000000p-4, -0x1.811fb40000000p-6, -0x1.2631400000000p-5, -0x1.b9dc3e0000000p-4, 0x1.7c13900000000p-5, 0x1.53fbfa0000000p-4, 0x1.71da140000000p-4, -0x1.e1a8a20000000p-4, 0x1.0c3e860000000p-3, -0x1.1a329a0000000p-5, 0x1.689faa0000000p-4, -0x1.45a0900000000p-5, 0x1.616b860000000p-4, 0x1.99ac140000000p-5, -0x1.0ca2e40000000p-3, -0x1.c120480000000p-5, 0x1.7cfba20000000p-4, -0x1.b2800e0000000p-4, -0x1.0ea2380000000p-4, -0x1.df60b40000000p-3, -0x1.8129c00000000p-5, 0x1.e1bc1c0000000p-4}
, {-0x1.9e5bd20000000p-6, 0x1.842e1a0000000p-4, -0x1.6288860000000p-4, -0x1.125eb00000000p-3, -0x1.ae40f40000000p-7, -0x1.3e70660000000p-4, 0x1.829c280000000p-4, -0x1.4e6a420000000p-3, -0x1.280eca0000000p-4, -0x1.a916b00000000p-5, -0x1.4160200000000p-3, -0x1.da7f2e0000000p-6, 0x1.9be4260000000p-4, -0x1.03e2f60000000p-5, 0x1.3fac880000000p-4, 0x1.609ca40000000p-4, -0x1.1e2cc80000000p-4, -0x1.7237f00000000p-4, -0x1.8fb3ea0000000p-4, -0x1.a72ca80000000p-6, -0x1.eb57ea0000000p-4, 0x1.da406e0000000p-6, 0x1.72f9120000000p-4, 0x1.350fca0000000p-4, 0x1.9a58e40000000p-5, 0x1.875b220000000p-4, 0x1.c7c29c0000000p-6, -0x1.6153ec0000000p-10, 0x1.72ffcc0000000p-5, -0x1.bc19cc0000000p-5, 0x1.f94a360000000p-4, -0x1.8c8d480000000p-7, -0x1.0593f60000000p-6, -0x1.1805520000000p-6, 0x1.76dc840000000p-4, 0x1.79ac340000000p-4, -0x1.e4ba720000000p-4, -0x1.1be6740000000p-4, -0x1.b57e720000000p-5, 0x1.253e8a0000000p-4, 0x1.ecec160000000p-4, 0x1.8205c60000000p-3, -0x1.36dc140000000p-4, -0x1.8809500000000p-4, -0x1.1fcdd40000000p-9, -0x1.0d7bd80000000p-6, 0x1.064b160000000p-6, 0x1.e34b700000000p-4, 0x1.0c31dc0000000p-4, 0x1.0ed4160000000p-3, -0x1.5f81e00000000p-3, -0x1.7f710e0000000p-4, 0x1.0e37140000000p-3, -0x1.533e500000000p-4, -0x1.9fa24e0000000p-5, -0x1.c1b1320000000p-4, 0x1.4cb8b20000000p-3, -0x1.9807ce0000000p-9, 0x1.1a30340000000p-7, -0x1.baf87a0000000p-4, 0x1.1006320000000p-3, 0x1.31cff80000000p-3, -0x1.5ae59a0000000p-5, -0x1.1acc160000000p-3, 0x1.987d260000000p-4, -0x1.92293c0000000p-4, 0x1.b072d40000000p-7, -0x1.a6babe0000000p-6, -0x1.9ffdd20000000p-5, 0x1.251c560000000p-3, -0x1.9e25440000000p-5, 0x1.d1c2660000000p-4, -0x1.325d400000000p-4, -0x1.649c2a0000000p-6, 0x1.a00e280000000p-4, -0x1.9ceb140000000p-9, -0x1.a161c00000000p-7, 0x1.71bbca0000000p-7, 0x1.b5e1b20000000p-6, -0x1.122fbe0000000p-7, 0x1.be84cc0000000p-5, 0x1.64d2980000000p-4, 0x1.2c89ce0000000p-3, 0x1.0a56140000000p-4, -0x1.3a13fc0000000p-8, 0x1.748cba0000000p-4, -0x1.2e85300000000p-3, -0x1.b24b820000000p-5, -0x1.5f57680000000p-5, -0x1.3bc05c0000000p-6, -0x1.0343d60000000p-6, -0x1.7cecf40000000p-5, -0x1.256c020000000p-4, 0x1.0bdab40000000p-4, 0x1.1ff1f80000000p-5, 0x1.5a16680000000p-6, 0x1.1173c20000000p-3, 0x1.378a420000000p-3, 0x1.a60c7c0000000p-4, -0x1.e9ba3e0000000p-4, 0x1.5c5f180000000p-7, -0x1.7c93ac0000000p-5, -0x1.0de5720000000p-3, 0x1.8e95100000000p-5, -0x1.bc64e20000000p-6, -0x1.0090460000000p-4, 0x1.2a76520000000p-5, -0x1.adc5de0000000p-5, -0x1.58fdea0000000p-5, 0x1.347adc0000000p-4, -0x1.2a57e60000000p-5, 0x1.a0f2ee0000000p-4, -0x1.5515540000000p-5, 0x1.5f37600000000p-4, 0x1.a0d2800000000p-5, 0x1.ef2d980000000p-4, 0x1.5577b80000000p-5, 0x1.c2a8140000000p-7, -0x1.c34fda0000000p-5, 0x1.fe97fa0000000p-4, -0x1.1f6c480000000p-4, -0x1.f752740000000p-6, -0x1.45d4600000000p-5, 0x1.a7988e0000000p-4, 0x1.07f2300000000p-4, -0x1.cb6f240000000p-9, -0x1.127daa0000000p-4, 0x1.82a7da0000000p-4, -0x1.ed19c40000000p-5, 0x1.84f9dc0000000p-5, 0x1.1c12920000000p-4, 0x1.6d01700000000p-4, 0x1.4d35ac0000000p-4, -0x1.0df13a0000000p-4, 0x1.9fc2320000000p-6, 0x1.2ded8c0000000p-6, -0x1.6de0300000000p-6, -0x1.f620fa0000000p-5, -0x1.e886020000000p-6, 0x1.d557ea0000000p-4, 0x1.e455e60000000p-5, -0x1.da4ea80000000p-5, 0x1.1552e20000000p-3, 0x1.6e98400000000p-4, 0x1.b829380000000p-6, 0x1.2496540000000p-5, 0x1.45dd580000000p-4, -0x1.1b7f360000000p-4, 0x1.f47d0e0000000p-4, -0x1.0d21ba0000000p-4, 0x1.281cdc0000000p-5, 0x1.8ced500000000p-4, 0x1.7c0da00000000p-4, 0x1.457e500000000p-3, 0x1.2141360000000p-4, 0x1.16bc3e0000000p-3, -0x1.476e000000000p-5, 0x1.0dce7e0000000p-3, 0x1.ca93760000000p-5, 0x1.4479280000000p-3, 0x1.8f1a1a0000000p-4, 0x1.5a235c0000000p-4, 0x1.c4bd000000000p-5, -0x1.1e6a9c0000000p-5, 0x1.050f2e0000000p-3, 0x1.21078c0000000p-5, -0x1.4dbf160000000p-5, 0x1.c0bc280000000p-4, 0x1.9b03f00000000p-4, 0x1.0ca9e40000000p-3, -0x1.36a6000000000p-6, -0x1.a254f20000000p-6, 0x1.56b4260000000p-5, 0x1.be78700000000p-3, -0x1.510e200000000p-5, 0x1.710de20000000p-5, -0x1.499c660000000p-4, 0x1.0d4b940000000p-5, -0x1.e3f9d60000000p-6, 0x1.4bb19c0000000p-5, 0x1.ab5d100000000p-5, -0x1.0a05600000000p-5, 0x1.bf8de40000000p-6, 0x1.9c92400000000p-5, -0x1.5f77120000000p-5, 0x1.185d920000000p-5, 0x1.284c0e0000000p-3, 0x1.6b414c0000000p-5, 0x1.a10d300000000p-3, -0x1.2fa6be0000000p-4, -0x1.b244d60000000p-7, 0x1.bc2eca0000000p-9, -0x1.8f6d840000000p-4, -0x1.e471040000000p-10, -0x1.721d880000000p-4, 0x1.08aa3e0000000p-6, -0x1.187d000000000p-3, -0x1.54058c0000000p-5, -0x1.c8bcdc0000000p-4, -0x1.88bc4e0000000p-4, -0x1.ec43e40000000p-6, 0x1.b08bec0000000p-5, 0x1.b147c00000000p-6, 0x1.655f900000000p-4, 0x1.3d609e0000000p-4, -0x1.b933720000000p-5, -0x1.e178240000000p-5, 0x1.25fb980000000p-3, -0x1.c7eae00000000p-4, -0x1.2c8f760000000p-8, -0x1.ae2c9e0000000p-3, -0x1.20c25a0000000p-4, -0x1.d86eb20000000p-4, 0x1.3038e40000000p-5, -0x1.3915c60000000p-4, 0x1.fffc5e0000000p-5, 0x1.f357200000000p-4, -0x1.e2e03e0000000p-4, 0x1.a7444e0000000p-4, 0x1.6533aa0000000p-5, -0x1.d3439e0000000p-6, 0x1.2ed4ce0000000p-4, -0x1.28825c0000000p-5, 0x1.3cbe960000000p-4, -0x1.ed03d60000000p-5, 0x1.ee9dc20000000p-4, -0x1.3d7cbe0000000p-4, 0x1.0e8a880000000p-5, -0x1.d598280000000p-7, -0x1.8215a80000000p-3, 0x1.14df980000000p-4, -0x1.c822180000000p-4, 0x1.fd4d5e0000000p-4, 0x1.8531e80000000p-5, -0x1.6b386a0000000p-4, -0x1.c6b2940000000p-6, 0x1.2033cc0000000p-5, 0x1.4075ce0000000p-3, 0x1.34f2380000000p-5, -0x1.0cbb6c0000000p-3, -0x1.e4249c0000000p-4, 0x1.91ef060000000p-5, -0x1.5799880000000p-3, -0x1.175e280000000p-6, 0x1.73c6540000000p-7, -0x1.c9865e0000000p-4, -0x1.251c8e0000000p-5, -0x1.5ba0e20000000p-4, 0x1.646ebc0000000p-6, -0x1.17226e0000000p-5, 0x1.101b420000000p-3, 0x1.561c9e0000000p-3, -0x1.75529c0000000p-5, 0x1.55f9660000000p-3, 0x1.e5dd860000000p-7, -0x1.e578840000000p-3, -0x1.26358e0000000p-4, 0x1.41a4820000000p-4, -0x1.44e6180000000p-7, -0x1.87a1dc0000000p-4, -0x1.0c73840000000p-7, 0x1.3a39740000000p-5, 0x1.3fd0cc0000000p-12, 0x1.5cad7c0000000p-5, -0x1.786f320000000p-4, 0x1.2bd1960000000p-3, -0x1.7e71ca0000000p-5, -0x1.bee6b40000000p-4, 0x1.1f7bba0000000p-5, -0x1.656afc0000000p-7, 0x1.74d01e0000000p-7, 0x1.266e920000000p-7, 0x1.00de8c0000000p-4, 0x1.fd9da40000000p-4, 0x1.096df60000000p-3, 0x1.b64ab60000000p-4, -0x1.d51d7c0000000p-5, -0x1.9b4b1c0000000p-9, -0x1.47d7740000000p-4, -0x1.4a89620000000p-4, 0x1.982c400000000p-6, 0x1.2f101a0000000p-5, 0x1.a667a80000000p-4, -0x1.cf12f40000000p-4, -0x1.0414500000000p-5, -0x1.4ef7640000000p-5, -0x1.2d68c80000000p-4, 0x1.0511100000000p-6, -0x1.2a5dc80000000p-4, 0x1.8c29c20000000p-3, -0x1.b8958c0000000p-6, 0x1.5754400000000p-5, 0x1.0bfb8e0000000p-3, -0x1.a11dea0000000p-4, 0x1.16a1520000000p-5, 0x1.59f8b40000000p-3, 0x1.5e94c80000000p-4, -0x1.85c83e0000000p-9, 0x1.bb95160000000p-4, 0x1.ff37900000000p-6, 0x1.e748080000000p-6, 0x1.fd62dc0000000p-4, -0x1.84e1dc0000000p-6, -0x1.c6d8940000000p-3, 0x1.5757620000000p-5, 0x1.73ac000000000p-4, 0x1.b86ce20000000p-5, -0x1.e354540000000p-6, 0x1.1f9e9e0000000p-3, -0x1.17e0d20000000p-5, 0x1.4cf3fc0000000p-3, 0x1.3124ac0000000p-3, 0x1.dd41440000000p-7, 0x1.d7ed620000000p-5, 0x1.4097980000000p-6, -0x1.2315d20000000p-6, 0x1.9e6ada0000000p-4, -0x1.c1c8b40000000p-4, 0x1.1732d40000000p-3, 0x1.6468660000000p-7}
, {0x1.4b579c0000000p-5, 0x1.3303e00000000p-9, 0x1.da77b60000000p-4, 0x1.dea5440000000p-4, 0x1.7acb800000000p-5, 0x1.0a4cd80000000p-4, 0x1.9f6ea00000000p-5, 0x1.cec3f60000000p-7, -0x1.845f1a0000000p-5, 0x1.c685d20000000p-4, 0x1.82fd9a0000000p-5, 0x1.43d5d20000000p-5, -0x1.52d64a0000000p-4, 0x1.19813c0000000p-5, 0x1.2b0a820000000p-3, 0x1.af326a0000000p-5, 0x1.8214a80000000p-6, -0x1.3f3e160000000p-7, -0x1.78451a0000000p-4, 0x1.5694980000000p-4, 0x1.09dfbe0000000p-8, 0x1.9c78c60000000p-4, 0x1.576db40000000p-6, 0x1.8cafac0000000p-7, -0x1.83c8900000000p-4, 0x1.46a8680000000p-8, -0x1.b94b220000000p-6, -0x1.b17d120000000p-4, 0x1.740b380000000p-3, 0x1.5417700000000p-3, -0x1.cf06ea0000000p-4, 0x1.fe52f60000000p-4, -0x1.01ef520000000p-7, -0x1.4586ba0000000p-4, -0x1.6085680000000p-7, -0x1.02cf140000000p-3, 0x1.7940500000000p-8, 0x1.2dca900000000p-6, 0x1.5a53ac0000000p-4, 0x1.2a471e0000000p-4, 0x1.8a0bf00000000p-3, 0x1.5123340000000p-4, 0x1.60398e0000000p-4, -0x1.1249080000000p-4, 0x1.a447320000000p-4, 0x1.faaa600000000p-6, 0x1.52aeea0000000p-5, -0x1.e7e04a0000000p-8, 0x1.01aec60000000p-3, 0x1.598f120000000p-6, 0x1.3cd4340000000p-6, -0x1.64f1640000000p-4, 0x1.03c6420000000p-5, 0x1.cad2a80000000p-4, 0x1.f7b5f00000000p-5, 0x1.d95f420000000p-4, -0x1.fb33400000000p-5, 0x1.1756ec0000000p-3, 0x1.3713aa0000000p-3, -0x1.caae3a0000000p-4, -0x1.20fc760000000p-4, 0x1.11699c0000000p-3, 0x1.0cdcbc0000000p-6, -0x1.580fd80000000p-4, -0x1.096f1c0000000p-3, -0x1.e6099c0000000p-5, -0x1.1f12e80000000p-3, 0x1.2beac00000000p-5, -0x1.a196500000000p-4, -0x1.27ba380000000p-2, -0x1.0aee380000000p-7, -0x1.07bff60000000p-2, -0x1.596b7c0000000p-3, 0x1.1f14100000000p-4, -0x1.8873c20000000p-6, 0x1.fcf57c0000000p-6, -0x1.8526000000000p-4, -0x1.10516c0000000p-4, 0x1.4691820000000p-3, -0x1.ffa7440000000p-8, 0x1.ec6bf20000000p-6, -0x1.429f920000000p-8, 0x1.827aee0000000p-7, -0x1.1b6e620000000p-3, -0x1.b807720000000p-3, -0x1.2e0f500000000p-2, 0x1.b1607e0000000p-5, -0x1.b0de360000000p-7, -0x1.6dba9a0000000p-3, 0x1.a1db860000000p-4, -0x1.3d649a0000000p-3, -0x1.b717bc0000000p-3, -0x1.a22b640000000p-4, -0x1.8a79680000000p-12, 0x1.bf77980000000p-4, -0x1.bbe4260000000p-9, -0x1.0e9e580000000p-5, -0x1.a8c59c0000000p-3, 0x1.bcf80c0000000p-5, -0x1.0884f60000000p-3, 0x1.769d160000000p-5, 0x1.1913a60000000p-4, 0x1.19bdea0000000p-3, -0x1.7b23500000000p-6, 0x1.4120040000000p-4, 0x1.ca79700000000p-5, -0x1.2cedd40000000p-4, -0x1.1373200000000p-4, 0x1.1688de0000000p-5, -0x1.dfcad20000000p-4, -0x1.d68fd40000000p-7, -0x1.7c20920000000p-5, -0x1.b244420000000p-5, -0x1.3f65d40000000p-4, -0x1.9fabb60000000p-4, -0x1.151d980000000p-7, 0x1.6101f40000000p-3, -0x1.7665ac0000000p-3, -0x1.8e94f60000000p-10, 0x1.ba6ec60000000p-4, -0x1.9e92ee0000000p-5, -0x1.ff63f00000000p-5, -0x1.173c240000000p-4, -0x1.ff0eee0000000p-3, -0x1.b08ae00000000p-3, -0x1.5f21460000000p-3, 0x1.6186240000000p-5, -0x1.5f60fe0000000p-3, 0x1.510df40000000p-4, -0x1.189d6c0000000p-4, -0x1.2b81da0000000p-4, -0x1.21e07a0000000p-3, -0x1.7df3800000000p-5, 0x1.0559680000000p-5, -0x1.da8ff20000000p-3, 0x1.eed5640000000p-7, -0x1.91b05e0000000p-4, 0x1.1844580000000p-4, -0x1.24bd0c0000000p-4, -0x1.62c4240000000p-4, -0x1.d0a3100000000p-8, -0x1.2bdf2c0000000p-3, -0x1.5a80a20000000p-3, -0x1.5b755e0000000p-4, -0x1.9b72400000000p-6, -0x1.690d4c0000000p-3, -0x1.18698a0000000p-3, -0x1.5a721c0000000p-4, -0x1.b94ba80000000p-5, 0x1.4791840000000p-4, -0x1.923e1e0000000p-3, 0x1.929c6e0000000p-5, 0x1.5173420000000p-3, -0x1.0003de0000000p-2, -0x1.6b6db40000000p-3, 0x1.ace3880000000p-6, -0x1.9e3ea20000000p-3, -0x1.069a560000000p-4, 0x1.468bb40000000p-5, -0x1.9c2ad40000000p-4, -0x1.2583420000000p-3, 0x1.20b1340000000p-4, -0x1.c9c4be0000000p-4, -0x1.3da1800000000p-4, -0x1.db4e3c0000000p-3, -0x1.5e4b000000000p-3, -0x1.4702fe0000000p-7, 0x1.f1ac7e0000000p-5, -0x1.9c21ec0000000p-4, -0x1.46f51a0000000p-4, -0x1.5b14020000000p-4, -0x1.ae1efa0000000p-4, 0x1.7866460000000p-6, 0x1.f2c4a00000000p-14, 0x1.3b12200000000p-5, 0x1.c3ef3e0000000p-4, -0x1.c7cee00000000p-4, -0x1.8e9f1c0000000p-3, -0x1.8477fc0000000p-3, 0x1.30af760000000p-6, -0x1.1cb8c00000000p-5, -0x1.1d3eac0000000p-3, -0x1.8c34260000000p-4, -0x1.db00ea0000000p-4, 0x1.0cb4b80000000p-4, -0x1.9c215e0000000p-5, -0x1.2bf1fa0000000p-3, -0x1.e9df980000000p-5, -0x1.3dc83e0000000p-4, -0x1.2d5c240000000p-8, 0x1.a25e3e0000000p-6, -0x1.ee1f2c0000000p-4, -0x1.b3a23e0000000p-6, 0x1.1261840000000p-4, -0x1.d410140000000p-9, -0x1.8006b60000000p-3, 0x1.eeb3d20000000p-9, -0x1.8f03f40000000p-5, -0x1.f38b280000000p-4, 0x1.bfff580000000p-4, 0x1.feb5080000000p-5, -0x1.0391a20000000p-3, 0x1.2c4f380000000p-4, -0x1.6aac1c0000000p-5, -0x1.ccb6a00000000p-5, 0x1.47b8ce0000000p-4, 0x1.9e42220000000p-4, -0x1.8d73fc0000000p-6, -0x1.2056200000000p-3, 0x1.51fce40000000p-4, -0x1.aa58940000000p-3, 0x1.28c1940000000p-4, -0x1.c70ff40000000p-8, 0x1.af4f300000000p-5, 0x1.e8aa580000000p-4, -0x1.8931a00000000p-4, 0x1.7587140000000p-5, 0x1.2826b60000000p-6, 0x1.dedc680000000p-5, -0x1.28c6180000000p-8, -0x1.1c7c640000000p-7, 0x1.c7ebb60000000p-4, 0x1.bb47380000000p-4, -0x1.22c7a00000000p-3, 0x1.1032d20000000p-3, 0x1.ca2ec80000000p-6, 0x1.9ec3e00000000p-5, 0x1.321e4c0000000p-5, 0x1.d223000000000p-6, -0x1.0aa4da0000000p-5, 0x1.06c5dc0000000p-3, -0x1.6b80680000000p-5, 0x1.df9f4a0000000p-5, -0x1.0a01fc0000000p-4, 0x1.2845c40000000p-4, 0x1.ab612e0000000p-6, 0x1.55f54c0000000p-3, 0x1.852d960000000p-3, 0x1.1d580e0000000p-3, 0x1.7df1a60000000p-4, -0x1.264f7e0000000p-3, -0x1.730d760000000p-5, 0x1.21dff60000000p-7, 0x1.d80de60000000p-4, 0x1.ff1a1a0000000p-5, 0x1.f3ebb60000000p-4, 0x1.bef10a0000000p-5, 0x1.e96d760000000p-7, 0x1.fe57700000000p-5, 0x1.0720280000000p-3, -0x1.2d00da0000000p-7, -0x1.0d2c740000000p-4, -0x1.d1f2aa0000000p-5, -0x1.6d054a0000000p-4, -0x1.348ec40000000p-4, -0x1.26d8040000000p-3, 0x1.c679d00000000p-5, 0x1.33f90a0000000p-4, -0x1.1cf86c0000000p-6, -0x1.4006760000000p-3, 0x1.2510ec0000000p-4, 0x1.4dd7d40000000p-4, -0x1.83aa8e0000000p-6, 0x1.c7a2700000000p-4, -0x1.1595900000000p-3, 0x1.9efca60000000p-11, 0x1.c106120000000p-5, 0x1.f1e4460000000p-5, 0x1.a3cc040000000p-4, -0x1.456f120000000p-4, -0x1.df8d5a0000000p-4, 0x1.2a662e0000000p-5, -0x1.a4aa280000000p-4, 0x1.15ca920000000p-4, -0x1.db82b60000000p-5, -0x1.63feec0000000p-3, -0x1.034b4e0000000p-3, 0x1.b7d38a0000000p-7, 0x1.761af60000000p-3, -0x1.97b1e60000000p-4, 0x1.44b3c20000000p-3, -0x1.3866c00000000p-4, -0x1.ae8fb20000000p-5, 0x1.9c0e300000000p-5, 0x1.6b17ee0000000p-11, -0x1.719c860000000p-6, 0x1.bb80880000000p-5, -0x1.bb111a0000000p-6, 0x1.4136f80000000p-3, -0x1.7f07220000000p-5, -0x1.23805a0000000p-4, -0x1.e950ca0000000p-4, -0x1.c7b4d20000000p-5, -0x1.3fc98e0000000p-4, 0x1.78e39c0000000p-3, -0x1.355fae0000000p-8, 0x1.361db80000000p-5, -0x1.2770a00000000p-6, 0x1.06a61c0000000p-5, 0x1.bad9000000000p-5, -0x1.5a17fe0000000p-6, 0x1.b3a8100000000p-5, 0x1.f2fe440000000p-6, 0x1.4e82440000000p-3, -0x1.be959c0000000p-5, -0x1.3867a40000000p-3, 0x1.02aa0a0000000p-7, 0x1.06d2700000000p-4, 0x1.6bdfea0000000p-4, 0x1.0a7f5c0000000p-4, 0x1.db28180000000p-4, -0x1.9e3ce20000000p-14, -0x1.4f119a0000000p-7, -0x1.9aa4560000000p-3, 0x1.0de0ce0000000p-6, -0x1.192fe20000000p-5, -0x1.5a3d620000000p-6, -0x1.7ee6e60000000p-4, -0x1.36b5f80000000p-3, 0x1.086a400000000p-6}
, {0x1.196e5e0000000p-3, 0x1.a64c820000000p-6, 0x1.2bcdb40000000p-4, 0x1.e20ea20000000p-5, 0x1.463b080000000p-3, -0x1.96ca5c0000000p-4, -0x1.c0f4aa0000000p-4, 0x1.8aef540000000p-5, -0x1.43ba340000000p-4, 0x1.0fd1aa0000000p-6, 0x1.186fa80000000p-3, -0x1.2bf7920000000p-3, -0x1.eab0d60000000p-5, 0x1.b034720000000p-4, -0x1.f7b6e40000000p-5, 0x1.e228fe0000000p-4, -0x1.f3d4060000000p-4, 0x1.50c7300000000p-3, 0x1.745f840000000p-6, -0x1.8c0b3c0000000p-4, -0x1.cad7d40000000p-5, 0x1.f5f78e0000000p-4, -0x1.1222dc0000000p-3, -0x1.0f45900000000p-3, 0x1.a219a80000000p-4, -0x1.7462000000000p-6, 0x1.6254980000000p-5, -0x1.b262c00000000p-10, -0x1.7fa2360000000p-4, -0x1.8935100000000p-6, 0x1.e8c6c20000000p-4, 0x1.0be6900000000p-5, -0x1.dfa0e20000000p-6, 0x1.7cfc560000000p-5, -0x1.4329da0000000p-3, -0x1.0e10780000000p-5, -0x1.a79d2e0000000p-4, 0x1.a735ce0000000p-7, -0x1.5e8a100000000p-7, -0x1.38626e0000000p-6, 0x1.7409560000000p-6, -0x1.964b7a0000000p-5, -0x1.b52e0c0000000p-5, 0x1.3378260000000p-4, -0x1.1a0f740000000p-3, -0x1.eb1d660000000p-4, -0x1.6c7e8a0000000p-3, -0x1.26c0ae0000000p-4, -0x1.1ce56c0000000p-3, -0x1.3063100000000p-5, -0x1.74dfd60000000p-4, 0x1.0607a80000000p-6, -0x1.39cc1e0000000p-5, 0x1.d036420000000p-4, -0x1.68ca080000000p-11, 0x1.8c8af60000000p-4, 0x1.0f32e20000000p-4, -0x1.f39e500000000p-4, -0x1.df76a80000000p-5, 0x1.69d2e80000000p-4, -0x1.33192c0000000p-4, 0x1.e457220000000p-5, 0x1.c7eb420000000p-5, 0x1.1e671a0000000p-3, -0x1.7605560000000p-5, 0x1.b925820000000p-9, -0x1.7a68080000000p-4, 0x1.bad5260000000p-4, -0x1.23409e0000000p-3, 0x1.6bda200000000p-4, 0x1.5c24560000000p-5, 0x1.3c43e60000000p-5, 0x1.0338e20000000p-4, -0x1.65c8840000000p-5, -0x1.52f7f60000000p-8, -0x1.005ac80000000p-4, 0x1.3aed980000000p-4, 0x1.45e7e00000000p-5, -0x1.0d6cda0000000p-3, -0x1.0b22780000000p-5, 0x1.7f24ce0000000p-4, -0x1.bc72f60000000p-4, -0x1.c0bcec0000000p-5, 0x1.271d180000000p-4, -0x1.533c100000000p-4, -0x1.0d68260000000p-4, -0x1.a01e1c0000000p-4, -0x1.f100660000000p-6, 0x1.01a9140000000p-3, -0x1.3411020000000p-4, -0x1.1049820000000p-11, -0x1.6d996e0000000p-4, 0x1.8d87e40000000p-11, -0x1.cb0a060000000p-4, 0x1.f51d0c0000000p-5, -0x1.a88aec0000000p-4, -0x1.0936460000000p-5, -0x1.4138b40000000p-5, 0x1.65e2940000000p-7, 0x1.4779e20000000p-4, 0x1.2531420000000p-7, -0x1.0dad040000000p-3, -0x1.5db1ea0000000p-5, -0x1.461e3a0000000p-5, 0x1.630af80000000p-4, -0x1.219bda0000000p-4, 0x1.1aa83c0000000p-10, -0x1.44072c0000000p-3, 0x1.aa02f80000000p-5, -0x1.7f7ffc0000000p-5, -0x1.afb4740000000p-5, 0x1.dcbb940000000p-4, -0x1.6333e40000000p-4, 0x1.33b59e0000000p-3, -0x1.85b8300000000p-4, -0x1.4ed6480000000p-3, -0x1.02ac100000000p-4, 0x1.01137a0000000p-3, -0x1.df8dfc0000000p-9, -0x1.7498420000000p-8, 0x1.3f42280000000p-4, 0x1.a105300000000p-4, -0x1.36f9580000000p-3, 0x1.d1b4a20000000p-5, 0x1.162d7a0000000p-4, 0x1.60cb580000000p-4, -0x1.2be2520000000p-5, -0x1.ac6c000000000p-6, -0x1.8d1a940000000p-8, -0x1.cde6960000000p-9, -0x1.92ddd40000000p-6, -0x1.63df060000000p-4, 0x1.5f3e400000000p-9, 0x1.0ef6060000000p-3, -0x1.d3210c0000000p-10, 0x1.8c31f20000000p-6, -0x1.ba2c8a0000000p-5, -0x1.7777d80000000p-4, -0x1.52c3440000000p-4, -0x1.4a78100000000p-7, -0x1.b5f75a0000000p-5, 0x1.4e912e0000000p-6, -0x1.7135040000000p-5, -0x1.a4797a0000000p-4, 0x1.85699e0000000p-4, -0x1.c40e2a0000000p-3, -0x1.6696b20000000p-5, 0x1.4d58d40000000p-5, 0x1.453ce20000000p-4, 0x1.4118f20000000p-4, -0x1.fe55520000000p-4, 0x1.c847a00000000p-7, -0x1.f2db800000000p-4, -0x1.5eea840000000p-5, -0x1.9df3f40000000p-6, -0x1.cd3ca00000000p-4, -0x1.065fb00000000p-11, -0x1.d15bfe0000000p-4, -0x1.07fcce0000000p-6, -0x1.bf02700000000p-5, 0x1.9640100000000p-5, -0x1.fbfc340000000p-6, -0x1.ba1b500000000p-4, 0x1.b0b4f00000000p-4, 0x1.4aaba60000000p-4, -0x1.99e8800000000p-7, 0x1.afa55e0000000p-4, 0x1.7f4abe0000000p-9, 0x1.1c12020000000p-6, 0x1.24f2840000000p-5, 0x1.0857a00000000p-3, 0x1.dad9820000000p-5, 0x1.19783a0000000p-4, 0x1.9745be0000000p-5, -0x1.be99aa0000000p-4, 0x1.594fce0000000p-3, 0x1.2d81080000000p-5, -0x1.1e88480000000p-4, 0x1.59967a0000000p-4, -0x1.1eec280000000p-5, -0x1.500a020000000p-3, -0x1.06c8760000000p-3, 0x1.5580200000000p-4, -0x1.443c4a0000000p-5, 0x1.32acb80000000p-3, -0x1.cdc5fc0000000p-5, -0x1.8ace6c0000000p-5, -0x1.8a71880000000p-4, 0x1.4c7b0e0000000p-5, 0x1.09b6560000000p-5, -0x1.bc55ba0000000p-7, -0x1.39e2d40000000p-4, 0x1.6312680000000p-5, -0x1.b523b80000000p-4, -0x1.7d0a7a0000000p-5, -0x1.d64daa0000000p-7, 0x1.44329c0000000p-3, 0x1.a9c4200000000p-6, 0x1.2bccda0000000p-4, 0x1.5f5cae0000000p-5, 0x1.2ebcb20000000p-3, 0x1.889c7c0000000p-7, 0x1.9af6cc0000000p-5, 0x1.049de60000000p-5, -0x1.db10540000000p-5, 0x1.8029a20000000p-4, -0x1.3303220000000p-3, -0x1.0e84040000000p-4, 0x1.9262f00000000p-5, 0x1.4a32a60000000p-5, 0x1.1a44ca0000000p-5, -0x1.d2a09a0000000p-5, 0x1.31a8b60000000p-4, 0x1.11a0820000000p-3, -0x1.72e7500000000p-3, 0x1.a880800000000p-4, -0x1.41d46a0000000p-3, -0x1.066c8a0000000p-6, 0x1.b2f92c0000000p-4, -0x1.d625340000000p-5, 0x1.cf8fa60000000p-5, 0x1.6e3f7a0000000p-3, -0x1.5c6baa0000000p-4, -0x1.bbb28a0000000p-7, 0x1.b74a3e0000000p-5, 0x1.04e9960000000p-4, -0x1.d3cbf80000000p-11, -0x1.3ba1120000000p-6, 0x1.1d03800000000p-3, 0x1.cefb220000000p-4, 0x1.9446460000000p-4, 0x1.a085a60000000p-5, 0x1.7dbef00000000p-6, -0x1.485ed20000000p-4, 0x1.1a31ae0000000p-3, 0x1.5637280000000p-5, 0x1.0d46ec0000000p-3, 0x1.d6fcbc0000000p-5, -0x1.5a18820000000p-4, -0x1.c05c020000000p-5, 0x1.def9de0000000p-4, -0x1.8c86ba0000000p-5, 0x1.c677ee0000000p-4, -0x1.91415c0000000p-5, 0x1.369cac0000000p-3, 0x1.1724020000000p-3, 0x1.3cd9e80000000p-4, 0x1.1b6dd80000000p-3, 0x1.16f6ba0000000p-3, 0x1.1331ec0000000p-3, 0x1.1c06260000000p-8, 0x1.c8b4200000000p-9, -0x1.3df94c0000000p-3, -0x1.2997d40000000p-4, 0x1.5b4d700000000p-3, 0x1.7f6eb40000000p-3, -0x1.e524ec0000000p-4, -0x1.7976840000000p-6, 0x1.a3a86c0000000p-4, 0x1.56d57a0000000p-7, -0x1.53b4140000000p-5, -0x1.178a840000000p-6, 0x1.290ed20000000p-5, -0x1.d72dfa0000000p-7, -0x1.9298740000000p-5, -0x1.f6a98a0000000p-4, -0x1.3619b60000000p-4, -0x1.ad74220000000p-5, 0x1.d11f620000000p-7, 0x1.61931e0000000p-11, -0x1.9dc79c0000000p-5, 0x1.8e46ba0000000p-5, -0x1.c42e260000000p-4, -0x1.16baea0000000p-3, -0x1.bdb11e0000000p-4, -0x1.9cb1180000000p-4, 0x1.44c3ae0000000p-4, 0x1.84a7520000000p-5, -0x1.73e6740000000p-4, -0x1.ced5fc0000000p-5, 0x1.6562740000000p-3, 0x1.f54b660000000p-6, -0x1.ba65960000000p-9, -0x1.fccbe20000000p-5, -0x1.02c0ca0000000p-4, -0x1.514d7e0000000p-3, -0x1.9925d40000000p-7, 0x1.7a00540000000p-5, 0x1.f405720000000p-5, -0x1.dd9bc20000000p-6, -0x1.bb68760000000p-6, -0x1.24aaa00000000p-3, 0x1.f56e420000000p-5, -0x1.ecf19c0000000p-4, 0x1.7680ba0000000p-7, 0x1.78d7060000000p-5, -0x1.4908e40000000p-3, -0x1.199b0e0000000p-7, 0x1.380a140000000p-4, 0x1.448ede0000000p-4, -0x1.31e9c20000000p-4, -0x1.ab40ce0000000p-6, -0x1.9137100000000p-3, 0x1.f635040000000p-4, 0x1.2dbe1e0000000p-4, -0x1.4ce9f80000000p-4, -0x1.e16ca80000000p-4, 0x1.f7077c0000000p-10, -0x1.c4fa9a0000000p-4, 0x1.72f1ba0000000p-5, 0x1.f1cdb40000000p-4, -0x1.f532f20000000p-6, 0x1.7078240000000p-4, 0x1.4c780e0000000p-6, 0x1.ae79500000000p-5, 0x1.8cf33a0000000p-5, 0x1.3fee260000000p-6, -0x1.3552b40000000p-6, -0x1.5058c40000000p-4, 0x1.4818d60000000p-9}
, {-0x1.0729cc0000000p-3, 0x1.0ecb280000000p-5, -0x1.9bbc2a0000000p-5, 0x1.6c60540000000p-5, 0x1.516f0c0000000p-4, -0x1.846c820000000p-4, 0x1.40eb4c0000000p-6, -0x1.11ca320000000p-6, -0x1.11df4c0000000p-5, -0x1.5cebae0000000p-3, -0x1.0c97c20000000p-4, 0x1.7a0e300000000p-4, -0x1.e8b7b20000000p-8, -0x1.87275a0000000p-7, -0x1.1201720000000p-5, -0x1.10a9380000000p-12, 0x1.10ecf60000000p-5, -0x1.2303a40000000p-5, 0x1.624e520000000p-3, 0x1.b576540000000p-4, 0x1.ddd0420000000p-4, 0x1.e308400000000p-5, -0x1.b14c120000000p-4, 0x1.1bde5c0000000p-7, -0x1.52823c0000000p-4, 0x1.02a9ac0000000p-5, 0x1.1c08580000000p-5, 0x1.b393500000000p-6, 0x1.8470880000000p-4, -0x1.7507320000000p-7, 0x1.d0ed640000000p-5, -0x1.217d8a0000000p-3, -0x1.b21f2c0000000p-6, 0x1.40a4ee0000000p-4, -0x1.8980c60000000p-5, 0x1.d5e6fa0000000p-4, 0x1.c584800000000p-4, 0x1.35748c0000000p-5, 0x1.1891ae0000000p-4, -0x1.152d480000000p-5, -0x1.d6c7a00000000p-6, 0x1.0289be0000000p-4, -0x1.e941ce0000000p-4, 0x1.efadc20000000p-6, -0x1.d248340000000p-4, 0x1.1b98480000000p-3, 0x1.6775f00000000p-5, 0x1.419b380000000p-3, 0x1.4fdfd60000000p-4, 0x1.17ec260000000p-3, 0x1.0ee1800000000p-5, -0x1.58738a0000000p-5, -0x1.4c74e80000000p-5, -0x1.0681c40000000p-8, -0x1.95034a0000000p-7, -0x1.716fa80000000p-5, 0x1.9b089a0000000p-4, -0x1.70eb8a0000000p-9, 0x1.d0de240000000p-5, -0x1.4b68720000000p-6, 0x1.3781920000000p-4, -0x1.f13e9e0000000p-8, 0x1.10e3780000000p-3, 0x1.f05caa0000000p-4, 0x1.7b7a080000000p-5, 0x1.5bdd2c0000000p-9, 0x1.7b2d720000000p-4, -0x1.0d7bf00000000p-3, 0x1.c188d00000000p-3, -0x1.016ed40000000p-7, 0x1.8fa9980000000p-6, 0x1.529fe20000000p-8, 0x1.a1ca1a0000000p-5, -0x1.c399ac0000000p-6, 0x1.3381de0000000p-3, 0x1.38972a0000000p-5, 0x1.ed40440000000p-5, -0x1.cc24360000000p-4, -0x1.41207c0000000p-3, -0x1.4c3b520000000p-5, -0x1.0367ac0000000p-5, -0x1.7d9cda0000000p-4, 0x1.8051120000000p-6, -0x1.1140360000000p-3, -0x1.7ee4a20000000p-4, 0x1.54f8320000000p-4, -0x1.b5b1080000000p-5, -0x1.7271740000000p-4, 0x1.6c31280000000p-6, -0x1.5ee8000000000p-5, 0x1.47cf460000000p-4, 0x1.b8bb340000000p-4, 0x1.464ad20000000p-4, 0x1.3954c00000000p-5, -0x1.8869ee0000000p-4, 0x1.381c180000000p-3, -0x1.34ed080000000p-7, -0x1.e189cc0000000p-5, -0x1.4658e00000000p-4, -0x1.7612a00000000p-4, 0x1.1ee9400000000p-4, 0x1.1759fc0000000p-3, 0x1.16c3ca0000000p-8, -0x1.5f0ea40000000p-5, -0x1.04c7820000000p-5, -0x1.1be51a0000000p-7, -0x1.18b4f80000000p-3, -0x1.d573c80000000p-6, 0x1.6fdc080000000p-4, 0x1.08d7f60000000p-4, -0x1.f701880000000p-5, 0x1.79d0e20000000p-3, 0x1.6472560000000p-5, 0x1.9335ee0000000p-6, 0x1.6b07660000000p-7, 0x1.6bc9900000000p-3, 0x1.c589f80000000p-6, 0x1.55cf440000000p-6, 0x1.527c2a0000000p-3, -0x1.8e370c0000000p-4, -0x1.5488ec0000000p-5, 0x1.162c720000000p-6, 0x1.047b0c0000000p-4, 0x1.5753600000000p-5, 0x1.aa866c0000000p-3, -0x1.ed16680000000p-5, -0x1.0090560000000p-4, 0x1.85e6a20000000p-5, 0x1.32fb7e0000000p-4, -0x1.e144640000000p-4, 0x1.028f060000000p-3, 0x1.0c05aa0000000p-4, -0x1.f376ac0000000p-6, -0x1.09492a0000000p-4, 0x1.34347e0000000p-4, -0x1.060ec60000000p-4, -0x1.44896c0000000p-4, -0x1.4bb3dc0000000p-5, 0x1.ed4da00000000p-7, 0x1.27986e0000000p-7, 0x1.92a7b20000000p-4, 0x1.3b5ad20000000p-4, 0x1.58942c0000000p-4, -0x1.4568260000000p-5, 0x1.4c0a5c0000000p-4, -0x1.a39a720000000p-4, 0x1.0126ec0000000p-3, 0x1.0e07000000000p-4, -0x1.08ae500000000p-6, -0x1.7bfb240000000p-5, -0x1.7713ac0000000p-5, -0x1.f757520000000p-4, 0x1.0c3c240000000p-3, 0x1.50b8460000000p-4, -0x1.4077be0000000p-5, -0x1.019d7a0000000p-3, 0x1.0e8a2e0000000p-4, 0x1.69d77a0000000p-5, -0x1.5660840000000p-3, 0x1.22c7e60000000p-5, 0x1.15d0b00000000p-4, -0x1.0f0b1e0000000p-2, -0x1.c979ea0000000p-5, 0x1.2171a80000000p-9, -0x1.3005c20000000p-7, -0x1.b7e5680000000p-5, 0x1.1bc8020000000p-7, 0x1.07024e0000000p-4, 0x1.17752a0000000p-7, -0x1.06105a0000000p-3, -0x1.b8afe00000000p-4, -0x1.7d078c0000000p-4, -0x1.dfd3740000000p-4, -0x1.1848540000000p-4, 0x1.b5d73c0000000p-6, 0x1.2b248a0000000p-5, 0x1.5965aa0000000p-6, -0x1.0a13860000000p-4, -0x1.75b3f60000000p-4, -0x1.d4e5100000000p-5, 0x1.156ab00000000p-3, 0x1.4213b20000000p-3, 0x1.5d356e0000000p-3, -0x1.5def320000000p-6, 0x1.769a140000000p-4, 0x1.eb9aec0000000p-5, 0x1.af37080000000p-4, 0x1.1eda620000000p-5, 0x1.8277060000000p-5, -0x1.1fb9a80000000p-4, -0x1.d47c740000000p-5, 0x1.2f71b00000000p-3, -0x1.9b829e0000000p-4, 0x1.1e56f00000000p-5, -0x1.3b18280000000p-7, -0x1.09a6000000000p-3, 0x1.37f6580000000p-7, -0x1.db53780000000p-7, 0x1.7a87b40000000p-4, -0x1.817b7c0000000p-5, 0x1.fcae5a0000000p-5, 0x1.ee0f480000000p-5, 0x1.463a040000000p-5, -0x1.44a04a0000000p-4, 0x1.6c511a0000000p-3, 0x1.1c2e7e0000000p-6, -0x1.f8cbe40000000p-5, -0x1.71b3020000000p-6, 0x1.cb66160000000p-8, -0x1.8e3f840000000p-4, 0x1.1cd3420000000p-3, 0x1.1b020a0000000p-8, 0x1.ebd0620000000p-5, 0x1.e6a8780000000p-6, -0x1.f621f80000000p-4, 0x1.057faa0000000p-3, 0x1.3f606c0000000p-3, -0x1.385ba20000000p-6, -0x1.024ad20000000p-4, 0x1.0f651e0000000p-6, -0x1.1a04b20000000p-10, -0x1.38e9200000000p-5, -0x1.28ad020000000p-4, 0x1.3c75c80000000p-7, -0x1.afa9280000000p-5, -0x1.a5010e0000000p-4, -0x1.c8121c0000000p-5, 0x1.3af1d20000000p-4, 0x1.55aa7c0000000p-3, 0x1.21deda0000000p-5, 0x1.258ae40000000p-4, 0x1.2560700000000p-5, -0x1.462cc00000000p-6, -0x1.638f660000000p-9, 0x1.16bce80000000p-3, 0x1.4c25b20000000p-4, -0x1.9d3b3c0000000p-4, 0x1.7a7c5e0000000p-5, -0x1.df5cba0000000p-6, 0x1.a3e7800000000p-3, -0x1.8e88800000000p-4, -0x1.524e780000000p-6, -0x1.0990dc0000000p-3, 0x1.0f72e40000000p-3, 0x1.4191cc0000000p-4, -0x1.f05db00000000p-10, 0x1.d797a60000000p-4, -0x1.42d5e20000000p-4, 0x1.0b85a40000000p-3, -0x1.d7b6780000000p-4, -0x1.384e5e0000000p-6, 0x1.cee04c0000000p-6, 0x1.2ed9e60000000p-6, 0x1.7148e00000000p-4, 0x1.0769ea0000000p-4, 0x1.8f62540000000p-5, 0x1.8496f40000000p-5, 0x1.c3209c0000000p-4, 0x1.c2d39a0000000p-4, 0x1.374f440000000p-5, 0x1.70726c0000000p-3, 0x1.8354f00000000p-4, -0x1.7911a40000000p-4, -0x1.44d89e0000000p-5, 0x1.b4b9b60000000p-4, -0x1.35dc840000000p-3, 0x1.a4f5e40000000p-4, -0x1.87b33e0000000p-4, 0x1.e24bb80000000p-10, 0x1.d8656c0000000p-5, -0x1.60dbb20000000p-3, -0x1.1d813c0000000p-5, 0x1.108cc40000000p-5, -0x1.4a1ae80000000p-5, 0x1.0dc69e0000000p-4, 0x1.372b320000000p-3, 0x1.6a9dda0000000p-6, 0x1.64f4820000000p-4, 0x1.32b8900000000p-10, 0x1.0b4e940000000p-4, -0x1.507e820000000p-5, -0x1.8c4d0a0000000p-6, -0x1.9397c40000000p-8, 0x1.1b1cba0000000p-5, -0x1.03fbf40000000p-6, -0x1.364e6e0000000p-3, 0x1.0f87600000000p-5, -0x1.11bbd80000000p-6, 0x1.95b9660000000p-6, -0x1.f61cc20000000p-8, 0x1.417ac00000000p-4, 0x1.e2c7e80000000p-5, 0x1.249e320000000p-5, 0x1.35c7f80000000p-4, 0x1.305f280000000p-5, -0x1.9dc6180000000p-4, -0x1.3e285a0000000p-4, -0x1.c9fd040000000p-7, -0x1.71e4040000000p-4, 0x1.0e29c00000000p-4, -0x1.ca06ee0000000p-4, 0x1.4fa21c0000000p-3, 0x1.4a704a0000000p-5, 0x1.f5afb80000000p-5, 0x1.6d43780000000p-4, -0x1.c99ca40000000p-7, 0x1.21ec1e0000000p-8, -0x1.ec4eb80000000p-4, -0x1.24e9120000000p-5, -0x1.e490b80000000p-5, 0x1.4a8e180000000p-3, -0x1.e7bcac0000000p-4, 0x1.b680000000000p-4, -0x1.6d1e4c0000000p-4, 0x1.466d740000000p-4, -0x1.eaee7e0000000p-6, 0x1.5d8c840000000p-3, 0x1.cbdd3e0000000p-4, 0x1.15a4320000000p-6, -0x1.08e1fe0000000p-4}
, {-0x1.ff80ee0000000p-6, -0x1.766a080000000p-5, 0x1.5cf1ae0000000p-6, 0x1.e004e20000000p-7, -0x1.3a617a0000000p-3, 0x1.32074e0000000p-4, 0x1.b722ba0000000p-11, -0x1.0f4ef60000000p-4, -0x1.52123a0000000p-4, 0x1.d7b31e0000000p-4, -0x1.3084e00000000p-7, -0x1.a8f29c0000000p-4, 0x1.226fa00000000p-4, 0x1.2404600000000p-3, 0x1.d252060000000p-4, 0x1.5351e20000000p-6, 0x1.a0c4b00000000p-5, 0x1.18922e0000000p-3, -0x1.278d960000000p-3, 0x1.90f46c0000000p-4, 0x1.5f143c0000000p-5, -0x1.9b1cc40000000p-5, -0x1.2ec66c0000000p-5, -0x1.21cd3c0000000p-5, -0x1.ca6fbc0000000p-4, -0x1.715d800000000p-4, -0x1.88792e0000000p-4, -0x1.b8063c0000000p-5, -0x1.8ab9560000000p-4, -0x1.1841e40000000p-5, -0x1.9c3f3a0000000p-5, 0x1.07a39c0000000p-5, -0x1.9556880000000p-3, -0x1.bcfa7c0000000p-5, 0x1.ef77f40000000p-5, -0x1.9341980000000p-5, 0x1.81be0e0000000p-4, -0x1.bfe15a0000000p-8, 0x1.ff62d80000000p-4, 0x1.44675a0000000p-4, -0x1.8e5d580000000p-8, 0x1.3f0bd40000000p-4, -0x1.3e94f20000000p-3, 0x1.ba67400000000p-4, 0x1.2bca400000000p-5, 0x1.113b220000000p-4, -0x1.96b37c0000000p-5, 0x1.2e75580000000p-3, 0x1.a3d9ee0000000p-4, -0x1.5ad2460000000p-3, 0x1.0a19bc0000000p-6, 0x1.689b060000000p-4, 0x1.bb06360000000p-7, 0x1.2bd8680000000p-3, 0x1.1abd1c0000000p-3, 0x1.56f04e0000000p-4, -0x1.c85d760000000p-5, 0x1.8b53200000000p-4, -0x1.ec38d20000000p-7, 0x1.70368e0000000p-3, -0x1.1164f40000000p-4, 0x1.bf65420000000p-6, 0x1.4c61a40000000p-5, 0x1.05710c0000000p-3, -0x1.1df47c0000000p-3, 0x1.22ee3c0000000p-5, -0x1.fa31240000000p-4, 0x1.3e24b00000000p-4, -0x1.5586c80000000p-3, 0x1.de9f940000000p-4, -0x1.a6b3b20000000p-3, 0x1.0c28820000000p-7, -0x1.d349da0000000p-5, -0x1.2e09160000000p-5, 0x1.d550a40000000p-6, 0x1.047fe20000000p-3, 0x1.8a5cc20000000p-4, -0x1.7a12820000000p-3, -0x1.4038c80000000p-3, 0x1.972a700000000p-9, -0x1.2cb3f00000000p-4, -0x1.d077b20000000p-6, -0x1.bd10720000000p-5, -0x1.76ac800000000p-5, -0x1.70d4740000000p-5, 0x1.7476020000000p-3, -0x1.ae44980000000p-5, 0x1.9bdf840000000p-5, 0x1.40d72a0000000p-3, -0x1.a3f9c60000000p-3, 0x1.8005880000000p-5, -0x1.0d9f2e0000000p-3, -0x1.86cce80000000p-5, -0x1.10543e0000000p-3, 0x1.27d3100000000p-3, 0x1.35bdcc0000000p-3, 0x1.0c5ee00000000p-4, -0x1.16a53e0000000p-9, 0x1.0010b20000000p-6, 0x1.9fb7960000000p-3, -0x1.5869c20000000p-3, -0x1.4851b00000000p-2, -0x1.408b980000000p-4, -0x1.c41ece0000000p-6, 0x1.e0fe700000000p-10, 0x1.7f5e040000000p-4, -0x1.7681400000000p-3, -0x1.e9a6980000000p-4, -0x1.daa0200000000p-4, 0x1.65090c0000000p-5, 0x1.4ac1660000000p-5, -0x1.7251260000000p-5, 0x1.2a02f00000000p-4, -0x1.5ade820000000p-4, 0x1.7999060000000p-5, -0x1.0b6a220000000p-4, -0x1.9e0fc80000000p-13, -0x1.2673da0000000p-3, -0x1.035eca0000000p-4, -0x1.18a6540000000p-3, 0x1.e9e9ee0000000p-4, -0x1.f278f60000000p-5, 0x1.d661b60000000p-4, -0x1.9ab2e00000000p-4, 0x1.2f77160000000p-3, 0x1.02eeec0000000p-2, 0x1.49d1840000000p-3, -0x1.d909c60000000p-3, 0x1.2e9bc00000000p-5, -0x1.e31ebe0000000p-5, -0x1.19c2480000000p-3, -0x1.284f660000000p-5, -0x1.1257160000000p-4, -0x1.4aaa1c0000000p-4, -0x1.4f36200000000p-5, -0x1.4b2fc60000000p-5, -0x1.67687c0000000p-3, 0x1.d1a0f00000000p-9, -0x1.c7881e0000000p-4, -0x1.c860a20000000p-7, 0x1.298f980000000p-5, 0x1.0b9a120000000p-5, -0x1.cbeb380000000p-3, -0x1.bdd31a0000000p-4, -0x1.5540dc0000000p-3, -0x1.f0853e0000000p-8, -0x1.e7b1b20000000p-6, -0x1.e41af00000000p-4, -0x1.a5d2480000000p-3, 0x1.cf4aba0000000p-6, -0x1.0f23220000000p-3, -0x1.aa30220000000p-3, -0x1.27132a0000000p-3, 0x1.7f7f140000000p-4, -0x1.b4bf0e0000000p-4, -0x1.07c2360000000p-3, -0x1.505b920000000p-4, -0x1.b993a40000000p-5, 0x1.cb98880000000p-5, -0x1.5963e60000000p-7, -0x1.8a94600000000p-3, -0x1.29a5ae0000000p-4, -0x1.cbf61a0000000p-4, -0x1.354cea0000000p-5, -0x1.b401420000000p-5, 0x1.1241580000000p-5, -0x1.69264c0000000p-3, 0x1.1765d40000000p-4, -0x1.2de2600000000p-3, -0x1.fc725c0000000p-4, 0x1.d9d4de0000000p-5, -0x1.f5061a0000000p-3, 0x1.bf54a00000000p-5, 0x1.7ac2c80000000p-5, -0x1.807a440000000p-6, 0x1.b378080000000p-4, -0x1.ec31760000000p-5, 0x1.219ae20000000p-3, -0x1.e174080000000p-4, 0x1.d19cac0000000p-5, -0x1.52e5920000000p-6, -0x1.eeaa980000000p-5, -0x1.8ae6120000000p-5, -0x1.20f56e0000000p-5, -0x1.a7c53e0000000p-3, -0x1.48798a0000000p-3, -0x1.ced24a0000000p-4, -0x1.422aae0000000p-2, 0x1.3451880000000p-3, -0x1.33265a0000000p-7, -0x1.8f32780000000p-4, -0x1.74c9520000000p-6, -0x1.473b700000000p-5, 0x1.48f1b00000000p-7, 0x1.85d44c0000000p-9, 0x1.c2adc00000000p-4, -0x1.69fcaa0000000p-6, 0x1.7adc140000000p-4, -0x1.453cbe0000000p-4, 0x1.bab0d80000000p-4, 0x1.2b23160000000p-5, -0x1.b42d6c0000000p-9, -0x1.442d260000000p-9, 0x1.d113720000000p-5, 0x1.afd73e0000000p-5, 0x1.ff4f240000000p-5, -0x1.9bd4920000000p-5, 0x1.a259360000000p-5, -0x1.6fca860000000p-7, 0x1.c317180000000p-5, 0x1.7eac180000000p-6, -0x1.a46e400000000p-4, 0x1.2bd1e00000000p-6, -0x1.d3fa840000000p-8, -0x1.a304a40000000p-4, 0x1.0959d60000000p-4, 0x1.38523a0000000p-3, 0x1.1421360000000p-4, 0x1.1c5a9a0000000p-3, -0x1.e60af40000000p-4, -0x1.02a1920000000p-4, -0x1.6e990c0000000p-5, 0x1.61b68a0000000p-3, -0x1.3217800000000p-7, 0x1.84c80e0000000p-5, -0x1.cfc5a80000000p-5, 0x1.a2f1d20000000p-5, 0x1.3579160000000p-4, -0x1.04b0a80000000p-4, 0x1.0424340000000p-5, -0x1.e7d2d60000000p-5, -0x1.69d92a0000000p-7, -0x1.7237060000000p-4, 0x1.4b5c8c0000000p-5, -0x1.7f175e0000000p-3, -0x1.a3b3300000000p-3, -0x1.d36abe0000000p-4, 0x1.3808d00000000p-3, -0x1.3fd31e0000000p-4, -0x1.f442d20000000p-4, 0x1.a905c00000000p-6, 0x1.75f29e0000000p-5, -0x1.5e1d600000000p-4, -0x1.9319e20000000p-7, -0x1.090f5e0000000p-3, -0x1.eebe800000000p-4, 0x1.5dc4cc0000000p-4, -0x1.4eed940000000p-3, 0x1.00f6120000000p-6, 0x1.72563e0000000p-4, 0x1.fa070a0000000p-5, 0x1.62ff840000000p-3, -0x1.0df40a0000000p-4, 0x1.bce0de0000000p-6, -0x1.ccdacc0000000p-4, -0x1.1c71080000000p-4, -0x1.5925bc0000000p-6, 0x1.3c7c180000000p-4, 0x1.03421a0000000p-5, -0x1.51a4080000000p-5, 0x1.98e3b00000000p-7, -0x1.fa4a940000000p-7, 0x1.302dbe0000000p-5, 0x1.2fb4ce0000000p-3, 0x1.828a800000000p-6, -0x1.6c74720000000p-6, -0x1.e4f2a40000000p-5, 0x1.2ee3300000000p-4, 0x1.2711700000000p-12, -0x1.fd663c0000000p-5, -0x1.3ad33c0000000p-3, 0x1.42b56c0000000p-7, -0x1.4a14020000000p-5, 0x1.ecbf1a0000000p-5, 0x1.0a01ee0000000p-7, 0x1.0da2980000000p-3, -0x1.ebccd20000000p-4, -0x1.a8b6e60000000p-4, 0x1.1a2f1e0000000p-4, 0x1.d11f760000000p-5, -0x1.ba88220000000p-4, -0x1.8194600000000p-5, -0x1.b1044e0000000p-5, 0x1.084a280000000p-3, 0x1.f3669a0000000p-6, 0x1.ad5d920000000p-3, -0x1.e056600000000p-6, -0x1.5fed460000000p-4, 0x1.90322a0000000p-11, -0x1.c3218c0000000p-5, -0x1.d04da40000000p-5, -0x1.7833060000000p-6, 0x1.e2bda40000000p-5, 0x1.9efa1c0000000p-4, 0x1.8255820000000p-6, -0x1.01d3640000000p-6, 0x1.75c23a0000000p-4, -0x1.6319e80000000p-6, -0x1.e824d00000000p-5, 0x1.04b6320000000p-3, 0x1.7f0bc60000000p-5, -0x1.05390e0000000p-7, -0x1.e003280000000p-7, -0x1.4956820000000p-7, -0x1.23fee20000000p-6, 0x1.f83fe40000000p-5, 0x1.7a144c0000000p-8, 0x1.3dcc320000000p-6, 0x1.0b1f8e0000000p-3, 0x1.c7c99a0000000p-4, -0x1.5bb9820000000p-6, 0x1.345e5a0000000p-4, -0x1.63496a0000000p-4, 0x1.0819860000000p-4, -0x1.72ee240000000p-4, -0x1.78f2240000000p-3, -0x1.d295940000000p-5, -0x1.c28a600000000p-5, 0x1.a0cd720000000p-6, 0x1.8369100000000p-7}
, {0x1.9f04b40000000p-6, 0x1.e567440000000p-4, -0x1.0c19540000000p-3, -0x1.deb2380000000p-6, 0x1.558e2c0000000p-8, 0x1.f8a6420000000p-4, -0x1.686e4e0000000p-5, -0x1.79d7720000000p-5, -0x1.2462fe0000000p-3, 0x1.7c535a0000000p-4, 0x1.57fb3a0000000p-4, -0x1.0de3be0000000p-3, -0x1.10e5de0000000p-3, -0x1.0cae960000000p-4, -0x1.84d1820000000p-5, 0x1.0714460000000p-5, -0x1.860dbc0000000p-6, 0x1.4f0dda0000000p-6, -0x1.529fc40000000p-6, -0x1.6ed0a80000000p-4, 0x1.0232d40000000p-4, 0x1.902d8e0000000p-6, 0x1.6dccf80000000p-3, 0x1.8544c60000000p-5, 0x1.3ebcf80000000p-6, -0x1.c64f040000000p-4, -0x1.9068ea0000000p-4, -0x1.3421c00000000p-4, -0x1.be0d120000000p-5, 0x1.5f07800000000p-4, 0x1.9d5ed60000000p-5, 0x1.aa56760000000p-5, -0x1.8951e80000000p-4, 0x1.7782d20000000p-4, -0x1.5994580000000p-7, -0x1.b745380000000p-5, -0x1.9ace740000000p-4, -0x1.97446c0000000p-6, -0x1.d43e300000000p-5, -0x1.98ea1c0000000p-5, -0x1.b49e640000000p-4, -0x1.1276a40000000p-5, 0x1.64e8f40000000p-4, -0x1.74eea40000000p-6, 0x1.5d96080000000p-3, -0x1.e3e0260000000p-6, -0x1.d220240000000p-5, 0x1.5484e00000000p-5, 0x1.00d8600000000p-4, 0x1.f22b220000000p-5, 0x1.b4c9060000000p-6, -0x1.8a78300000000p-4, -0x1.80cdd80000000p-5, 0x1.b8ffa20000000p-4, 0x1.42bc8a0000000p-4, 0x1.6eb4000000000p-4, -0x1.1c598a0000000p-4, -0x1.2a3e700000000p-4, -0x1.85389c0000000p-11, 0x1.e1d8300000000p-4, -0x1.79a7700000000p-7, -0x1.078ce80000000p-8, -0x1.cff8060000000p-7, -0x1.05a33a0000000p-3, 0x1.af45fe0000000p-7, -0x1.d68b700000000p-5, -0x1.1f23980000000p-4, -0x1.6dbf360000000p-13, -0x1.11e2e60000000p-5, 0x1.f023720000000p-10, 0x1.a21e660000000p-7, -0x1.cb6e9e0000000p-3, -0x1.6b2d440000000p-4, 0x1.884c780000000p-6, 0x1.700da20000000p-4, -0x1.5ef4c60000000p-4, -0x1.18d03e0000000p-2, -0x1.2c993a0000000p-3, -0x1.5b80100000000p-3, -0x1.a8011c0000000p-4, -0x1.4270940000000p-4, -0x1.aa1d6c0000000p-7, -0x1.afdb120000000p-8, -0x1.113b020000000p-4, 0x1.226f800000000p-4, 0x1.2fa19e0000000p-4, -0x1.c23fa00000000p-9, -0x1.197e860000000p-4, -0x1.843e1e0000000p-4, 0x1.b510900000000p-7, -0x1.5ec4560000000p-4, -0x1.dd48100000000p-5, 0x1.0711580000000p-4, -0x1.98cfd60000000p-3, -0x1.bafdf60000000p-4, -0x1.6862b20000000p-4, 0x1.3c8b640000000p-3, -0x1.ab47580000000p-6, -0x1.093a9e0000000p-3, 0x1.5e29da0000000p-5, -0x1.e2f8220000000p-5, 0x1.3adebe0000000p-3, -0x1.a5fd3c0000000p-6, 0x1.0470a80000000p-8, -0x1.a709720000000p-4, 0x1.386eaa0000000p-5, 0x1.6bd6d80000000p-4, -0x1.584c860000000p-4, -0x1.192dea0000000p-3, -0x1.bc9c6e0000000p-5, -0x1.249aec0000000p-3, 0x1.4881280000000p-5, 0x1.98087e0000000p-6, 0x1.49d9aa0000000p-5, -0x1.97b22a0000000p-6, 0x1.aa2ec40000000p-4, -0x1.555b7e0000000p-6, -0x1.a931d00000000p-3, 0x1.6b98e20000000p-5, -0x1.5ac69c0000000p-4, -0x1.1a9f900000000p-4, -0x1.6a587e0000000p-3, -0x1.0701a60000000p-4, -0x1.863d820000000p-11, 0x1.5db6b20000000p-4, -0x1.b9cd2a0000000p-4, -0x1.e131660000000p-4, -0x1.4d5aec0000000p-4, 0x1.562e400000000p-4, -0x1.92e6160000000p-4, -0x1.53c11c0000000p-4, 0x1.76bc940000000p-4, -0x1.4272f60000000p-4, -0x1.74bd4c0000000p-3, -0x1.c927be0000000p-4, -0x1.e1ea7c0000000p-6, -0x1.820a440000000p-4, -0x1.3280da0000000p-4, -0x1.12cdee0000000p-4, 0x1.80df8e0000000p-4, -0x1.98f2100000000p-3, -0x1.99ef680000000p-6, 0x1.d4dd8e0000000p-5, -0x1.d0e9880000000p-4, -0x1.5555b80000000p-3, -0x1.3b89540000000p-6, 0x1.310cda0000000p-6, -0x1.5918d80000000p-3, -0x1.c953b60000000p-4, -0x1.867df20000000p-5, 0x1.cbc65a0000000p-4, -0x1.3c57ae0000000p-3, -0x1.aef7b20000000p-4, -0x1.10e3f60000000p-3, -0x1.8f460c0000000p-3, -0x1.01fce60000000p-6, -0x1.008e9c0000000p-3, 0x1.3905680000000p-7, -0x1.0801880000000p-3, 0x1.cc58dc0000000p-6, -0x1.99a6ee0000000p-3, 0x1.2522a40000000p-3, 0x1.46f8e00000000p-5, -0x1.021f7c0000000p-3, -0x1.5f05da0000000p-4, -0x1.e96f160000000p-4, -0x1.ce3cf40000000p-3, 0x1.fa50940000000p-6, 0x1.02fb7a0000000p-5, 0x1.d667ac0000000p-4, -0x1.ac43160000000p-3, 0x1.ffc5540000000p-6, -0x1.4e07aa0000000p-5, -0x1.da6cee0000000p-4, -0x1.cdc5d00000000p-4, -0x1.110d000000000p-4, -0x1.05c8f00000000p-3, -0x1.1235560000000p-4, -0x1.9ed52c0000000p-5, 0x1.1ab9740000000p-3, -0x1.0eb64a0000000p-4, 0x1.b415a20000000p-5, -0x1.017cea0000000p-3, 0x1.0f3b760000000p-7, -0x1.d3eeea0000000p-4, -0x1.372d860000000p-4, -0x1.8841b60000000p-5, -0x1.abf6de0000000p-10, -0x1.f3d3140000000p-4, -0x1.a92f300000000p-3, -0x1.88ce3a0000000p-3, 0x1.dc2c120000000p-10, 0x1.acf3aa0000000p-4, 0x1.f76d580000000p-4, -0x1.33c6760000000p-6, 0x1.4f53da0000000p-3, -0x1.2378720000000p-7, 0x1.0b936e0000000p-2, 0x1.ab2f060000000p-5, 0x1.fa5d9c0000000p-4, -0x1.1e77aa0000000p-4, 0x1.2bbd1e0000000p-5, 0x1.a393320000000p-5, 0x1.2d87fe0000000p-5, -0x1.03600e0000000p-6, 0x1.db31fe0000000p-4, -0x1.dd604c0000000p-6, -0x1.68d1a60000000p-6, -0x1.5793360000000p-5, 0x1.635e8a0000000p-3, 0x1.72fd860000000p-4, 0x1.13b1fc0000000p-4, -0x1.c80e520000000p-6, 0x1.cbafb60000000p-4, 0x1.1ffb160000000p-3, 0x1.23614a0000000p-4, 0x1.cc833a0000000p-7, -0x1.5e11dc0000000p-3, 0x1.37711a0000000p-3, -0x1.ac8c220000000p-4, 0x1.a82dea0000000p-4, -0x1.60ce8e0000000p-6, -0x1.d1d12c0000000p-7, 0x1.4a2ee00000000p-4, 0x1.0c70540000000p-6, 0x1.f36bc80000000p-5, 0x1.db97200000000p-8, 0x1.23e3f20000000p-3, 0x1.8d5f480000000p-5, 0x1.dbe38a0000000p-4, -0x1.f501080000000p-6, 0x1.d367040000000p-4, 0x1.51b2720000000p-3, 0x1.280dbe0000000p-4, -0x1.8e2e4e0000000p-5, 0x1.e59c0e0000000p-4, 0x1.721a4e0000000p-7, 0x1.2b757e0000000p-4, -0x1.5a821c0000000p-4, 0x1.a6056a0000000p-5, -0x1.90ff0a0000000p-4, -0x1.d734680000000p-5, -0x1.cd8e7c0000000p-8, 0x1.967ed80000000p-4, 0x1.2136000000000p-4, -0x1.2332ee0000000p-4, 0x1.ab5c400000000p-4, 0x1.647c380000000p-6, -0x1.ac1b680000000p-4, 0x1.5127680000000p-12, -0x1.e482560000000p-4, -0x1.4833f20000000p-5, -0x1.0e34d20000000p-4, 0x1.11041e0000000p-3, 0x1.81041e0000000p-5, 0x1.f1d9860000000p-4, 0x1.015bc20000000p-5, 0x1.3d275c0000000p-6, 0x1.f6bdc20000000p-6, -0x1.239c960000000p-8, -0x1.9854a00000000p-5, 0x1.5982d60000000p-3, 0x1.0933ce0000000p-4, -0x1.b330e20000000p-7, -0x1.c4822e0000000p-4, 0x1.50eea20000000p-5, -0x1.de87320000000p-5, 0x1.164d720000000p-4, -0x1.cb50800000000p-3, 0x1.2ea1600000000p-5, 0x1.a184e20000000p-5, 0x1.a3217c0000000p-3, 0x1.17e2180000000p-3, 0x1.14c97e0000000p-3, 0x1.f9318c0000000p-5, -0x1.ca3fd80000000p-5, 0x1.827a760000000p-5, 0x1.32fc6a0000000p-3, 0x1.928b620000000p-4, -0x1.47a5ac0000000p-4, 0x1.2f638c0000000p-4, 0x1.3a239c0000000p-6, -0x1.742f220000000p-5, 0x1.3925ce0000000p-5, -0x1.df228c0000000p-6, -0x1.623fec0000000p-3, 0x1.6933ee0000000p-4, 0x1.9fe4ae0000000p-5, 0x1.5e0ee80000000p-3, 0x1.c9f92c0000000p-4, 0x1.f510e60000000p-4, 0x1.49a2440000000p-6, 0x1.2aefe40000000p-6, -0x1.12d8ba0000000p-3, 0x1.0399f60000000p-4, 0x1.792dcc0000000p-4, 0x1.a6c1580000000p-3, 0x1.17ce100000000p-5, 0x1.20365a0000000p-4, -0x1.a8e1060000000p-4, 0x1.169a640000000p-3, -0x1.81474c0000000p-4, -0x1.875d1c0000000p-4, -0x1.81d5040000000p-5, -0x1.4559600000000p-5, -0x1.6f57980000000p-3, 0x1.a2c9f20000000p-4, 0x1.9465880000000p-4, -0x1.453e7c0000000p-7, 0x1.e734f40000000p-5, -0x1.4061ca0000000p-6, 0x1.950af00000000p-4, 0x1.5675460000000p-9, 0x1.8ee55a0000000p-4, 0x1.00d2b00000000p-3, 0x1.2e145a0000000p-3, 0x1.0744600000000p-4, -0x1.51c3ee0000000p-6, -0x1.284af20000000p-6, 0x1.cc6a180000000p-4}
, {0x1.9a4fce0000000p-8, 0x1.0ac62e0000000p-3, -0x1.5952f80000000p-4, -0x1.a9d4c00000000p-6, -0x1.8116e60000000p-6, 0x1.8cfb6a0000000p-5, -0x1.2be09c0000000p-5, 0x1.b516820000000p-4, -0x1.d908240000000p-7, 0x1.304d860000000p-5, 0x1.43543c0000000p-6, -0x1.b633d40000000p-8, -0x1.ca5ea60000000p-7, 0x1.cc44fe0000000p-4, -0x1.671fca0000000p-5, 0x1.82f1c00000000p-3, -0x1.aa47540000000p-4, -0x1.e0fd340000000p-5, 0x1.cc227c0000000p-4, 0x1.7d28f80000000p-4, -0x1.ba096c0000000p-7, -0x1.639ae20000000p-4, -0x1.0b02b40000000p-5, 0x1.554a400000000p-4, 0x1.4945640000000p-5, 0x1.9e17ac0000000p-4, -0x1.0617680000000p-4, -0x1.11ec0c0000000p-3, 0x1.55c1240000000p-6, -0x1.7510220000000p-3, 0x1.71dc160000000p-5, 0x1.33a7500000000p-7, 0x1.408e8a0000000p-4, 0x1.1e120a0000000p-4, 0x1.677d040000000p-4, -0x1.a1e0740000000p-4, 0x1.ac2e800000000p-4, 0x1.ab473c0000000p-5, 0x1.7603620000000p-6, -0x1.a669a40000000p-4, 0x1.a418200000000p-5, -0x1.89dea60000000p-6, 0x1.41c7800000000p-4, -0x1.37ec700000000p-4, -0x1.4b69cc0000000p-6, -0x1.1a51640000000p-6, -0x1.5149500000000p-4, -0x1.a4d1d40000000p-4, -0x1.2688000000000p-5, -0x1.20896c0000000p-7, -0x1.25718e0000000p-5, -0x1.b223680000000p-7, 0x1.ec53380000000p-5, 0x1.66a1220000000p-4, -0x1.8166e40000000p-5, -0x1.6c39f40000000p-4, 0x1.a374040000000p-6, 0x1.a71c360000000p-4, 0x1.2a87bc0000000p-3, 0x1.0201dc0000000p-3, 0x1.e383580000000p-5, 0x1.69f64a0000000p-4, 0x1.77c9660000000p-4, -0x1.84a7980000000p-5, 0x1.c8d6e00000000p-4, -0x1.8bc0da0000000p-5, -0x1.098eae0000000p-3, 0x1.2bed480000000p-5, -0x1.3a1b7e0000000p-6, -0x1.435bf40000000p-4, -0x1.1fe5be0000000p-4, 0x1.6931860000000p-6, 0x1.1eac760000000p-5, 0x1.671fe80000000p-3, 0x1.72d7300000000p-4, 0x1.6f6eda0000000p-3, 0x1.5d144c0000000p-4, 0x1.f875680000000p-6, -0x1.6a78c60000000p-4, 0x1.c21b780000000p-4, -0x1.4915b00000000p-4, -0x1.bbb5e40000000p-6, 0x1.42d67a0000000p-6, 0x1.742fda0000000p-4, -0x1.14d9d40000000p-3, -0x1.35201c0000000p-4, -0x1.419e9a0000000p-4, 0x1.bcb4fc0000000p-4, 0x1.d28e540000000p-5, 0x1.1c4f060000000p-3, 0x1.9163460000000p-6, 0x1.b3e1e20000000p-8, -0x1.0e7ba00000000p-4, 0x1.8b88380000000p-3, 0x1.71cf660000000p-4, -0x1.716d0e0000000p-7, -0x1.7a6e520000000p-4, -0x1.b289f40000000p-5, -0x1.e893320000000p-5, -0x1.2e07940000000p-4, 0x1.279f760000000p-4, -0x1.ea59dc0000000p-5, 0x1.722e600000000p-5, 0x1.2580d80000000p-3, 0x1.b6e7440000000p-5, 0x1.0d73e80000000p-3, 0x1.4539a40000000p-4, -0x1.380bcc0000000p-3, -0x1.ced7500000000p-5, -0x1.de74120000000p-5, -0x1.95085c0000000p-5, -0x1.81da4e0000000p-3, -0x1.3aecee0000000p-4, -0x1.e6a9800000000p-5, 0x1.097c580000000p-4, -0x1.58b4f20000000p-3, -0x1.04a4360000000p-4, 0x1.ad9cdc0000000p-7, -0x1.cdd3960000000p-4, 0x1.697c8e0000000p-5, 0x1.8b73d00000000p-4, 0x1.54c13a0000000p-4, -0x1.8034740000000p-4, -0x1.641f1c0000000p-5, 0x1.5f8c580000000p-5, -0x1.abc9220000000p-4, 0x1.83cc040000000p-5, -0x1.1182f20000000p-4, -0x1.1a37f00000000p-11, -0x1.5ec5840000000p-4, -0x1.f36f0a0000000p-4, 0x1.acb3700000000p-5, -0x1.05fb7e0000000p-2, -0x1.ad549c0000000p-4, -0x1.9e78b00000000p-4, -0x1.4563940000000p-6, -0x1.da06960000000p-5, 0x1.3052a00000000p-3, 0x1.4da9fc0000000p-5, 0x1.d12aee0000000p-7, 0x1.7938d60000000p-5, 0x1.100a700000000p-3, -0x1.9394f00000000p-5, 0x1.23f6740000000p-3, -0x1.5b02d80000000p-4, -0x1.249b5a0000000p-4, -0x1.0d74a80000000p-4, 0x1.f545e60000000p-7, -0x1.432bfc0000000p-4, 0x1.4fac260000000p-4, 0x1.23d9580000000p-6, -0x1.49ec1e0000000p-7, -0x1.54bd660000000p-4, -0x1.ef61c60000000p-4, -0x1.5a91540000000p-4, 0x1.cf13360000000p-5, -0x1.b7740a0000000p-4, 0x1.cad4720000000p-4, 0x1.ec83280000000p-5, -0x1.3d91e80000000p-5, -0x1.604cd20000000p-6, 0x1.61131e0000000p-5, 0x1.5c46f80000000p-3, -0x1.3eb5bc0000000p-5, -0x1.63afd00000000p-4, 0x1.6f523e0000000p-8, 0x1.651cfa0000000p-5, 0x1.b8b3cc0000000p-4, 0x1.20341c0000000p-4, 0x1.6848ea0000000p-3, -0x1.6a1ba80000000p-5, 0x1.854afe0000000p-5, 0x1.84e6b40000000p-5, 0x1.2b2bee0000000p-5, 0x1.e0d2300000000p-3, -0x1.311ab20000000p-3, -0x1.657d620000000p-4, 0x1.8891260000000p-4, 0x1.e268620000000p-4, -0x1.129c5a0000000p-4, -0x1.02837e0000000p-4, -0x1.05eac00000000p-5, 0x1.0913a20000000p-4, 0x1.7346100000000p-4, -0x1.9fcbba0000000p-8, -0x1.5ced520000000p-6, 0x1.bf3abe0000000p-4, 0x1.e86bd80000000p-4, -0x1.5f18c80000000p-4, -0x1.3b3bba0000000p-4, -0x1.8c34460000000p-4, -0x1.2a31e60000000p-4, -0x1.8802420000000p-5, 0x1.608e500000000p-5, -0x1.151c120000000p-3, 0x1.5621be0000000p-3, -0x1.9724f20000000p-3, -0x1.622c760000000p-4, 0x1.84ee900000000p-4, -0x1.ed5c320000000p-5, 0x1.bc870a0000000p-7, 0x1.72ed940000000p-5, -0x1.69b1f60000000p-5, -0x1.2ce79e0000000p-5, 0x1.023f540000000p-4, 0x1.f4af720000000p-5, -0x1.e5145a0000000p-7, -0x1.1eebd20000000p-5, 0x1.070da40000000p-5, 0x1.d5a38c0000000p-6, -0x1.11c06a0000000p-5, 0x1.9948ba0000000p-4, 0x1.ca4a880000000p-6, 0x1.3de02a0000000p-5, 0x1.42c40a0000000p-5, 0x1.f234ba0000000p-8, 0x1.cae2060000000p-7, 0x1.c212040000000p-7, 0x1.2ef4fe0000000p-4, -0x1.1967180000000p-5, -0x1.725d9a0000000p-9, -0x1.fc01640000000p-7, 0x1.ea66fa0000000p-5, 0x1.be96400000000p-4, 0x1.22b8b60000000p-3, 0x1.b4542e0000000p-4, 0x1.3365d40000000p-3, 0x1.01eb820000000p-3, -0x1.783c9e0000000p-5, -0x1.31297e0000000p-4, -0x1.90ddfe0000000p-8, 0x1.c7ce220000000p-5, 0x1.a7befe0000000p-6, 0x1.fdf1ee0000000p-4, -0x1.66634c0000000p-4, 0x1.df808c0000000p-5, 0x1.2217c20000000p-3, -0x1.b09ca00000000p-5, -0x1.c06b700000000p-7, -0x1.5d91620000000p-3, 0x1.72b4060000000p-5, -0x1.de53500000000p-4, 0x1.d24b440000000p-3, -0x1.24ef2a0000000p-4, 0x1.3320860000000p-3, 0x1.96aaae0000000p-4, -0x1.36e3400000000p-6, 0x1.e23f620000000p-4, 0x1.2d102a0000000p-6, -0x1.6ce9540000000p-4, -0x1.7945aa0000000p-5, 0x1.0182580000000p-3, -0x1.31e99c0000000p-3, 0x1.53ba5e0000000p-4, 0x1.545eba0000000p-4, -0x1.90ccd00000000p-5, -0x1.543cd80000000p-4, -0x1.1eca3e0000000p-4, -0x1.37e19a0000000p-3, 0x1.85e8600000000p-8, -0x1.1556c00000000p-3, 0x1.6a25fa0000000p-4, 0x1.d644e60000000p-4, 0x1.aa07fe0000000p-5, -0x1.0458b40000000p-3, 0x1.389ace0000000p-3, -0x1.a9fa520000000p-4, -0x1.299a000000000p-5, 0x1.f05d300000000p-4, 0x1.9385460000000p-4, -0x1.a5c6c80000000p-5, -0x1.5eac120000000p-7, -0x1.7c4be40000000p-6, 0x1.c6d1ac0000000p-6, 0x1.68df940000000p-6, -0x1.d67afe0000000p-4, 0x1.f1c8bc0000000p-5, -0x1.11bb0a0000000p-4, 0x1.5209ee0000000p-5, 0x1.f1adca0000000p-4, 0x1.6cb5220000000p-4, 0x1.a906600000000p-9, 0x1.0a6ab40000000p-3, -0x1.e1ff520000000p-6, 0x1.88e14c0000000p-6, 0x1.0d39880000000p-7, -0x1.b1e25c0000000p-4, -0x1.8b09d00000000p-4, 0x1.81d2840000000p-3, -0x1.0f11b00000000p-3, 0x1.2f15d00000000p-4, 0x1.0e93100000000p-4, 0x1.91f2b20000000p-8, 0x1.9121060000000p-8, -0x1.5e9e640000000p-4, -0x1.0e54ea0000000p-5, 0x1.2fdda00000000p-6, 0x1.6209920000000p-5, -0x1.b114700000000p-4, -0x1.1b80ec0000000p-5, 0x1.b60dfc0000000p-4, -0x1.100de80000000p-3, -0x1.51625c0000000p-3, 0x1.d7e6760000000p-5, -0x1.7fee960000000p-5, 0x1.51d4e60000000p-4, -0x1.49b2980000000p-4, 0x1.07dc3a0000000p-6, -0x1.d599da0000000p-6, 0x1.32c8c40000000p-5, -0x1.e0c47c0000000p-5, 0x1.1039720000000p-3, -0x1.e2bae80000000p-5, -0x1.c961fc0000000p-5, 0x1.ceb6da0000000p-5, -0x1.36fe740000000p-4, -0x1.9b7b720000000p-5, 0x1.8cfbdc0000000p-4, -0x1.c969cc0000000p-5, 0x1.ef5c5e0000000p-6}
, {-0x1.8db4b20000000p-6, 0x1.84376a0000000p-4, -0x1.0f0eec0000000p-6, -0x1.0d45fc0000000p-4, 0x1.82c8b20000000p-5, -0x1.7bc58e0000000p-4, -0x1.cd4d1e0000000p-5, 0x1.1ec1680000000p-3, -0x1.5782c40000000p-4, -0x1.4367d00000000p-4, 0x1.e9180a0000000p-6, 0x1.7df8aa0000000p-4, 0x1.50c0040000000p-4, -0x1.eb241e0000000p-5, -0x1.85d3c40000000p-4, 0x1.ce10de0000000p-4, 0x1.906e320000000p-8, 0x1.44571c0000000p-4, -0x1.0ebd340000000p-4, -0x1.a71de60000000p-4, 0x1.0f65620000000p-7, -0x1.aab15c0000000p-5, 0x1.fb81fc0000000p-5, -0x1.5df10a0000000p-4, -0x1.4509160000000p-3, 0x1.c0fdb20000000p-6, -0x1.8fc30c0000000p-5, -0x1.aa5e020000000p-5, 0x1.325a940000000p-7, 0x1.d382fa0000000p-4, 0x1.d692780000000p-6, 0x1.bed30e0000000p-8, 0x1.2630e60000000p-3, 0x1.e16ebe0000000p-5, -0x1.1cd55a0000000p-5, -0x1.87e2240000000p-5, -0x1.2fb3140000000p-3, 0x1.8c32600000000p-8, -0x1.e396440000000p-4, -0x1.3f4cd20000000p-3, -0x1.9a37d00000000p-4, 0x1.1d67280000000p-4, -0x1.059fb00000000p-5, 0x1.e07a580000000p-9, 0x1.42f9200000000p-4, 0x1.6cac100000000p-6, -0x1.efb8ee0000000p-6, 0x1.7f4fbc0000000p-4, -0x1.0acb680000000p-3, -0x1.d439440000000p-5, -0x1.5715a60000000p-3, 0x1.8f80e80000000p-5, 0x1.7bfde40000000p-4, 0x1.64ea540000000p-4, 0x1.93cf520000000p-6, 0x1.295c340000000p-4, 0x1.c9fda80000000p-4, -0x1.ddaaf40000000p-4, -0x1.8410bc0000000p-5, -0x1.c92ae20000000p-6, 0x1.0ec8520000000p-4, -0x1.da7da20000000p-4, -0x1.98f7dc0000000p-5, -0x1.0f8d860000000p-3, 0x1.bea7e00000000p-4, 0x1.55ceb80000000p-4, -0x1.175b9c0000000p-5, 0x1.34f4560000000p-4, 0x1.c3c2ba0000000p-4, 0x1.0c7ed60000000p-3, 0x1.917bc80000000p-4, 0x1.4f749c0000000p-4, -0x1.ed6f660000000p-5, 0x1.ae99ca0000000p-5, -0x1.90e7660000000p-8, -0x1.6222520000000p-4, 0x1.1269ec0000000p-4, -0x1.0457680000000p-5, 0x1.9b1bc80000000p-4, 0x1.a276a40000000p-4, -0x1.bdf25e0000000p-4, 0x1.c05ee60000000p-6, -0x1.41c8900000000p-4, 0x1.6203820000000p-4, -0x1.a6f5d60000000p-4, -0x1.216a7a0000000p-5, -0x1.917f3c0000000p-7, 0x1.2cc0b60000000p-3, -0x1.0eb2840000000p-5, -0x1.80824a0000000p-6, 0x1.1bb61a0000000p-6, -0x1.2d07120000000p-5, -0x1.b86c6a0000000p-4, 0x1.75003a0000000p-5, -0x1.5fb7a00000000p-4, 0x1.c846940000000p-4, -0x1.8fbaa00000000p-6, -0x1.5793b00000000p-4, 0x1.62a2340000000p-4, 0x1.0900a00000000p-4, -0x1.a01b9a0000000p-5, -0x1.ed36d40000000p-4, -0x1.4ec0f40000000p-4, -0x1.35297c0000000p-5, 0x1.934be80000000p-5, 0x1.ed61440000000p-4, -0x1.9e5f1c0000000p-6, -0x1.8846d20000000p-3, -0x1.8b30180000000p-4, 0x1.601c8c0000000p-4, -0x1.bf06420000000p-7, 0x1.83be0c0000000p-7, 0x1.3632d40000000p-4, 0x1.5d59dc0000000p-4, -0x1.1906c20000000p-5, -0x1.b4ca900000000p-6, 0x1.5464120000000p-4, -0x1.823a040000000p-4, -0x1.39025c0000000p-5, 0x1.e758a60000000p-6, -0x1.63088e0000000p-7, -0x1.2459460000000p-8, -0x1.6968160000000p-6, 0x1.7ff04c0000000p-4, 0x1.5581f80000000p-3, -0x1.a260520000000p-4, -0x1.8ad8740000000p-4, 0x1.405c4a0000000p-4, -0x1.850ab60000000p-4, 0x1.1cddc40000000p-5, 0x1.09b1560000000p-3, 0x1.4f78ee0000000p-4, -0x1.8bedc00000000p-7, 0x1.a3d9da0000000p-4, -0x1.6125360000000p-4, 0x1.1da05a0000000p-3, 0x1.d10da20000000p-5, 0x1.dbe7320000000p-6, 0x1.1f30a80000000p-4, 0x1.16f30c0000000p-5, -0x1.aadd580000000p-5, -0x1.617d0c0000000p-5, -0x1.1ceff00000000p-4, -0x1.97bc600000000p-4, 0x1.c2982e0000000p-5, 0x1.f130980000000p-3, -0x1.6550500000000p-7, 0x1.c01c240000000p-5, 0x1.d1746c0000000p-5, 0x1.2a44e20000000p-6, -0x1.08d8b00000000p-3, 0x1.0ad69c0000000p-4, -0x1.f68a160000000p-4, -0x1.78eb600000000p-4, 0x1.e65a3c0000000p-4, 0x1.f2e0440000000p-4, 0x1.767c120000000p-5, -0x1.8ffacc0000000p-5, -0x1.178baa0000000p-3, 0x1.796f1e0000000p-4, -0x1.541e720000000p-4, 0x1.37c4a40000000p-4, -0x1.47139c0000000p-4, -0x1.5c7f3c0000000p-4, -0x1.7369140000000p-4, -0x1.af5e900000000p-4, -0x1.2796160000000p-4, -0x1.ecf6b40000000p-6, 0x1.11bb0a0000000p-3, -0x1.b1e7460000000p-4, 0x1.a9c1c60000000p-3, 0x1.415d820000000p-7, 0x1.d3ce080000000p-5, -0x1.db19920000000p-4, -0x1.74a0aa0000000p-3, 0x1.160c4e0000000p-4, -0x1.6487300000000p-5, 0x1.0939e40000000p-9, -0x1.15dbfa0000000p-3, -0x1.4c2ecc0000000p-6, 0x1.314ce20000000p-4, -0x1.861fc20000000p-4, -0x1.36e5160000000p-8, 0x1.b317f60000000p-4, 0x1.535eaa0000000p-5, -0x1.02153a0000000p-3, 0x1.5054100000000p-4, -0x1.e925380000000p-4, 0x1.fcf44e0000000p-7, -0x1.36a5ec0000000p-4, -0x1.0876620000000p-3, 0x1.e36f880000000p-4, -0x1.30a2180000000p-4, -0x1.1a7c3c0000000p-6, 0x1.497c000000000p-5, 0x1.c811040000000p-6, 0x1.ebffd60000000p-4, 0x1.f57b300000000p-4, 0x1.1a2be20000000p-4, -0x1.ace5920000000p-6, 0x1.7fff060000000p-3, -0x1.38f5240000000p-5, 0x1.0b13da0000000p-3, 0x1.4118f80000000p-4, -0x1.74969c0000000p-4, 0x1.57e7560000000p-5, -0x1.d8331e0000000p-5, -0x1.2107140000000p-6, 0x1.bccbc60000000p-5, 0x1.446b200000000p-4, 0x1.89cae80000000p-3, -0x1.66d5600000000p-5, 0x1.35e3ba0000000p-3, 0x1.2376500000000p-9, 0x1.ad277e0000000p-6, 0x1.0a2d6c0000000p-3, -0x1.4ebbea0000000p-8, 0x1.e125520000000p-4, 0x1.0470340000000p-4, 0x1.c06dfe0000000p-5, 0x1.a4a3500000000p-4, -0x1.984c020000000p-10, -0x1.069d5c0000000p-7, 0x1.6a13560000000p-4, -0x1.a657c80000000p-5, 0x1.f703520000000p-5, -0x1.177bb40000000p-4, 0x1.b8f4e40000000p-4, 0x1.28ce120000000p-5, -0x1.220e8e0000000p-5, -0x1.85af940000000p-13, -0x1.a463f00000000p-4, 0x1.a3795c0000000p-10, 0x1.e07daa0000000p-5, 0x1.2962ea0000000p-8, 0x1.7f34200000000p-4, -0x1.2035e80000000p-5, -0x1.75441c0000000p-9, 0x1.e22c240000000p-4, -0x1.b27f040000000p-4, -0x1.332f220000000p-4, 0x1.6716700000000p-3, -0x1.86e7360000000p-5, -0x1.3f61300000000p-3, -0x1.5a5a6a0000000p-5, 0x1.15d7f20000000p-3, -0x1.a58ca60000000p-6, -0x1.ad67400000000p-4, 0x1.84545e0000000p-4, 0x1.c0e7a00000000p-4, 0x1.81e0e80000000p-5, -0x1.6623540000000p-4, -0x1.39e9080000000p-4, 0x1.4daf040000000p-4, -0x1.517e5a0000000p-6, -0x1.e8204a0000000p-6, 0x1.f7d2ea0000000p-6, 0x1.ea49520000000p-6, 0x1.dcce660000000p-4, 0x1.76666a0000000p-4, 0x1.f0f0aa0000000p-4, -0x1.1936320000000p-7, -0x1.7f1d520000000p-4, 0x1.5947860000000p-5, -0x1.6060fa0000000p-8, 0x1.dd02240000000p-4, -0x1.936af80000000p-5, 0x1.bcee4a0000000p-5, 0x1.a95d180000000p-3, 0x1.9cf46e0000000p-5, 0x1.145b0c0000000p-6, 0x1.3d73de0000000p-5, 0x1.0e7a700000000p-5, 0x1.eb41440000000p-5, 0x1.279af00000000p-9, -0x1.75b4800000000p-4, -0x1.1687c40000000p-4, 0x1.bdca900000000p-5, -0x1.df59fc0000000p-4, 0x1.d00a100000000p-4, 0x1.0a356a0000000p-4, 0x1.8779b80000000p-6, 0x1.2c64b80000000p-3, -0x1.a6ac060000000p-5, -0x1.a486d80000000p-5, -0x1.369db00000000p-3, 0x1.cecc320000000p-4, -0x1.a740400000000p-6, -0x1.54c3160000000p-5, 0x1.4660700000000p-3, 0x1.aeefda0000000p-5, -0x1.060a4a0000000p-6, 0x1.a047640000000p-3, 0x1.296c4e0000000p-4, -0x1.fea78a0000000p-5, 0x1.4231480000000p-3, -0x1.d211640000000p-6, -0x1.7590120000000p-7, -0x1.8894760000000p-5, -0x1.f8bf7a0000000p-5, -0x1.5bcfc80000000p-4, 0x1.00c1ea0000000p-5, -0x1.090b4c0000000p-6, 0x1.9292ae0000000p-4, 0x1.d324640000000p-7, -0x1.b8d0da0000000p-9, -0x1.de36be0000000p-4, -0x1.a798920000000p-8, 0x1.85bb460000000p-4, 0x1.06c8400000000p-3, 0x1.3f37880000000p-4, 0x1.01d3e00000000p-6, -0x1.0ea63c0000000p-5, -0x1.5c83080000000p-4, -0x1.5c41500000000p-8, 0x1.8d54aa0000000p-5, 0x1.c344560000000p-5, -0x1.ffd13e0000000p-4, -0x1.6191320000000p-5, 0x1.b0c2440000000p-4}
